#version: 0.1
Ġ t
Ġ a
h e
i n
r e
Ġt he
o n
ä ¸
ï ¼
e r
Ġ o
a t
Ġ s
ï¼ Į
e n
Ġ c
ã Ģ
Ġ w
e s
i s
n d
i t
o r
Ġ p
a l
ç ļ
çļ Ħ
e d
a n
Ġ b
Ġo f
Ġ f
in g
Ġ in
ä º
a r
o u
Ġ m
Ġa nd
Ġt o
i c
i on
Ġ d
æ ľ
â Ģ
å ı
l e
ãĢ Ĥ
r o
å ħ
a s
ä »
Ġ h
Ġt h
en t
å ¤
c t
ãĢ ģ
Ġ e
å ®
i l
Ġ re
å Ī
o m
v e
Ġ l
s t
è ¿
Ġ n
ä ½
å ľ
ç Ķ
. Ċ
å Ĳ
l y
å Ĭ
Ġb e
Ġ is
æ ĺ
Ġ T
ç »
s e
o l
å Ľ
Ġ g
at ion
æ Ī
i m
æ ĸ
i d
e t
å ¹
u t
c e
o t
u r
c h
r a
o w
ä ¼
Ġ A
æ Ĺ
Ġf or
ä ¹
i g
è ®
Ġ S
ä¸ Ģ
Ġth at
Ġ u
Ġ on
å į
v er
Ġs t
å Ń
è ¯
å °
Ġ C
Ġ I
Ġ y
i r
æĺ ¯
ãĢĤ Ċ
å ·
u l
åľ ¨
å ¸
a y
æ Ŀ
a m
e l
Ġa s
æľ ī
it h
é ĩ
å Į
a d
å º
he r
Ġp ro
Ġa re
Ġc on
äº º
Ġa n
Ġw ith
ä¸ Ń
å ¼
âĢ ľ
âĢ Ŀ
i f
æ ī
Ġw h
Ġy ou
Ġ it
Ġo r
è ¡
Ġa l
é Ģ
t er
å Ĵ
o d
Ġ M
Ġ (
å Ĩ
è Ģ
ç Ľ
ä¸ º
ĠT he
ä¸ į
åĴ Į
å ĩ
æ ķ
æ Ĭ
m ent
Ġ P
å ±
g e
äº Ĩ
å ¯
å ¾
2 0
t h
ä¸ ļ
è ´
æ ł
åĽ ½
o p
å¤ §
å¹ ´
ĥ ½
is t
ç §
at e
er s
Ġd e
è µ
è §
il l
Ġ B
i es
a b
Ġ he
es s
u s
Ġe x
é Ļ
ç İ
âĢ Ļ
o re
Ġw e
e ct
Ġs u
Ġc om
æ °
ç ī
it y
æ Ģ
æ Ķ
es t
a c
re s
i ve
åŃ ¦
çĶ Ł
Ġh a
Ġ H
ä» ¥
u m
l d
ro m
o s
Ġ v
k e
Ġb y
e m
an t
i v
ç º
q u
Ġ W
åı ĳ
a in
n t
p p
Ġa t
å İ
å ¥
å ½
å ¿
Ġ D
ig h
è ĩ
ç Ń
Ġw as
ä¸ Ĭ
u d
Ġ E
ä ¿
æ Ń
Ġc an
ä¼ ļ
çĶ ¨
Ġf rom
ç Ĳ
a nd
o c
Ġ R
æ ³
Ġc h
é Ĺ
Ġ r
å· ¥
or t
å ĳ
æ µ
Ġn e
é Ŀ
Ġ F
æ İ
¦ ģ
è ĥ½
ä¸ ª
Ġs e
ä½ ľ
i al
æĹ ¶
è¡ Į
è ¦ģ
æĪ Ĳ
u re
Ġn ot
u n
ar t
Ġ G
Ġ N
å ĵ
ic al
Ġ le
æ ŀ
Ġha ve
å Ł
r i
äº İ
Ġ L
åħ ¬
é ¢
o g
æ ¯
è¿ Ļ
æ ²
Ġs h
è ¾
æĪ ĳ
åĪ °
Ġ en
å¯ ¹
åľ °
å® ¶
è ½
Ġth is
æĿ ¥
Ġs p
æ ĭ
äº §
åĩ º
åı ¯
igh t
p t
Ġa b
r ou
ic h
æ ±
å ī
re d
Ġw or
al l
æ Į
é ĺ
çĲ Ĩ
t her
g h
T he
ou ld
é «
ion s
ou r
o st
om e
ç ľ
é« ĺ
âĢĻ s
çŃ ī
1 9
ç «
å¤ ļ
æĸ °
Ġ im
d u
æ ¸
at ed
åĪ Ĩ
in e
æ ĥ
Ġu s
ar d
p er
ç ®
ä ¾
å¸ Ĥ
ou t
a g
æĸ ¹
Ġp l
åħ ¨
ç» ı
åĬ ¨
è¿ Ľ
ä» ¬
ç ½
Ġthe ir
el l
id e
f f
è Ĥ
a ct
åĮ ĸ
ä¸ İ
Ġ O
an s
Ġin t
æ ´
p l
as t
æ Ħ
e ar
0 0
æĹ ¥
20 1
é ķ
å »
a ge
u st
èĩ ª
é ĥ
a k
è¿ ĩ
çİ °
Ġ J
ä½ ĵ
åĲ Ī
Ġwh ich
æ ¬
Ġ k
ç ¨
åĬ Ľ
e c
Ġw he
ou s
Ġyou r
Ġthe y
æľ º
åĵ ģ
Ġ U
i z
ä¸ ĭ
åĲ Į
å® ŀ
i b
o od
é ¡
Ġal l
æľ Ī
ul t
å± ķ
Ġa d
åĲ İ
ĠI n
æ ı
å¼ Ģ
Ġcon t
Ġw ill
ä¹ Ł
Ġin c
en d
i a
c c
ï¼ ļ
r u
Ġd is
a p
Ġm ore
on g
è® ¾
éĥ ¨
ä» ĸ
i p
Ġcom p
å» º
é ģ
e w
Ġre s
ation s
ve l
Ġh as
è ģ
æľ ¬
éĿ ¢
e re
æ Ľ
åı Ĭ
å® ļ
ï¼ ī
å ¦
æĢ §
ï¼ Ī
s o
å ¢
çĶ µ
or m
Ġd o
ä¸ »
åĬ ¡
æ³ ķ
åħ ¶
ar y
at er
ä¹ ĭ
é Ľ
å ģ
å° ±
ç ¤
ĠT h
éķ ¿
ç ¬
åĬ ł
en ce
a re
é £
il d
è ī
ab le
Ġo ther
Ġm an
Ġc l
u al
éĩ į
ç Ĥ
k s
åº ¦
èµ Ħ
è ·
åħ ³
Ġb ut
èĢ ħ
è ¶
æ Ļ
æ į
å¿ ĥ
Ġwe re
Ġ âĢľ
r y
èĢ Į
éĢ ļ
åĮ º
in d
æı Ĳ
åľ º
å¾ Ĺ
ç Ł
åı ¸
åī į
ç Ļ
e p
an ce
Ġp er
a ch
Ġon e
æ° ´
Ġm e
Ġal so
Ġt e
Ġim p
ent s
åĪ ¶
' s
ç ¾
å° Ĩ
éĩ ı
o se
åĨ ħ
ç ł
re at
å Ŀ
æī Ģ
as s
ig n
a ke
res s
è °
çĽ ®
as e
a u
åŃ Ĳ
ç® ¡
a v
çī ©
å¥ ½
åº Ķ
æ ¶
it ion
æĬ Ģ
ç ©
Ġ âĢ
Ġs o
æĸ ĩ
æķ Ļ
Ġ j
åħ¬ åı¸
ic e
ç ³
ct ion
Ġo ut
æľ Ģ
b er
Ġu n
on e
äº ĭ
Ġa r
ver y
Ġp art
im e
ç¨ ĭ
ä½ į
Ġa pp
æľ ¯
å¦ Ĥ
ä¿ Ŀ
o k
or d
è® ¡
Ġab out
a ce
è Ĭ
éĹ ´
Ġe v
en s
ĠS t
å° ı
1 0
is h
Ġwh o
Ġst ud
è Ĳ
or y
i re
é ļ
ou nt
am e
ç ĸ
ac k
é ĥ½
åĳ ĺ
20 0
ï¼ Ľ
ç Ŀ
å §
å Ģ
æľ Ł
æ¯ Ķ
Ġp e
u b
Ġh is
Ġin f
åħ ¥
é ħ
ç¬ ¬
çĽ ¸
Ġ K
Ġcom m
Ġs y
å¤ ĸ
Ġthe m
or s
å¤ ©
Ġs c
u e
å¹ ¶
an g
it e
ç§ ĳ
c es
æ Ł
ç³ »
ç ķ
i ke
ç§ į
Ġ "
ou nd
æķ °
ç ±
re e
åĲ į
ol og
ãĢ ĭ
n ow
éĩ ĳ
l ow
ãĢ Ĭ
è¡ ¨
ĠI t
Ġbe c
Ġu p
çĤ ¹
ä¿ ¡
æĥ ħ
Ġp re
i e
åĽ ł
Ġth an
æĽ ´
ç Ĺ
ç½ ĳ
é Ķ
r ic
ĠC h
i le
Ġm ay
é ľ
ä¼ ģ
æ ģ
ä¸ ī
å¹ ³
Ġ qu
å½ ĵ
å® ī
if f
åħ ĥ
Ġs ome
ä» İ
ä¸Ń åĽ½
i an
op le
ç Ħ
ç ĥ
åıĳ å±ķ
Ġy ear
ay s
ç ¡
Ġre c
a il
ä¸ ĵ
nd er
at es
ing s
Ġthe re
åĪ ©
æĪĳ ä»¬
å·¥ ä½ľ
ç¾ İ
Ġbe en
Ġwhe n
æ° ĳ
è¯ ´
è´ ¨
m er
ou gh
æ´ »
æ¬ ¡
åŁ º
p h
Ġit s
é¡ ¹
ä¼ģ ä¸ļ
Ġa g
Ġint o
è¿ ĺ
Ġg o
re n
æĶ ¿
éģ ĵ
ver s
Ġ V
è½ ¦
æŃ ¤
Ġt ime
æĦ ı
çī ¹
å¼ ı
Ġt ra
é ĵ
æĺ İ
Ġwor k
ç ´
r it
er v
t e
è ĭ
ä½ ¿
Ġthe se
éĻ ¢
on s
ĠTh is
å ķ
Ġo ver
æľ į
ä» £
al ly
Ġpe ople
rou gh
æį ®
æĪ ĸ
Ġh ow
l ud
Ġd iff
ç ²
è§ Ħ
åĲ Ħ
é ¦
on d
Ġt r
au se
Ġh ad
ter n
m s
Ġcon s
o ve
l l
æĹ ł
Ġ ro
Ġc ol
çĿ Ģ
ä¸Ģ ä¸ª
Ġu se
w e
çł Ķ
è Ī
Ġo ur
Ġ ra
çĦ ¶
ç ¥
æł ĩ
if ic
Ġa ct
å¸ ¸
æ ·
èµ ·
in t
ä½ Ĩ
Ġbe t
æ ¡
Ġm ost
Ġu nder
l ic
o ok
å¢ ŀ
1 8
it ies
Ġk now
y s
ir st
ment s
le ct
æ º
Ġl ike
å £
al th
Ġs a
Ġw ould
å¾ Ī
Ġb l
è į
ä¸ ĩ
å ŀ
Ġd es
n ing
j ect
Ġa cc
åĪ Ľ
i ous
Ġ Y
l es
ro w
æŀ ľ
vel op
é Ĥ
) .
æŃ £
æĬ ¥
st em
é£ İ
å¼ º
éĩ Į
çĶ ±
è ¢
åķ Ĩ
Ġt w
Ġne w
Ġre l
Ġne ed
æĬĢ æľ¯
æĮ ģ
éĢ ł
Ġsu ch
é Ĵ
ç ¼
è ĥ
ä» ¶
ç» Ł
æ Ĥ
Ġ if
o b
Ġre p
ation al
åı¯ ä»¥
ff ect
i ent
å¤ Ħ
å· ²
Ġch ild
Ġinc lud
çº §
è¿ Ĳ
Ġan y
æł ¡
Ġhe l
at ive
åħ ·
æµ ·
äº ¤
è§ £
Ġg en
he d
p le
c ess
èĩ ³
ç» Ħ
è· ¯
Ġwh at
äº Ľ
éĽ Ĩ
æ± Ĥ
ul ar
ç» ĵ
Ġon ly
o v
Ġhel p
Ġp r
äº Į
æĶ ¶
Ġus ed
c ed
y p
Ġpro v
at ing
Ġp h
ç ģ
åį ķ
ç« ĭ
) ,
è ¥
o ol
éľ Ģ
ä» »
æµ ģ
Ġn o
Ġpro du
èĤ ²
æľį åĬ¡
Ġin d
Ġman y
å¯ ¼
è¥ ¿
ĠU n
æĢ »
Ġth rough
æī ĭ
Ġde velop
Ġof f
Ġa m
éĹ ¨
é¢ ĺ
Ġf irst
æ° Ķ
çº ¿
æİ ¥
âĢ Ķ
é ª
è¢ «
èģ Ķ
çľ ĭ
ar k
os s
ä¼ ł
ic s
ç Ī
Ġf e
ï¼Į åľ¨
f ter
ç¤ º
n e
Ġsp ec
åŁ İ
is e
i et
u c
at h
è¾ ¾
åĲ ĳ
rou nd
åŀ ĭ
Ġp o
å¸ Ī
Ġre g
å½ ±
Ġe m
çľ ģ
Ġa c
1 2
çĲ ĥ
æ¸ ¸
er m
åı Ĺ
æł ¼
åĮ »
ä¾ Ľ
Ġex p
t s
çİ ¯
ri b
ur ing
è £
æ »
å¹ ¿
åį Ĺ
he n
f ul
åİ Ł
in k
Ġtw o
ä¸ ľ
ç®¡ çĲĨ
å¤ ĩ
è İ
Ġsy stem
ol d
åį ģ
ç¤ ¾
æº Ĳ
è º
ot h
is s
çĹ ħ
et h
Ġdiff ere
ä½ ł
i ed
è Į
il ity
çŁ ¥
è¿Ľ è¡Į
å ĸ
ib le
Ġ -
Ġo b
Ġde c
Ġas s
åİ »
èī ²
al s
èĲ ¥
Ġat t
æĦ Ł
é ©
Ġad d
ro p
as ed
t en
Ġs ur
æĸ Ļ
äº§ åĵģ
if e
èº «
ĠâĢ ĵ
æķ Ī
åħ ±
åı °
åĮ Ĺ
ä¸ ¤
1 5
I n
a w
an ge
ĠH e
n g
er t
ä» ·
ç ¦
åģ ļ
æł ·
ä¸ ĸ
å± ±
ra m
åĽ ¢
ow er
Ġsh ould
ä¼ ĺ
f ore
èµ Ľ
æ² »
ar ch
u res
Ġsu pp
Ġf l
è Ħ
Ġw ell
ç± »
b le
éĹ ®
we en
åħ Ī
è¯ ģ
Ġw ater
Ġre m
æĬ ķ
åı ĺ
Ġyear s
ra ct
se l
Ġc o
Ġin v
é¢ Ĩ
å Ļ
Ġsu b
ow n
? Ċ
æİ ¨
æ £
g an
ad e
å ²
èĢ ĥ
åĽ½ å®¶
: Ċ
æ² ¡
ut ion
ï¼Į è¿Ļ
èĬ Ĥ
Ġs m
æĸ ½
å½ ¢
åĩ Ĩ
it s
Ġc ould
Ġbet ween
è° ĥ
he s
Ġhe alth
è® ¤
Ġp res
è® ©
ä¹ ¦
Ġwhe re
c y
æĥ ³
ic k
åĬ ŀ
Ġh igh
å· ±
æĪ ·
ç© ¶
Ġtr ans
æĶ ¹
å¸ ĥ
æģ ¯
w n
éĺ Ł
ï¼Į ä½Ĩ
ï¼Į å¹¶
å° ĳ
åĻ ¨
Ġm ake
å® Į
æ¯ ı
å Ķ
il y
e ver
u ch
s s
æ ®
éĻ ħ
x t
éĢ ī
ä¹ Ī
çķ Į
Ġg et
æ ¼
è´ ¹
Ġ her
ant s
Ġp ers
olog y
åĪ «
Ġe ar
f orm
id ent
çĻ ½
Ġre se
èĩª å·±
åı £
ch n
Ġimp ort
Ġb u
ur al
æĿ ¡
å¸Ĥ åľº
i ence
it ed
åı ĸ
i vers
Ġin ter
1 1
3 0
ch ool
è¾ ĥ
Ġp ol
ç² ¾
mer ic
å¸ ¦
æŀ Ħ
åı Ĥ
çĽ ´
l and
Ġfor m
t ing
åı ª
è¯ ¥
æĶ ¯
Ġdis c
è® °
Ġn um
é¡¹ çĽ®
Ġm od
æĮ ĩ
æĶ ¾
Ġin st
å® ¢
ä» Ĭ
on t
in es
åĽ Ľ
é »
Ġex am
çĥ Ń
Ġf ound
ic t
ç© º
æ³ ¨
ist s
åį İ
åħ ī
e f
âĢĻ t
æ ¨
in s
çłĶ ç©¶
æķ ´
ï¼Į ä¸į
è¿ ĳ
éĻ Ĳ
Ġbec ause
Ġle ar
Ġm ed
è§ Ĩ
éĺ ²
g y
h at
at a
Ġl ar
ual ly
ç ħ
åĮ ħ
è§ Ĥ
å»º è®¾
Ġa fter
Ġwor ld
o y
Ġs im
Ġthe n
ur n
) Ċ
Ġinf orm
is m
Ġdiffere nt
Ġev en
Ġl ong
n ess
Ġc ent
f t
Ġ very
Ġj ust
å¢ ĥ
æ· ±
Ġc ar
Ġex per
Ġinc re
éĤ £
Ġe ffect
éĿ ŀ
å± Ģ
æ¶ Ī
Ġw ay
âĢĿ Ċ
æŃ ¥
Ġh um
ot her
Ġd et
at ure
ç¡ ®
è£ ħ
ce pt
g et
Ġc ount
è Ļ
Ġ ed
éª Į
Ġt yp
Ġse e
ak ing
ĠA meric
æµ İ
v ent
èĢ ģ
ç» Ń
ical ly
Ġre f
å¤ į
Ġth ose
æķĻ èĤ²
åĽ ŀ
Ġres p
æ ¢
ol low
è¯ ķ
iv es
Ġ ke
ä¹ Ĳ
ç» Ļ
å® ¹
æĪ ĺ
Ġs ign
äº ¿
ç Ĭ
å§ Ķ
éĢļ è¿ĩ
æī į
Ġv ar
1 6
åĬ Ł
Ġpro g
Ġc all
ç« Ļ
Ġgen er
Ġp ub
c er
èģ Į
æ ¹
åĨ ³
i ew
19 9
æĸ ¯
Ġchild ren
æī ĵ
å· ŀ
Ġe very
æĹ¶ éĹ´
çĶŁ äº§
ä½ İ
éĢ Ł
çİ ĩ
Ġsa id
æ²¡ æľī
ä½¿ çĶ¨
. .
om m
ar m
Ġs oc
p s
u es
Ġex t
1 7
åĳ Ĭ
æıĲ ä¾Ľ
å® ĥ
æĬ ¤
or k
åĬ ©
c k
è½ ¬
Ġp at
é Ł
d s
åı ·
Ġpro cess
ï¼Į ä»¥
Ġbe ing
Ġres ult
Ġf act
Ġse c
Ġl oc
as es
æĿ ĥ
Ġe ach
t le
l ed
Ġpart ic
èİ ·
ir on
Ġc a
T h
çĸ Ĺ
ç§ ¯
Ġl ife
Ġs et
æ¨ ¡
æĺ ĵ
ru ct
ĠA l
é ¥
Ġimport ant
æĿ Ĳ
ï¼Į èĢĮ
ï¼ Ł
ĠP ro
é£ Ł
Ġg ra
å·¥ ç¨ĭ
åį ĩ
è ±
Ġcomm un
Ġte chn
ag es
çº ¦
od y
ç§ °
ver n
å¿ «
ĠW e
5 0
ç¥ ŀ
at her
Ġd ist
è¶ ħ
æľ ª
Ġinform ation
Ġre qu
c ent
Ġm uch
Ġs he
Ġm y
i o
è® ®
é¦ ĸ
ç»ı æµİ
v ed
Ġc re
Ġde p
ä¸ĵ ä¸ļ
Ġm on
Ġf am
å¼ ķ
è´ £
ï¼Į ä¹Ł
æŁ ¥
åĪ Ĵ
Ġde f
Ġar t
w ard
iz ed
Ġf ollow
Ġo wn
Ġd uring
im es
çľ Ł
Ġ ent
Ġre ad
ic es
Ġr ight
Ġf ood
ç¤¾ ä¼ļ
ä»ĸ ä»¬
Ġle vel
å¤ ´
g g
Ġstud ents
Ġs ame
1 4
ĠA s
æİ §
ĠThe y
Ġle ad
éĹ® é¢ĺ
æł ¹
åĨ ľ
éĩ ĩ
ĠR e
h ip
è¯ ·
æ¡ Ī
è¡Į ä¸ļ
æĢ ģ
åŁ Ł
æ¸ ħ
èī º
ect ion
è§ ģ
åŃ¦ çĶŁ
Ġm ade
ï¼Į æĺ¯
Ġs k
äº Ķ
Ġdo es
ç´ ł
Ġa ut
è®¾ è®¡
è¶ Ĭ
é¢ Ħ
an y
åĢ ¼
ä¸» è¦ģ
è® º
å¾ ·
Ġstud y
Ġpers on
iz e
t he
è¯ Ĩ
Ġf ind
åĵ į
æĺ ¾
Ġin s
åİ Ĩ
Ġd ata
Ġg row
Ġst r
Ġm in
åĳ ¨
Ġc ur
ĠI f
u nd
Ġen d
ç ı
æŀ ģ
Ġpro ble
c on
Ġa v
ç³» ç»Ł
èĤ ¡
t ed
. ,
å§ ĭ
ĠA n
å£ «
Ġg ood
20 2
Ġc he
ç± ³
al e
Ġb oth
Ġp op
èĮ ĥ
çĪ ±
ĠF or
Ġb ack
æİ Ĵ
èĬ ±
ĠA r
åĨ į
âĢĿ ï¼Į
ä¿¡ æģ¯
åħ »
ivers ity
æĹ ħ
v iron
Ġg rou
ar s
ä¹ ł
æ± Ł
åĨ µ
Ġex pl
å®ī åħ¨
Ġbe fore
æĪ ¿
Ġs chool
Ġsm all
ä¾ ĭ
äº ¬
Ġsh ow
st and
æ¸ ©
Ġcomp le
Ġus ing
al ity
ä¼ Ĺ
om en
åĽ Ń
éĶ Ģ
| |
Ġh ist
1 3
éľĢ è¦ģ
in ce
æĻ ¯
iv id
Ġg l
Ġd i
ial ly
r on
Ġpro t
re ad
æĸ Ń
Ġc or
Ġag ain
è ŀ
åį ı
çĶŁ æ´»
åĪ Ļ
äº§ ä¸ļ
èĩ ´
a x
æµ ĭ
t y
in ed
n ce
i el
Ġb o
Ġm ain
æ´» åĬ¨
Ġt reat
Ġof ten
è¯ Ħ
ĠH ow
è ĳ
ro l
in al
åŃ ĺ
d er
i x
çī ĩ
å ¡
æĸĩ åĮĸ
Ġt est
è¶ ³
ç» ´
oc k
ä¸ĸ çķĮ
éħ į
åĲĮ æĹ¶
ä½ ķ
å°± æĺ¯
Ġs ol
åĽ½ éĻħ
o h
Ġp oss
ut e
er gy
æ Ĵ
Ġv al
Ġwh ile
is hed
im ate
Ġl ess
åĪ Ĺ
e x
å¥ ³
Ġst ate
ĠS p
åģ ¥
Ġl it
å° Ķ
æĸ¹ éĿ¢
ĠI nd
1 00
ĠN ew
æ£ Ģ
ä¸ Ķ
Ġs erv
Ġr is
äºº åĳĺ
Ġdis e
åº ľ
Ġd ay
Ġt ake
r an
Ġn ow
ç ĭ
ak es
éļ ¾
æĬ Ĭ
i en
æĿ ĳ
æĪĲ ä¸º
Ġh im
çĽ¸ åħ³
r al
ire ct
Ġnum ber
éĻ į
Ġo cc
i er
çħ §
ur y
åİ ¿
éĻ ¤
é© ¬
éħ Ĵ
Ġor gan
æ¼ Ķ
ç ª
viron ment
ul ation
äº ļ
Ġm em
d ition
Ġc ell
Ġprov id
æ ĳ
Ġp ower
Ġrese arch
ï¼ ģ
ä¸Ń å¿ĥ
ï¼Į åħ¶
ĠS c
Ġv is
ç» ĩ
çİ¯ å¢ĥ
å¿ ħ
Ġhum an
Ġact iv
æĻ º
e red
iet y
åħ ļ
u p
) .Ċ
Ġf un
çĽ ĳ
Ġdes ign
iv ing
i qu
ï¼Į ä¸Ģ
Ġch ar
Ġsupp ort
åŃ Ĺ
çī Į
Ġb ody
a ir
å¤§ åŃ¦
éĩį è¦ģ
Ġm ust
åı į
å½± åĵį
Ġbe l
åĬ ¿
us s
ä» ½
åº Ĺ
Ġa round
a h
Ġd own
v es
èį ¯
Ġth ree
it al
ter s
00 0
åı Ī
her s
ï¼Į ä¸º
è ı
c om
Ġha nd
Ġ est
g er
åİ ĭ
Ġl ook
éļ ı
v en
Ġcl ass
Ġcomm on
Ġre du
c l
è ħ
ï¼Į æľī
d ay
ï¼Į æĪĳ
è¦ģ æ±Ĥ
Ġpl an
Ġgo vern
åº ·
Ġcon f
é ¾
Ġst art
å± ŀ
_ _
Ġd id
re nt
èŀ į
a j
æ» ¡
åħ ĭ
Ġg reat
Ġpo int
ç¦ »
Ġe lect
âĢĿ çļĦ
i um
a ve
ĠB ut
åħ· æľī
æ² ¹
æ ļ
æ® µ
ain s
sel f
åĿ ĩ
å¹ ²
åį ³
Ġc le
å¼ ł
Ġl and
æĬķ èµĦ
ro ss
è¯ Ŀ
ou se
åĩ ł
Th is
Ġs er
Ġlar ge
v ing
Ġcont in
g en
ä¾ Ŀ
æ ħ
ç® Ĺ
e e
çĬ ¶
çŁ ³
éĢ Ĥ
- b
Ġexam ple
ç½ ®
åŁ ¹
å·² ç»ı
Ġc are
æĢ Ŀ
æĶ¿ åºľ
r ing
2 5
è´ Ł
æī ¿
Ġrep ort
ä» ħ
å® ¤
ä¹ ī
æł ¸
a red
ç¬¬ ä¸Ģ
å Ħ
as h
- s
it ions
Ġth ough
æķ° æį®
åĽ ¾
è¿ ŀ
æŀ Ĺ
è® ¸
Ġinclud ing
ion al
act er
è®¾ å¤ĩ
ra in
Ġc our
åŃ¦ æł¡
, âĢĿ
Ġre t
Ġcon st
Ġo p
å¥ ¹
ĠY ou
n er
å ĭ
ä¾ ¿
çļĦ ä¸Ģ
å¥ ĸ
èĥ½ åĬĽ
ul l
éŁ ³
e g
Ġunder stand
æĥħ åĨµ
Ġall ow
çļĦ äºº
çĽ® åīį
å¦Ĥ æŀľ
æĺ Ł
or n
çĽ Ĭ
åı¯ èĥ½
èĭ ±
åĽł ä¸º
åĶ ®
çĻ ¾
Ġcall ed
Ġs om
æĤ £
å¢ŀ éķ¿
ĠThe re
Ġm et
éĺ ³
è¯ Ń
Ġe qu
w ay
ä½ľ ä¸º
Ġpub lic
éĿ Ĵ
æ¬ ¾
Ġbu ild
Ġst ill
i ver
Ġed uc
èĲ ½
Ġw rit
çİ ĭ
Ġad v
ãĢĤ åľ¨
âĢ ĵ
ĠA nd
el s
åŁİ å¸Ĥ
åĳ ½
æľ Ľ
iv en
es p
ou th
å¤ ª
æ Ĳ
æĮ ī
åĦ ¿
ater ial
åįķ ä½į
ç» Ĩ
Ġp ract
ç»Ħ ç»ĩ
Ġbe h
ivid ual
ç Į
ï¼Į å¯¹
ç ¢
ä½ ı
Ġknow n
Ġth ink
åĨ Ľ
å ¨
åĪĽ æĸ°
è± ¡
ç§ĳ æĬĢ
. "
å± Ĥ
Ġqu est
in c
om s
i red
åŃ £
ä¸ ¥
è´¨ éĩı
ä¸ ¾
éĽĨ åĽ¢
Ġg u
re en
ere st
Ġd r
ä¿ ®
oc i
çŃ ĳ
ä» Ģ
os ed
Ġ ide
Ġf ew
ect ed
Ġapp ro
ĠâĢ ĺ
Ġpl ace
çŃ ĸ
æĭ ī
Ġe as
con om
ent ial
l ish
æľī éĻĲ
å ĥ
2 4
åĽ ´
it ive
æĿ ¿
Ġst and
å¤§ çļĦ
i od
d e
Ġm at
äº Ĵ
in ation
ĠI s
åĲĪ ä½ľ
Ġm ight
m e
r ies
æ² ³
éĻ ©
our ces
åħ ħ
ou n
b ers
id s
èµ °
en se
ra ph
er al
iz ation
åĩ ı
åľ Ł
as on
ĠW h
t t
i or
å¥½ çļĦ
Ġen vironment
er ing
iv ed
ĠThe se
Ġch ang
åħ¨ åĽ½
Ġde m
Ġwith out
å¾ Ģ
ĠE ng
Ġw ant
Ġwith in
ĠUn iversity
ç» Ī
ert ain
å¤Ħ çĲĨ
r ation
Ġca us
Ġis s
Ġind ividual
en g
Ġen ergy
Ġsy m
ord ing
è¡¨ ç¤º
æłĩ åĩĨ
åı ²
äºº æ°ĳ
å¿ µ
Ġpres ent
l ine
eth od
æł¹ æį®
ĠD e
åĸ Ħ
Ġt em
å®ŀ çİ°
åĪ ĩ
pt ion
m an
ä»Ģ ä¹Ī
Ġph ys
Ġch ange
Ġprodu ct
åĢ Ļ
Ġp ur
Ġpl ay
å¤ Ł
å¤ ±
Ġc ap
å¾ ®
ä¸Ń çļĦ
Ġd on
ff ic
ill ion
Ġ ident
Ġlear n
i ans
Ġm aterial
è ¨
Ġdevelop ment
al k
æĭ ¬
çº ¢
è¨ Ģ
å»º çŃĳ
ĠC on
l ess
è´ ¢
Ġd irect
Ġim m
ä¸į åĲĮ
ĠAmeric an
Ġsoc ial
ä»¥ åıĬ
Ġ &
Ġl aw
Ġp ot
æ± ½
å¯ Į
ang u
Ġw omen
or th
Ġp ass
Ġdise ase
Ġimp ro
ï¼Į æĪĳä»¬
ä»¥ ä¸Ĭ
Ġb en
Ġpro ject
åºĶ çĶ¨
Ġpro f
t on
Ġan other
et s
Ġp os
are nt
Ġare a
in ess
Ġb re
Ġa ir
è¿Ļ ä¸ª
æī ¹
äº ī
u g
èĪ ª
ab ility
4 0
å¼Ģ å§ĭ
éĵ ģ
çĸ «
Ġs it
åŃ¦ ä¹ł
å® ¡
çļ ®
å½ ķ
Ġ ve
æĻ ®
r is
èī ¯
åı Į
olog ical
ag n
è´ Ń
çĶ »
èµĦ æºĲ
b s
Ġs l
i k
åĥ ı
è¯ ¾
Ġm us
çģ «
åı ¤
r ist
at s
åĮħ æĭ¬
Ġbel ie
åĿ ļ
éĥ¨ åĪĨ
âĢ ¦
Ġh ome
åĪ Ŀ
Ġinclud e
çı Ń
äº¿ åħĥ
åħ į
19 8
Ġl ight
Ġris k
aj or
Ġb as
Ġint erest
Ġan t
a z
cc ess
Ġc ult
Ġre st
if ied
I t
å¾ ĭ
Ġdes c
åħ¶ ä»ĸ
ent al
ĠP h
ro du
éĥ¨ éĹ¨
ain ed
Ġb est
er c
' t
æĺ¯ ä¸Ģ
if y
Ġen g
at ic
åį ļ
Ġe t
Ġme as
Ġcont rol
åı ĭ
iel d
å± ħ
å£ °
æıĲ é«ĺ
Ġbl ood
æĸ¹ å¼ı
Ġm ark
- -
åİ Ĥ
åĲ «
è¿ ľ
ç¾İ åĽ½
äºº çļĦ
Ġprog ram
æ ¥
Ġo pp
æĹħ æ¸¸
ç§ĳ åŃ¦
åį «
ent ly
Ġbec ome
w ays
at ural
c ing
is ion
ĠA d
Ġo ld
Ġgovern ment
åį ł
ar c
Ġse ver
å¿ Ĺ
6 0
ĠS h
- f
Ġle g
åį Ĭ
- c
Ġp ain
éĵ ¶
Ġm ethod
Ġe conom
Ġan al
ç» ľ
æĿĲ æĸĻ
Ġl ow
Ġp ar
Ġm il
l ished
Ġagain st
er n
Ġm ove
çī Ī
Â ·
Ġbet ter
Ġear ly
t o
é¾ Ļ
ï¼Į ä»ĸ
æľīéĻĲ åħ¬åı¸
å¾Ī å¤ļ
å¯ Ĩ
ĠHow ever
g in
Ġe le
ç® Ģ
Ġan im
our ce
he re
Ġpro per
h or
æķ ħ
Ġhe re
æ²» çĸĹ
e ad
åľ° åĮº
in ing
ill s
Ġor der
åį °
ç¾ ¤
ãĢĤ âĢĿ
Ġw ar
ãĢĤ è¿Ļ
å¼Ģ åıĳ
Ġto o
Ġf ore
Ġre al
an k
Ġl ast
ï¼Į ä»İ
Ġke ep
Ġprov ide
ĠR es
Ġme ans
Ġsec ond
æĪ ı
ic le
å ł
u se
iss ion
åħ ´
2 2
Ġgrou p
ard s
ç¦ ı
éĴ ¢
æīĢ ä»¥
ra p
id er
ent ion
è¾ ĵ
Ġfam ily
ot e
e ed
am p
ĠâĢ Ķ
çĶ ³
é» Ħ
è¾ ¹
Ġc ause
Ġo per
Ġhist ory
or ies
æĭ Ľ
. âĢĿĊ
w are
ï¼Į è¿ĺ
Ġde v
in a
åŁº ç¡
Ġm ajor
ĠC l
Ġs ay
Ġav ail
éĿŀ å¸¸
è§Ħ å®ļ
å·¥ ä¸ļ
Ġt re
åŁºç¡ Ģ
Ġpartic ular
Ġt er
Ġposs ible
çº ª
é¢ Ŀ
Ġocc ur
Ġu nt
pl es
ĠUn ited
ĠE x
Ġper cent
è§ ī
. S
è® Ń
Ġcur rent
å¹³ åı°
Ġf in
åŃ ©
Ġto p
| Ċ
è¡ Ģ
å· ´
æĭ ©
ä½ Ļ
è§ Ĵ
åģ¥ åº·
äº ĳ
Ġsever al
ĠC ol
Ġ Z
og raph
Ġne ar
i ents
Ġadd ition
ir c
ĠP l
Ġme an
ĠW hen
Ġ [
Ġsa f
åĮĹ äº¬
p ect
Ġin du
Ġinv ol
2 3
Ġor ig
o id
è¿ĩ ç¨ĭ
2 1
re t
ä¸ļ åĬ¡
l u
åĪ° äºĨ
v iew
Ġab le
æŁ ĵ
Ġlear ning
om p
åĩº çİ°
og n
Ġper form
id ence
Ġh ig
æĹ ©
Ġben ef
ç½ĳ ç»ľ
Ġth ings
è½ »
Ġper iod
æĭ ħ
Ġs ince
Ġb us
çļĦ æĺ¯
èİ· å¾Ĺ
Ġha pp
Ġspec ies
Ġl angu
s c
Ġm ar
æ¹ ĸ
Ġop en
Ġpro m
é¢Ĩ åŁŁ
Ġe l
ï¼ļ âĢľ
Ġc al
Ġm en
Ġare as
åī ¯
æī §
ĠC an
ç½ Ĺ
Ġsc ient
Ġn on
- p
at or
åĽ½ åĨħ
é¡ »
th ough
am es
ĠG od
åº ķ
w w
æ ¿
Ġfe el
Ġam ong
åŃ¦ éĻ¢
ä» ĭ
å¹´ çļĦ
W hat
è® ²
Ġother s
. âĢĿ
å® ³
èģ ļ
éķ ĩ
Ġa ffect
Ġn ame
Ġl im
p ort
æŃ ¢
åī §
Ġtreat ment
Ġs ays
, "
o le
o f
il ar
åĽł æŃ¤
Ġ Q
ç ĵ
åº §
2 8
è¯ »
Ġf re
æ±½ è½¦
os p
ĠC omm
ï¼Ľ Ċ
Ġsign ific
ĠS e
æľº æŀĦ
Ġb ased
ĠT o
ç¼ ĸ
éĢī æĭ©
Ġcount ry
ĠSt ates
u rop
èĥ½ å¤Ł
èĩªå·± çļĦ
åĲ ¸
Ġfollow ing
çĭ ¬
æĤ£ èĢħ
æ¸ ¯
ĠA t
ç« ŀ
å® £
å®Į æĪĲ
å¤§ å®¶
% ï¼Į
Ġavail able
end s
s y
Ġc ost
Ġt imes
Ġc ertain
l ing
åħ¨ çĲĥ
r id
Ġacc ess
æ± ¡
end ed
Ġf our
Ġpl ant
åĵģ çīĮ
ä½ľ çĶ¨
Ġhe ad
æĴ Ń
ç» ¼
pl oy
Ġf ac
el f
Ġpre vent
Ġd el
p ar
è¡ ¥
ä¸ ´
é¦ Ļ
e k
ç» §
Ġob ject
Ġc ase
å¸ Į
oc us
ab ly
un e
Ġcon d
W e
é ²
ur ther
ot s
å° ½
æ¬ ¢
Ġa ge
æ¿ Ģ
Ġcon n
Ġr un
Ġl o
ĠE n
Ġp ost
Ġst ruct
is ed
Ġv iew
åį ´
ĠCh rist
st it
Ġf ree
æ ĵ
Ġloc al
op e
Ġcom e
çķ ¥
äºĨ è§£
- d
çł ´
æĹ¶ åĢĻ
! Ċ
Ġcell s
ĠC ent
Ġb ro
çľ ¼
Ġsu ccess
Ġl ab
çİ° åľ¨
æĭ ¥
åı ¦
åĨħ å®¹
åıĳ çĶŁ
ress ion
Ġtyp e
Ġv ol
èīº æľ¯
ç¨ ³
Ġre ce
éĢ ģ
Ġl ist
Ġp ress
Ġmon th
æ ½
çª ģ
eth ing
è®¡ åĪĴ
e an
æĿ İ
Ġlit tle
Ġproble m
Ġb i
ç»ı èĲ¥
2 7
h y
ï¼Į âĢľ
åħ Ń
o int
Ġin tern
ol ution
Ġc reat
ç Ĩ
Ġyou ng
2 6
gg est
Ġp ut
Ġlevel s
å® Ŀ
ç¨ İ
åĨ Ļ
res ent
ic ult
å¼Ģ å±ķ
Ġb ir
åĸ ľ
çĶ± äºİ
Ġproble ms
Ġn atural
ĠN ational
w ork
åį ĥ
st r
Ġf ar
çķ Ļ
Ġl ater
å Ĥ
a per
çº ³
ĠT e
åĳ ³
åıĳ çİ°
ä¸Ģ äºĽ
åī Ĥ
Ġle t
Ġass oci
on es
Ġh ard
Ġunt il
I f
ç« ¯
æ¬ §
an ces
æ¶Ī è´¹
äº ²
p or
å® ĺ
ç¬¬ äºĮ
æĸ¹ æ³ķ
g ed
å¯¹ äºİ
Ġf low
Ġb ook
æŁ Ĳ
ï¼Į å°±
èĪ ¬
ä¹ ¡
æĽ ¾
ç» ¿
ä¸ª äºº
æīĢ æľī
å¸ ®
Ġm aking
n ot
he m
Ġse em
it her
å¢ŀ åĬł
Ġam ount
éľĢ æ±Ĥ
Ġg iven
æĺ ¥
o ver
ate ly
æ ¤
äº «
æĻº èĥ½
Ġsu ggest
19 7
ä¸ĩ åħĥ
åĬ ³
ort un
Ġhe art
ĠA f
æľī åħ³
o ks
Ġt urn
ï¼ļ Ċ
Ġcomp ut
Ġimp act
Ġm ult
led ge
ç¥ ¨
ic ro
Ġ ess
ut ure
Ġch o
æıĲ åįĩ
- m
çĻ½ çĻ
ľ é£İ
Ġs w
8 0
ic ation
ure d
Ġpol it
Ġdet erm
ĠB e
å®¢ æĪ·
at ory
çĻ½çĻ ľé£İ
ĠO r
age ment
ĠE urop
Ġf ocus
Ġsignific ant
Ġsom ething
a pp
ä¸Ģ æŃ¥
ap s
èĭ ı
åħ °
Ġsh ort
or ld
çĶ¨ æĪ·
è®¤ ä¸º
Ġbeh av
id es
ä¿ ĥ
ak en
Ġc irc
ä¸į æĺ¯
éĿ ©
ç»¼ åĲĪ
oh n
ä¸ °
Ġcour se
Ġlike ly
ĠU S
åĬŁ èĥ½
åŃ© åŃĲ
éļ ľ
Ġ $
Ġal ong
æ ¦
Ġinv est
ä»£ è¡¨
Ġd ue
åį ¡
Ġ .
ä¸Ĭ æµ·
Ġal ways
æĶ¯ æĮģ
é¦ Ĩ
åĪ¶ éĢł
çĶµ åŃĲ
Ġd ra
ĠO n
N A
Ġeduc ation
Ġfun ction
å² ģ
è¾¾ åĪ°
v ious
æŀ Ĳ
ï¼Į è®©
S t
ç²¾ ç¥ŀ
åĨ ł
ĠM ed
æ´ ²
åĮ» éĻ¢
Ġcom b
éĺ ¿
Ġf il
è´Ł è´£
ĠA ll
é¢ ĳ
æĶ¿ çŃĸ
æĤ ¨
an c
éĥ½ æĺ¯
Ġra d
Ġapp ear
Ġcle ar
è´ §
c le
as ter
ç» ©
ä¿Ŀ æĬ¤
our s
Ġsystem s
Ġcommun ity
æĪĸ èĢħ
Ġv ir
ri ed
è½ ½
n ed
end ing
Ġincre ase
Ġd ays
Ġs ing
Ġde ath
åıĳ å¸ĥ
ä»Ĭ å¹´
ï¼ī ï¼Į
Ġm illion
ç§¯ æŀģ
ĠW hat
æ°´ å¹³
Ġwor ds
ï¼Į å°Ĩ
Ġus ually
ec ially
æİ Ī
æİ§ åĪ¶
å¾ ħ
éħĴ åºĹ
f ace
Ġpop ulation
Ġte ac
ä¸Ģ å®ļ
Ġh y
Ġcent ury
æľ ¨
åº ı
Ġresult s
æ³ ¢
Ġob s
æķĻ åŃ¦
Ġp ast
æľª æĿ¥
ä¸į æĸŃ
ç»ĵ æŀĦ
ç§ »
ç ¿
Ġcons um
Ġlangu age
Ġdiff icult
ä½ Ľ
2 9
Ġto day
Ġg ive
Ġb rain
é£ ŀ
ap e
Ġre le
Ġl ine
ob al
åĪ© çĶ¨
Ġcre ate
Ġab ove
æĭ¥ æľī
Ġg r
em ber
Ġtechn ology
Ġspec ific
Ġsim ilar
ä¹ĭ ä¸Ģ
Ġwh y
Ġaut hor
et ic
å± Ĭ
Ġneed s
âĢĿ ãĢĤ
Ġex ist
Ġen c
éħ ¸
ive ly
as ing
a f
m it
Ġe y
è Ĵ
Ġdesc rib
pt oms
çĹ ĩ
åĩ Ģ
The re
å¾ ģ
Ġ er
Ġsp ace
l er
åĲ ĥ
Ġcan cer
ore d
Ġcond itions
is c
æĹ ı
ç £
è¶ħ è¿ĩ
åĩ »
A s
Ġexper ience
è¿Ļ äºĽ
Ġp arent
i ation
esp ecially
Ġm ov
o x
Ġdisc uss
Ġrec ord
Ġ ill
æĬ Ĺ
rib ut
ru ction
å· ®
at ors
Ġspec ial
Ġne xt
ĠS o
m ost
éĶĢ åĶ®
p r
Ġchar acter
åİĨ åı²
Ġest ab
Ġg re
id d
Ġf uture
m in
H ow
ain ing
ĠE ar
at ch
Ġbe gin
n al
ĠB l
å®ŀ æĸ½
Ġtem per
èĳ Ĺ
y m
çŁ Ń
æ¸¸ æĪı
Ġac ross
Ġc rit
Ġne cess
æį ¢
Ġas k
é» ĳ
Ġd am
ç§ Ģ
iqu e
Ġapp lic
ĠB rit
od e
Ġhig her
Ġk ind
éĩĩ çĶ¨
ort s
Ġstr ong
Ġchang es
èĻ ½
ru g
sel ves
ä¼ ¤
Ġvar ious
Ġpro p
Ġt ry
Ġne ver
å¼ Ĥ
Ġresp ons
Ġle ast
Ġ '
ç ĩ
Ġs ide
ĠAf ric
il ities
Ġhow ever
å½¢ æĪĲ
le t
Ġrese arc
Ġbus iness
Ġm ot
ä» ¤
è´£ ä»»
19 6
Ġto get
Ġtoget her
- l
one y
Ġprof ess
æĦ ¿
7 0
Ġle ft
Ġt ru
om es
Ġcomple te
æł ĳ
Ġcount ries
åĲ ¬
åıĤ åĬł
ra y
ä»· æł¼
o ot
Ġcol le
åŁº æľ¬
an e
- t
, Ċ
ate g
èĩª çĦ¶
Ġwor ks
Ġen ough
é ¸
ç´ ¢
om an
Ġwork ing
å ª
è§£ åĨ³
Ġa way
å° ¼
Ġto ol
Ġche m
av es
åĪĨ æŀĲ
du ct
al f
æĺ¾ ç¤º
Ġ especially
th ing
a im
æ¥ ¼
äºĨ ä¸Ģ
åħ «
å¯ Ł
ac es
Ġimpro ve
Ġn et
Ġt erm
æ¯ Ĵ
ä¹ °
é ¼
çŁ¥ è¯Ĩ
âĢĻ re
è¿Ľ åħ¥
æį Ł
åĲĦ ç§į
Ġrequ ire
ach ing
ä¼ł ç»Ł
æł· çļĦ
èģĶ ç½ĳ
æĽ´ å¤ļ
ä» į
ç ¯
éĩį çĤ¹
Ġha ving
ĠG erm
è½ ¯
äº¤ éĢļ
Ġw ays
å¿ħ é¡»
Ġke y
æĶ¶ åħ¥
Ġpl ants
ac y
ä¹Ł æĺ¯
i pp
ys is
le ment
å¸Į æľĽ
ç´ §
u ment
è½ ®
am m
æ¯Ķ è¾ĥ
å½ ©
åº Ń
è¿ °
Ġc ases
al es
æĮģ ç»Ń
il t
æĬ¥ åĳĬ
ï¼Į å¦Ĥ
åħ ¸
E R
âĢĶ âĢĶ
g es
u ed
çĶ ·
Ġgener al
ä» ĺ
ar ing
å ³
ĠJ ohn
Ġc y
çĶ³ è¯·
æī ¾
æŃ Į
ist ic
ç« ł
æ¯ į
äº§ çĶŁ
åħ³ ç³»
Ġf ull
ï¼Į åı¯
Ġte am
i res
è Ĺ
æĿ¡ ä»¶
Ġtyp es
ĠW ar
s w
it ing
A n
Ġs ens
æĸ° çļĦ
Ġacc ount
å ©
å¥ Ĺ
Ġf und
Ġcons ider
Ġbec ame
Ġeffect s
Ġrel ations
éļı çĿĢ
ç» į
Ġ z
è®° èĢħ
èĮ ¶
Ġc r
Ġsub ject
Ġstud ies
Ġpr im
åĲ ¦
us h
ä¸Ĭ çļĦ
f or
æ± ī
Ġre ason
m m
ĠEng lish
è¿Ľ ä¸ĢæŃ¥
e b
/ /
Ġknow ledge
Ġprot ect
ot t
ĠW orld
Ġn orm
Ġsym ptoms
ere nce
Ġst ep
Ġm akes
çī¹ åĪ«
Ġh ouse
ĠG o
åģ ĩ
ãĢĤ âĢĿĊ
Ġwhe ther
æķĻ å¸Ī
äº Ī
un g
it or
åıĤ ä¸İ
b y
a pt
5 00
åĽ °
Ġpro b
Ġphys ical
Ġc ity
æŃ ¦
Ġrep resent
é¥ ®
Ġgo ing
Ġcon cer
åĽ º
å¥ ĩ
9 0
ĠS ome
F or
Ġs elf
çĸ ¾
a ut
Ġm ind
le y
åĨ ·
Ġpol ic
Ġpat ients
Ġg round
en cy
ch ie
ĠO ne
Ġf urther
read y
è§Ħ åĪĴ
Ġl ower
æ¶ ²
æĪĲ åĬŁ
èĥ ľ
Ġinf lu
er y
Ġsc ience
. com
ç½ĳ ç«Ļ
ed i
Ġro le
å® ģ
Ġch all
ä¼ļ è®®
åŃĺ åľ¨
çĻ »
u nt
ä¸į èĥ½
åģ ľ
Ġb ig
è® ¯
çī Ľ
çĸ« æĥħ
å»º ç«ĭ
çĿ £
Ġquest ion
ific ation
æ¯ ķ
ir d
éģ ĩ
åħ¶ ä¸Ń
a e
Ġsu re
æĿ¥ çļĦ
è§Ħ æ¨¡
re l
Ġn ut
ĠG en
ä¹ĭ åĲİ
è´ µ
åª Ĵ
Ġe ff
3 5
Ġpartic ip
ĠW ith
Ġo pt
ĠIn tern
Ġst at
m ber
Ġen s
: //
i ol
an n
S A
æ¯Ķ èµĽ
ac c
Ġem ploy
l o
ç³» åĪĹ
Ġgrou ps
s ide
Ġactiv ities
Ġst ory
åľ° æĸ¹
ï¼Ł Ċ
sy ch
ib ility
Ġval ue
è Ĩ
Ġp red
Ġte xt
æĪĳ åĽ½
c ul
ur ity
au gh
at ures
ä¸ĵ å®¶
Ġd ig
re am
ab les
Ġse en
ur ch
Ġbe low
b on
Ġcl ose
çĶ¨ äºİ
ĠTh at
Ġind ic
Ġl oss
åĪ »
ĠC ar
éĢ Ĳ
Ġr ather
åĬł å¼º
äºº æīį
Ġto ward
è¯ ī
Ġl ive
Ġactiv ity
ĠM ar
Ġres ources
r ight
Ġoff ic
èĥ½ æºĲ
et imes
åħ¨ éĿ¢
ĠHe alth
éĩĳ èŀį
Ġal ready
çĽ® æłĩ
ä¹ Ŀ
æī ĺ
ä½ľ åĵģ
è Ń
Ġpot ential
Ġwor d
." Ċ
Ġr ange
ou ra
C h
è¿ İ
Ġne g
ï¼ģ Ċ
ä½ĵ ç³»
åħ³ äºİ
Ġgrow th
æİ ¢
y n
ra ms
åº Ĩ
èģĮ ä¸ļ
Ġs ite
Ġmod el
and s
Ġproduct s
ĠC al
è° ¢
Ġtra dition
æĸ¹ æ¡Ī
Ġre ally
Ġw ind
Ġd one
ä»ĭ ç»į
ver age
it es
es c
Ġw r
am in
çŁ¥ éģĵ
ub lic
Ġprodu ction
Ġde g
åĮ» çĸĹ
ä¸ ĥ
Ġl ot
u ation
äºº ä»¬
p ut
Ġ ur
Ġe ither
ç¼ º
çĮ ®
Ġcol lect
ç¬¬ ä¸ī
Ġfl u
ear ch
ove red
3 1
Ġrec ogn
Ġev idence
æĻ ļ
ä¹ĭ éĹ´
Ġdevelop ed
ï¼Įåħ¶ ä¸Ń
Ġd iet
i am
Ġqu ality
éĽ ¨
Ġph ot
éĹ »
åĲĮ æ¯Ķ
Ġsu n
os is
Ġart icle
å¸® åĬ©
å¹ ħ
Ġsing le
ä»· åĢ¼
èį £
__ __
ç»ĵ åĲĪ
ĠA m
Ġf all
ç»§ ç»Ń
Ġo il
Ġn ational
æĪĲ ç«ĭ
ï¼Į æľĢ
ip le
ï¼Į éĤ£
èŃ ¦
Ġf ive
æľī æķĪ
ï¼Į åı¯ä»¥
b e
Ġacc ording
ï¼Į æīĢä»¥
æĮ ¥
ĠD r
çĶŁ æĢģ
ĠL e
Ġret urn
è¿ ½
èĻ½ çĦ¶
ĠB y
Ġon ce
é£Ł åĵģ
Ġev ent
æĮī çħ§
Ġmed ical
Ġiss ues
Ġbuild ing
Ġindu st
c hes
et er
Ġa chie
ï¼Į ä½¿
å®ŀ éĻħ
éĻ Ī
Ġmem bers
ï¼Į åıª
A l
çĽ ĸ
Ġresearc hers
ĠG e
Ġm ass
ĠS he
ide red
éĺ ¶
ĠT r
é Ĩ
ï¼Į å¤§
ç» Ŀ
å§Ķ åĳĺ
iv il
Ġup on
Ġdo ct
é¢Ĩ å¯¼
Ġb at
æ¢ °
W hen
v al
f act
Ġme et
èĢ Ĳ
iv al
Ġr ate
Ġp aper
Ġredu ce
u le
Ġrel ig
Ġcl imate
our nal
Ġd rug
æŃ »
Ġin it
19 4
ip s
ĠS oc
Ġd om
Ġs ource
Ġwho le
Ġt aken
éĴ Ł
Ġsur face
ãĢĤ ä½Ĩ
Ġquest ions
ĠN orth
ĠA b
å® Ī
Ġn ature
æ¶ ¦
is on
ĠA ss
Ġf ield
re ct
æ² Ļ
éĻ Ħ
è®¡ ç®Ĺ
Ġdet ail
Ġan n
é º
Ġab s
çĶ ļ
f er
ib r
Ġsk ills
åĿ Ĺ
¤ Ĳ
Ġadd ress
çİ° ä»£
Ġre d
æĽ ²
Ġh old
å¯¼ èĩ´
æ¨¡ å¼ı
Ġthem selves
I S
åį ±
ç» ĥ
Ġs ent
æıĲ åĩº
è¿ĺ æĺ¯
éĢ ı
ĠAmeric a
as k
ric t
èį ī
åĲ ¯
et y
çŃ ¾
Ġfre qu
Ġcon cept
Ġl iving
Ġcre ated
åĪĨ åĪ«
èĭ ¥
æ¤ į
ĠS outh
ro ll
Ġc ut
Ġcons idered
Ġcan not
è¡Į ä¸º
å· ¦
Ġpolit ical
Ġ X
le ep
åĨ Į
Ġw ide
å¥ ¥
ĠA ust
Ġto t
Ġd est
å¤ «
Ġc ame
en n
ĠSt ud
ffic ient
Ġthough t
Ġobs erv
æī ©
ä» ª
ï¼Į æ¯ı
ä½ ³
pl ic
åŁ¹ è®Ń
ä¿ĥ è¿Ľ
è¿Ļ ä¸Ģ
or g
å° Ħ
è ĵ
ï¼Į å®ĥ
ä¹ ħ
s p
re me
Ġint rodu
ä¼ ¼
è¯ ¢
Ġf ri
çļĦ åıĳå±ķ
çĽ´ æİ¥
ĠM ay
ä»¥ æĿ¥
Ġ ver
Ġwh ite
æĢ ¥
3 00
å» ¶
m p
æĭ į
r ont
åĬ ª
Ġf ail
Ġso il
ĠR ep
æ³¨ æĦı
Ġincre ased
åıĸ å¾Ĺ
Ġl ay
éĢł æĪĲ
ï¼Į å½ĵ
Ġt ell
Ġs ize
Ġassoci ated
æ¡ ¥
èĮĥ åĽ´
è® ¢
åĵ ª
ill ed
re g
å¨ ģ
ä¸º äºĨ
Ġm icro
Ġrec omm
ä¸ ½
ĠM an
è®¸ å¤ļ
æİ¨ åĬ¨
o on
éĵ¶ è¡Į
èĦ ĳ
ä»¥ ä¸ĭ
éĴ Ī
åħ± åĲĮ
æĿ¥ è¯´
Ġunderstand ing
Ġwe ight
æľŁ éĹ´
o ber
Ġs ound
è´ «
æĹ¶ ä»£
ï¼Į ä¸ŃåĽ½
æİ¨ è¿Ľ
ĠY ork
Ġpract ice
ï¼Į æĽ´
ne y
ĠS y
Ġad ult
Ġwe ek
çģ µ
ut ions
Ġp ay
Ġpress ure
Ġact ually
Ġsk in
Ġhist or
Ġit self
çĶµ å½±
Ġanim als
æİ ª
å· Ŀ
Ġmark et
åº Ł
ĠP r
4 5
åį Ī
è¿Ĳ åĬ¨
éĢ Ģ
ep end
ç« ¥
iv ity
Ġopp ortun
Ġsim ple
åı ³
åº ĵ
Ġst ress
æ° §
çłĶ åıĳ
Ġar g
Ġgl obal
ï¼Įä½Ĩ æĺ¯
a i
ç ĳ
çł ģ
Ġfam il
Ġent ire
è® ¿
è· Ł
I D
Ġstud ent
Ġrequ ired
Ġst ates
æĵ į
ĠEar th
èĦ ±
art ment
å¹´ æĿ¥
Ġs al
g o
Ġpub lished
Ġal most
é¡ º
19 5
éĿ¢ ç§¯
Ġf at
Ġright s
se qu
Ġcomple x
è¯ Ĭ
g ing
Ġrelations hip
åİ ħ
Ġrel ated
Ġeconom ic
Ġneed ed
æĿ Ĥ
Ġbl ack
Ġeffect ive
er ve
ä¿Ŀ æĮģ
é ¤Ĳ
åŁº éĩĳ
ol ic
æ° ¸
op h
Ġd oc
æĳ Ħ
Ġcon dition
Ġ =
Ġqu ick
ä»» ä½ķ
ĠA ct
en ed
it ud
.. .
Ġmain t
ac ed
ag ed
åºĶ è¯¥
Ġmaterial s
çļĦ å¤§
é¥ °
Ġab ility
ĠC omp
åĬª åĬĽ
è¡Į æĶ¿
Ġprovid es
å¦Ĥ ä½ķ
Ġsp e
E S
ap an
Ġide a
ä¸Ģ èĪ¬
éĶ Ļ
h ing
Ġm or
é ½
Ġf ish
ĠD ep
çĶŁ çī©
T o
Ġh tt
Ġcom es
åŁ¹ åħ»
ra d
åĤ ¨
ï¼Į ä¸İ
Ġman agement
Ġex erc
ç»ı éªĮ
Ġh alf
çļĦ æĹ¶åĢĻ
å¾Ĺ åĪ°
Ġpart s
ol l
å· ¨
Ġpur p
ac ks
g est
Ġhealth y
ly ing
ed s
çĤ İ
è¿ Ŀ
è®¾ æĸ½
h ib
ï¼Į åĲĮæĹ¶
Ġserv ices
éĵ ¾
en ing
ä¼ĺ åĬ¿
it ary
um p
l ight
åĽ¢ éĺŁ
Ġc at
æ³ķ å¾ĭ
Ġmod ern
å² Ľ
ä¿Ŀ éļľ
Ġpr iv
æĿ ¾
Ġexper ien
è° Ī
Ġto ok
ag ing
èĹ ı
æķĪ æŀľ
Ġsu per
W h
Ġeng ine
Ġ vers
row n
ur s
Ġav oid
os es
æ ¾
ï¼Į ä½ł
éĿ ł
ç¬ ¦
æī§ è¡Į
æĪĲ æľ¬
ĠG u
æĶ »
Ġcl aim
èµĦ éĩĳ
æĪĺ çķ¥
c ient
åĳ ¢
Ġp ort
Ġm oney
ç² ī
Ġar ch
Ġan sw
æĶ¹ éĿ©
å¸ Ń
éĽ ¶
Ġnecess ary
åĨľ ä¸ļ
Ġpro te
ri pt
åĢ Ł
p ly
A R
æ³ Ľ
èı ľ
ore s
è´ ¸
ut es
ãĢĤ èĢĮ
m b
å ĺ
Ġbe gan
Ġsu ff
é Ń
ĠSt ate
ä¸Ģ çĽ´
ve re
ç´ ¯
Ġe ver
ow s
æĭ ¿
ä¸Ģ èµ·
Ġl ink
Ġass ess
ch an
è¡ Ĺ
u el
Ġre act
Ġparent s
Y ou
åį« çĶŁ
éĴ ±
ãĢĭ ï¼Į
å¤ ı
çĨ Ł
äºĭ ä¸ļ
è¡¨ çİ°
ĠH ist
çĶļ èĩ³
åİŁ åĽł
Ġp ath
Ã ©
èģĶ åĲĪ
åĩı å°ĳ
ï¼Į åĽłä¸º
Ġcol l
Ġfact ors
Ġy et
çİ° åľº
Ġar r
ç»ı è¿ĩ
Ġmonth s
Ġcon duct
Ġb ar
ç«ŀ äºī
in ter
ĠH is
Ġappro ach
ir m
ç©º éĹ´
Ġg reen
Ġh ours
çİ ©
Ġcomput er
åĬ ±
m y
Ġmed ic
èĥ Į
en ces
æĹ¥ æľ¬
ä¸ĭ éĻį
åº Ĭ
Ġchem ical
åĪ ļ
Ġprodu ce
åĿļ æĮģ
åĨ ²
æķ ĳ
um e
åı ¶
æĸ½ å·¥
es e
A T
Ġreg ion
ens ive
Ġc op
åĨ³ å®ļ
Ġmeas ure
äºĴ èģĶç½ĳ
ï¼Į ä»ĸä»¬
3 6
ed eral
Ġg as
Ġf ire
n ces
Ġpop ular
ab it
iz ing
us ion
æľº æ¢°
Ġs ense
ï¼ī Ċ
19 1
ï¼Į è¦ģ
ĠC o
Ġanal ysis
èģ ĺ
Ġlit er
Ġg e
Ġr ul
ĠC ont
å¤ ®
éĶ ®
Ġpat tern
çĸ¾ çĹħ
ict ion
Ġpr inc
Ġthrough out
h old
m a
è¯ ļ
ä¸° å¯Į
çŁ ¿
Ġthe rap
em pt
Ġt ar
Ġst op
äº¤ æµģ
Ġa ction
Ġe mer
r ated
ç»ĵ æŀľ
è Ľ
ä¸į ä¼ļ
Ġreg ard
ï¼Į çĶ±
idd le
; Ċ
åıĳå±ķ çļĦ
19 3
ig ure
æķ £
Ġse par
Ġj ob
æĢ§ èĥ½
ab or
Ġperson al
g ar
er ous
y l
ĠD o
æľ ĭ
Ġrec ent
Ġcol or
éģ Ĺ
) :
s on
å¡ ĳ
ç¨³ å®ļ
Ġso ft
Ġincre asing
æĪ ª
uc k
Ġon line
Ġs am
ĠBrit ish
Ġread ing
he t
Ġt aking
- w
æĢ§ çļĦ
âĢĿ ãĢĤĊ
es tern
Ġd og
Ġ ut
ect ions
Ġserv ice
Ġt alk
åĪ¶ åº¦
is ing
ĠJ apan
ä¹ İ
ä¸¤ ä¸ª
ab et
ä½į äºİ
ĠCan ad
éģ ¿
è¿Ļ ç§į
Ġpre vious
ic les
Ġindividual s
p id
å¸ ģ
Ġshow s
cc ording
Ġl a
ç¾İ åħĥ
äº¤ æĺĵ
Ġlong er
ĠN e
Ġbehav ior
ä¸Ģ ç§į
æ± ł
Ġf arm
çĪ ¶
ĠA fter
on se
ç¬ Ķ
Ġstruct ure
é¡ ¾
Ġre pl
b o
åĬ³ åĬ¨
Ġcont ent
Ġinter act
Ġhe at
åįı ä¼ļ
è· Ŀ
I N
r ate
è¿ĩç¨ĭ ä¸Ń
éľ ²
è ĸ
åıĹ åĪ°
çĶ °
äº ®
% ãĢĤ
Ġs ix
Ġmean ing
em ic
æĢ İ
Ġpos ition
Ġb ur
åĪ ĺ
å®ŀ éªĮ
Ġenvironment al
åªĴ ä½ĵ
è¾ Ĩ
åĪ ¤
Ġcon c
Ġdis ord
å° ļ
y le
åĳĺ å·¥
Ġindust ry
å®¶ åºŃ
éŁ³ ä¹Ĳ
Ġmat ter
æŀ ¶
Ġbu ilt
Ġtot al
èĭ ¦
ĠRes earch
åħ³ æ³¨
-b ased
z e
Ġtra ining
Ġprovid ed
çĶ ²
Ġfe ed
è ª
st er
ul ations
Ġwrit ing
ä¼ĺ ç§Ģ
åĮº åŁŁ
Ġth ing
Ġb ring
min ist
èĪ ŀ
æ´ Ĺ
en e
. g
l t
æ¶ ī
æł¸ å¿ĥ
Ġ |
æ¹ ¾
ï¼Į å¦Ĥæŀľ
Ġtru e
ĠJ ew
Ġter ms
åıĺ åĮĸ
ç¡ ¬
ãĢĤ âĢľ
c hed
Ġhe av
ĠIn stit
æĿ¥ èĩª
åħĪ è¿Ľ
ĠS chool
ä¸Ģ æ¬¡
Ġche ck
Ġsoc iety
åł Ĥ
ï¼ĮèĢĮ ä¸Ķ
ric ult
Ġbre ak
ve y
ä¼ ĳ
ç§ Ł
an ced
l or
ä½ĵ èĤ²
Ġin j
Ġcomp any
èĢĥ è¯ķ
æĪĳä»¬ çļĦ
a ff
Ġsur v
èĤ ī
ist ance
ar ies
çİ¯ ä¿Ŀ
æīĭ æľº
Ġde b
Ġcont act
land s
n s
åĬł å·¥
E D
Ġse x
æ¯ķ ä¸ļ
æŃ£ åľ¨
Ġcaus ed
Ġdesign ed
ren g
ail y
ful ly
å®¹ æĺĵ
éĺ¶ æ®µ
åıĬ æĹ¶
ç® ±
3 3
Ġs leep
Ġv iol
Ġbenef its
ĠI I
çĽ Ľ
ĠWh ile
Ġac cept
æľĭ åıĭ
ĠP e
in ary
é£İ éĻ©
é¡ ¶
Ġcle an
åħ¬ å¼Ģ
ä¸¥ éĩį
Ġmus ic
çĽ Ł
å² Ĺ
ast ic
ä¿Ŀ è¯ģ
Ġl ives
Ġinclud es
æĽ´ åĬł
æŃ£ å¼ı
Ġre v
Ġear th
rop ri
is ter
å® Ĺ
Ġet c
çĬ ¯
Ġsh own
ĠS u
Ġeas y
åħ· ä½ĵ
rough t
h ood
Ġtemper ature
æ¸ Ĳ
ï¼Į æĹł
Ġcont ain
åķĨ ä¸ļ
èĢģ å¸Ī
åºĶ å½ĵ
im ent
Ġprog rams
æ³¨ åĨĮ
le x
Ġcaus es
Ġc e
Ġl ove
è¿Ĳ èĲ¥
Ġtra vel
Ġvar iety
Ġdi agn
Ġv ide
Ġs at
çĩ ĥ
Ġpos itive
Ġrel ative
ist ics
çļĦ é«ĺ
å½ Ĵ
çĸ ĳ
Ġth reat
ç½ ª
as c
Ġsub st
Ġmed ia
è§ ¦
Ġsaf e
Ġmethod s
ron ic
è· µ
imate ly
it ation
ĠN o
çľĭ åĪ°
Ġpol l
æ³ °
çī¹ èī²
æ¢ ¦
Ġschool s
du c
Ġsim ply
éĻ¤ äºĨ
ä»ĸ çļĦ
Ġs low
æİ¥ åıĹ
åİ ļ
n ers
ad es
Ġm ach
at ives
Ġcult ure
uc le
æ±¡ æŁĵ
å® ľ
Ġvar i
O N
av ing
éĩ Ĭ
Ġl ed
åħħ åĪĨ
Ġsom etimes
Ġsp read
Ġtar get
ren ch
éĿ Ļ
Ġstand ard
Ġbelie ve
è§ Ī
æĪĲ ç»©
Ġp age
Ġgre ater
Ġa verage
os ition
ä¸» é¢ĺ
Ġe at
Ġreg ular
Ġcar bon
ri or
Ġorig inal
ĠS ec
am ed
ĠK ing
æĮĩ å¯¼
I C
i us
Ġf ru
Ġorig in
Ġl if
å° ģ
Ġex c
èĩª åĬ¨
å° ¤
r ast
æĸ Ĺ
åĲ ī
ï¼Įä»¥ åıĬ
çĽ ĺ
c il
Ġmove ment
um b
on y
Ġiss ue
ra nd
å°ı æĹ¶
u fact
Ġf em
Ġus es
n ew
ight s
Ġscient ists
ä¼ ´
u ge
æİª æĸ½
Ġev ents
Ġw ild
ï¼Į åĽłæŃ¤
end er
Ġde ep
ĠP ar
Ġinvol ved
ĠAust ral
ç¤ ¼
Ġem b
Ġpre c
w h
ãĢģ âĢľ
Ġst e
ing ton
å½¢ å¼ı
Ġreport ed
å¹¿ æ³Ľ
å§Ķåĳĺ ä¼ļ
éĻ Ĩ
B ut
æ´ ¾
æħ ¢
- in
Ġp sych
Ġp le
ï¼Į åį³
æĺ¯ ä¸Ģä¸ª
A N
ĠSc ience
æ£Ģ æµĭ
Ġwrit ten
d om
erv ation
al ing
ä¸į ä»ħ
ĠP res
" .
çº ¸
å¤ ľ
Ġb r
èĻ ĳ
Ġme chan
Ġs ources
b an
åĬŀ åħ¬
Ġdem on
Ġident ify
Ġenc oura
Ġdo ing
çĥ Ī
Ġp ict
å·¥ èīº
ac hes
Ġsu m
Ġcomp an
éĻį ä½İ
Ġb acter
é² ľ
ar ily
çŃ Ķ
Ġhelp s
Ġref er
Ġfood s
19 2
æ» ĳ
Ġdevelop ing
éķ¿ æľŁ
ãĢ Ģ
Ġresp ect
ĠP er
Ġsh are
Ġc amp
er ation
Ġf ace
é ¹
å¹´ åº¦
çģ ¯
ä¸ Ŀ
Ġfor ms
åĪĽ éĢł
çī© æµģ
åĽł ç´ł
å¸¦ æĿ¥
è® ¨
ĠCh ina
ĠM in
ĠEurop e
æ£Ģ æŁ¥
Ġt ax
Ġim age
k now
Ġfore st
ï¼Į è¯¥
ie f
r im
Ġparticular ly
æŃ¤ å¤ĸ
Ġdam age
ĠInd ia
Ġimp lement
Ġbas ic
eng th
O R
è¿Ĳ è¾ĵ
æĺ¯ åľ¨
Ġl ack
è¿ĺ æľī
èµ· æĿ¥
Ġst reng
ver se
èµĦ äº§
Ġe c
ial s
Ġnorm al
çļĦ æĸ°
èĥ ¶
o or
3 7
æľ Ŀ
Ġpo or
an a
ï¼Į åħ¨
å®£ ä¼ł
èº« ä½ĵ
Ġresp onse
h a
å³ °
è°ĥ æķ´
çĹ Ľ
Ġout side
åħ¬ åħ±
l ies
Ġs qu
ï¼Į éĢļè¿ĩ
Ġcomp et
Ġl og
Ġens ure
è¯ į
æĹ ¢
æīį èĥ½
åģļ å¥½
ĠA pp
Ġ /
Ġl ate
Ġatt empt
åĪ ¸
os ure
è¿Ĳ è¡Į
Ġ- -
æķħ äºĭ
Ġh arm
ac hed
Ġser ious
Ġfor ce
Ġatt ention
Ġgrow ing
èª ī
op s
æ´ ĭ
is ions
Ġsu st
ä¹ ĺ
Ġrem ov
Ġre view
Ġc oun
ĠE d
Ġgener ally
Ġb al
åħ³ éĶ®
æīĵ éĢł
æĺİ æĺ¾
am b
Ġw ood
åĩº äºĨ
Ġcomp on
éĢ Ķ
ãĢģ é«ĺ
Ġprodu ced
Ġnet work
åį ĸ
ol es
is es
ct ions
Ġext reme
åıĳ æĮ¥
èµĦ æł¼
å®Į åĸĦ
èĲ½ å®ŀ
Ġvis it
âĢ ¢
Ġc ust
Ġm ess
Ġint eg
åĿ Ģ
Ġide as
Ġa p
ĠW ill
æķ° åŃĹ
ĠA ug
ç¬¦ åĲĪ
ut h
3 8
Ġc ross
o ly
Ġsaf ety
ell ing
åŁº åľ°
Ġdra w
Ġem ot
se t
Ġser ies
rib ution
Ġchall eng
Ġa ff
Ġteac hers
s h
è¯ Ĺ
er g
ĠCent er
éĩı çļĦ
3 4
Ġs ou
19 0
Ġess ential
çİ ī
åĲ ¨
è¯¾ ç¨ĭ
æĿ¥ è¶Ĭ
éĽ ·
Ġcons ist
åľ £
ï¼Į æ¯Ķ
ĠH ar
æ· ·
Ġa st
ä¸» ä»»
Ġve get
è Ķ
ers on
è¶Ĭ æĿ¥è¶Ĭ
Ġwe bs
åĪĨ éĴŁ
æĥ ł
ĠJ es
Ġag o
Ġf a
Ġpre p
ir it
Ġprob ably
Ġcor rect
ri e
b or
å¹ ķ
èĥ ŀ
vent ion
è¶ £
è§Ħ èĮĥ
Ġfe et
Ġm other
å¹ ¸
Ġnum bers
æĦı è§ģ
im um
ĠC ount
é«ĺ çļĦ
åħ¬ éĩĮ
os ing
æ»¡ è¶³
Ġse a
Ġcontin ue
O n
Ġexp ress
Ġl at
æ´ ģ
3 2
I T
ç¼ ©
æĢ Ģ
Ġo x
æĵį ä½ľ
Ġcomm it
åı ¥
ï¼Į æľ¬
è°ĥ æŁ¥
Ġse lect
ĠP art
Ġpat ient
Ġintern ational
æĿ ¨
ec ause
åĪ¶ ä½ľ
l s
ro om
ĠJ an
âĢ ĺ
Ġ ir
Ġatt ack
æĿ Ł
h aps
in o
ä¼ °
éĤ ®
ä»Ĭ å¤©
Ġdef in
è ¸
A C
ĠQ u
éļ Ķ
Ġelect ric
Ġanim al
A S
ĠJ u
Ġinclud ed
id ed
ĠI nt
æ± ĩ
æľĢ åĲİ
Ġpolic y
n a
Ġget ting
r or
åľ Ĩ
Ġc it
ra ft
em s
Ġman ufact
Ġdis pl
Ġind epend
u ary
æľº ä¼ļ
Ġthere fore
w here
Ġn ight
m ing
Ġa ware
çĶµ è§Ĩ
å¿« éĢŁ
Ġt akes
é½ Ĳ
Ġth us
Ġco ver
c ies
g round
ĠP re
Ġd ou
æĸ¹ åĲĳ
èĨ ľ
æĹł æ³ķ
Ġd iv
èĳ £
Ġvir us
o very
èĤ ¤
å±ŀ äºİ
abet es
Ġk ids
ww w
f ect
Ġsome one
Ġinst ead
ĠM any
å»º è®®
i ot
éª ¨
Ġlook ing
çĶŁ åĳ½
iss ions
if orn
t ies
ç»¿ èī²
çĽĳ çĿ£
é¼ ĵ
Ġcon cent
Ġlead ers
re w
ç»Ħ æĪĲ
in ks
Ġdoes n
çļĦ éĩįè¦ģ
7 5
he l
Ġe th
å ´
æ¦ Ĥ
ï¼ī ãĢģ
ĠB o
. org
4 8
Ġv it
éĢļ çŁ¥
Ġm agn
å® ½
æĿ ¯
åĵ Ī
é ±
anc ial
è´ ´
èı Į
æĤ ī
ce ll
ĠE duc
y ing
éĽ Ħ
Ġd aily
Ġd ang
ä»» åĬ¡
ograph y
Ġhy d
as ons
ä¸¾ åĬŀ
Ġpr int
Ġtradition al
ä¸Ń å¤®
æĢĿ æĥ³
e xt
çģ ¾
åĸľ æ¬¢
èĪ ¹
Ġcommun ities
çĲĨ å¿µ
Ġinst it
Ġest im
Ġqu ite
ĠC ons
o es
Ġeas ily
r s
åİĭ åĬĽ
å¼Ģ æĶ¾
4 00
Ġto wn
ĠA g
Ġf ul
itud e
Ġsec urity
Ġestab lished
use um
æ¡ £
ĠInstit ute
é± ¼
Ġw all
ad s
Ġdeterm ine
Ġbo oks
åĲĪ åĲĮ
ĠM ore
Ġpoint s
è´ ·
å¹³ æĸ¹
ens ion
ç¡® å®ļ
ç ¦ģ
ĠF rench
Ġdiffere nce
Ġadd ed
Ġcomp ared
ï¼Į éĥ½
åĿ Ĳ
Ġsp eed
åĮĸ åŃ¦
å·¦ åı³
Ġth ird
Ġhe ld
il le
p e
æ¶Īè´¹ èĢħ
åĴ ¨
æħ §
è¿ ª
æ¯ Ľ
Ġ Â
æľ «
åĮĸ çļĦ
Ġstart ed
- h
Ġtool s
Ġsol ar
Ġinvest ig
æı ¡
æĭ Ł
Ġapp ropri
ä¸Ĭ å¸Ĥ
åĲ Ĺ
ç³ ĸ
Ġscient ific
iforn ia
Ġun ique
ĠA c
çº ·
ï¼Į åĬł
if t
Ġprim ary
æĸ° éĹ»
Ġt ree
æ£ ®
èĤ¡ ä»½
å®Į åħ¨
å¡ Ķ
Ġth ous
è½¯ ä»¶
Ġb ab
Ġthe ory
or ks
Ġmil itary
Ġca pt
Ġ i
ï¼Į åħ¬åı¸
ç© ¿
Ġt ur
Ġc ivil
ĠE l
æī ¶
ä¸Ģ æł·
æĹ Ĺ
Ġimm edi
ĠDep artment
è ľ
æ¶ ¨
ce ed
åĦ¿ ç«¥
Ġallow s
ound s
Ġre ve
Ġw arm
Ġlar ger
å© ļ
Ġm ental
åĴ¨ è¯¢
çī© è´¨
el t
ç®Ģ åįķ
æķ´ ä½ĵ
Ġins ide
å¯ »
ĠR uss
Ġref lect
åĳ Ī
15 0
Ġf ront
Ġperform ance
è§Ĩ é¢ĳ
è¿Ļ æł·
r ig
Ġn ation
Ġdise ases
Ġf av
ãĢĤ ä»ĸ
Ġcompan ies
éĩį å¤§
å®ŀ è·µ
6 5
ĠY our
èµĦ æĸĻ
æ´ ¥
Ġachie ve
æĺ¯ åĲ¦
Ġquick ly
ĠEurop ean
æĬ¥ åĲį
ell ow
è´ ¡
Ġdirect ly
åı ¬
æĪĲ æŀľ
åİ» å¹´
Ġv acc
Ġb it
Ġev al
ï¼Į å¥¹
Ġmult iple
und red
Ġprog ress
ç§ ĭ
ĠM ost
ç Ĵ
æ¹ ¿
è¿ĩ åİ»
ä¹ĭ åīį
Ġal tern
ä¸ª æľĪ
Ġoff er
A nd
ä½ĵ éªĮ
ĠInd ian
æĻ® éĢļ
Ġdemon str
ĠG l
Ġtre es
æĸĩ ä»¶
Ġs il
æĮ ĳ
ĠF ran
è¯ º
æķ´ ä¸ª
Ġf oot
Ġfamil ies
çħ ¤
æ¶ Ĥ
Ġey e
Ġneg ative
an cy
Ġspe ak
l ied
ä¸į åı¯
Ġdoct or
her n
Ġaddition al
ç§ĳ çłĶ
ĠAr t
ĠGerm an
Ġs old
çī¹ çĤ¹
æİ Į
ç»Ł è®¡
Ġt iss
Ġact ive
Ġbir th
æķĻ æİĪ
Ġseem s
è· ¨
Ġhum ans
æľº åħ³
Ġdec re
å® ¿
éĴĪ å¯¹
l ike
ï¼Į åĮħæĭ¬
é¡ µ
Ġa ud
ç½ ²
Ġh ar
Ġal though
Ġas pect
æŃ¤ æ¬¡
Ġr out
åıª æľī
an ks
Ġdoc ument
Ġbeh ind
d en
3 9
ĠC or
çĥ Ł
Ġt end
æĬ ĵ
Ġt ri
çī Ļ
Ġhigh ly
rid ge
ç ĺ
æĪĳ çļĦ
r ance
ç¡® ä¿Ŀ
å¾ Ħ
ç§ ģ
åĩº çļĦ
gen cy
O ne
è¶ ĭ
é¦Ļ æ¸¯
ther n
æĶ¹ åıĺ
èī¯ å¥½çļĦ
Ġexerc ise
éĽ ª
èģĶ ç³»
ce an
j oy
Ġinf ection
ur ies
om et
Ġw ent
ä¸Ń åįİ
æĹ §
æļ ĸ
Ġinter p
Ġansw er
åľ ³
ĠCal ifornia
Ġg ard
ien cy
çļĦ äºĭ
ç»Ĩ èĥŀ
ç©º æ°Ķ
èĲ ¨
Ġw alk
H e
y ond
ol ar
n ov
Ġse vere
A P
Ġtrans port
ç¼ ĵ
æ·± åľ³
Ġext ra
pr il
åĲ §
om ing
ç¨ĭ åº¦
æī ¬
le b
ib er
al y
Ġh or
âĢĻ ve
Ġd ry
r ition
5 5
um an
Ġcrit ical
E N
ĠIntern ational
Ġhtt p
Ġpro ced
æĿ¥ çľĭ
Ġso on
Ġele ments
æĦı è¯Ĩ
Ġh abit
çĦ¶ åĲİ
Ġf ram
ĠChrist ian
Ġbegin ning
åĶ ±
æ¾ ³
Ġh ost
form ation
æĿ Ģ
ter m
æŃ£ å¸¸
Ġac id
ĠM arch
éĽ ħ
ĠS m
iqu es
ĠC O
èĪª ç©º
Ġcent ral
ç½ ļ
Ġte aching
å± ĭ
i ers
ro te
Ġn ucle
ĠO ct
Ġbro ad
Ġdr ink
ul ate
Ġwh ose
Ġlab or
ĠJ une
ä¼ Ĭ
Ġp rior
é² ģ
éĺ µ
- g
it er
æĺ¯ä¸Ģ ç§į
ç¯ ĩ
ĠW est
çĲĨ è®º
æĭ ĵ
S o
ort hern
Ġb ase
ro gen
ĠR ec
I V
Ġlead ing
Ġh ot
v ant
Ġsupp ly
Ġvide o
æ² Ł
ĠCh ar
ĠJes us
ĠB ar
ĠAfric an
Ġanal y
Ġan cient
e ks
èĻ ļ
å½ĵ åľ°
ï¼Į åıĪ
Ġn orth
ï¼Į çĶ¨
il os
Ġs us
ä¿Ŀ éĻ©
ines e
è¯ ¯
Ġthink ing
çĽ® çļĦ
åĢ į
Ġtoward s
ĠAug ust
l ier
± ä¹Ĳ
Ġel se
c oh
ĠO ther
Ġst ay
Ġprote in
çĬ¶ æĢģ
åĲİ çļĦ
Ġpurp ose
im s
éŁ ©
Ġprot ection
ä¸¾ è¡Į
âĢĻ ll
Ġl ost
Ġb ad
Ġlim ited
ĠAfric a
å®ī æİĴ
Ġuse ful
è¡Į åĬ¨
éĩįè¦ģ çļĦ
ĠH er
ç¨ĭ åºı
Ġval ues
éĩĳ å±ŀ
Ġdec l
ĠN ot
Ġexp ect
ĠO f
çĪ Ĩ
æľī çļĦ
ä¸ĸ çºª
Ġst ri
ĠCh ild
æĻ¯ åĮº
Ġor d
Ġob t
ï¼Į åĲĮæ¯Ķ
æ® Ĭ
Ġdis p
l ation
Ġcont ribut
ä¼ Ł
Ġc ard
ä¾Ľ åºĶ
Ġm ount
çĳ ŀ
Ġcl in
ĠG ree
Ġs ection
ĠAl though
Ġsit uation
il s
éĩ İ
olog ies
Ġcap ital
Ġmin utes
Ġacc ur
Ġcust om
Ġ x
æģ ¶
Ġd ark
èµ ¢
c ks
Ġbl ock
ist ry
% ãĢĤĊ
ï¼Į è¯·
Ġcont ains
åĢ º
Ġlar gest
ĠS ch
ï¼Į çĽ®åīį
å¿ĥ çĲĨ
Ġnew s
ĠM on
åĳ ¼
or ing
Ġim ages
Ġpriv ate
is ms
Ġdec ision
ch ing
èĢĥ èĻĳ
ĠI m
Ġad minist
Ġfe atures
o ke
Ġb rought
Ġm om
Ġh undred
Ġf ight
Ġdescrib ed
åı «
Ġg ame
æĺİ ç¡®
il es
ĠHist ory
hen s
âĢĿ ãĢģâĢľ
at t
Ġc red
ä¸įåĲĮ çļĦ
e v
å¹¿ å·ŀ
ĠSe pt
åĨ °
å¼ķ èµ·
A t
çľŁ æŃ£
Ġcap ac
èĤ ¥
g n
Ġstr ateg
æĦı ä¹ī
ĠD av
è ļ
æĺ ł
Ġse arch
Ġf ast
se ct
Ġrece ived
le ction
Ġadult s
om b
èĵ Ŀ
] Ċ
Ġsym b
Ġon es
iel ds
Ġun c
ç§ ĺ
Ġfin ancial
ou d
ĠT ra
æ·± åħ¥
ash ington
m ission
èĩª èº«
ï¼ İ
Ġj ud
åĪ¶ å®ļ
w ise
he st
ĠM us
äº ¦
è¿ ·
Ġinflu ence
æ² ī
åĩ Ŀ
èĽ ĭ
ãĢĤ æĪĳ
E C
ä»İ äºĭ
ri ption
ãĢĤ å½ĵ
Ġrem ains
e al
Ġhand s
æ¸© åº¦
Ġst ra
u k
b ook
ĠS erv
ibr ary
åħ µ
Ġag ricult
ĠJu ly
Ġgo al
ç¬ ĳ
å°± ä¸ļ
Ġen joy
c ome
Ġp ack
ĠU s
ä¼ ¦
- y
Ġsoft ware
f ort
Ġm ill
Ġqu ant
O S
Ġad op
å°¤ åħ¶
å® «
Ġsust ain
iz ations
å¯ ¿
Ġex act
- st
im in
m on
Ġrelig ious
èĢ Ĺ
çļ® èĤ¤
Ġsh all
æĮĩ åĩº
ä¸¥ æł¼
å¦ Ī
ĠP ress
ar ian
Ġwr ite
åĬĽ éĩı
P A
Ġr ates
ä¹¦ è®°
Ġl ength
å¥ ĭ
åĿ ı
us ed
ed ia
æĢİ ä¹Ī
pp er
ï¼Įä¹Ł æĺ¯
in ct
Ġ ,
è ¦
ar r
Ġapplic ation
åĬŀ æ³ķ
Ġg ot
Ġcar ry
Ġag ree
e qu
ra g
Ġwork ers
Ġrequ ires
Ġnear ly
æĬķ åħ¥
å®ī è£ħ
a id
9 9
çĵ ¦
è£ ģ
ä¾ µ
Ġan g
Ġse ason
ĠT w
æĬ¥ éģĵ
Ġestab lish
a ul
Ġlaw s
- S
Ġpl aces
ud d
éģ¿ åħį
ĠPro g
Ġloc ated
Ġs outh
è¿Ľè¡Į äºĨ
ĠRe g
ĠR et
Ġre ach
ĠF irst
Ġbec omes
ĠA nt
est ic
ç ¹
i ra
Ġc ool
ĠR iver
Ġl ines
se e
Ġdem and
æľº åĪ¶
ï¼Įä»İ èĢĮ
å¢ŀ å¼º
4 4
Ġeff orts
Ġex cept
Ġw a
çº ¯
Ġbe aut
å¢ Ļ
æļ ´
åĪ© æ¶¦
v est
çļĦ éĹ®é¢ĺ
åĪĽ ä¸ļ
é¢Ħ è®¡
ç£ ¨
c o
Ġdev ices
ï¼Į ä¸Ń
éĤ£ ä¹Ī
ç¹ ģ
it ect
it is
od ies
åĨ ¬
ï¼Į åĨį
â Ħ
å¤ļ ä¸ª
è´ ¯
æµ Ļ
å¹³ åĿĩ
Ġj o
äºº ç±»
ĠAss oci
ï¼Į æĸ°
Ġtest s
Ġwe eks
Ġf ederal
ĠM c
éĺ ħ
ĠH ere
å±± ä¸ľ
ĠAmeric ans
æĲ Ń
Ġimport ance
ç¤¾ åĮº
åĪ º
Ġe gg
Ġs n
ĠCh inese
èĦ Ĥ
id ents
Ġra re
ul ated
Ġrem ain
æ½ ®
é© ¾
Ġst ru
åĩº åı£
è¦ Ĩ
ä¸º ä¸»
æĪĲ éķ¿
æ² ¿
åı¦ å¤ĸ
ï¼Įå¹¶ ä¸Ķ
Ġv ict
éĺ »
Ġm ention
ĠM y
Ġf ather
è¿ ħ
ra el
Ġde ad
æ°ĳ æĹı
Ġproject s
çļĦ å·¥ä½ľ
éĥ½ æľī
yp e
ĠC ong
éĢŁ åº¦
Ġim ag
æķ° éĩı
al t
Ġhim self
h am
ä¸į è¿ĩ
at ur
Ġcost s
éĿ¢ å¯¹
Ġto ld
' re
Ġco ast
ip ment
åŃ¦ ç§ĳ
åĭ ĩ
å¹¿ ä¸ľ
Ġu lt
Ġe p
Ġbacter ia
åįģ åĪĨ
ent ially
im al
ĠC ity
ĠS w
ç§» åĬ¨
c ial
å½ »
ĠA pril
Ġsur round
ĠEng land
coh ol
Ġmil es
Ġle aves
èĭ± åĽ½
åĲĪ çĲĨ
Ġm ole
Ġcommun ication
åĩĨ å¤ĩ
èµĦ æľ¬
Ġwas te
è° ·
9 5
Ġcit iz
Ġappropri ate
Ġsol ution
Ġresp ond
Ġsum mer
Ġbas is
éļ Ĳ
Ġve h
Ġsu gar
Ġsa w
è´¢ æĶ¿
u ous
ãĢĤ å¦Ĥæŀľ
ie ce
ä¸Ģ ä½ĵ
èĴ Ļ
æ½ ľ
ä¼ĺ è´¨
Ġf it
Ġe ating
Ġp an
Ġwebs ite
Ġra pid
c les
çĥ §
åĶ Ĳ
Ġmem ory
è´¡ çĮ®
è¡ £
æĸĩ æĺİ
Ġtechn iques
ĠD ay
. )
èĳ£ äºĭ
Ġproper ty
Ġdev ice
Ġcomm and
Ġdig ital
Ġb orn
Ġsit es
Ġtyp ically
Ġprocess es
æķĪ çİĩ
Ġey es
Ġcent er
Ġfri ends
all ed
æµ ĵ
res h
éĩĩ åıĸ
è¯Ħ ä»·
Ġt able
Ġnot hing
am a
iz es
Ġany thing
ĠGo vern
åĵģ è´¨
i ar
é¾ Ħ
å¾ ª
è¿ŀ ç»Ń
éĵ Ŀ
æ ĩ
ĠF rom
- to
u ments
ĠM e
èĦ ļ
å¤ļ çļĦ
I I
ï ½
èĤ º
ĠCanad a
Ġh ope
ï¼Į ä¸»è¦ģ
Ġc ou
Ġtest ing
Ġh ous
Ġapplic ations
Ġm is
ç¾¤ ä¼Ĺ
åĨľ æĿĳ
éģ į
è¿Ļ éĩĮ
çļĦ æľĢ
æģ ¢
ce mber
åĲĦ ç±»
åįĩ çº§
Ġfor ces
ĠEduc ation
Ġcreat ing
u ro
Ġd ied
Ġleg al
ä¼ Ļ
ond on
Ġcult ural
éĽĨ ä¸Ń
ç¼ ĺ
ove mber
Ġpract ices
ç¢ ³
Ġg ives
è· ĳ
E x
Ġrespons ible
ĠJ ournal
åħ¨ éĥ¨
æ³ ¥
Ġmon itor
åľŁ åľ°
Ġevery thing
ĠPres ident
èħ Ĳ
Ġad j
augh t
ç»ı çĲĨ
Ġad apt
æ¬§ æ´²
å¡ ŀ
åĬĽ çļĦ
ĠW ashington
æ¢ ģ
Ġd er
Ġdi abetes
Ġconst ruction
ĠTe chn
éķ ľ
7 8
18 6
åķĨ åĵģ
ç»Ł ä¸Ģ
i pl
Ġt it
è´ ¥
Ġc rop
ap ter
Ġteac her
åĵ ¥
Ġk ing
ix ed
åĲĮ åŃ¦
Ġsp irit
Ġbe yond
è¯Ń è¨Ģ
Ġfollow ed
The se
åħ ¼
æµ ª
åº Ħ
ĠK e
Ġtherap y
Ġbenef it
Ġant i
çļĦ æĥħåĨµ
i ples
Ġp en
f ord
6 00
Ġobject s
Ġs on
Ġold er
P S
æĻº æħ§
åľ Ī
Ġins p
se c
éľ ĩ
ic a
Ġdep end
Ġrec ently
A L
Ġcommun ic
ĠWill iam
he ad
ï¼Į æĢ»
ç»´ æĬ¤
E T
æĶ¯ ä»ĺ
b it
Ġcol on
Ġask ed
Ġadv ant
en ge
Ġre asons
ãĢģ æĸ°
an ish
æ´ Ľ
æ ©
Ġconst it
Ġwe b
ï¼ī ãĢĤ
Ġm iddle
Ġb ul
æģ ©
æĶ¹ åĸĦ
Ġf inal
- term
å¼ ±
ĠP ark
ä¾ §
åĮ» åŃ¦
ic o
Ġgu id
è´¸ æĺĵ
Ġconn ect
æĹ¶ æľŁ
çĶŁ çļĦ
Ġcho ose
å¸ Ŀ
Ġsee k
ãĢĤ æĪĳä»¬
æĬ ĺ
éĹ Ń
Ġc am
ĠIn c
B y
æ¬¢ è¿İ
Ġexam ples
åĬ¨ åĬĽ
Ġgra du
Ġexp ected
å±ķ ç¤º
ĠCh urch
oc ol
Ġm id
m osp
æľĪ ä»½
ç» ķ
Ġb ott
ä½ł çļĦ
åŃ Ķ
Ġce leb
om y
ar i
Ġf uel
Ġeconom y
Ġcol d
4 6
ãĢģ å¤§
åħ¬åı¸ çļĦ
å¹¶ ä¸į
Ġaut om
Ġcont roll
Ġb reat
Ġprovid ing
æģ¢ å¤į
l in
åįĬ å¹´
Ġ ice
ell ig
å® ¾
ĠJan uary
Ġf ear
Ġbehav i
ĠIs rael
est s
ĠD is
èĬĤ èĥ½
Ġt en
çļ ĩ
åħ· å¤ĩ
ĠF eb
è§ī å¾Ĺ
18 0
Ġcon sequ
ĠG reat
ãĢĤ åĲĮæĹ¶
çĽ¸ æ¯Ķ
æĳ ©
çĶµ è¯Ŀ
og en
å «
Ġsmall er
ç¿ »
ill ing
1 20
ĠDe velop
Ġc ode
ĠP ol
æľ¬ æ¬¡
åģ ı
Ġd ate
åİŁ åĪĻ
åĢ Ĵ
Ġc ra
åĨħ çļĦ
Ġtra de
Ġrece ive
ä¼ į
- A
Ġorgan ization
éģĵ è·¯
æ¢ ħ
str ial
åħ¬ å¸ĥ
Ġstand ards
Ġf ile
ĠSy stem
æ°§ åĮĸ
Ġopportun ity
ĠSept ember
æ³ ¡
æı ´
Ġu nd
Ġsc reen
Ġinst ru
ough t
Ġaffect ed
ãĢĤ åĽłæŃ¤
æ¶Ī æģ¯
çĦ¶ èĢĮ
æĬĢ èĥ½
Ġst age
18 9
ĠOct ober
W ith
P ro
rib ute
Ġrul es
Ġcomplete ly
ĠV al
ï¼Į èĩª
Ġra in
ä¸į å¾Ĺ
Ġc ru
Ġsc ale
Ġcurrent ly
ed om
u it
åĲ ´
a ur
èĤ ¯
o ff
æ¼ «
ĠL ear
æĥ Ĭ
Ġloc ation
Ġcal cul
Ġset t
ĠI S
Ġexp osure
ĠE ven
å·¥ä½ľ çļĦ
Ġplan et
Ġp et
Ġsh ape
è¯ ¦
Ġcontin ued
Ġgo es
og le
Ġtry ing
Wh ile
ĠTr ans
Ġfor mer
ro y
ĠB i
ar a
Ġeff ort
Ġal one
Ġne igh
å¼ ĥ
Ġbe g
æĿ °
Ġdiffere nces
ĠS an
Ġyour self
Ġw rote
Ġus er
Ġw oman
Ġappro x
p ro
çī¹ æ®Ĭ
Ġdeg ree
ï¼Į æĬĬ
k y
Ġro om
ter y
çİ »
åĽ° éļ¾
çĦ ¦
Ġsuccess ful
çĽ¸ å¯¹
Ġcolle ction
æ¸¸ å®¢
ï¼Į é«ĺ
Ġequ ipment
åĪ ĳ
ä¼ģä¸ļ çļĦ
- C
ï¼Į åĲĦ
ï¼Į æĪĸ
b ack
ç»ĵ æĿŁ
Ġw inter
ĠC oun
æĶ¿ æ²»
åįļ å£«
å¦Ĥ æŃ¤
% çļĦ
Ġb illion
é© ¶
em y
åıį åºĶ
ĠAr ch
ï¼Į å¤ļ
re es
-y ear
m ed
Ġbir ds
ĠR oman
E M
Ġw on
ĠComm un
è¾ ĳ
åĶ ¯
oc ks
Ġmem ber
ing u
æµĭ è¯ķ
Ġevery one
ver t
4 7
ord s
Ġoccur s
ãĢģ ä¸Ń
ĠE ast
ãĢĭ ãĢģ
m en
Ġte eth
Ġte ach
ul a
ĠA ccording
l amm
Ġmod els
Ġear lier
Ġle ave
Ġdrug s
ĠO ur
åĪ Ĭ
åŃ£ åº¦
å¹¿ å¤§
è®¤ è¯Ĩ
Ġconf lic
ä¹ Ļ
Ġv ia
ĠR ed
ĠL aw
è´¹ çĶ¨
Ġocc up
Ġinterest ing
Ġrecomm end
æĲ º
åķĨ åĬ¡
w ater
åħ¶ å®ŀ
ĠCount y
ï¼Į è¢«
è´Łè´£ äºº
oc r
éĩį åºĨ
d ing
çĶµ æ±ł
è¡ ¡
Ġconst ant
air s
Ġelect r
æİ¨ å¹¿
P h
Ġpre gn
å²Ĺ ä½į
è¾ ħ
åĺ ī
Ġcommon ly
å¹² éĥ¨
od ay
çŃ ¹
åľ° äº§
å¹³æĸ¹ ç±³
Ġpo ly
u ff
U R
Ġprofess ional
å¹¿ åĳĬ
A M
8 5
å± ı
é¡ ¿
ur g
Ġn amed
Ġm iss
Ġs ch
Ġro ck
ens ity
é¦ĸ åħĪ
åĩ ¡
Ġus ers
Ġse qu
æģ Ĵ
è¡¨ éĿ¢
å¤§ ä¼ļ
ä¸» ä¹ī
ä¿ Ħ
æĪª èĩ³
Ġstreng th
Ġde al
æķ ¬
æľĢ å¤§çļĦ
Ġs we
ä¸į å°ĳ
Ġgen etic
è´Ń ä¹°
U n
osp ital
åĲ¸ å¼ķ
mit ted
hem at
ĠH igh
Ġpur ch
gy pt
at ers
çĽĳ ç®¡
Ġmeas ures
çĴ ĥ
å¦ ĩ
Ġh on
-- --
éĥ ĳ
Ġmaint ain
Ġpl aced
Ġdisc overed
Ġcour t
ï¼Į ç»ı
ĠDe cember
Ġover all
ï¼Į åħ·æľī
it able
Ġallow ed
it ch
m ar
èŀį åĲĪ
è± ª
å±ħ æ°ĳ
Ġh yp
Ġd en
çļĦ è¯Ŀ
Ġw ond
Ġform ed
Ġg ir
ĠS im
Ġe ight
ĠN ovember
ĠThe n
Ġvis ual
. e
m ore
Ġredu ced
ĠL ondon
Ġper fect
ĠM ex
è¯ģ æĺİ
åĪĨ ä¸º
c an
Ġper haps
å¤ļ ç§į
ĠV ir
æķ ı
Ġfru it
è¯´ æĺİ
è®¤ çľŁ
Ġch urch
ï¼Į æĪĲä¸º
Ġm ax
am ic
çļĦ å½±åĵį
C C
âĢ¦ âĢ¦
l ife
ire ction
Ġpred ict
Ġstep s
ib ly
ç¤º èĮĥ
Ġr ise
Ġapp lied
åį ·
Ġwe ather
ï¼Į èĥ½
ä½į ç½®
æĮ ¯
ru ary
ĠSoc iety
ä¼ļ æľī
Ġc ateg
) ï¼Į
éĩį è§Ĩ
lo ad
re c
Ġr ule
ĠRe ad
un ch
Ġhistor ical
åĽĽ å·Ŀ
çĥ ¯
I P
éĿĴ å¹´
æĦŁ æŁĵ
Ġis n
ĠBl ack
æ±Ł èĭı
or ge
è¯ ¸
Ġp ow
çı ł
æĪĲ åĳĺ
æĦŁ è§ī
ä¾ĭ å¦Ĥ
æľº åĻ¨
S T
Ġex ec
çĽ Ĳ
Ġcomm erc
é£Ł çī©
re et
Ġvir t
çĲĨ è§£
ä¾Ŀ æ³ķ
æµĻ æ±Ł
çĻ Į
æº ¶
ä¸ ¹
è®¤ è¯ģ
Ġro ad
ä¸ĭ çļĦ
å¼ ¹
ç§° ä¸º
ä¸į è¦ģ
åŃ¦ æľ¯
å¤§ åŀĭ
os y
) ;
Ġpower ful
Ġent er
Â °
å°Ĩ åľ¨
Ġcom ing
Ġ :
åħļ åĳĺ
ĠD uring
éĢ Ĵ
Ġtra ck
D A
äºº åı£
Ġr ich
Ġcont ext
od es
18 8
rie ved
éĵģ è·¯
ph as
Ġident ified
Ġv ill
ãĢĤ ä»İ
Ġmajor ity
äº§åĵģ çļĦ
4 9
ain t
ĠIn st
ï¼Į å®ŀçİ°
i able
Ġen h
Ġf air
o e
ro s
ä¹Ł æľī
ĠP at
Ġg ave
Ġs ect
C O
Ġpres ence
å¹´ è½»
åıĮ æĸ¹
Ġac qu
Ġdispl ay
åĿ ¡
æĸ¹ ä¾¿
Ġstat us
Ġdid n
æ¯ «
if ul
Ġshow ed
çªģ çł´
or ation
Ġto x
å¡ «
Ġj oint
å¢ ¨
e es
æľ Ĺ
Ġrelative ly
çİ» çĴĥ
Ġte le
Ġsymb ol
ï¼Į çĶļèĩ³
éĢĲ æ¸Ĳ
çĹħ æ¯Ĵ
çĽ¸ ä¿¡
åįı è®®
- e
Ġc ook
Ġnot e
Ġem p
rel ated
S ome
Ġc ry
Ġt ou
äº ¡
Ġill ness
è®¡ç®Ĺ æľº
åĪĽ ä½ľ
ç¯ ®
ï½ ŀ
èĢ ³
ä¸ľ è¥¿
Ġact ions
am ent
è¯ģ åĪ¸
è¿Ļ æł·çļĦ
Ġincre ases
Ġass ign
qu e
Ġun it
ï¼Įè¿Ļ äºĽ
4 2
al ed
Ġvers ion
ĠAl so
Ġc ities
Ġat mosp
è¶ĭ åĬ¿
Ġful ly
ĠB ecause
en cies
ä¸Ģ ä¸ĭ
æİĴ åĲį
äºº å£«
èĭ Ĺ
Ġg old
Ġnut ri
ĠW ater
ĠD NA
Ġele ment
åħĪ çĶŁ
ĠM od
ĠH ouse
èĳĹ åĲį
ra b
Ġm ob
æľº åľº
ĠPro t
å® ĩ
Ġbelie f
ç¬¬ åĽĽ
åĬł åħ¥
éĺ ´
Ġsit u
é ī
Ġcho ice
æ±¡ æ°´
Ġro b
Ġph ilos
Ġr iver
éī ´
èµ ŀ
æĮĳ æĪĺ
Ġmov ing
æ® ĭ
èħ ¾
æī¿ æĭħ
ĠGen eral
é¢ ľ
Ġm outh
Ġrem ember
ĠN ow
é«ĺ éĢŁ
åĿ Ľ
çĹĩ çĬ¶
ĠAustral ia
Ġant ib
è´ Ŀ
know n
ot ed
A d
Ġill ust
st e
ent y
ien ces
ĠE m
Ġas se
Ġev olution
i ate
âĦ ĥ
è§Ĥ ä¼Ĺ
Ġlim it
ĠJ ust
ä¸į åĪ°
Ġmach ine
Ġappear s
res p
Ġproper ties
Ġp iece
æ³ ī
Ġwork ed
Ġcapac ity
% ï¼Ľ
Ġcomp ar
Ġal cohol
Ġpattern s
ĠS ince
ĠF in
ĠC our
ãĢĭ çļĦ
ã ģ
" ,
Ġpe ace
éĢĤ åĲĪ
Ġm ig
Ġconst ruct
æļ Ĥ
Ġstru gg
Ġn ames
å° Ĭ
Ġmom ent
æİ¨ åĩº
ĠF l
Ġwor th
æĹ¥ å¸¸
Ġsign s
çŁ¥ åĲį
ï¼Į çĦ¶åĲİ
ï¼ĮéĤ£ ä¹Ī
è·Ŀ ç¦»
åģ ¿
ä¸Ģ å¹´
Ġtrans fer
æ¯Ķ ä¾ĭ
Ġm ut
Ġst ories
Ġimm une
æ³ķ éĻ¢
a ign
ĠE gypt
Ġ +
äºĭ ä»¶
ri ef
åı¦ ä¸Ģ
in ated
Ġass ist
è½ ´
èµ ı
çª Ĺ
åħ¬ è·¯
çĲĥ éĺŁ
Ġ â
Ġv o
å¿ ĺ
å¤Ħ äºİ
ĠGerm any
æĥ ¯
c raft
Ġchang ed
Ġe fficient
éº »
åıĬ åħ¶
Ġarch itect
ï¼Į æıĲé«ĺ
ï¼Įå¯¹ äºİ
Ġm ission
ç»ı åİĨ
ãĢĤ è¯¥
ĠR o
ĠAssoci ation
k en
æĮ Ĥ
éĤ Ģ
r ates
ä¹ ±
8 00
A r
æĸ¹éĿ¢ çļĦ
æ¥ ļ
Ġr at
è¿ ¹
åĩ Ń
Ġfor ward
Ġbab y
çļĦ å°ı
åĳĬ è¯ī
é¥ Ń
for ce
c ious
èģĮ å·¥
Ġoff ers
âĢĿ ,
Ġf resh
ç« Ł
Ġsur vey
ç ŀ
Ġb all
ĠCong ress
çĻ £
Ġexp and
èĥ ¡
ĠPh il
om as
Ġcon vers
æĽ ¿
åĢ¼ å¾Ĺ
åħ¬ åĽŃ
ä¹ Į
Ġbre ast
Ġan x
Ġfun ctions
ĠMed ic
Ġeduc ational
ast e
Ġg iving
åĮĸ å·¥
æľī ä¸Ģ
p ris
er o
ee ch
çĤ ¼
à ¤
ger y
Ġw id
ï¼Į å°±æĺ¯
çīĽ çļ®
Ġac ad
ĠS ur
åŃ Ļ
ĠA re
ç² Ĵ
è½ ¨
ç¬¬ åįģ
Ġinc or
Ġexist ing
Ġin sect
ç¥ ĸ
ab ilities
tern al
æİ¥ è§¦
ĠU se
æ¦ ľ
èµ µ
ãĢĤ çĽ®åīį
as ion
ub e
éĨ Ĵ
ĠPe ople
è¦Ĩ çĽĸ
æ¶ī åıĬ
Ġatt ract
Ġequ al
ĠCon f
ĠCoun cil
ru pt
è¯ķ éªĮ
äº¿ ç¾İåħĥ
åĭ ¤
å¹ ¼
Ġp p
in y
èį Ĳ
Ġfem ale
re hens
Ġfact or
ç´¯ è®¡
y d
Ġd at
ĠEn vironment
ĠC om
è° ĵ
Ġinst ance
Ġopportun ities
ĠA ng
Ġfind ings
å®£ å¸ĥ
Ġrun ning
Ġst aff
åĲĦ åľ°
Ġtiss ue
Ġcitiz ens
ess ion
c he
Ġchalleng es
è¿ĳ å¹´æĿ¥
u ild
ul s
Ġmus cle
å·ŀ å¸Ĥ
çĶ ĺ
io x
Ġass um
èĲ¥ åħ»
Ġreg ions
åıª æĺ¯
er a
at in
èĢħ çļĦ
çĶµ åĬĽ
ic ip
Ġd irection
A ll
Ġrep e
å¾· åĽ½
Ġthous ands
Ġdist ance
8 8
ograph ic
ir ing
Ġfore ign
ĠT ur
Ġpict ure
åįĹ çľģ
Ġwe ak
Ġpr ice
Ġdetail s
æ´ ª
Ġw atch
Ġ ing
ï¼Įè¿Ļ æĺ¯
Ġexpl ain
ĠProg ram
ä¸Ń å°ı
Ġinc ome
H E
Ġch ance
Ġh uge
Ġt ask
ãĢģ ä¸ŃåĽ½
ä¸´ åºĬ
Ġcompon ents
ï¼Į ä¼ļ
æĪĲ éĥ½
ĠPro f
æĲ ľ
åħ¬ åĳĬ
Ġlearn ed
Ġin nov
Ġdef ined
çīĽçļ® çĻ£
å·¥ åħ·
Ġfri end
B e
Ġbo x
ĠUn ion
A D
ç»Ļ äºĪ
æĿ¥ æºĲ
Ġeval u
ric k
al d
Ġf igure
è´· æ¬¾
Ġn ative
çļĦ äº§åĵģ
Ġf ert
Ġdet ect
I s
18 5
Ġbelie ved
è½¦ è¾Ĩ
Ġwr ong
ç®Ģ ç§°
Ġb ound
ĠIntern et
Ġqu al
Ġdisord er
éĢļ å¸¸
çļĦ æĹ¶éĹ´
om a
ĠFeb ruary
Ġem issions
ï¼Į çĶ±äºİ
åĪ ·
ç¡ ķ
Ġoff ice
åĩº çīĪ
Ġgard en
ç± į
ĠF rance
le ge
æľĢ é«ĺ
if ically
Ġj ournal
äºº å·¥
å¤ª éĺ³
Ġbal ance
ä¸ī ä¸ª
ĠS ee
Ġsuggest s
åĽ½ åĬ¡
æī© å¤§
æĪĲ äºĨ
ä»ĸä»¬ çļĦ
Ġst ar
çĽ¸ å½ĵ
ĠJapan ese
6 6
å¤§ éĩı
è° ģ
åĩº æĿ¥
ĠU N
Ġreport s
ä¸ĩ äºº
Ġvis ion
Ġst im
ï¼Į ä¸Ķ
ĠRet rieved
æİ¢ ç´¢
pect ive
èİ «
ĠSoc ial
ĠThe ir
Ġres istance
4 1
é«ĺ æł¡
æĬ ½
ä¸» ç®¡
Ġs ac
ĠJew ish
Ġevent ually
æį ·
æ¤į çī©
Ġsepar ate
Ġtr uth
ï¼ ħ
çİ° è±¡
ward s
or age
è®° å½ķ
Ġconsum ption
ĠP ublic
å°± ä¼ļ
Ġfam ous
h ors
Ġabs or
èİ ±
ĠU K
Ġtechn ologies
éĩį æĸ°
ç¼ ´
èĲ¥ ä¸ļ
ãĢĤ å®ĥ
Ġb ank
U S
is ation
4 3
ig en
æĹ ¨
pp ed
Ġd ivid
Ġb ra
ĠE ach
A fter
Ġpass ed
Ġm ap
Ġe ffic
Ġexper im
æľī æľº
åı¬ å¼Ģ
ĠTh us
ä¼ ı
Ġa im
z z
y gen
Ġapp ly
ï¼Į åħ±
ĠP al
ä¼ ¯
ur ance
Ġopt ions
ĠW estern
Ġse ven
Ġp hen
çļĦ ä¸»è¦ģ
å®¶ éķ¿
èį¯ çī©
Ġstrateg ies
Ġcar ried
èĬĤ çĽ®
ç´ł è´¨
åĨħ éĥ¨
Ġst yle
n es
ä¸ ģ
Ġorgan izations
å¤į æĿĤ
ch ange
Ġdist ribution
Ġgu ide
åľ¨ çº¿
0 1
Ġplan ning
ĠC he
æ· »
Ġdest roy
æĢ ķ
é¢Ħ éĺ²
i ant
éĹ ²
ĠC ur
rou p
Ġimmedi ately
ed ing
Ġclass room
æ²» çĲĨ
i ance
å¤§ åĪ©
Ġcont ract
Ġchall enge
éĵ ľ
ĠG reen
Ġur ban
b re
Ġdec ades
å§ Ĩ
Ġgr ass
ãĢĭ ï¼Ī
æĪ ´
é¼ĵ åĬ±
Ġex hib
ï¼ī çļĦ
å¤ļ æķ°
é¢Ĩ åħĪ
Ġcoll abor
ĠM ich
ĠD on
æĹ¥ èµ·
ec es
Ġc and
Ġgo als
Ġex cess
éģ µ
æĽ ¼
Ġbl ue
åĽ½åĬ¡ éĻ¢
ant ic
18 7
0 5
om ic
æİĮ æı¡
ä¼ĺ åĮĸ
Ġvit amin
ä¸ĭ æĿ¥
æĶ¹ éĢł
ãĢ ĳ
æ¶ µ
Ġhig hest
Ġk id
ï¼Į æ²¡æľī
Ġnucle ar
Ġm al
Ġfa ith
éģ Ń
Ġsp ring
ing ly
ĠV ol
ãĢ Ĳ
Ġut il
Ġg ain
Ġpl ans
ãĢĭãĢģ ãĢĬ
Ġmil k
ï¼Į ä¸Ĭ
å¼ Ł
rom e
çĽ¸ åºĶ
çĶ¨ çļĦ
The y
ç´ «
Ġstruct ures
a us
ĠDav id
Ġhapp en
Ġcommerc ial
æ´ ŀ
Ġem phas
h ouse
Ġha ir
Ġexperien ces
é«ĺ åº¦
Ġobserv ed
Ġinst ruct
. C
ĠM at
å£ ģ
åıĳ è¡¨
Ġextreme ly
çĭ¬ ç«ĭ
Ġapprox imately
Ġbo ard
æī¹ åĩĨ
åĮ» çĶŁ
ãĢĤ åħ¶ä¸Ń
ĠIn ter
èĩª çĶ±
Ġref erence
å¥ ¶
Ġnut rition
Ġfav or
ĠWe b
æī İ
Ġcop y
Ġmov ed
Ġpl astic
åĮħ è£ħ
Ġp ick
Ġ iron
åĲĦ é¡¹
è¯ģ ä¹¦
åħļ å§Ķ
te e
è¯Ħ ä¼°
Ġexpl ore
å§ ĵ
Ġtre ated
é¦ĸ æ¬¡
åĨł åĨĽ
Ġdec isions
æŃ£ ç¡®
Ġact ual
åĭ Ĵ
ä¸» åĬ¨
ĠM or
èº« ä»½
u ing
èĲ¥ éĶĢ
é» ĺ
ï¼Į äºİ
Ġcont rast
Ġpres ident
ĠL ord
ĠA ut
éĺŁ ä¼į
ä¹ĭéĹ´ çļĦ
op y
ä¸į è¶³
å½¢ è±¡
Ġd yn
åĬŀ çĲĨ
è¯ ĳ
Ġheav y
Ġsl ight
æİ ī
ke y
Ġpop ulations
- M
olog ist
Ġhouse hold
Ġb odies
æĬ ¢
Ġleg is
ãĢĤ æį®
æ° ı
Ġtop ic
Ġsex ual
çĻ» è®°
Ġbec oming
éº ¦
Ġfe ature
ï¼Į åĪ°
Ġinit i
ĠN et
* *
è¿ħ éĢŁ
æľĢ ç»Ī
Ġdisord ers
w ide
Ġgen e
å¿ Ĩ
re st
Ġm o
æĺ Į
Ġm ale
ĠO b
Ġre ality
è¿ Ķ
Ġit ems
åľ° åĿĢ
åħĪ åĲİ
Ġclin ical
Ġop in
å² ¸
c ular
Ġmedic ine
ï¼Į åºĶ
Ġpart y
ï¼Į åįł
Ġb one
ĠPl an
ä»į çĦ¶
Ġtr ust
å¥³ æĢ§
ĠJ ames
r ant
ent h
Ġsignificant ly
ĠDevelop ment
åįı è°ĥ
Ġestim ated
ä¸ĭ åįĪ
ch ar
Ġgl ass
åĪĨ äº«
Ġl iqu
ord er
æĸĩ ç«ł
Ġgener ation
ï¼ī ãĢĤĊ
Ġlet ter
Ġdep ression
Ġsa ve
Ġconn ected
é¸ ¡
çļĦ æĸ¹å¼ı
çı į
åĲ¯ åĬ¨
ï¼Į åį´
æı ı
Ġaspect s
Ġ ign
c ast
Ġaltern ative
O T
Ġm er
è®Ń ç»ĥ
ç¥ Ŀ
Ġtrans l
a res
ï¼Į ãĢĬ
èĩª ä¸»
åĬ¨ çī©
ç±» åŀĭ
éĥ½ ä¼ļ
E L
ag er
Ġindu strial
Ġclear ly
ĠRep ublic
Ġb ed
Ġpresent ed
Ġro t
éĻĲ åĪ¶
æİ¨ èįĲ
Ġm ag
un ction
Ġv ary
Ġres ource
Ġdes p
Ġconduct ed
ĠF ound
ä¼ļ è®¡
Ġdiscuss ion
å¯ Ĵ
ç» ĺ
çĬ¶ åĨµ
ĠN A
b ed
Ġmet al
é¢ Ĺ
ï¼Į å°ı
Ġsp ect
Ġeas ier
æĭĽ çĶŁ
Ġintrodu ced
éĿ¢ ä¸´
ĠD es
Ġf ig
ul f
æ° ¨
Ġst ream
åĪĨ åŃĲ
l im
Ġnot es
éļ Ĩ
Ġno vel
plic ations
Ġh omes
å§ĭ ç»Ī
i i
as ks
èĪ Ĵ
Ġset ting
ĠM ary
Ġser ve
æĦ Ī
ot es
è´¢ åĬ¡
S p
ĠF ood
éĻ ¶
ĠR el
id ing
å¾® ä¿¡
cl us
Ġpart ners
ĠB ra
u x
Ġoper ations
ĠA ir
çļĦ åŁºç¡Ģ
ã ĥ
Ġv es
Ġb ran
åıĳ çĶµ
âĢĿ âĢľ
por ary
ul um
ĠSp anish
èĢĮ è¨Ģ
Ġrequire ments
Ġfrequ ently
te red
ĠCol lege
ogn itive
ĠH uman
Ġint ellig
. )Ċ
Ġparticip ants
å¾ Ĳ
ł éģĵ
5 6
Ġst ore
Ġg ames
ãĢĤ åħ¬åı¸
Ġfre edom
æľĢ å¤§
å® ı
Ġorgan ic
èµĽ åŃ£
è¿ ģ
/ or
ï¼Į çİ°
å¼º çļĦ
æĬ µ
el ines
ruct ure
____ ____
Ġs and
åĬŀåħ¬ å®¤
Ġstart ing
ra w
ĠSp ec
ed ic
D P
èį ·
åĲĮ æľŁ
ä¼ł æĴŃ
Ġnum erous
ĠD ec
Ġcom pl
d o
åŃ¦ ä¼ļ
op hy
Ġrecord s
è®¾ ç«ĭ
Ġf ields
Ġbuild ings
ãĢĤ ï¼Ī
Ġth r
ĠA v
å¾ ½
Ġapp e
ous ly
Ġdou b
a ult
è´ ¦
Ġwide ly
éĿ¢ çļĦ
Ġcy cle
ĠL et
äº« åıĹ
æĻ ĵ
æ³ķ è§Ħ
å¤© çĦ¶
âĢĿ .
Ġrele ase
Ġindepend ent
èŀį èµĦ
çĻ¾ åĪĨ
ä» ģ
çľŁ å®ŀ
erv ed
äº ©
è± Ĩ
i os
è®¾ ç½®
è¿Ľ æŃ¥
Ġrem ove
Ġcomb ination
ĠO ver
åŀ ĥ
åķĨ æłĩ
Ġnot ed
ä¹ ı
Ġelectric ity
æĢ§ åĴĮ
èĥ ĥ
lic k
Ġrele ased
åľ ¾
ĠM useum
åŃ¦ ä½į
Ġexp ression
ĠGree k
ĠChild ren
åŀĥ åľ¾
Ġo cean
æĤ ²
å® ĭ
ä¹Ł ä¸į
Ġany one
éĢļ ä¿¡
é£İ æł¼
ä¹ł æĥ¯
Ġ esc
ï¼Įè¿ĺ æľī
ap ers
éĺ² æİ§
Ġturn ed
er ate
Ġviol ence
Ġl ived
Ġout put
ç»ı å¸¸
Ġlo ad
åŁº äºİ
å¹´ ä»£
Ġg od
åĩł ä¹İ
Ġk illed
è¿Ĳ çĶ¨
Ġpolic ies
w orks
Ġexper iment
ĠRe v
æľī æīĢ
æıĲä¾Ľ äºĨ
Ġlay er
het ic
ol ved
i j
ĠGovern ment
æĽ´å¤ļ çļĦ
Ġt im
5 8
åĬł å¿«
ä¿ Ĺ
Ġris ks
Ġag g
ĠB udd
Ġcaus ing
i as
Ġbat tle
æĸ ĳ
am ental
im ens
Ġassess ment
éĢĤ åºĶ
Ġgra ph
Ġget s
åģļ åĪ°
Ġhe ar
å°ĳ å¹´
Ġt our
å¹¸ ç¦ı
olog ists
Ġcamp aign
ere nces
r ans
æĭĽ èģĺ
ãĢĤ æľī
Ġsam ple
b al
il it
ic ial
Ġbott om
C E
Ġcre ation
çĲĥ åĳĺ
çĤ ī
t a
å· §
Ġw in
èĤ¡ ä¸ľ
Ġpre fer
Ġcon v
Ġliter ature
- up
ä¸ĵ åĪ©
èĳ ¡
ot ing
7 6
Ġchang ing
æĭħ ä»»
åĵª äºĽ
Ġtr ig
Ġc overed
id a
Ġinterp ret
ä¸Ģ å®¶
æ³ķ åĽ½
S h
ress ive
è¿ĳ æĹ¥
çŃī çŃī
Ġch ronic
æ¯ı ä¸ª
è¾ ī
Ġmin or
Ġh om
Ġfil m
Ġis land
ĠO ff
æ· ¡
Ġresult ing
stit ution
è½¬ åŀĭ
Ġdr ive
Ġun ivers
Ġperform ed
ï¼Į åĽł
æ¯ı å¹´
Ġox ygen
ang ing
Ġsu mm
çĮ ª
r as
Ġmess age
çļĦ æĬĢæľ¯
æ¨ ª
éĶ ĭ
ol id
èĦ ī
Ġsh ap
äººæ°ĳ æĶ¿åºľ
Ġcirc um
ro g
çĭ¬ çī¹
Ġconn ection
çī¹åĪ« æĺ¯
ri a
ra ction
å² ©
å¨ ±ä¹Ĳ
éĩĮ çļĦ
am s
- B
Ġ #
åĿ ¦
ĠGe orge
Ġis ol
p ed
è¿½ æ±Ĥ
Ġwant ed
Ġtemper atures
è¿ŀ æİ¥
è¾ Ľ
Ġrecomm ended
ï¼ĮæĪĳ åĽ½
on ic
Ġphys ic
Ġwh om
éĤ£ äºĽ
èĢĥ çĶŁ
Ġdang erous
ãĢĤ æŃ¤å¤ĸ
Ġsp eech
ï¼Įä¸į ä»ħ
äººæ°ĳ å¸ģ
éħį åĲĪ
t ical
Ġtechn ique
ĠU nder
ä½ĵ çİ°
åĸ ·
Ġfind ing
N ew
æĹ¶ çļĦ
äºº ä½ĵ
çģ Ń
æ¯ı å¤©
osy stem
at ically
Ġprinc iples
ãĢģ æ°´
i eces
å¿ħ è¦ģ
éĩĩ è´Ń
Ġg ender
Ġann ual
å®ŀéªĮ å®¤
å®ŀ åĬĽ
Ġfeel ing
è¿Ļ æĺ¯
Ġrefer red
æ» ¤
å± ¥
ro ph
ĠP aul
ot hes
Ġs em
èī¯ å¥½
æł¡ åĽŃ
18 4
Ġread y
ä»¬ çļĦ
Ġsh ip
ess or
Ġaut hors
ĠM ark
å¾ª çİ¯
Ġbu y
çİ° å®ŀ
ä¹ ³
æĸ° åŀĭ
and er
Ġrelationship s
Ġd rop
å°½ ç®¡
Ġst orage
Ġc ore
ï¼Į æł¹æį®
æĽ¾ ç»ı
æ²Ł éĢļ
r ations
Ġbeaut iful
æĴ ĳ
Ġconf irm
Ġv ul
Ġu pper
Ġencoura ge
c ers
Ġintern al
Ġcharacter istics
ĠC ath
resp ond
ä½ľ èĢħ
åħħ æ»¡
iven ess
at form
Ġcolle ge
Ġdeg rees
oc al
ä¹ĭ å¤ĸ
å¼º è°ĥ
Ġmeet ing
B C
Ġhapp ens
ç» ª
ĠOr gan
ä¸Ĭ åįĩ
ãĢģ å¸Ĥ
ĠPro ject
å° ĺ
Ġgr ant
Ġdist inct
çĪ¶ æ¯į
ag o
Ġter rit
Ġro ot
Ġrep rodu
ï¼Įä¸į æĸŃ
Ġal g
æĻ ¶
ï¼Į å·²
Ġc ast
è¡¨ è¾¾
å£ ®
ï¼Į å°¤åħ¶
Ġhelp ed
Ġme at
ĠIs land
Ġt rou
Ġto oth
Ġc ris
å»º æĪĲ
äºĭ å®ŀ
How ever
r um
Ġregard ing
Ġup d
ber g
Ġpre par
å¸Ĥåľº çļĦ
Ġcal c
ç½Ĺ æĸ¯
å¼º åº¦
éĵ º
Ġexact ly
Ġdeterm ined
æĮĩ æłĩ
Ġredu cing
ï¼Į åĪĻ
çº ½
é© ±
åħį è´¹
ãĢĤä½Ĩ æĺ¯
Ġves sel
H ere
ĠM ount
Ġinj ury
èĲ Ħ
ä¸» æĮģ
Ġre b
ä¸Ģå®ļ çļĦ
le ase
Ġsol utions
éĶ ħ
çº ¤
Ġn or
Ġb urn
å¤ļ å¹´
Ġf ine
Ġex cell
çĽ´ æĴŃ
or ial
ä»¥ åĲİ
0 8
Ġt rib
Ġs av
çŁ³ æ²¹
Ġbel ong
èĩ³ ä»Ĭ
ï¼Į åĲİ
èĸ Ħ
è· ³
Ġun its
Ġfl ood
çĶµ åĬ¨
æł ı
Ġ çļĦ
ä»¤ äºº
7 7
Ġun f
o ch
Ġrelig ion
ish ing
. D
- th
ress ed
æĪ¿ åľ°äº§
Ġple ase
é© »
è£ Ĥ
Ġcomp rehens
ĠS un
æľī çĿĢ
Ġn orthern
ĠB el
æ® ĸ
æ³ ½
6 4
Ġgen es
iet ies
C on
Ġcoun ter
åĳĪ çİ°
Ġanx iety
Ġo ption
Ġp ric
æĿ Ĩ
Ġrad io
Ġyou th
ortun ately
ĠThere fore
å¼ķ å¯¼
Ä ģ
ĠW ork
v ision
ãĢĤ ä¸Ģ
ĠD em
Ġmention ed
Ġback ground
æĹ ¦
æľĢ ä½³
m ark
å¾ Ĵ
C l
Ġrad iation
åĮ» èį¯
Ġd ram
Ġvol unt
Ġinit ial
Ġcons ervation
èĳ¡ èĲĦ
Ġr ound
Ġmat hemat
le g
ĠWh y
ä¸ĩ åĲ¨
çĬ¯ ç½ª
æĭ Ķ
ĠO nce
z a
A ccording
ĠS T
é©¾ é©¶
b l
åĴĮ åĽ½
åĲĮ æł·
t es
æµ ®
Ġstate ment
Ġserv ed
Ġprevious ly
å¤© æ´¥
Ġproper ly
Ġmost ly
ro ad
um n
åľ° ä½į
åıĳ è¡Į
Ġvol ume
Ġsur gery
ï¼Į å½¢æĪĲ
çªģ åĩº
ĠF ore
éĺħ è¯»
Ġremov ed
ĠâĢ ¦
Ġin put
Ġinvol ves
R E
åĸ Ŀ
ãĢĤ æīĢä»¥
çķ ħ
Ġem ail
Ġra ce
å® ħ
Ġsc en
Ġhe ard
.. .Ċ
Ġrepl ace
äºº æķ°
Ġinvol ve
Ġfail ure
åĪ© çĽĬ
9 8
åĲĪ æł¼
Ġtre nd
è¿Ľ åı£
Ġinterest ed
Ġel imin
è· Į
å®ĺ æĸ¹
ri age
ate gy
æĿ Ń
ribut ed
ĠT est
Ġdescrib e
Ġinf ections
Ġprom ote
èĩ´ åĬĽ
Ġinf lamm
Ġcred it
Ġcl ick
åĩ ¯
Ġlink ed
ĠAs ia
ric ulum
ï¼ĮåĲĮæ¯Ķ å¢ŀéķ¿
æľ¬ ç§ĳ
Ġt um
Ġexperien ced
Ġadv anced
p ing
Ġsol id
oy al
R O
R es
Ġlead s
- D
Ġin h
ï¼Įè¿Ļ æł·
æĹ ĭ
in ate
éĶ ģ
å¡ĳ æĸĻ
Ġtrans form
ul es
iver se
èĦ ¸
å¸ĥ å±Ģ
ä¾Ŀ æį®
Ġm ist
Ġclass es
Ġp al
Ġob vious
Ġegg s
ur t
åħ¬ ä¼Ĺ
ä¹Ł ä¼ļ
Ġth ick
éħį å¥Ĺ
cept ion
Ġl ic
Ġsqu are
èĤ ¿
æĥ³ è¦ģ
ç¢ į
ar row
c ript
ä¿Ŀ æ¸©
Ġrele vant
å¾Ģ å¾Ģ
ĠIt s
is her
ä¸°å¯Į çļĦ
c are
äºĨ ä¸Ģä¸ª
åĨį æ¬¡
Ġstr ategy
èļ Ģ
Ġchar ge
ĠG ra
ĠH en
Ġart icles
æµ· å¤ĸ
Ġland sc
ï¼Į ä¸¤
ĠE v
Ġme ant
Ġadvant age
ä¼ļ ä¸Ĭ
å¤ º
Ġmanufact ure
çĵ ·
éĻ ķ
k in
ĠM al
w ith
æŃ¦ æ±ī
an cing
Ġd ri
æĶ¶ éĽĨ
Ġdep ending
ĠPh ys
ag s
ĠT ex
2 50
åŃ ķ
Ġke pt
è· ĥ
Ġreact ion
Ġexp osed
æīĢ åľ¨
Ġeffect ively
å¿Ĺ æĦ¿
ï¼ĮèĢĮ æĺ¯
çłĶç©¶ çĶŁ
å±ķ è§Ī
re te
Ġw est
ear s
m al
W hy
w ood
Ġsay ing
Ġl ib
6 8
Ġf ol
ĠServ ice
Ġd ie
ĠS am
æĸĩ åŃ¦
ri an
Ġdec ided
- n
Ġexper ts
çļĦ çĶŁæ´»
ĠS en
ï¼Į èĻ½çĦ¶
ĠM ars
ĠP ort
u pp
æ± ¤
ut ed
ĠR ober
Ġexper t
Ġpoll ution
Ġsou thern
Ġprep ared
it z
èĤ¯ å®ļ
Ġdog s
M any
G o
çĹħ ä¾ĭ
å°ı ç»Ħ
5 7
è¡Įä¸ļ çļĦ
æ» ´
äºĭ æķħ
re p
Ġl ung
ĠH IV
Ġcl os
Ġhelp ing
Ġconflic t
Ġmot ion
åį° åº¦
Ġinst all
Ġim pl
åŃ¦ åİĨ
m et
- related
Ġp ages
Ġsp ent
ä¸Ĭ è¿°
çļĦ åĲĮæĹ¶
ä¼Ĺ å¤ļ
Ġinstit utions
å° ¾
åħĥ ç´ł
ï¼Į å¸ĮæľĽ
éĽ ķ
- le
èĤ¡ä»½ æľīéĻĲåħ¬åı¸
Ġfarm ers
Ġadj ust
Ġsp ot
Ġincor por
il ing
ï¼Į ç§¯æŀģ
çĽĳ æµĭ
Ġprocess ing
è®º æĸĩ
æī £
éĢĲ æŃ¥
çĿ ¡
Ġprop osed
Ġveget ables
Ġoffic ial
Ġman age
èĪ į
T hat
é¥® é£Ł
èĭ± è¯Ń
ur ation
v is
at o
âĢľ ä¸Ģ
Al though
w ell
åĶ¯ ä¸Ģ
Ġinv ent
ç½ĳ ä¸Ĭ
Ġdis s
æľ ±
Ġh our
Ġcontin ues
Ġconcer n
augh ter
Ġpre t
-l ike
pl ace
Ġk ill
Ġe ast
Ġsy nt
Ġs ong
Ġprofess ion
Ġse eds
å¼º åĮĸ
Ġj our
Ġamount s
ç£ ģ
Ġm el
ify ing
Ġsign al
åĽ´ ç»ķ
Ġs ort
Ġconcer ns
ĠAc ad
å¹´ é¾Ħ
Ġdisc over
ç¾İ æľ¯
ĠM art
ĠS ub
çļĦ ä¸Ģä¸ª
æķ ¢
äºº åľ¨
çĶµ èĦĳ
åįģ äºĮ
åı° æ¹¾
åįĹ äº¬
Ġcom fort
ĠL a
çŃī æĸ¹éĿ¢
æ³ µ
Ġar m
Ġse ed
Ġess ay
çŃī å¥ĸ
Ġph ase
Ġacad emic
Ġa id
y a
A A
Ġc ere
åħ¬ çĽĬ
Ġemot ional
N ow
al le
çĽ Ī
éĻ¢ æł¡
d ed
è£ħ å¤ĩ
P P
Ġco al
Ġoper ation
ĠStud ents
æįŁ å¤±
L E
b i
çİ¯ èĬĤ
.. ..
Ġconc lud
ac ing
ãĢĤ å¦Ĥ
el ine
ĠM et
ĠI r
å¯ º
Ġown ers
é«ĺ çŃī
ĠIn f
ĠB as
ç² ĺ
Ġw aters
Ġp ieces
Ġcor respond
é ŀ
ç¨ ¿
a el
Ġatmosp here
å° Ŀ
Ġphen omen
ĠC ivil
Ġchemical s
Ġre ached
Ġwe alth
å¥ ī
Ġsupport ed
è¿Ŀ æ³ķ
ac ific
ĠS er
Ġvul ner
Ġlo oks
ï¼Į ä¸ĭ
stand ing
ĠMex ico
çº ¹
ä¸Ĭ åįĪ
Ġfin ally
èµ ĸ
P l
Ġman ner
Ġmain ly
Ġbro ther
ç¾ Ĭ
ä¸» ä½ĵ
bo ard
ak ers
çī¹ å¾ģ
èĬ ¯
çļĦ ä¼ģä¸ļ
å¸¸ è§ģ
å®ŀ è¡Į
äº ķ
M S
O ur
é«ĺ çº§
Ġp ip
ä¸Ģ åĪĩ
Ġfor ced
Ġconcept s
çļĦ åľ°æĸ¹
Ġident ity
D C
è¶³ çĲĥ
ĠL ife
ĠO ld
ĠCour t
18 3
ew ork
Ġcomple ted
çľŁ çļĦ
ĠTh omas
ĠM ac
ï¼Į éļıçĿĢ
æĹ¥ åīį
åĪ Ģ
é¡º åĪ©
ĠR ich
Ġsec ret
n ic
Ġrem ained
Ġdefin ition
Ġh op
åıį æĺł
com es
ãĢĤ å¯¹
çģ °
Ġcons ult
ĠJew s
è£ħ ç½®
ï¼Į ç¡®ä¿Ŀ
åĲ Ľ
Ġnot ice
Ġd oll
åİ ¦
Ġsustain able
çĲĨ æĥ³
ak er
O C
æī¾ åĪ°
p art
è ¹
èĩª æ²»
op er
ren ce
ĠD i
åİĤ å®¶
æļ Ĺ
è®¨ è®º
orm al
r us
Ġdat ab
ĠW ell
å®Į æķ´
Ġn it
nd rome
è§£åĨ³ æĸ¹æ¡Ī
ä¿Ħ ç½Ĺæĸ¯
Ġh orm
å¿ĥ çļĦ
ä¸Ģ ä½į
Ġint ended
çľģ çº§
Ġflu id
row s
Ġdiagn osis
Ġbeg ins
æľī äºĨ
ä¼ ¸
ĠR em
ĠIs l
é¢ ģ
æĬķ æłĩ
Ġwond er
ĠWh ite
ãĢģ ä¸į
ro id
Ġt aught
Ġengine ering
Ġsus p
æĭĽ æłĩ
Ġform ation
T S
ĠMedic ine
h t
Ġelectr ical
ä¸ļ ç»©
ç¡ķ å£«
æĬĢæľ¯ çļĦ
äºº çĶŁ
ç² ®
ï¼Į ä¿ĥè¿Ľ
å¯¹ è±¡
åĪ¶ åĵģ
çĤ Ń
ro ke
Ġl ov
Ġf oss
èı ²
Ġlangu ages
Ġp un
ĠBrit ain
ï¼Į ä»Ĭå¹´
Ġcent uries
ri er
æ¦Ĥ å¿µ
åŃ¦çĶŁ çļĦ
åħį çĸ«
wh ich
Ġproced ure
Ġm ath
0 9
Ġfor t
Ġallow ing
ï¼Į Ċ
Ġpl atform
Ġimpro ved
as tern
è´« åĽ°
16 0
Ġset tle
æĶ¯ æĴĳ
Ġy ellow
ĠB er
Ġrecord ed
Ġprofess or
ĠD irect
æĭ ¼
èģĶ çĽŁ
æİĴ æĶ¾
âĢĿ ä¸º
åıĺ å¾Ĺ
è ķ
Ġmor ning
ĠA rab
Ġco ord
èĥĮ æĻ¯
Ġtechn ical
Ġcom ment
Ġcomb ined
æĹ¥ èĩ³
oss ible
Ġw et
ĠVir gin
å¦Ĥ ä¸ĭ
Ġdef ic
Ġauthor ity
ĠCent ral
Ġm aster
èĩª æĪĳ
atur ally
Ġaware ness
is hes
æīĭ æ®µ
Ġst ation
Ã ¡
Ġkind s
Ġcollect ed
Ġsu fficient
æ¯ķä¸ļ çĶŁ
at ric
Ġindic ate
ĠNew s
åı¯èĥ½ ä¼ļ
6 7
H O
Ġd ro
ï¼Į çİ°åľ¨
Ġredu ction
Ġh ospital
ç¥ŀ ç»ı
æľº çļĦ
Ġb an
ĠH el
Ġoff ered
èĻ «
' ll
Ġst orm
èĤ¡ ç¥¨
Ġtox ic
Ġsh ared
om in
Ġh it
åįļ çī©
z ing
éĤ ¦
ĠNA SA
Ġgir ls
Ġfrequ ency
æĭį æĳĦ
è§Ĥ å¯Ł
æį Ĳ
åĩĨ ç¡®
Ġpurp oses
ä¸º ä»Ģä¹Ī
Ġmot or
çĶ³ æĬ¥
æĶ¯ åĩº
ä¸Ĭ æ¶¨
5 9
å½± çīĩ
å§Ķ ä¼ļ
P C
å° º
en ced
ĠE very
çī© çĲĨ
æĭ ľ
c rib
o o
Ġmot iv
äºĮ åįģ
oun ced
çĽ¸ åĲĮ
ä» ĵ
Ġf ib
ĠAt l
u able
çļĦ å¿ĥ
ä¸Ģ çĤ¹
Ġfact s
Ġtr ial
ĠSp ace
Ġpract ical
æ¹ĸ åĮĹ
Ġless on
Ġhe aring
åħ´ è¶£
cl usion
ĠS al
åĪĽ å»º
Ġn av
ĠMed ical
Ġoccur red
ĠK ore
Ġthe r
Ġgra de
Ġra ised
ä¸ī å¹´
esp ite
å®ļ çļĦ
ac he
çĵ ¶
Ġpartic les
çĺ ¤
æłĩ å¿Ĺ
æĹħ è¡Į
ĠB ay
åĨ³ èµĽ
ĠF re
os en
ol ars
Ġlead er
Ġf lex
- re
Ġvo ice
åħ± äº«
Ġfocus ed
os ite
ok ing
Ġl inks
Ġec osystem
è´¯ å½»
Ġb ond
F rom
Ġdrink ing
ad o
ĠM iss
ĠJ er
ĠB ible
Ġhtt ps
Ġcon ver
Ġar my
ĠTechn ology
è£ħ é¥°
èĻ İ
-s p
Ġprim arily
rap y
æ¸ łéģĵ
å° ¿
æĪĲ çĨŁ
it ors
Ġb rief
Ġres ist
èģĶ èµĽ
åĢ ¾
go ing
Ã Ń
æĻ ¨
æ¬ ²
æ© ¡
Ġlarge ly
è¿ «
åį± éĻ©
ãĢĭ ãĢĬ
Ġsitu ations
åĪ© äºİ
Ġre new
Ġapp oint
ver ty
A b
Ġexist ence
ï¼Įæ¯Ķ å¦Ĥ
è ²
" Ċ
N o
Ġext ent
Ġmus cles
l ig
b all
Ġsur pris
Ġthough ts
èĤº çĤİ
å¦ »
å° ĸ
ä¼Ļ ä¼´
Ġsam ples
Ġpo verty
Ġ åľ¨
èĢĥ æł¸
æĻ ĭ
çļĦä¸Ģ ç§į
æ¼ ı
ä¸ Ļ
éĺ² æŃ¢
åĽŃ åĮº
ens us
Ġg ar
i ated
æĦı åĳ³
å¯ ¸
Ġcont ribute
Ġbl og
ĠEn ergy
ä»£ çĲĨ
ç¾İ ä¸½
B A
Ġun s
ĠTex as
Ġdesp ite
Ġcertain ly
éĶ Ī
Ġs now
ï¼Įè¿Ļ ä¸ª
æĸ° åĨł
Ġliqu id
Ġide al
ov iet
ĠB en
ç§ ¦
Ġrespons ibility
M ost
Ġb ill
ot ic
èĽĭ çĻ½
è§Ĵ èī²
Ġflow ers
Ġconsequ ences
æĦŁ åıĹ
ag ue
Ġeffic iency
hip s
Ġt ro
Ġgra nd
ĠComm ission
z y
Ġtreat ments
é¢Ħ ç®Ĺ
åĽ½åĨħ å¤ĸ
Ġhigh light
Ġstra ight
å¾Ī å¤§
ä» ¿
B S
Ġr ural
r ich
' ve
Ġagricult ural
è§Ĵ åº¦
æķĪ çĽĬ
Ġpers ons
Ġp ark
åħ± åĴĮåĽ½
ĠL ou
Ġspec ifically
Ġpur s
èĦ ı
æľ¬ èº«
Ġper man
ĠAr my
ä¾Ŀ çĦ¶
ä¼ļ åĳĺ
Ġexpl ains
æĦŁ åĪ°
ç« ¹
am ple
Ġf elt
ĠQ ue
ä½ı æĪ¿
t ion
Ġm ix
Ġjob s
Ġc ert
çłĶç©¶ éĻ¢
in n
un k
Ġexpl an
Ġb ud
ĠM r
i xt
ãĢĤ æľ¬
æ° Ľ
ul ating
Ġb right
Ġpol ice
ĠRuss ian
åģ ¶
act ers
ĠW ind
ç¦» åŃĲ
ï¼Į æŃ¤
æĺ¯ ä»Ģä¹Ī
æĩ Ĥ
Ġexcell ent
çļĦ æľįåĬ¡
Ġw ife
ï¼Į åĽ½å®¶
æģ Ĳ
å» ī
5 2
Ġshow ing
ï¼Į ä¸Ģä¸ª
æĥħ ç»ª
ĠD ist
å·¥ èµĦ
ol ute
Ġsh ar
Ġsect or
æ¬ £
Ġrev olution
âĢĻ m
5 1
åľ¨ ä¸ŃåĽ½
åĪº æ¿Ģ
Ġemer gency
Ġc ognitive
è¿Ļ ä¹Ī
è¡¨ æ¼Ķ
Ġimpact s
Ġhe ight
et ers
ang es
Ġ Ã
åĩł ä¸ª
å· ¡
çļĦ å¥½
ç»´ ä¿®
ĠH ol
ã Ĥ
rol og
Ġadv ance
ĠL atin
ĠCl ass
Ġk n
æľī äºĽ
ãĢĤ çĶ±äºİ
Ġsubject s
Ġprot ected
Ġadv ice
ut ive
Ġs in
Ġcare er
oth ing
Ġplay ing
Ġsal t
ãĢĤ åħ¶
éĻ ·
èµ ģ
Ġother wise
Ġtra in
ĠSec ond
çĲ ´
å¥ ı
ç§Ł èµģ
æĳ Ĩ
Ġf aster
Ġqu ar
Ġk m
Ġneigh bor
Ġbi ological
Ġsuggest ed
Ġref ers
Ġbir d
Ġab use
èĩ´åĬĽ äºİ
æĽ´ å¥½
çº¿ ä¸Ĭ
æŁ Ķ
ough ly
Ġlook ed
ï¼Į éľĢè¦ģ
I M
Ġs end
åīį çļĦ
å®ī å¾½
s es
Ġv ital
éŁ© åĽ½
est ed
å¤ļ å°ĳ
éļ¾ ä»¥
åį ĵ
IN G
Ġm ere
Ġlet ters
Ġfund amental
ï¼Į åĲĳ
è¿ Ī
æ¡ ĥ
Ġreturn ed
Ġn ations
ä½İ äºİ
p en
Ġdetail ed
æĮĩ æķ°
in ent
Ġvacc ine
Ġgovern ments
äº§ æĿĥ
1 10
å¿« ä¹Ĳ
as ure
å½ĵ æĹ¶
åħ¨ ä½ĵ
ï¼Į ç»Ļ
ĠA D
æĸ° æĬĢæľ¯
ä¿¡ çĶ¨
è¾ ĸ
Ġl iver
ĠF urther
Ġsound s
èĤ Ŀ
v an
Ġfl at
Ġst ars
åĵģ ç§į
Ġgreat est
æŃ» äº¡
æ°Ķ ä½ĵ
Ġhabit at
äºĭ é¡¹
èĢ ¶
æľĢ è¿ĳ
ä¸ĵ é¡¹
ç®¡ éģĵ
Ġincreasing ly
æĿ ľ
æ¡Ī ä»¶
Ġv ast
Ġst one
Ġclaim s
Ġdom estic
é¢ĨåŁŁ çļĦ
Ġst em
è² Į
æł¹ æľ¬
æ §
Ġnutri ents
ĠFound ation
Ġt asks
æĢ» ç»ıçĲĨ
v ille
igen ous
è§£ éĩĬ
åĪĨ å¸ĥ
åħ¬ å®ī
Ġsurround ing
7 00
çļĦ ä½ľçĶ¨
åŁ ĥ
ĠS ou
æ²³ åĮĹ
Ġsc he
Ġro ll
Ġm ort
æĬ¤ çĲĨ
Ġkeep ing
w hat
Ġra nd
ĠD ise
ç¾İ çļĦ
Ġsp end
Ġoper ating
Ġon to
Ġ Î
or al
ï¼Į ä½ľä¸º
åıĤ èĢĥ
C S
Ġw el
å·¥ åİĤ
ens es
Ġn erv
D F
æŁ ±
Ġmax imum
ĠM ass
ĠC le
0 6
éĤĢ è¯·
Ġhapp ened
Ġdivid ed
Ġf irm
Ġtyp ical
åĲ« æľī
st ood
Ġimm ig
ic ed
ĠE lect
res ents
m l
Ġplay ed
Ġmeas ured
Ġpro s
æķ´ åĲĪ
Ġhundred s
Ġfamil iar
åľº æīĢ
Ġpers pective
Ġmet ab
ĠB ook
ail s
éĥ¨ ç½²
Ġpro port
å±ķ å¼Ģ
Ġapp arent
Ġpot entially
Ġmonitor ing
/ s
Ġslight ly
Ġaffect s
ĠIn formation
ãĢģ æľī
- H
Ġp ul
ĠI mp
è° ±
å¿ Ļ
os a
é¸ Ł
Ġsy n
Ġappro aches
èĴ ¸
ç»ı åħ¸
Ġrand om
å®¤ åĨħ
äºļ æ´²
Ġhy per
è¯¦ ç»Ĩ
è®¸ åı¯
æĬ ĳ
I ON
5 3
Ġinterest s
om etimes
åĲĦ ä¸ª
åĩº çĶŁ
Ġl ik
å²ģ çļĦ
act ive
äºº çī©
èĤ Į
rast ructure
Ġrecogn ized
Ġcontroll ed
Ġare n
ï¼Į ä¸ī
æķ°æį® æĺ¾ç¤º
éĿ¢ åĲĳ
ĠT oday
Ġs en
ĠM ont
ĠTw o
èĶ ¬
èĥ İ
ec k
Ġinstru ment
Ġf if
- P
B N
çļĦ çĥŃ
Ġpr ison
è° Ĳ
Ġcompon ent
åĬĽ åº¦
Ġval id
Ġsp l
Ġv ent
Ġhelp ful
- F
Ġne ut
Ġexpl ained
çĻ¾åĪĨ çĤ¹
å£° æĺİ
Ġdep th
ï ¿
Ġmo ist
ĠP acific
ĠM il
Ġfollow s
Ġsat is
éĶ ¦
Ġmin imum
Ġtra d
Ġchar acters
Ġast ron
åį± å®³
éĥ½ åľ¨
ipp ed
Ġcons ists
it age
T e
ãĢĤ ä¸º
ĠS oviet
Ġveh icle
Ġoffic ials
n el
f ield
Ġappe ared
Ġth in
ĠCath olic
çĶŁæ´» ä¸Ń
Ġre form
Ġk new
Ġdis app
Ġcris is
ç§ Ĵ
ĠGo ogle
âĢĿ çŃī
Ġstud ied
Ġspirit ual
Ġcrop s
Ġag es
èŀ º
Ġex ternal
æĺ Ĩ
9 7
Ġdou ble
th at
c est
Ġp ray
Ġl ose
ĠE conom
å¤§ å¹ħ
Ġb ow
çĽ¸ äºĴ
åįļçī© é¦Ĩ
il ed
éĽĨ ä½ĵ
åĮħ åĲ«
er ia
Ġch ann
Ġatt acks
è®© äºº
çĻ½çĻľé£İ çļĦ
ĠD el
åºĶ æĢ¥
9 00
ä¸ĵä¸ļ çļĦ
l i
Ġdirect or
çī ¢
å½ķ åıĸ
ĠD ef
N D
ĠB oth
ä» Ļ
ate ver
10 1
Ġk il
Ġfac ilities
ĠSt and
Ġfil es
åĨľ æ°ĳ
ĠT reat
ak s
u ke
Ġtop ics
Ġor al
Ġpric es
Ġaccur ate
ĠSt e
ĠR ights
ĠF lor
Ġinst ruction
Ġsubst ant
Ġf le
Ġcontin uous
Ġgood s
çīĪ æĿĥ
éģĩ åĪ°
åľ¨ äºİ
åıĳ çĹħ
Ġsubst ance
it ness
Ġtit le
Ġcl im
ĠJ ose
ĠG roup
Ġs ed
Ġ å¹´
æĺ¯ çĶ±
ï¼Į å¾Ī
el lect
Ġport ion
Ġdep ends
0 7
ç³»ç»Ł çļĦ
ies t
G B
Ġcou ple
çĶŁ éķ¿
æ¸ħ æ´ģ
Ġrep resents
åıª èĥ½
5 4
- R
ĠM iddle
ĠRuss ia
ĠLear ning
Ġpain t
Ġinvest ment
Ġcont aining
æ£ ĭ
ä¸ª çĻ¾åĪĨçĤ¹
Ġch ief
av a
Ġw estern
ĠM icro
is p
ĠL ake
Ġrapid ly
Ġperiod s
ï¼Į å¾Īå¤ļ
æ¶Ī éĺ²
å·¥ä½ľ äººåĳĺ
æĢ» ä½ĵ
å¹¿ åľº
å¿ ł
Ġall erg
C T
åĽ½ å¤ĸ
ific ial
h i
ĠSm ith
Ġt ried
Ġimm un
Ġrec y
ĠR ef
èĩ³ å°ĳ
Ġcon vent
èĤ ł
om pl
Ġwall s
éĥ ģ
æħ Ī
al se
æ¼Ķ åĳĺ
Ġha z
M ore
æŀĦ æĪĲ
Ġclose ly
æīĭ æľ¯
c hers
ĠW omen
ãĢģ çĶµ
ol f
um ber
Ġf ing
æĦıåĳ³ çĿĢ
å®ļ ä½į
Ġst ated
Ġcru cial
åŁºç¡Ģ è®¾æĸ½
6 3
æī¶ è´«
åĽ¾ ä¹¦
Ġn aturally
Ġtest ed
Ġdisc overy
Ġconcer ned
Ġvis ible
ï¼Į å¼Ģ
å¢ŀ éĢŁ
æĿ¥ åĪ°
æķĻèĤ² éĥ¨
Ġemploy ees
è®¤ å®ļ
y e
Ġsuff ering
æµģ ç¨ĭ
å®¡ æŁ¥
M y
- se
Ġcircum st
ä¼ļ åľ¨
èµ ¶
æĢĿ èĢĥ
ra cy
Ġconcent ration
ĠN or
Ġcont em
ç¬¬ äºĶ
Ġfeel ings
ĠO ut
åģļ åĩº
Ġselect ed
äºĭ æĥħ
å½ ¼
ĠF ederal
os c
b and
åĬł å¤§
R I
G en
ĠW ild
æľŁ å¾ħ
ä¹ ĥ
æº ª
Ġar ms
ĠL ibrary
Ġre in
æĢģ åº¦
k ing
á ĥ
Ġres idents
Ġn arrow
Ġmor al
ĠCar ol
ĠA p
æĪĲ å°±
æ£Ģ éªĮ
ä¸ĵ éĹ¨
Ġele v
ĠL and
ĠHist or
çĶŁ ç´ł
åĪĨ ç±»
) ãĢģ
ĠChar les
Ġt ips
Ġmedic ations
éĢ Ĩ
Ġsub sequ
Ġmove ments
å®ĥ çļĦ
Ġout comes
æŃ£ æĺ¯
um in
å¼ķ åıĳ
è° ĭ
ä½ľ ä¸ļ
Ġp aid
Ġdel iver
Ġcur riculum
Ġal t
èī² çļĦ
ro c
å¼ķ è¿Ľ
çĶ ľ
ĠFran c
åı¯ éĿł
åĩł å¹´
w est
Ġfl oor
ï¼Į æĪĸèĢħ
éĻķ è¥¿
Ġsm art
æİ ĺ
æī °
ist an
r ating
n ame
éĽ¶ åĶ®
ä¸» åĬŀ
ĠU p
ĠP ost
ĠCont rol
æī «
å¸Ĥ æ°ĳ
ĠSu pp
å¸¦ åĬ¨
Ġgrow n
åĪ« äºº
Ġhar vest
Ġprote ins
Ġdiscuss ed
ãĢĤ æł¹æį®
ic ks
ç§į æ¤į
åįİ ä¸º
D r
ce ler
ï¼Į å¤§å®¶
æŀĦ å»º
Ġdoc uments
ï¼Į çľĭ
Ġra il
è®º åĿĽ
Ġview s
æĦŁ è°¢
Ġle aving
åŃĺ åĤ¨
åİŁ æĸĻ
ä¸Ĭ åįĬå¹´
é¡¹çĽ® çļĦ
ĠD ata
åĩ ī
ĠJ ud
ï¼Įä¸º äºĨ
l a
al ian
åŃĲ çļĦ
æĸ° èĥ½æºĲ
âĢĿ åĴĮ
l ers
åĲ« éĩı
æĮ ĸ
è¥¿ å®ī
ind ing
Ġjust ice
Ġdist ingu
ï¼Į è¿Ľä¸ĢæŃ¥
å°Ĩ äºİ
Ġfund ing
ĠN ature
é«ĺ ç«¯
èī ¾
æİĪ æĿĥ
ĠHen ry
An other
èĳ£äºĭ éķ¿
Ġro ots
ĠF am
Ġmed ium
ĠE mp
ï¿ ½
åĵ ²
asc ular
Ġarg ument
ä¹¡ æĿĳ
Ġo d
éŃ Ķ
Ġs ides
ĠCon stitution
å±ķ çİ°
Ġdisc rim
g ment
ĠP sych
ç¦» å¼Ģ
Ġcard i
Ġj u
Ġdi am
æĺ¾ èĳĹ
Ġacc ompl
ĠUs ing
14 0
Ġpart ies
çłĶç©¶ æīĢ
Ġph one
ĠRober t
I nd
æĪĲ åĪĨ
Ġinter view
ä¿¡ å¿ĥ
çī© èģĶç½ĳ
åĪĽ æĦı
å¤§ èµĽ
è¯ļ ä¿¡
åī ĳ
r ust
æĺ¯ æĮĩ
ĠAn other
é» İ
çļĦ ä¸į
D o
Ġproced ures
åĲ¸ æĶ¶
Ġadd ing
ul in
Ġst ret
ĠW il
Ġset s
Ġadv oc
g al
å¦ Ļ
äº§ éĩı
ob e
æ·± åº¦
ï¼Į å¯¼èĩ´
Ġmar ine
èĢģ å¹´
ï¼Į æīį
æı Ĵ
ĠCol umb
â ĳ
Ġwe ap
ĠInst ead
åł ¡
æ³¨ éĩį
ab il
Ġd iversity
ĠEnvironment al
Ġpict ures
Ġobt ained
ĠSe a
ĠM em
Ġlat est
è®¤ åı¯
è¡¥ åħħ
1 30
Ġfert il
çī §
ä¸Ģ åĲį
æĬ ±
Ġh unt
æµ· æ´ĭ
g l
Ġfru its
æĳĦ å½±
Ġd u
ĠS uch
d den
Ġhor se
ãĢģ æĹł
åŁº å±Ĥ
n y
Ġrec overy
Ġmill ions
æĽ´ æĸ°
èĸ ª
Ġintern et
å¹´ åºķ
ĠM ake
æ»¡ æĦı
os m
Ġtalk ing
Ġp il
ĠD isc
æĸĩ åŃĹ
o oth
7 2
å°ı åŃ¦
in i
e er
Ġval uable
D uring
ç¡ ħ
ĠL ike
Ġla un
Ġexp ensive
Ġd ial
æľī äºº
ï¼Įè¿Ļ ç§į
æ¢ ¯
Ġrecogn ize
çĸ Ĩ
ar io
Ġing red
Ġcol ors
èį¯ åĵģ
Ġcons cious
ï¼Į åĴĮ
åĬ ²
Ġex change
l ar
angu age
0 3
Ġregular ly
9 6
Ġpar am
Ġb and
æĭĵ å±ķ
com p
ç¢ İ
ot a
b ing
ad a
Ġdep os
åĴĮ ç¤¾ä¼ļ
O ther
Ġcor por
18 1
Ġp ig
æĢ» ç»ĵ
æıĲ åīį
ace book
Ġvill age
ĠP ers
Ġacc omp
ï¼Į äºº
è¡Į çļĦ
æ° ¢
Ġcap able
æĸ° å¢ŀ
Ġorigin ally
åĽŀ æĶ¶
åħ¨ çľģ
ä»ª å¼ı
ath y
Ġdeath s
ĠK en
å¤© çļĦ
Ġless ons
Ġprevent ion
å¿ ½
Ġtou ch
ï¼Į åĬłå¼º
ocr atic
Ġmy th
åĳ¨ è¾¹
Ġreg ional
åĽº å®ļ
è¡¨ æĺİ
us es
ar ia
Ġopin ion
Ġimp ossible
ä¼¼ ä¹İ
çİ Ľ
ĠN av
ï¼Į æİ¨åĬ¨
Ġprinc iple
ĠT or
çĩ ¥
ä¸»ç®¡ éĥ¨éĹ¨
S c
è§Ħå®ļ çļĦ
çĹħ æĥħ
Ġprec ise
ĠComp any
Ġintrodu ction
å¯¿ åĳ½
Ġn an
Ġpregn ancy
ĠEng ine
Ġch apter
ä¸Ń åŃ¦
åĲį åįķ
æİ§ èĤ¡
as ive
éĺ Ķ
Ġdecre ase
äººå·¥ æĻºèĥ½
Ġbusiness es
A pp
èī °
æ¶Ĥ æĸĻ
r ants
at tle
éħ ¯
ost er
ed u
-s h
Ġra ise
Ġform al
Ġagricult ure
Ġd ream
ï¼Į èĥ½å¤Ł
æĹ¶ åĪ»
Ġleaders hip
éĤ »
ä¹Ł åľ¨
Ġhous es
è§Ħ åĪĻ
ad d
Ġap art
ĠStud ies
ï¼Į éķ¿
re land
ĠMan agement
Ġsu dden
Ġcl osed
l iam
Ġdr iving
ten ance
Ġcall s
ç»Ħ åĲĪ
- day
Ġd ut
ĠP ower
çļĦ æ°´
ag ues
. ;
ä¼ĺ åħĪ
ol ve
f all
Ġinc hes
åľ° çĲĥ
ä½ ©
Ġrec ip
mb ly
0 2
æĿ¡ ä¾ĭ
ï¼ĮæľĢ ç»Ī
Ġrec on
Ġm useum
Ġinf rastructure
Ġf rag
æĹł è®º
æĤ ¬
ä¿¡æģ¯ åĮĸ
h ma
Ġdescrib es
ĠT em
æĶ¾ åľ¨
åŁ¹ èĤ²
Ġfl ight
çĪ ¸
ä¼ĳ éĹ²
Ġr id
uild ing
Ġsec ure
ä¼ĺ æĥł
Ġer a
Ġappear ance
ĠSc ient
ĠR ome
ï¼Į åºĶå½ĵ
åľ° çĤ¹
åĲĪ éĩĳ
Ġcomput ers
Ġan cest
ç¡ «
ex p
æľŁ çļĦ
Ġw ire
in ations
18 2
Ġsat ell
å¿ §
hem ical
æ² ĥ
ib ilities
D e
Ġto w
Ġ <
Ġext ract
å¤© æ°Ķ
Ġm oon
Ġnorm ally
Ġintellig ence
Ġb ones
çİ° æľī
Ġph r
Ġp ure
ä¸Ģ æĿ¡
Ġrest rict
èĥ º
æ´» æĢ§
ĠOff ice
Ġinc l
Ġg un
Ġapp rec
å¤ļ æ¬¡
Ġantib iot
æĺ ¨
Ġint ake
Ġsuff er
Ġun like
Ġp ump
ber t
èħ Ķ
Ġm it
Ġinter f
Ġcreat ive
in et
i ology
Ġdig est
çī© çļĦ
t age
O L
U s
ĠS af
ä½¿ åĳ½
ĠRe view
å½ĵ åīį
m as
R e
åį µ
åĩĢ åĮĸ
oles ter
Ġaccept ed
æĺ¯ ä¸į
ot he
æ¸ħ æ¥ļ
åįģ å¹´
and a
Ġinf ected
re ed
ant a
Ġs ick
Ġopen ed
ï¼Į ç¾İåĽ½
ct ic
Ġprep are
ĠComm it
ĠCanad ian
Ġb rown
ĠS um
Ġposs ibly
æµģ éĩı
Ġl ibrary
st on
ï¼Į éĻ¤äºĨ
S ee
çł Ĥ
ä¸Ģ è·¯
Ġpl ate
Ġb le
çļ Ĩ
ä¸Ńåįİ äººæ°ĳ
ä¸» å¸Ń
ag ers
çļĦäºĭ æĥħ
Ġinflamm ation
ĠH am
Ġwind ow
åŁİ éķĩ
Ġunder stood
ç±» ä¼¼
Ġpo et
Ġne uro
le ments
èµĽ äºĭ
it ter
æĶ¶ çĽĬ
å·¥ç¨ĭ å¸Ī
ĠP C
äºĴ åĬ¨
w in
Ġcand id
Ġadminist ration
Ġcl oud
plic ated
Ġabs olute
æ» ¨
m at
Ġsold iers
Ġposs ibility
ĠVirgin ia
æĹ ģ
ĠG ood
æ£® æŀĹ
åº¦ çļĦ
8 6
Ġlif est
è¾ ŀ
Ġm amm
Ġdoct ors
ĠM o
å¯¹ å¤ĸ
è¿Ļ æ¬¡
ä½ľ åĩº
ï¼Įä¸Ģ èĪ¬
ç¼ Ŀ
æµ ¦
ĠLou is
ä¸Ģ èĩ´
Ġst ock
Ġadop ted
ç¬¬ä¸Ģ æ¬¡
ä¸¤ ç§į
viron ments
Ġa w
Ġst ored
ĠB ro
al ysis
Ġsch olars
ç¼º ä¹ı
E n
Ġcomprehens ive
åĽ½ æľī
Ġenh ance
çĵ ľ
if ies
Ġwe ar
è Ŀ
æıĲ äº¤
Ġprodu cing
ĠO x
Ġsens itive
å¸¦ é¢Ĩ
ĠT er
ï¼Į æīįèĥ½
ä»ª åĻ¨
Ġform at
Ġentire ly
å¸¦ æĿ¥çļĦ
Ġnet works
ä¸Ńåįİäººæ°ĳ åħ±åĴĮåĽ½
it t
Ġshe l
Ġw ww
Ġpre f
Ġguid elines
pr ise
S S
Ġag encies
åĮº çļĦ
æĪ¿ å±ĭ
os ph
dition ally
- old
Ġs an
åŁº åĽł
ĠD iv
ä¹ĭ ä¸Ń
ff ee
Ġlat ter
olester ol
Ġreve aled
Ġpret ty
Ġland s
Ġ .Ċ
it an
Ġfac ilit
Ġd ust
ĠL abor
çºª å¿µ
å§ Ĳ
å¤§ éĥ¨åĪĨ
ãĢĤ åĽłä¸º
ĠA tt
liam ent
ä¿¡ åı·
es ity
åľ° çļĦ
åı¥ è¯Ŀ
ot o
Ġspe aking
- L
Ġlist ed
å¾Ĺ åĪ°äºĨ
å°Ĩ ä¼ļ
cl ing
Ġposs ess
ic an
Ġsy ndrome
çļĦ åīį
n am
Ġwild life
åĭ Ł
re m
åĨ Ĵ
èĭ ¹
Ġsu c
ĠK now
æĻ® éģį
æĬķèµĦ èĢħ
om ach
Ġp ush
Ġaccount s
Ġass istance
ĠB et
æ©¡ èĥ¶
ï¼Į æĭ¥æľī
èµ¢ å¾Ĺ
Ġveh icles
éĢļ è®¯
Ġfram ework
Ġun iverse
- T
Ġmar riage
Ġad equ
ĠN ations
-s c
Ġtra ffic
Ġt al
r ors
Ġsecond ary
ä¸į åĨį
as p
Ġlab el
ĠFlor ida
çĪ¶ äº²
Ġwor se
Ġmed ication
Ġmass ive
ĠI reland
æĶ¶ è´Ń
æ² Ī
pp ing
Ġtro ops
ä½Ľ æķĻ
éļı åĲİ
Ġwor s
åħ ģ
å·¥ åķĨ
Ġdec line
ï¼Į åİŁ
å®¶ çļĦ
èµ ł
ï¼Įåıª æľī
éħį ç½®
èĴ Ĥ
ĠA lex
è¾ ½
Ġext ensive
å¤Ħ ç½ļ
Ġgener ate
Ġforest s
Ġslow ly
Ġind eed
çļĦ æĸ¹æ³ķ
ç¡® è®¤
u a
Ġworld wide
æ¢¦ æĥ³
0 4
ĠL eg
Ġf ell
Ġtw ice
Ġfig ures
im er
Ġimpro ving
çļĦ éľĢæ±Ĥ
Ġprot ocol
çł´ åĿı
çĶµ åķĨ
k i
Ġper ce
u nder
éĺ³ åħī
. |Ċ
æµĭ éĩı
I L
ä¸Ĭ äºĨ
t ime
èħ ¹
å±¥ è¡Į
Ġint ellect
ĠAn n
ä¸Ģå®ļ è¦ģ
Ġdi verse
Ġto ler
æģ ĭ
ãĢĤ éĢļè¿ĩ
ĠI d
èĭ¹ æŀľ
è½¬ åıĺ
æ²³ åįĹ
Ġt ail
Ġcons id
æ·· åĲĪ
ct ive
ĠM a
éģĵ å¾·
Ġg ather
Ġwarm ing
æ¹ĸ åįĹ
Ġt iny
é«ĺ æķĪ
yp es
it a
å°ı çļĦ
ĠG old
Ġdatab ase
çī µ
st ream
èĥ Ĩ
åķ Ĭ
ãĢĬ åħ³äºİ
or gan
iox ide
Ġachie ved
åĨ³ çŃĸ
Ġmob ile
Ġf ill
ä¸Ģ æµģ
ï¼Į åħ¨åĽ½
Ġexpress ed
ĠPro v
å¹ »
Ġa th
éĿ¢ è¯ķ
ic on
Ġact s
Ġ *
çħ§ çīĩ
Ġsk y
Ġman aged
Ġelect ronic
æĽ´ å¥½çļĦ
ãĢĤ ãĢĬ
k a
Ġlandsc ape
çĥ ¦
- cent
ĠB ur
åĩĢ åĪ©æ¶¦
Ġun less
Ġch ain
è¾ĥ å¤§
Ġshe ll
èħĲ èļĢ
act s
Ġch art
è¯ ±
é½ ¿
ter ies
% ä»¥ä¸Ĭ
Ġin ject
Ġim per
cul es
Ġt un
å¤ļ åħĥ
Ġrepe ated
åī ©
åºŁ æ°´
äºĮ æĺ¯
ä¸Ģ ä»£
Ġre ject
èį£ èªī
Ġst ick
èĩª è¡Į
çº¤ ç»´
er als
éĩĳ é¢Ŀ
çļĦæĥħåĨµ ä¸ĭ
åĩ ½
Ġsurv ival
Ġf ly
Ġexperim ents
ĠF e
æĬ «
ãĢĤ å¯¹äºİ
al ax
Ġw ave
ç»´ çĶŁç´ł
Ġansw ers
ãĢĭ ä¸Ń
M P
ä½ĵ çļĦ
Ġind ex
Ġstart s
Ġn urs
ï¼Į å¿ħé¡»
Ġinj uries
éĺ Ģ
Ġtrans mission
æľĢ æĸ°
æµģ åĬ¨
åħ Ħ
idd en
ans ion
èĶ¬ èıľ
Ġcircumst ances
ol a
Ġread ers
éĻ¢ éķ¿
ãĢĤ æŃ¤
on a
Ġmanufact uring
Ġagree ment
çļĦ è¦ģæ±Ĥ
Ġr ub
é¢Ħ æµĭ
Ġd edic
ab ric
Ġcreat es
ï¼Įå¹¶ åľ¨
æĢ ª
åı¯ æĮģç»Ń
on ed
ĠAustral ian
æīĢ è°ĵ
-t ime
Ġeng age
Ã ¼
r ine
h ist
åıĸ æ¶Ī
ãĢĤè¿Ļ äºĽ
Ġsur f
èĤ ĥ
çº µ
æĭ Ĩ
Ġer ror
ï¼Įè¿ĺ æĺ¯
èµ ĭ
Ġfail ed
å¾Ī å¤§çļĦ
ĠGl obal
or ter
or row
Ġsurv ive
lud ing
et t
en a
ç¡® è¯Ĭ
Ġa qu
meric an
Ġstrugg le
å¹¼ åĦ¿
ang ed
ĠC amb
Ġrem ote
Ġequ ival
å´ ĩ
os al
ç»Ī äºİ
Ġbud get
é«ĺ è´¨éĩı
I A
. A
Ġst ages
Ġs ell
Ġf illed
Ġab und
ĠY et
z en
Ġpre m
Ġmount ain
Ġaff ord
åĪ¶éĢł ä¸ļ
rop ical
Ġmin im
ãĢĭ çŃī
ĠL ab
ere nt
Ġrout ine
æ¯Ķ å¦Ĥ
p at
oc racy
Ġcalc ium
Ġrem aining
ĠComm on
Ġprodu ces
ä¹ī åĬ¡
å± ĳ
Ġw aves
Ġins urance
éĩĩ è®¿
èĤ¡ æĿĥ
Ġpl ays
Ġg all
Ġen vironments
éĿĴ å²Ľ
Ġdoub t
è¿ Ł
Ġfoss il
æĿŃ å·ŀ
åĲį ä¸º
å·¨ å¤§
or ith
Ġdec ade
Ġinsect s
è¯Ĭ æĸŃ
çĲĨ äºĭ
åŃ¦ èĢħ
ĠB C
Ġsent ence
åĲĦ å¤§
Ġsupp lement
Ġimplement ation
ĠP eter
ab its
æ·» åĬł
çĸ«æĥħ éĺ²æİ§
ce l
Ġsu itable
Ġbehavi our
èĩªåĬ¨ åĮĸ
å·® å¼Ĥ
Ġed ge
éĨ ĩ
Ġconstit ution
Ġbro ken
å±± è¥¿
æ¼Ķ åĩº
Ġswe et
Ġharm ful
çĸ ı
Ġd ental
Ġcho ices
ç¦ı å»º
Ġhapp y
ĠL ong
åĲĦ çº§
Ġfound ation
æķ ¦
åħļ çļĦ
Ġgra d
ĠTh ose
ĠT HE
å½ °
å¤§ å¤ļæķ°
ç½ ©
æ·± åĪ»
Ġhealth care
ĠI N
ĠEx pl
ï¼Į åīį
éĽĨ æĪĲ
è¸ ı
ä½ı å®ħ
g ent
app ing
å¯» æī¾
Ã ³
Ġn arr
åľº æĻ¯
åĨ »
å¼ķ é¢Ĩ
ĠEx p
Ġair craft
åĬŀ åŃ¦
se y
Ġm ur
å±Ĥ æ¬¡
äºĭ åĬ¡
ãĢĤ è¦ģ
6 2
if orm
æ±Ł è¥¿
å½ ¹
ind er
Ġste el
æĪĲç«ĭ äºİ
åĪĩ å®ŀ
Ġcor n
ig ation
ar ant
ï¼Į ä¾¿
éĺ² æ²»
âĢľ ä¸ī
ĠAb out
Ġmark ed
Ġin ner
Ġtru ly
Ġext ended
éķ¿ çļĦ
è·¯ çº¿
æ±¡æ°´ å¤ĦçĲĨ
17 0
éĵ ¸
I R
å®ĥ ä»¬
ä½¿çĶ¨ çļĦ
Ġsp orts
Ġobt ain
Ġa f
st ruct
éĢĤ çĶ¨äºİ
åĩ ¤
ĠB re
Ġse lection
e per
Ġref uge
å¥¹ çļĦ
é¢ľ èī²
æĻ¯ è§Ĥ
æ¯į äº²
Ġlabor atory
ĠD an
åĽ½å®¶ çº§
å¯¼ æ¼Ķ
n o
Ġgener ated
åŁİ ä¹¡
ä¸į èī¯
Ġun known
Ġ >
æĽ´ æĺ¯
åħ¨ å¸Ĥ
Ġcour ses
åį° åĪ·
ĠJose ph
çļĦ ä¸ĵä¸ļ
Ġf ixed
ĠM ad
èĥ½ éĩı
Ġcar s
éĻ µ
æĲľ ç´¢
ic ians
Ġder ived
M L
- of
Ġsee ing
ç¢ ĳ
Ġcult iv
çļĦ ä¸Ń
e y
Ġconsist ent
ĠB rown
Ġ Ð
Ġdist rict
ï¼Į æĹ¢
Ġgreat ly
h an
Ġam b
Ġs ight
ï¼Į çĽ´
Ġc atch
Ġw ish
ĠUS A
i very
è¥¿ éĥ¨
Ġtell s
. ht
åıª è¦ģ
å¦Ī å¦Ī
Ġsh ips
è¡¥ è´´
Ġp ull
é£ŀ æľº
æķ° åŃ¦
Ġac celer
Ġnew sp
èĩ Ń
å®¡ æł¸
å¤§ æķ°æį®
ym ph
Ġw ants
Ġd ioxide
åħ¶ å®ĥ
ĠOn ly
æ°¸ è¿ľ
Ġaud ience
ĠIt aly
èĩªæ²» åĮº
Ġmult i
æĤ¨ çļĦ
ĠAn y
æīĢ å¾Ĺ
åĽĽ ä¸ª
å¹³ è¡¡
Ġdisc ipl
it ative
Ġd in
ĠR ad
åıĳ åĬ¨
å£ ³
çĮ «
. âĢĻ
Ġbenef icial
int s
Ġloc ations
ï¼Įä¸į è¿ĩ
ãĢĤ ä»¥
Ġth or
èı ©
Ġsign als
k ins
ĠIS BN
st s
ç½ĳ åıĭ
Ġdec ide
ĠProf essor
âĢľ The
Ġtrans ition
Ġag ency
ĠI ll
ãĢĤ çĦ¶èĢĮ
Ġyoung er
Ġprofession als
åĴĮ è°Ĳ
Ġdifficult y
æ¸ ¡
å¯ Ħ
b urg
ï¼ī åĴĮ
æ· ĺ
n ormal
I G
Ġorgan ized
çĨŁ æĤī
æ¸ Ĺ
Ġl ots
æĿĳ æ°ĳ
ä¼¤ å®³
æı Ń
ink ing
Ġdom in
åıĤ èµĽ
B l
ĠO F
ĠH all
äºĪ ä»¥
Ġimmedi ate
Ġconsum ers
ĠSou thern
é«ĺ ä¸Ń
çº ł
ĠV ict
ä½ł ä»¬
Ġindic ates
Ġdes ire
æĿĥ åĪ©
åĨ² åĩ»
ä¸Ĭ å¹´
Ġen able
Ġbe ar
Ġbat tery
Ġauthor ities
æĦı å¤§åĪ©
Ġ ï¼Į
æī¿ åĮħ
éĥ¨ ä»¶
ĠAcad emy
ï¼Į æĮīçħ§
Ġd aughter
Ġrepresent ed
Ġd ensity
é¼ »
è®° å¿Ĩ
çł ĸ
Ġst omach
Ġopen ing
ĠTh rough
u ps
Ġprinc ip
èī² å½©
Ġle af
çº º
Ġperman ent
Ġfew er
Ġdesc ription
äº§ä¸ļ éĵ¾
Ġmain tenance
Ġh us
äº ı
çĦ Ĭ
æĦ¿ æĦı
7 9
Ġun p
Ġsh aring
6 9
Ġv ote
ï¼Į çī¹åĪ«æĺ¯
ä¿Ŀ åģ¥
ĠS k
ï¼Įåıª è¦ģ
p oint
in ction
St ud
Ġf alse
åĳ¼ åĲ¸
éĹ®é¢ĺ çļĦ
èµĦ è´¨
åľ° çĲĨ
ä»¥ä¸ĭ ç®Ģç§°
b ran
R ead
Ġsub s
Ġphot ograph
Ġmechan ism
Ġjour ney
æ·± åĮĸ
å®ļ æľŁ
æıĲ éĨĴ
Ġstand ing
è¸ ª
æĭ Ĵ
Ġcolle agues
ĠCommit tee
åįģ ä¸ī
ä¼ļ çļĦ
æĥħåĨµ ä¸ĭ
ĠJ e
Ġcrit ic
Ġtra um
Ġfund s
é»Ħ éĩĳ
è¡ °
og ue
Ġinstit ution
éĢ ĥ
ä¸Ģä¸ª äºº
- the
Ġstudy ing
Ġsk ill
è¡Ģ ç®¡
le ts
Ġsol ve
ï¼Į äººä»¬
è¡Ĺ éģĵ
Ġgra v
ĠPar is
ĠH ome
ä¸ĸçķĮ ä¸Ĭ
Ġsupp lies
Ġpar alle
åĲĮ æĦı
Ġopp osite
Ġcomp osition
éĥ½ ä¸į
è´µ å·ŀ
ĠDes ign
å¥ ĳ
é¤Ĳ é¥®
Ġelect ron
Ġdestroy ed
C P
æĭ ¨
Ġdo or
ĠC are
Ġsuccess fully
ï¼Į æıĲåįĩ
æ¨¡ åŀĭ
ĠCan cer
ï¼Įå°¤åħ¶ æĺ¯
æĳ ĺ
E P
åĩŃ åĢŁ
å½± è§Ĩ
ä¿ ±ä¹Ĳ
ä½Ĩ æĺ¯
ph one
ĠRep ort
ĠM ag
es is
Ġ ...
w o
Ġchild hood
ä¿±ä¹Ĳ éĥ¨
âĢĻ d
g ra
åĴĮ åħ¶ä»ĸ
åıĸå¾Ĺ äºĨ
Ġf asc
åºĶ å¯¹
ic ago
c a
Ġsh ut
ĠC ult
éĻĦ è¿ĳ
æĹ¶ å°ļ
Ġz one
éĿ© åĳ½
ĠS l
åįı åĬ©
ell ed
. n
åľ° ä¸ĭ
åľº æ¯ĶèµĽ
ãĢĤ ä¸İ
Ġun able
ï¼ ĳ
éļľ ç¢į
c ription
Ġro of
Ġcare fully
éĶĢ éĩı
S e
Ġa x
ï¼ĮæĹł è®º
çŃ¾ è®¢
çģ Į
æĲ ¬
å½ĵ çĦ¶
æľºåĻ¨ äºº
in ity
èĢ Ģ
Ġs od
çİ© å®¶
Ġatt end
ä¸Ģ æ®µ
is ters
-b e
ir ation
ash ion
ĠN orthern
ï¼Į åħħåĪĨ
I nt
ç¥ ¥
% )
Ġsupport s
ĠT ime
ĠSp ain
w ord
n ect
ipp ing
Ġrespons es
ç§ ī
ant ly
Ġfound ed
ĠC amp
çº· çº·
as er
Ġeth nic
ãĢģ çĶŁäº§
Ġopt im
ab ul
Ġac ids
å¦Ĥ ä»Ĭ
st one
cl op
c her
ä¹ Ķ
çĽ¸åħ³ çļĦ
C an
Ġfl av
ĠI P
S ince
Ġclos er
Ġcirc uit
ç¼ĸ åĪ¶
ific ations
Ġsim pl
Ġ Ċ
å½¢ åĬ¿
å¼ Ĺ
å¼ ¥
U N
Ġpow ers
ĠSt at
åį« æĺŁ
æ°ĳ å®¿
he ast
åľ°åĮº çļĦ
åĲį åŃĹ
åį ¢
åĲį ç§°
iz er
Ġsc ript
Ġout l
ä»ĸ äºº
ld er
f low
éĽ ¾
åıĤ è§Ĥ
åĢ ¡
z il
æĥ ľ
å¤į åĲĪ
ste in
ĠR ob
è¯ķ çĤ¹
âĢĻ ,
Ġsh ift
r d
Ġinteract ion
çŃī çº§
çĪ± æĥħ
Ġne ck
Ġacc um
ĠDise ase
Ġthous and
Ġmole cules
çĭ Ĥ
C ont
u zz
F igure
Ġrepl aced
Ġlim its
Ġg one
ĠSt reet
æ°Ķ åĢĻ
Ġch olesterol
ct or
Ġour selves
Ġemot ions
èĮĥåĽ´ åĨħ
çº¿ è·¯
Ġread er
Ġf iber
æĸ° åĮº
åľ¨ ä¸Ģèµ·
f ortunately
Ġpurch ase
éĶ »
Ġrem ark
ĠC ap
èµĦ è®¯
è¯Ĩ åĪ«
- E
Ġvessel s
Ġult imately
Ġstand s
Ġwalk ing
L A
èµ Ķ
rit ing
Ġbo ost
ï¼Į ç»ıè¿ĩ
ï¼Į å·²ç»ı
è½¬ åĮĸ
äºº åĬĽ
or a
Ġinter vention
è½¨ éģĵ
az ing
c ont
å« Į
ä¸¤ å¹´
å£ ¤
ï¼Į æ°´
ĠB r
Ġarr ived
ĠS ol
èĢģ äºº
æķ Į
ĠP an
æŀ Ŀ
ĠG et
çļĦ è®¾è®¡
Ã ¶
Ã Ĺ
ĠStud y
um s
V ID
Ġser ver
Ġcult ures
å£° éŁ³
å¹¿ä¸ľ çľģ
Ġlist en
Ġknow s
ĠP ub
ĠB ul
g ans
6 1
Ġcar b
èį£ èİ·
è¿İ æĿ¥
Ġdedic ated
Ġbig gest
é«ĺ æ¸©
é¥ ±
æĺŁ æľŁ
um es
Ġp ra
Ġgl uc
ç«ŀ èµĽ
ĠA I
åİ ¨
è¿ĳ æľŁ
ç«ĭ åį³
æĤ ¦
Ġn ine
Ġen ds
ĠVal ley
Ġch osen
ĠN atural
åıĳå¸ĥ çļĦ
åĩº å¸Ń
- on
Ġcol our
éĥ Ń
çŁ¥è¯Ĩ äº§æĿĥ
Ġbehavi ors
Ġalg orith
Ġreg ulations
Ġjo in
éĢĤ å½ĵ
è¯ ŀ
åĲİ æĿ¥
P e
Ġcl ust
ï¼Į å»ºç«ĭ
å¯¹ æīĭ
å© ´
ot ion
Ġun us
f rom
Ġlifest yle
å¾ĭ å¸Ī
éĺ² æĬ¤
èµ ´
å¦ ¹
th rop
Ġal le
å¤§ ä¼Ĺ
Ġconvent ional
ĠIr ish
ä¸Ń æľī
Ġco ffee
ãĢģ æĬĢæľ¯
t hen
ic ide
f ish
éĢı è¿ĩ
çĪ± çļĦ
å¯Ĩ åĪĩ
Ġa er
Ġhand le
æĺ¯ æľĢ
S C
åĪ° çļĦ
ut er
Ġwill ing
Ġsupport ing
ĠSc iences
ä¹Ł åı¯ä»¥
k es
æł¡ éķ¿
ä¸Ģ å¤©
Ġconc rete
ap ed
Ġra w
åĩº åı°
èĢĥ å¯Ł
æĦı æĢĿ
Ġth y
es ter
Ġover l
Ġocc asion
èģĮ è´£
ĠH aw
åĮĹäº¬ å¸Ĥ
æ¼ Ĩ
Ġadminist r
ï¼ į
Ġmagn etic
ï¼Įä¹Ł ä¸į
çŃĸ çķ¥
Ġb read
ĠC y
ç¼ĸ è¾ĳ
Ġsequ ence
ĠP enn
Ġsuc ceed
æīĢæľī çļĦ
ag on
Ġnecess arily
Ġres erv
é«ĺ è¾¾
çļĦ åİŁåĽł
æĺİ æĺŁ
17 9
ĠCl in
Ġtransport ation
Ġsur ve
Ġcry st
Ġcompar ison
om er
Ġphilos ophy
ĠE th
å Ĺ
z ed
Ġatt ached
ç¨ Ģ
èĪŀ åı°
ĠB ank
Ġpr on
Ġm ixed
Ġcom ments
Ġc ats
è¢ ĭ
et ime
Ġreg ul
Ġpers ist
ç¾İ å¥½
Ġhous ing
Ġcommunic ate
Ġst roke
Ġm os
å¸Ī çĶŁ
a it
7 4
éĶ Į
æĢ» é¢Ŀ
åĳ¨ æľŁ
ä¸ľ æĸ¹
Ġvulner able
æĬ¥ èĢĥ
Ġex ists
Ġeas tern
st ruction
Ġm ac
ĠBo ard
è°ĥ çłĶ
ir ty
ĠE xt
äºĭä¸ļ åįķä½į
Ġv oc
Ġmar ried
d own
Ġfight ing
æĿĥ çĽĬ
åĲĮ å¿Ĺ
Ġm ild
å¼ ĺ
ï¼Į åĿļæĮģ
çļĦ çłĶç©¶
Ġpro l
Ġarchitect ure
ut s
ut ch
Ġdraw ing
ç»ıæµİ åıĳå±ķ
éĻ ª
b ody
ä¸ª æĢ§
ĠEmp ire
ï¼Į ä¼ģä¸ļ
iction ary
op l
è°ĥ èĬĤ
å°± åı¯ä»¥
Ġturn s
çĽ ¾
æĢĿ ç»´
Ġhyd rogen
ear chers
Ġvol tage
åĨ ¶
ãĢĭ ãĢĤ
æĶ¾ å¼ĥ
ĠM ill
ĠC at
å®¶ äºº
I m
Ġr ank
çĥĪ çļĦ
ç²¾ åĩĨ
Ġgre w
Ġdeb ate
Ġl ies
Ġcomp ounds
Ġrel ax
åºĶçĶ¨ äºİ
å·¨ å¤§çļĦ
Ġy ield
ĠG ard
é»ĳ èī²
èĳĹ ä½ľ
æ¡ Ĩ
Ġsupp osed
æĹ º
ro vers
Ġwh atever
ĠAd d
Ġrequ est
èĪª å¤©
âĢľ ä¸ŃåĽ½
ç¬¬ ä¸Ģä¸ª
ä¾¿ åĪ©
or ous
åĻ¨ çļĦ
e en
ĠAd minist
? âĢĿ
Ġfeed ing
Ġun iversity
Ġmechan isms
Ġac know
å¹¿ è¥¿
å¥ĸ åĬ±
Ġeval uation
Ġe pid
Ġcapt ure
Ġk it
Ġt aste
Ġrat io
ĠV is
åĬł åĿ¡
ir ds
Ġiss ued
è½¬ ç§»
åįı åĲĮ
å¤± åİ»
æĶ¯ éĥ¨
åľ° éĵģ
he ther
Ġjo ined
Ġcustom ers
Ġb order
ĠMich ael
h op
Ġcut ting
st ate
ĠPart y
O M
Ġw itness
Ġgu arant
oc y
8 9
æ¸ħ æ´Ĺ
åıĳ çļĦ
æĽ´ ä¸º
ell a
æĪĲ çļĦ
Ġus age
ï¼Į è¥¿
ç²¾ å½©
Ġte a
Ġr hy
ĠS ing
åıĳ æĺİ
Ġc art
å¹² çĩ¥
æľī å¾Īå¤ļ
Ġris ing
Q u
Ġwhere as
Ġvari able
Ġf abric
is k
Ġp ool
Ġen emy
Ġinstru ments
éĶĪ éĴ¢
åħħ çĶµ
Ġunder lying
Ġresult ed
ä¸ľ åįĹ
t ic
per or
Ġg ap
Ġemploy ment
é©± åĬ¨
ĠP M
åħ± æľī
çīĪ æľ¬
å±ħ ä½ı
Ġres olution
éĢļ éģĵ
ç¢ ±
ĠR oyal
Ġh abits
ĠRich ard
åħ» èĢģ
Ġprom pt
Ġbreat hing
ia h
ĠO cean
L et
Ġpro ve
r at
Ġcont ained
æĤ£èĢħ çļĦ
å¥ Ķ
% ãĢģ
Ġwrit er
Ġparticip ate
Ġb rand
ç¤¾ äº¤
æĹ¥ åľ¨
- G
æľįåĬ¡ çļĦ
ä¸ľ åĮĹ
çºª å½ķ
æİ¥ è¿ĳ
å¤ļ å®¶
Ġpsych ological
Ġpercent age
Ġhe ro
Ġdef e
ãĢģ è¥¿
å² Ń
b our
Ġreact ions
ç² Ĺ
ign ed
Ġterrit ory
Ġarr ange
æĹħ å®¢
7 1
Ġmach ines
Ġbl ocks
Ġhor iz
éĴ »
h av
éĶ ¡
ir t
ç¡® å®ŀ
åĬł éĢŁ
ast y
Ġsh ot
Ġro w
Ġcont amin
æĸ ¤
æĪĳ æł¡
åł Ĩ
Ġearth qu
ĠAg ricult
ä¸ŃåĽ½ çļĦ
Ġm ice
ï¼Į åĪĨåĪ«
qu it
Ġconn ections
äº§ èĥ½
åŁİ åĮº
s uch
åĬ¨ ä½ľ
å»º éĢł
Ġst able
Ġnear by
Ġdist ur
æľº éģĩ
è¯Ħ å®¡
« çĹ
Ġte en
Ġkid ney
åīį å¾Ģ
ĠII I
ä¼ĺ èī¯
åĩº è¡Į
ï¼Į å¤ĸ
Ġcent re
b ut
ĠEx per
èħ¾ è®¯
ä¼ł æī¿
ä¸ĵ çĶ¨
Ġn erve
Ġtra ined
é£Ł çĶ¨
çļĦ çĶŁäº§
Ġpres crib
Ġobserv ations
Ġexpl o
æ¡ Į
pl ant
Ġdown load
ĠT imes
ĠIt alian
ï¼Į å¹´
åħ¸ åŀĭ
åĽ¢ ä½ĵ
Ġpre val
Ġorgan isms
æµģ è¡Į
å¾Ī å¥½çļĦ
ä¸Ĭ ä¸ĭ
oura ge
edi atric
Ġreg ist
ĠSec urity
ĠP y
ult s
å¹¶ æ²¡æľī
å¸¦ çĿĢ
-le vel
ĠV iet
ĠE c
i ability
ĠCarol ina
-p ro
Ġb io
èĦ± è´«
itud es
ab led
åĬ¨ æĢģ
L ED
èİ· åıĸ
wh ile
ĠW ood
åĲį çļĦ
he red
ï¼Į åģļ
Ġfrequ ent
çĤ ¸
æ° ¯
Ġequival ent
rodu ction
çľ ł
L C
æľī ä¸Ģä¸ª
R A
Ġdemonstr ated
Ġpass age
åį³ åı¯
H D
Ġc ards
ï¼Į ä»ħ
ain e
a ud
Ġstr ing
ĠCol or
Ġplay ers
Ġfl ag
Ġparticip ation
Ġdel ivery
åŁ ĭ
st ract
ar n
Ġa head
ri ers
el ess
Ġexplan ation
ä¸ĭ éĿ¢
ãĢĤ ä»ĸä»¬
ç§° åı·
ĠW ik
ĠSt ep
us iness
Ġno ise
ra q
-f ree
çªģ çĦ¶
x ts
Ġt all
ç«ŀäºī åĬĽ
æīĵ åį°
Ġmat ters
Ġlay ers
Ġdemonstr ate
åį³ å°Ĩ
it tle
Ġtw enty
Ġb ot
å½ĵ ä¸Ń
Ġsh op
ĠE nd
ĠD ig
åĲĪ æ³ķ
å¾Ī éļ¾
ä¸ĵ æ³¨
er ior
ĠCh icago
è¾ĥ ä¸º
Ġman if
çŁ ©
ç»´ æĮģ
et ics
N ot
IS O
å¹¿ æĴŃ
â Ĺ
Ġrecogn ition
Ġcount y
ĠD et
et her
Ġpre v
ç©º è°ĥ
- and
åħģ è®¸
u gh
al a
Ġfor th
èĢ ķ
ors es
Ġsou l
çĿ Ľ
ä¸į éĶĻ
ãĢĤ ä¸įè¿ĩ
i h
Ġwas n
Ġdel ay
ä¸Ĭå¸Ĥ åħ¬åı¸
. m
Ġacc ident
ĠH oly
åĪ¤ æĸŃ
Ġsm oke
ä¸ī å¤§
Ġbelief s
id ity
Ġc row
åıĺ æĪĲ
Ġm and
ic it
ĠRev olution
æĥħ æĦŁ
åĩ Į
Ġelect ro
Ġcompet ition
ĠSc ott
ç»Ŀ å¯¹
ä» Ķ
Ġsp ok
Ġpart ner
Ġinstruct ions
ãĢĤ èĭ¥
17 8
Ġhe m
ĠCl imate
æħ İ
ploy ment
Ġin hib
è¯ µ
Ġpolit ics
Ġleg s
ĠF ort
Ġele ction
èĭ± éĽĦ
èĴĻ åı¤
æĵ ¦
ic ious
Ġtr ials
æĭ ĸ
Ġhyp othes
Ġfeed back
Ġdef ine
ĠF ree
Ġm old
æıĲåĩº äºĨ
esp read
Ġgreen house
è®© æĪĳä»¬
åĬ¨ çĶ»
in ating
ï¼Į é¢Ħè®¡
æľį è£ħ
ult y
å®ĺ ç½ĳ
Ġve ter
Ġconf idence
æļ ĳ
F irst
æĹ¥ ä¸ĬåįĪ
ï¼Į æķħ
åĴ ĸ
ä¸Ģ çº§
ãĢģ èĢĲ
M A
æµ Ĩ
Ġexam ine
Ġgener ations
I F
Ġp up
Ġob esity
èĬ¯ çīĩ
æĢ§ è´¨
å¯¹ æĸ¹
çĥŃ æ°´
åī ²
äºº ä¸º
ãĢĤ éļıçĿĢ
g u
Ġart ificial
èħ º
e ers
Ġhold s
Ġc up
os ion
ï¼Į åĬªåĬĽ
al m
Ġfe ver
è½¦ åŀĭ
æī¿ è¯º
å§Ķ æīĺ
ãĢĤ ä½ľä¸º
Ġst reet
ä¸ĭ äºĨ
ç§¯ ç´¯
å®¡ æī¹
ä¸Ģ çº¿
Ġimprove ment
èİ·å¾Ĺ äºĨ
èĬ Ŀ
çļĦ ä¸»
æĶ¹ è¿Ľ
åĻ ª
p an
ä¹¦ æ³ķ
ur rent
ĠFran k
å®¡ è®¡
R ec
Ġm m
éĶĻ è¯¯
Ġpresent ation
on ia
Ġrel ation
Ġn one
ĠO h
ï¼Į ä¾ĭå¦Ĥ
ct ure
Ġch rom
Ġb ridge
äº§çĶŁ çļĦ
ãĢģ å°ı
Ġn ob
Ġbut ter
éª ĳ
it ivity
U T
ãĢģ åĽ½å®¶
è®¾ æľī
å¿ į
ĠServ ices
æŁ ³
ä¸Ģ æī¹
Ġsm oking
Ġevery day
äºĳ åįĹ
Ġcommit ted
éģ ¥
Ġr u
Ġear n
Ġconsum er
O P
R C
.g ov
Ġtiss ues
æľīæķĪ çļĦ
å¤§ åŃ¦çĶŁ
ä¸Ļ çĥ¯
Ġmod e
æĹĹ ä¸ĭ
ter ing
Ġz ero
Ġf old
as ters
Ġins ulin
æµ ©
ent ed
Ġcoast al
é«ĺ èĢĥ
Ġneg ot
e enth
7 3
/ d
Ġdiagn osed
ãĢĤ åı¦å¤ĸ
ib l
Ġdang er
ĠF orm
ĠN ative
æĢ» è£ģ
dition al
çĽĳçĿ£ ç®¡çĲĨ
ite ly
ĠE ss
çĽĳ æİ§
Ġobject ive
Ġdom ain
Ġest imate
-c ont
Ġr ing
Ġm aps
Ġ ï¼Ī
è§Ĩ è§ī
Ġag reed
Ġcam era
ĠKe ep
å¤§ å¸Ī
Ġent ry
èĤ¿ çĺ¤
æĿĤ å¿Ĺ
ãĢĤ ä¸ŃåĽ½
ãĢģ æľįåĬ¡
Ġon going
Ġh ur
Ġa ward
ä¾ĽåºĶ åķĨ
op ic
ins on
Ġtri p
èİ ²
è¿Ŀ åıį
ãĢĤ ä¸į
Ġmat ch
Ġdeb t
æ¡ Ĥ
ut rition
ure au
te en
rain ing
Ġlegis lation
åħī ä¼ı
3 50
20 3
Ġpos itions
Ġhold ing
Ġb iod
Ġaccess ible
ä¼ĺ çĤ¹
igh ter
çº³ åħ¥
æĢ» æĺ¯
åħ¬ åĬ¡
or ph
Ġg ram
æĹ¥ çļĦ
u h
Ġh olid
Ġfl o
Ġcal ories
æ°Ľ åĽ´
ãĢģ ä¸ī
ir atory
Ġlaun ched
Ġco vers
å®¶ åħ·
Ġro cks
åģľ æŃ¢
ak ed
çĶŁæĢģ çİ¯å¢ĥ
çĶŁæ´» çļĦ
ever al
Ġsac r
Ġdest ruction
è¾ĥ é«ĺ
u its
Ġfunction al
O f
Ġbur ning
ĠBra zil
ï¼Įåħ¶ å®ŀ
çĹħ äºº
æĶ¶ è´¹
ear ing
Ġinvol ving
Ġh un
Ġrun s
ãĢĤ å¥¹
8 4
Ġrout e
è° ¨
Ġs ections
éĢļ çĶ¨
Ġinteg rated
Ġdoll ars
éĿĴ å°ĳå¹´
ad ing
Ġdo i
å°½ éĩı
us ing
if ts
çī¹ æĢ§
å®ŀéĻħ ä¸Ĭ
ä¼łç»Ł çļĦ
æŁĲ äºĽ
åĽŀ åĪ°
Ġr ivers
Ġpain ting
Ġestim ates
Ġb low
ãĢģ éĺ²
Ġshe et
æĹ¥ ä¸ĭåįĪ
åĬŁ çİĩ
Ġexerc ises
Ġemploy ed
è´Ń çī©
ãĢģ çľģ
Ġinteract ions
èĬ ³
ä¾Ŀ æīĺ
ä¹ĭ è·¯
ars h
Ġre cept
Ġ ille
ãĢģ ç¤¾ä¼ļ
è§Ĥ çĤ¹
Ġdep artment
Ġconstruct ed
éķ Ģ
é«ĺ äºİ
Ġunder t
Ġlegis l
cy clop
Ġf ract
Ġsp ending
Ġr ice
Ġfor get
éĺ³ å¸Ĥ
Ġintellect ual
Ġoper ate
az ine
Ġcon clusion
Ġchalleng ing
10 8
Ġvol can
Ġmet ers
ï¼Į å¸®åĬ©
ad y
è Ł
ç¦ģ æŃ¢
äº§ä¸ļ åıĳå±ķ
Ġprogram ming
åħ³ å¿ĥ
Ġend ed
å°Ŀ è¯ķ
Ġvict ims
Ġso le
éĹ ª
å¤§ éĩıçļĦ
ven ue
ĠA ccess
ï¼Į æĮī
hes is
Ġbr ings
is dom
Ġsp aces
Ġar rest
æĪª æŃ¢
åħ ¹
Ġp apers
Ġassoci ation
æ· Ģ
Ġmaint aining
éĺ¿ éĩĮ
æĪĺ äºī
åįł æ¯Ķ
æĥ³ åĪ°
ag ram
Ġpregn ant
Ġlov ed
w ar
Ġsubst ances
Ġphys ics
Ġcr ime
ĠSc ot
çĥŃ æĥħ
r ary
8 2
Ġor ient
è® ¼
æ°ĳ éĹ´
èº« è¾¹
åİĭ ç¼©
17 7
Ġm ent
ĠM er
é¢ Ī
çĶŁ åŃĺ
C N
Ġor gans
ĠKing dom
ĠE qu
è¾ £
åº Ļ
åĳ¨ å¹´
rit is
åĨľ äº§åĵģ
ad ed
ĠAtl antic
æĤ Ł
y les
Ġdiv ision
ä»¥ åīį
Ġcirc le
ĠP ract
ï¼Ī ä¸Ģ
éĩĮ éĿ¢
ä¼ Ĳ
âĢĿ ï¼Ī
Ġis lands
Ġdra wn
çĭ Ĺ
P R
Ġindepend ence
ï¼Į åħ±åĲĮ
we ight
p et
Ġrel ief
ĠInd ians
ĠD iff
g s
Ġmem bran
Ġk ne
æ· ®
h tt
Ġreal ize
Ġexp ansion
ĠT V
ĠMart in
è®² è¿°
Ġindust ries
ish ment
ig an
ĠH ave
å¤© ä¸ĭ
æµ ħ
å±±ä¸ľ çľģ
Ġbreat h
ĠZ eal
ĠG al
æŁ¥ è¯¢
Ġne ither
Ġdiscrim ination
åĿ Ĭ
op les
ï¼Į èĭ¥
ï¼Į åŃ¦æł¡
æ Ĩ
all s
ç© ·
æłĳ ç«ĭ
Ġsc ene
Ġch ick
è¡Ģ åİĭ
re y
Ġmin erals
ï¼Į æľªæĿ¥
è¾ ¨
Ġgluc ose
éĴ¢ éĵģ
ĠD en
ĠB ab
Ġsc an
éĢĤ çĶ¨
è¾ĵ éĢģ
åŃ ¤
b ur
Y our
Ġsett ings
ï¼Į åıĹ
r ite
Ġman ip
Ġd ent
ï¼Į åįĹ
éŀ ĭ
Ġrep air
Ġast hma
é¢Ħ æľŁ
åĮ» å¸Ī
ä¸Ģ ç³»åĪĹ
O nce
Ġs ail
Ġp ed
Ġb oy
S D
ĠEar ly
æ¶ ¯
Ġwid espread
èĤ ¾
åŀ Ĥ
âĢ ķ
éĢī æīĭ
æ¯ ģ
Ġsome what
Ġfram e
ĠA st
Ġrel iable
Ġphot o
Ġparalle l
é¦ĸ å¸Ń
Ġdam aged
èı© èĲ¨
åĪĻ æĺ¯
Ġp air
ĠC re
åİŁ çĲĨ
Ġdep art
è¯¾ é¢ĺ
Ġc m
ĠGu ide
æ¿Ģ åħī
åı¯ä»¥ åľ¨
it amin
Ġm ood
ĠA ge
åĤ ¬
Ġte xts
Ġcr im
å¢ ĵ
lies t
Ġt ons
Ġent ered
Ġcol umn
Ġrece iving
Ġcateg ories
Ġt ank
Ġpublic ation
Ġmole cular
Ġmark ets
op es
Ġmere ly
ĠF acebook
O ver
Ġput ting
ï¼Į å¸Ĥ
ç²¾ åĵģ
D on
Ġsm ooth
ãĢĤ ä¸ºäºĨ
N ote
Ġdist ributed
èĪ °
æĻļ ä¸Ĭ
ä¸ĩ å¹³æĸ¹ç±³
C omp
ĠE astern
L e
C D
Ġcontrol s
èĪĴ éĢĤ
ï¼Į ä½¿çĶ¨
æĪ Ĵ
é ¬
r in
E E
Ġout bre
ĠVict or
Ġcon ven
çļĦ å¸Ĥåľº
ä¸ĵ é¢ĺ
Ġv s
Ġpro hib
æĳ ĩ
åĳ¨ åĽ´
ä¼ļ éķ¿
L ear
c ol
åı¦ä¸Ģ æĸ¹éĿ¢
B M
âĢĿ æĺ¯
Ġstrong ly
Ġproport ion
Ġguid ance
éĿĴ æĺ¥
èĬĤ çº¦
è¾ Ī
ç¨ į
ãĢģ ä¸Ĭæµ·
g ers
Ġtrou ble
Ġne ur
Ġdecl ared
ĠA gency
éĢł åŀĭ
æĦŁ æĥħ
ĠZeal and
éĥ½ èĥ½
ĠL anguage
æŁ ı
åĦ¿ åŃĲ
ãĢĤ èĻ½çĦ¶
/ p
ĠB ig
çķ ª
åĪ© äºļ
Ġindic ated
Ġappro ved
è¯ī è®¼
åĩº åıĳ
he nt
8 3
Ġdesign s
ĠAng el
éĢı éľ²
æī§ æ³ķ
Ġconstant ly
Ġfem ales
è°¢ è°¢
å¤ļ æł·
Ġr ig
æľĪ åºķ
ĠGe org
æĸĩ çī©
oh yd
ĠN az
Ġb anks
E ven
ĠWind ows
Ġs ke
èľ ľ
æ¯ı ä¸Ģä¸ª
r ial
Ġre ly
Ġp ounds
ĠR om
Ġsw im
Ġmiss ing
çİ°ä»£ åĮĸ
æĳ ¸
åıĳ è¾¾
Ġcont rovers
Ġhistor ic
ĠColumb ia
æļ ¨
æĶ» åĿļ
od ing
è´§ å¸ģ
Ġmoist ure
åĪ° è¾¾
he alth
ĠM D
ä¿® æĶ¹
ĠI raq
çļĦ èĥ½åĬĽ
h ow
du le
8 1
Ġtem ple
ĠâĢ ¢
ï¼Į å¸¸
Ġthan ks
Ġt ight
Ġbo ys
A m
in ally
Ġmicro b
Ġro les
Ġnit rogen
Ġcomp osed
Ġad vert
çĥ ĺ
âĢĿ .Ċ
Ġvirt ual
éŃ ħ
çļĦåŁºç¡Ģ ä¸Ĭ
å¸ ķ
çĶ¨ åĵģ
Ġpo ison
Ġmess ages
ï¼Į éĻ¤
æľŁ éĻĲ
Ġtur ning
æĴ ŀ
ĠT ake
ĠFam ily
èĩ³ äºİ
oc ation
åľ¨ è¿Ļ
åĬ© åĬĽ
Ġf urn
æĺ¥ èĬĤ
æĺ Ĥ
ĠC reat
ï¼Įä¸į èĥ½
ç¼ Ĩ
ä»¥ ä¸º
ä»£ çłģ
Ġwor ry
çĭ¬çī¹ çļĦ
è¾ Ĳ
ç¬¬ä¸Ģ æĹ¶éĹ´
æ£ Ĵ
åĽ¾ çīĩ
omm on
o om
abul ary
Ġwa it
Ġpan el
Ġc oc
æĹ¥ åŃĲ
æ³ Į
åı¯ è§ģ
åĪĿ æŃ¥
Ġint ense
æĶ¶ åĪ°
Ġoffic ers
æį ķ
æ» ĭ
Ġcent ers
ĠY ear
ç¿» è¯ĳ
ä¿ Ĭ
um ps
-sc ale
---- ----
Ġhon or
Ġh ole
èĵ Ħ
åĩºçİ° äºĨ
ï¼Į æĿİ
ive red
9 2
Ġs ought
Ġask ing
åĽ½å®¶ çļĦ
Ġnerv ous
æĮĩ æĮ¥
ä»¥ä¸Ĭ çļĦ
C H
Ġstat istics
æĻ °
ĠM el
Ġm ales
Ġful f
Ġevalu ate
é£İ æĻ¯
å¯ ĵ
æ» ļ
æ¡£ æ¡Ī
åĲĮåŃ¦ ä»¬
Ġphenomen on
Ġf ro
Ġcateg ory
ol esc
Ġfour th
åħ¬ äº¤
Ġt el
ï¼ Ĳ
Ġbe ings
ĠH ill
èĲ¥ éĢł
Ġsignific ance
Ġmov es
ĠA cc
ï¼Įä¸į è¦ģ
Ġob lig
åį± æľº
Ġmeasure ments
Ġclaim ed
ĠW here
çİĩ ä¸º
å®īåħ¨ çĶŁäº§
ĠC ast
åĽ½ æ°ĳ
) ãĢĤ
Ġwith d
Ġst re
æĹ© æľŁ
çº¢ èī²
Ġdis aster
åĽ½ çļĦ
he imer
ĠP rop
Ġinterpret ation
ĠH y
Ġbring ing
Ġn est
Ġconvers ation
Ġadequ ate
æĸ°åĨł èĤºçĤİ
è¿ĺ è¦ģ
è¶³ å¤Ł
æ¡ ĳ
å»ºè®¾ çļĦ
A I
Ġst rict
Ġhus band
Ġeng aged
æķĪ åºĶ
ree k
her ic
9 3
Ġme al
Ġcontem porary
«çĹ «
Ġche st
Ġann ounced
è®¾å¤ĩ çļĦ
Ð °
çĻ «çĹ«
m es
force ment
ï¼Į éĥ½æĺ¯
è´ ¤
åĪ° åºķ
ĠAs ian
ort ion
æ´»åĬ¨ çļĦ
åĮ Ģ
ip edia
- ch
Ġrecommend ations
æ¼ Ĥ
Ġmaint ained
ĠNet work
ere n
Ġarch ae
Ġtele vision
ĠChrist mas
åĴ Ĵ
Ġseem ed
ĠFore st
åĲĪ æĪĲ
å¸Ī èĮĥ
v a
Ġbab ies
è½¬ æį¢
ĠP op
åĲ Ĭ
Ġserv ing
çĽĪ åĪ©
åħ¬ ç¤º
s is
Ġinst alled
Ġfor g
é¹ ı
å³ ¡
Ġass ume
å¨ ľ
èĤ ª
Ġag ents
æłĩåĩĨ åĮĸ
ä¾µ çĬ¯
op eration
ond s
ac her
ĠS ar
åı ī
âĢĻ .
ĠCh ange
èµ° åĲĳ
ä¸»è¦ģ æĺ¯
= =
Ġthe ories
Ġout come
Ġoff ering
åİĤ åķĨ
ook ing
Ġcomp are
è¿Ľ å±ķ
Ġem pt
Ġdef ense
ĠCo ast
row ing
ĠF und
ĠD ar
çŃī åľ°
Ġfac ility
Ġ id
èĦĤ èĤª
åı¤ ä»£
Ġph arm
å·¥ä½ľ ä¸Ń
Ġvirus es
æĹ¥ æĬ¥
åĨħ å¤ĸ
é¢ ĸ
] .
Ġcarry ing
çĶ¨ æ°´
O r
Ġtown s
ĠS up
æµ ¸
9 1
Ġingred ients
æľ¬ äºº
ä¹Ł å°Ĩ
ĠE ffect
è¯´ çļĦ
ç¢ °
æģ °
çľ¼ çĿĽ
æķĻ ç»ĥ
Ġmin ing
Ġredu ces
Ġesc ape
ĠP et
ä¼ł éĢĴ
p es
Ġplan e
T P
ident ial
Ġfac ing
Ġbeaut y
ï¼Ī äºĮ
åľŁ å£¤
Ġc osm
Ġbl ind
ĠDirect or
ĠBe fore
Ġrare ly
Ġpl us
è¾ĵ åħ¥
å®Ĺ æĹ¨
a o
10 2
Ġcomp ris
Ġath let
ï¼Į æıĲä¾Ľ
è¹ Ī
æĤ ł
ir us
è½¦ ç«Ļ
åĬ© äºİ
Ġâ Ĩ
Ġmin eral
Ġf ashion
Ġconfirm ed
ĠP lease
Ġb ath
éĤ® ç®±
b orn
ĠOx ford
èī ³
æŁ ľ
åĽŀ å¤į
ir al
he rent
Ġthem e
Ġseek ing
ĠTh ough
ï¼Į å¼ł
u els
oc ial
P V
A B
åŃ©åŃĲ çļĦ
å¥¥ è¿Ĳ
è¢ Ń
çħ Į
i ological
Ġv ac
Ġbe es
ĠDe v
æĸ° åħ´
åĬł ä¸Ĭ
us al
ĠRes ources
w ing
Ġla unch
Ġim plications
inc luding
f it
Ġdepend ent
ĠDist rict
ä¹ĭ ä¸ĭ
so ft
hy d
å¹¶ ä¸įæĺ¯
Ġprepar ation
Ġcrim inal
Ġcomp ens
Ġmathemat ics
ĠCent re
çİ° éĩĳ
æľĢ å¥½çļĦ
æĭħ å¿ĥ
åº¦ åģĩ
ä¿Ŀ çķĻ
B ecause
Ġsh ock
Ġart ists
ä¹Ļ çĥ¯
Ġinc red
éħ °
æīĢ éľĢ
å®¶ å±ħ
å¥ĭ æĸĹ
M ed
Ġpro of
Ġab and
åĴĮ æľįåĬ¡
åĲ ¹
ãĢģ åįĹ
å¤ĸ åĽ½
Ġvisit ors
ĠSec ret
èĥľ åĪ©
æīĵ å¼Ģ
ĠL ist
omm od
Ġrenew able
Ġmin ute
Ġhe ating
ĠV en
ĠP en
Ġtarget s
ĠW ord
åħĪè¿Ľ çļĦ
Ġtra ct
an o
äºĭå®ŀ ä¸Ĭ
éľ į
Ġr oughly
ĠT re
å®ļ åĪ¶
Ð ¾
çĶ¨ åľ°
Ġplan ned
10 9
isc o
E very
éĥ¨ éķ¿
åıĳ æĶ¾
Ġneighbor hood
Ġinf ect
Ġcl othing
èģ Ĭ
ãĢģ ä¼ģä¸ļ
H S
ĠS ometimes
ï¼Į æŃ£
çĸ ²
Ġbi ology
ĠP olic
ï¼Į è¿Ľ
è¯Ħ éĢī
æ± Ĺ
æ¡Ī ä¾ĭ
Ġweap ons
ĠJ ac
ĠB ill
èľ Ĥ
ord ers
ar th
Ġin her
Ġexam ination
ĠS at
éĩĬ æĶ¾
ä¸Ĭ ä¼ł
Ġt ub
Ġsatell ite
Ġinterp re
Ġfavor ite
Ġc av
Ġa ims
æľĢ ä½İ
åŃĲ åħ¬åı¸
ol i
Ġl ake
Ġcare ful
æįŁ å®³
8 7
Ġjud ge
çī© åĵģ
ï¼Į åħ¨éĿ¢
é¡µ éĿ¢
çĸ« èĭĹ
åı¸ æ³ķ
ollow ing
Ġphot os
å®Į ç¾İ
ro oms
Ġcom plicated
ĠC D
è½» æĿ¾
å¼Ĥ å¸¸
å¤§ å¤§
/ c
Ġpass ing
o ir
ĠO pen
èĲ¥ æĶ¶
çĶµ æ°Ķ
Ġn ose
çĻ¾ å§ĵ
åĴĮ å¹³
å°± èĥ½
ï¼Į æµ·
air y
ĠL ib
çĸ ¼
ä¸ĭ è½½
Ġsurf aces
Ġcre w
ĠArt icle
ä¸Ģ åľº
éĤ£ ä¸ª
ç§ĺ ä¹¦
æµĵ åº¦
Ġaccur acy
ï¼Į å¿ĥ
è§Ħ æł¼
åĬł çĽŁ
å¾Ī å¥½
Ġdel ivered
å¤Ħ ç½®
ĠL ar
Ġwrit ers
é¸ £
Ġto m
ĠS il
åŃ©åŃĲ ä»¬
ĠOrgan ization
ï¼Į æīĵéĢł
è¯¾ åłĤ
çļĦ åŁºæľ¬
æĽ ¹
åıĳ åĩº
ud e
Ġcollabor ation
Ġthe ore
éĴ¢ ç®¡
æĪĺ æĸĹ
os h
ĠHe b
Ġev il
åħ» æ®ĸ
erson al
Ġopp osed
Ġdes ired
çĽ¸åºĶ çļĦ
å¹´ åīį
éĢ ¾
æĲ ŀ
es ides
Ġh orses
çľĭ æĿ¥
åĽ¢ ç»ĵ
us hed
Ġdef end
æ·· åĩĿ
Ø §
ap se
Ġfair ly
èĭ ¯
Ġimplement ed
ID S
Ġord ered
ĠSpec ial
çĮ Ľ
æĮ ¤
åģļ äºĨ
ĠAd v
èĻļ æĭŁ
ound ed
og ether
Ġattempt s
ĠM en
Ġt ut
Ġmeasure ment
çĶŁäº§ çļĦ
Ġsign ed
Ġsecond s
è®¿ éĹ®
åģ¥ èº«
å®ļ ä¹ī
Ġshap es
Ġknow ing
it ual
Ġpl enty
æĶ¶ å½ķ
ä¼ł æĦŁ
ad der
Ġelect ed
Ġconsid ering
åº· å¤į
ou red
Ġgradu ally
ixt ure
EN T
æľ ´
æĢ» éĥ¨
ru ption
Ġfin ished
Ġencoura ged
Ġconsider able
Ġcomb at
éĹ´ çļĦ
Ġeffect iveness
ĠG rand
oc c
Ġequ ally
è¿ĩ æ»¤
å¤§ åĬĽ
J ohn
ï¼ĮæľĢ åĲİ
æķ´ çĲĨ
Ġprincip al
ç§į ç±»
åĲ Ĳ
å¯Ĩ åº¦
Ġcapt ured
ĠMore over
ĠF ather
an i
åį° è±¡
é«ĺ éĵģ
the less
ov en
in ning
' m
Ġtrad itions
éĶ Ĳ
åİ ĺ
f l
Go ogle
Ġmechan ical
ï¼Į åĮĹ
omm un
es h
Ġstruct ural
çļĦ ä½¿çĶ¨
ç¨İ åĬ¡
ill a
æĹ¥ æľŁ
Ġstrong er
ç¾¤ ä½ĵ
æķ´ æĶ¹
æ° Ł
ask a
Ġcrit eria
Ġc ash
ï¼Į éģ¿åħį
3 60
Ġrespect ively
Ġphysic ian
Ġin n
Ġess entially
ç´§ å¼ł
out s
Ġd rain
Ġph osph
Ġf er
ĠChe ck
Ġtrans p
Ġsubsequ ent
ĠT im
ãĢģ æµ·
Ġimag ine
ĠM oon
ç¬¬ åħŃ
æħ °
or ic
Ġinform ed
ro at
Ġover w
å¹¶ ä¸Ķ
Ġde aling
äººæ°ĳ æ³ķéĻ¢
ãĢģ å¤ļ
C R
é¢ ĩ
ä¸ĭ æ»ĳ
Ġunus ual
ĠI ran
ï¼Į çİĭ
è¾ ©
æ³ ³
Ġter ror
- cl
Ġj ump
Ġir rit
Ġdef ect
æĶ¶ èİ·
Ġmetab ol
Ġm eth
Ġit em
Ġde eper
åīį æĻ¯
å·² æľī
rou s
è§Ħ å¾ĭ
è¥¿ äºļ
æľŁ åĪĬ
g reg
10 5
Ġdec or
ĠYou ng
Ġer rors
èµ «
çļĦ åŃ¦çĶŁ
-c alled
Ġconcer ning
ĠP o
ĠJe ff
ĠAm ong
è´¢ å¯Į
f ts
Ġt ube
Ġrad ical
Ġf ix
ĠV er
çĪ ·
ä¸į çŁ¥éģĵ
Ġvari ables
Ġfall s
T oday
Ġins ert
ĠT ype
éī´ å®ļ
æ¶µ çĽĸ
åĽ Ĭ
åĨį çĶŁ
äºº å¤§
Ġassign ed
çĶµ åĻ¨
y al
ol n
Ġexcess ive
è¶ħ çº§
æīĭ ç»Ń
Ġunc ertain
Ġown er
é¬ ¼
å°ı åĮº
ä¸ĵ ç§ĳ
9 4
Ġar ts
äºº éĥ½
ass es
am ing
- v
Ġprevent ing
ĠIn s
çĻ½çĻľé£İ æĤ£èĢħ
v ard
ex ample
Ġrem ind
Ġpo em
çºº ç»ĩ
åĮ ¹
Ġthreat s
Ġmay be
Ġac ute
Ġab normal
ĠChrist ians
ç½ Ĳ
âĢĶ the
ĠS ym
Ġr an
vent ions
Ġl ie
Ġkil omet
ï¼Į äº§åĵģ
çĽ Ĵ
æĺ¯ ä¸ª
it arian
ict ed
10 3
Ġinflu enced
Ġbre eding
èº« ä¸Ĭ
å¹³ æĹ¶
Ġprov ed
Ġpro ceed
ĠIsl am
å¤ļ å¹´çļĦ
Ġteam s
ĠKore a
Ġsc ore
ï¼Į ä¸»
éģĹ äº§
è¡Ģ æ¶²
ãĢĤ éĤ£ä¹Ī
Ġex clus
çĶµåŃĲ åķĨåĬ¡
Ġstate ments
Ġremov al
éŃ Ĥ
æĺ¯ ä¸ŃåĽ½
Ġep is
Ġadvant ages
ï¼Į åĲĮ
éļĶ ç¦»
Ġobs erve
Ġdo se
lish ing
erm an
èĪŀ è¹Ī
E F
éĴ Ļ
æĹ¥ çĽĬ
æ¹ ĺ
a ired
èĤ ĸ
è£ħ ä¿®
æµ ´
ä» °
Ġsl a
Ġg alax
éĿŀ æ³ķ
ç®¡çĲĨ ä½ĵç³»
æİĪ äºĪ
ol ving
Ġs ession
Ġed ition
Ġd ates
é¡¾ å®¢
e ut
ast s
S P
Ġpe ak
å¯¹ æŃ¤
çļĦ åĨħå®¹
åĽ½å®¶ åĴĮ
åı£ ç½©
ĠE p
éª Ĺ
è¾ħ åĬ©
z heimer
d f
ï¼Įå¹¶ ä¸į
ist ical
Ġstim ul
Ġmar ks
ĠWh o
ï¼Į åı¯èĥ½
çļĦä¸Ģ äºĽ
æŁ ´
åĽŃ æŀĹ
am ins
Ġdis char
ĠF our
ĠInd ust
å±ķ ä¼ļ
ĠSt ar
ĠD espite
åİļ çļĦ
Ġfarm ing
éĻ¶ çĵ·
æ¸ħ æĻ°
ĠW all
éĽ ĩ
è¾Ĳ å°Ħ
Ġsatis f
ï¼Įä¸Ģ å®ļ
Ġro se
ou nce
Ġprov en
éģµ å®Ī
æ± ģ
ian a
çĬ ¹
çī© ä¸ļ
åĪĨ éħį
ĠMus lim
ï¼Į åĮĹäº¬
æ¨¡ åĿĹ
UR L
åī¯ ä¸»ä»»
ĠU r
ĠM ethod
çĽ Ĺ
Ġpres ents
åħ ½
ess ions
Ġmicro sc
Ġbig ger
éħį å¤ĩ
æĺ¯ æľī
ol s
Ġvar ieties
Ġdem ands
ĠSt r
ï¼Įåį³ ä½¿
èµĦ åĬ©
Ġanal ys
é¤Ĳ åİħ
åĬł çĥŃ
å¼Ģ åĲ¯
äºĶ å¹´
en ess
Ġexam ined
ĠN ote
ï¼Į ä¸Ĭæµ·
ç»Ĩ èĬĤ
ä½Ļ äºº
çĩ ķ
re ated
åįĥ ä¸ĩ
ĠFurther more
åĪĨåĪ« ä¸º
å»¶ éķ¿
ä½¿ å¾Ĺ
ren cy
Ġtrans lation
çļĦ ç²¾ç¥ŀ
ç¡¬ ä»¶
ost on
Ġcl ar
è¿ĺ åľ¨
ual ity
ro x
ric ts
ort ed
Ġtrig ger
Ġreg ulation
Ġg ut
az on
O D
Ġla id
é¢Ĺ ç²Ĵ
am ination
æĥ³ æ³ķ
å°Ĭ éĩį
E A
èµ ļ
è§Ĥ å¿µ
åĪĨ ç¦»
âĢĿ ãĢģ
Ġsla very
æ¶ Į
opy right
Ġg ained
è¯» ä¹¦
on ym
Ġcook ing
og rap
ï¼ Ĵ
é¦ Ī
ĠAdminist ration
è¢« åĳĬ
çĻ½ èī²
æĸ¹ ä½į
æĥħ å½¢
ov ascular
éĢĶ å¾Ħ
å¼Ģ æĭĵ
äºĮ çº§
è¿Ĳ ä½ľ
æıĲ åĪ°
åĬĽ åĴĮ
Ġunivers al
ãĢ Ķ
l van
Ġdifficult ies
Ġcomm ission
Ġwar ning
Ġfl our
åıĳ è¨Ģ
th m
it als
Ġint ent
Ġfish ing
te b
est ion
ĠPl ant
ï¼Į åĿĩ
æĥ³ è±¡
ãĢ ķ
. p
ï¼Į åıį
ãĢĤè¿Ļ ç§į
aw s
Ġout er
Ġnew ly
Ġflow s
åĭ ĥ
c hen
æĢ» å±Ģ
Ġbran ches
ä»İ ä¸ļ
ro ve
Ġwind ows
Ġsuff ered
Ġgu ard
Ġserv es
Ġart ist
èĥ ¸
çĹħ çļĦ
Ġisol ated
ï¼Į è¾ĥ
ä¸¥éĩį çļĦ
ren e
em b
Ġf ed
Ġexperim ental
oun ter
Ġsit ting
Ġear liest
çıŃ çīĻ
æ¿Ģ åĬ±
åķ ¡
ä¸ļ åĨħ
ĠN on
æł ĭ
Ġcoun sel
æĬ« éľ²
" .Ċ
en cing
Pe ople
Ġv an
éģĹ ä¼ł
å®Ŀ å®Ŀ
ri end
ra ys
ĠA ND
æ³ Ħ
ä¼ł æŁĵ
Ġsc ar
Ġplan ets
ĠCommun ity
Ġconsum e
å¸¦æĿ¥ äºĨ
å¸ ħ
Ġshar p
è¯´ è¿ĩ
å¤ļ é¡¹
ä¸Ģ ä»½
Ġinsp ired
ĠR ock
ĠL ead
æľ µ
iox id
Ġsp ort
Ġcor ner
Ġf est
Ġemb ry
ĠFin ally
è´¢ äº§
æ¡ ¶
åģ¥ åħ¨
å§ ľ
Ġflow er
ĠT op
ĠI ss
ãĢĤè¿Ļ æĺ¯
Ġscreen ing
æĸ¯ çī¹
åĵį åºĶ
ish op
Ġfocus es
ĠW orks
æĬ ¼
å» Ĭ
i at
am ine
T A
Ġcon j
çĽ¸ ç»ĵåĲĪ
åľ¨ æŃ¤
åĮº åĪ«
Ġst ores
Ġhapp ening
å¥ī çĮ®
Ġmod ified
Ġelimin ate
ï¼Į æĿ¥
ot ton
éĻ Ģ
çľŁæŃ£ çļĦ
æĸ° åįİ
ãĢģ ç®¡çĲĨ
Ð µ
im a
il ation
ag raph
ĠLear n
èŁ ¹
èµ· äºĨ
o ids
Ġabs ence
ĠSu per
çļĦ çĽ¸åħ³
S he
P er
Ġy e
Ġst uff
Ġbran ch
ĠM ah
éļı æĹ¶
æıı è¿°
äºº ç¾¤
ru it
Ġst ead
Ġscient ist
Ġhaz ard
Ġh oney
Ġang le
ï¼Ī åĲ«
èħ °
Ġsen ior
æĹł äºº
Ġl ymph
æ¸© æļĸ
åıĳåĬ¨ æľº
Ġdr iven
ĠR esp
ç»¿ åĮĸ
æĺİ çĻ½
ic ate
E d
- N
èŀį åħ¥
æľī åı¯èĥ½
t les
ap h
Ġmos quit
åĲĮæ¯Ķ å¢ŀéķ¿
ur a
act ion
ra v
Ġam azing
éĥĳ å·ŀ
æĦı å¤ĸ
ä¼ł è¾ĵ
un icip
et ary
éħ ·
è§Ĥ çľĭ
ab eth
Ġinnov ation
Ġconf erence
ĠF ire
ä» ²
Ġhe aling
Ġch am
ĠProt ection
æ» ©
ĠE st
åĲ¦ åĪĻ
å°ĳ æķ°
å§ ¿
pt ions
ab b
èµ· åĪ°
åĩº æĿ¥çļĦ
ä¸ĭ åİ»
el i
Ġaccomp an
éŃ ı
éĺŁ çļĦ
ä¿Ŀ åŃĺ
ĠPr inc
å®¹ éĩı
ä¸ī è§Ĵ
Ġro ads
éĵ¶ å±ĳ
çĶ³è¯· äºº
åĶ® åĲİ
å¯Ĩ å°ģ
Ġre ward
Ġp estic
arent s
Ġinvestig ation
ĠI mm
sy lvan
Ġdet ection
Ġd ys
Ġadd s
ĠL ow
å§ »
Ġint est
éĢĢ ä¼ĳ
ä¸ ²
å¾ ¡
ä¸ĭ åĪĹ
it ting
ĠDo es
åĴĸ åķ¡
ay a
Ġreve al
Ġg rid
Ġcor rel
ï¼Į åıĬæĹ¶
ä½ĵ æ£Ģ
Ġsun light
é£ŀ è¡Į
æĻºèĥ½ åĮĸ
åī Ĭ
Ġus ual
Ġprint ed
Ġmount ains
Ġacc ommod
ĠTh ree
çĶ¨ äºº
çº½ çº¦
åĽĽå·Ŀ çľģ
å¤ªéĺ³ èĥ½
Ġvide os
Ġsw itch
Ġident ification
ãĢģ äºº
Ġen orm
çĶ» éĿ¢
çĶ¨ éĢĶ
ris on
en ger
Ġcop per
ac hers
ãĢģ æĸĩåĮĸ
ur ning
elf are
Ġsettle ment
ï¼Į å¢ŀå¼º
è¾¾ æĪĲ
æİ¥ å¾ħ
acc o
ï¼Į äº¦
æĭħ ä¿Ŀ
at ial
æ¾³ å¤§åĪ©
ä»¥ å¤ĸ
ãĢĭ åĴĮ
çļĦ æķ°æį®
å¤©çĦ¶ æ°Ķ
uck y
- qu
Ġre ct
Ġquar ter
Ġbre ed
og s
Ġprom inent
Ġplay er
Ġasse ts
æ£Ģ å¯Ł
æ£ ļ
Ġc aught
æĴ ¤
Ġm ic
Ġdiet ary
Ġal ter
æľīåħ³ éĥ¨éĹ¨
æ¾³å¤§åĪ© äºļ
or ne
am ics
ï¼Į éĩĩçĶ¨
èµ ¤
éķ¿ æ±Ł
Ġr ational
ĠU t
æ¶Ī æ¯Ĵ
Ġrec over
Ġra cial
Ġcharacter ized
åĭ ĺ
it ure
çļĦ çİ¯å¢ĥ
ä½ı å®¿
Ġliter acy
è¾ħ å¯¼
çħ ®
å¯ ¨
- W
Ġpar as
åĲĪä½ľ ä¼Ļä¼´
å°± åĥı
Ġvar iation
Ġgrant ed
Ġad m
æĢĿ è·¯
Ġfind s
ĠAd ditionally
æ¯« ç±³
å®ĮæĪĲ äºĨ
å®¢æĪ· æıĲä¾Ľ
ult ane
Ġresp iratory
Ġinit ially
Ġev olved
ĠM S
ĠFor ce
åĺ ´
å®Ĺ æķĻ
ä¸Ń åĮ»
ä¸Ģ æĺ¯
Ġtrend s
ĠS und
Ġpan els
ï¼Į ç»ĵåĲĪ
inc oln
Ġlearn ers
äººæīį åŁ¹åħ»
r int
Ġun w
Ġfac ed
æ¶Ī åĮĸ
end ment
P re
Ġmort ality
Ġag ed
ĠK ar
ĠAl zheimer
å¥ Ī
Ġra b
Ġpe oples
ï¼Į æĪªèĩ³
éĢ Ĭ
Ġcomfort able
è¯´ æĺ¯
ç» µ
åĪĨ æ³Į
ang le
Ġany where
çļĦ ä¿¡æģ¯
Ġsubstant ial
æĹ¨ åľ¨
Ġprint ing
Ġmy st
æį® æĤī
com ing
ative ly
Ġex ceed
ĠSup reme
Ġconf ig
èį ¡
æ¸ Ķ
äººåĬĽ èµĦæºĲ
Ġconclud ed
Ġexcept ion
ĠN ov
17 5
åıĬ ä»¥ä¸Ĭ
iv a
ĠJ o
çĻ½ æĸĳ
ĠC ross
Ġp y
Ġmus ical
çłĶ åĪ¶
çĥ Ĥ
H A
Ġchann el
æĢİ æł·
g on
all ow
èĭı å·ŀ
è®¢ åįķ
le te
an es
Ġemphas is
ç§ĳæĬĢ åĪĽæĸ°
Ġal ph
çļĦ åİĨåı²
æľ¬ åľ°
åıĺ æĽ´
æ³ķ äºº
ot al
Ġprovid er
Ġd rought
ä¸į å¥½
ust ain
Â ®
ans as
Ġper mission
ĠSw ed
æ±Łèĭı çľģ
åįģ åħ«
åĬ £
å¼ ¯
ĠJ ul
æľ¬ ç«Ļ
åĲĦ èĩª
ul pt
æ²³ åįĹçľģ
åľ° éľĩ
ãĢģ å®īåħ¨
Ġarg ue
è¯Ħ ä¸º
ĠCons ervation
G et
Ġdecre ased
åħ¨ æĸ°
Ġor bit
éĶ» çĤ¼
çģµ æ´»
ig ue
Ġr itual
âĢ¦ Ċ
ie val
Ġh oles
Ġfat ty
å¾Ī å¿«
ä¿® å¤į
un a
Ġcopy right
èĤ ©
çŁ Ľ
æĭ¿ å¤§
( s
èĥ Ģ
ot ype
ĠC a
èį Ĵ
å» ·
as ant
Ġtur b
Ġtreat ing
Ġsil ver
åħĭ æĸ¯
Ġt ropical
Ġcons erv
ĠOn line
çŃ Ľ
åĵª éĩĮ
æĻ¯ çĤ¹
æ³ķ å®ļ
åľ° éĿ¢
Ġclean ing
ri z
j ust
ang er
Ġsu p
èīºæľ¯ å®¶
åĽŀ çŃĶ
Ġint ensity
éĥ½ è¦ģ
Ġsuper ior
Ġobserv ation
Ġcarb ohyd
ĠI V
è¿ĩ çļĦ
çĶµ ç«Ļ
ĠE U
æł¼ å±Ģ
å®ŀ ä½ĵ
in er
Ġstreng then
æĸĩåĮĸ çļĦ
å¾® åįļ
Ġsub t
éĢı æĺİ
æĹł çº¿
ec ific
Ġbi om
çļĦ ç®¡çĲĨ
çĤ Ĵ
Ġvis ited
Ġfun g
Ġexperien cing
Ġdis abilities
Ġconsider ation
æľī åĵªäºĽ
Ġmeas uring
ĠA P
éĥ¨ ä½į
in ux
Ġspect rum
Ġaut ism
ï¼Į åĩº
å°± åľ¨
å¥³ åĦ¿
Ġs ales
Ġim aging
è´§ çī©
å§ ĳ
å¤ĸ è§Ĥ
Ã ¢
b les
Ġvict im
Ġch lor
ä½ĵ åĪ¶
Ġg iant
ç® Ń
æł¡ åĮº
å°º å¯¸
r ical
ogen ic
Ġcon qu
åĮĹ éĥ¨
åħ¥ éĢī
i ary
ha ust
erc ury
cyclop edia
Ġold est
Ġdirect ed
Ġun ion
Ġantibiot ics
ĠS ir
çļĦ æķħäºĭ
çħ¤ çĤŃ
æ°ĳ ä¼Ĺ
å¨ ĺ
Ġgrow s
Ġcom plications
Ġb omb
Ġover come
Ġdem ocracy
å¡ ĺ
Ġinf ant
ï¼Įä½¿ å¾Ĺ
çĶ¨ æĿ¥
å·² æĪĲä¸º
å¢ŀåĬł äºĨ
Ġprocess ed
Ġobject ives
Ġinh abit
ĠN ever
åĿ ª
ĠP ot
ĠAut hor
çĨ Ĭ
æľįåĬ¡ ä¸ļ
Ġst ations
Ġind igenous
Ġcont ribution
ĠS ign
ĠK h
Ġrem ed
Ġprof it
Ġphr ase
Ġmother s
ĠCh apter
ç¼ĵ è§£
@ example
ĠMich igan
çĶµ æºĲ
Ġp it
ĠL iter
è¾ĵ åĩº
ï¼Įä¸į å¾Ĺ
ï¼Į åĽ½
æ· ĭ
å¼º å¤§çļĦ
ĠCur rent
å½» åºķ
Ġview ed
Ġopp osition
Ġam pl
Ġre aching
Ġac res
ĠJohn son
ç£ ·
æĺ¯ ä»¥
u rolog
othe rapy
/ m
Ġdiam eter
Ġcorrect ly
Ġ ;
è¶ħ è¶Ĭ
çħ§ æĺİ
ĠL o
æĻ® åıĬ
å¤§ çº¦
sylvan ia
ç»ı è´¹
åı¦ ä¸Ģä¸ª
ell s
at hered
Ġwor st
ĠT able
æł ª
æķ° çļĦ
Ġar ray
Ġw ine
Ġpl ot
åįĹ éĥ¨
ä¸į äºĨ
ra de
ir th
12 5
Ġform ula
ĠD ou
æ¿Ģ åıĳ
ãĢĤ èĩª
æĶ¶ èĹı
ir ms
E G
éħ ¶
æ°´ åĪ©
Ġ ×
y er
em ia
Ġwrit es
Ġab ilities
åİ¿ çº§
ä¸Ń æĸĩ
Ġform ing
è´ º
ãĢĤ åı¯
am i
ĠS and
çļĦ æ²»çĸĹ
2 20
Ġch ap
æĺ¯ å¯¹
ĠEngine ering
ï¼Įä»ĸ çļĦ
æŃ¤ åīį
æľī ä»Ģä¹Ī
åĪ© çİĩ
Ġprogram me
æ® ¿
st ant
Ġlist ening
æŃĮ æĽ²
æ´» åĬĽ
å½ķ åĪ¶
-be ing
ocol ate
Ġvoc abulary
Ġdet ected
ĠG r
èĢĮ ä¸į
æ··åĩĿ åľŁ
et te
åĿļ å®ļ
åĲĪ çī©
ro t
it ory
G E
Ġcommunic ations
ĠM ult
èµĶ åģ¿
æ¶Ī èĢĹ
in du
Ġc ort
ĠRo ad
å¿ħ çĦ¶
Ġst ability
Ġcall ing
èĥ ģ
çĶµ æľº
ra ham
qu ir
Ġrepresent ation
ï¼Į å¥½
åħ¨ å¹´
Ġoccur ring
Ġhe nce
Ġdis rupt
Ġdec ay
- res
) |Ċ
Ġheav ily
Ġg ro
Ġcat tle
éĹ ¹
è´¢ ç»ı
u ber
11 1
Ġun iform
Ġj ur
Ġad olesc
æŃ¤ åĲĮæĹ¶
ist ed
Ġcl ient
ĠPre vention
åİ¦ éĹ¨
åħ¬ æ°ĳ
Ġhead s
ĠL ight
å¸¸è§ģ çļĦ
b a
. M
Ġgra in
æħ¢ æħ¢
Ġregard less
Ġautom atically
ĠSim ilar
ĠF igure
ï¼Į å¤©
èµ° è¿Ľ
åŃ£ èĬĤ
åĲĪ éĢĤ
Ġed itor
Ġhorm one
. c
Ġf ra
ĠH or
ĠEd ward
Ã ¤
Ġcontribut ed
ĠCamb ridge
ĠCO VID
ï¼Į ä¿Ŀè¯ģ
ç¨İ æĶ¶
åĽ¾ä¹¦ é¦Ĩ
ï¼Į åĽ½åĨħ
éªĮ æĶ¶
çº¿ çļĦ
æĸ¹ çļĦ
Ġweak ness
Ġsupp lements
Ġe lder
Ġbl ess
æĮĸ æİĺ
roll ed
re qu
" The
Ġw isdom
Ġeth ical
ç¾ ½
åĲī æŀĹ
s en
re ction
iz abeth
ĠMin ister
æ¶Ī éĻ¤
P M
Ġext end
å°ļ æľª
å®ŀ çĶ¨
Ġins ight
çĶµ ä¿¡
æĵ İ
æį® äºĨè§£
åł µ
ä¼ĳ æģ¯
Ġaddress ed
è¡¥ åĬ©
on omic
ĠPl ay
çļĦ ä»·æł¼
ail able
Ġchar ged
ï¼Į åĩıå°ĳ
ï¼Į å¢ŀéķ¿
Ġhousehold s
å¤ ¹
Ġsche dule
Ġord inary
Ġconcent rations
é¾Ļ å¤´
Ġper ception
çĽ Ĩ
æĽ¿ ä»£
æİ¢ è®¨
åįĵ è¶Ĭ
Ġidentify ing
Ġprovid ers
Ġnutri ent
ĠD C
é¦ ¨
Ġsl aves
ï¼Į ä¸ľ
ç§ĳæĬĢ æľīéĻĲåħ¬åı¸
äº¤ æį¢
ç¢ §
n ight
Ġal ive
ï¼ģ âĢĿ
è¯» èĢħ
çļĦ è§Ħå®ļ
çĩĥ æĸĻ
åĲĮ ä¸Ģ
Ġwors hip
Ġaut hent
Ġaud io
çĶµ è·¯
ç¾İ é£Ł
å¤§ éĻĨ
ãĢĤ çİ°åľ¨
T C
Ġpol ar
ib b
Ġprotect ing
åŃ¦æł¡ çļĦ
Ġt on
ä¸ī åĪĨ
Ġrel ie
æ¯ı ä¸Ģ
ãĢģ éĶĢåĶ®
ple te
çĶŁ æ¶¯
we b
èĩ £
ic ing
Ġcommit ment
åıĤåĬł äºĨ
ç§ĳåŃ¦ éĻ¢
å·® è·Ŀ
ç¥ Ń
og a
Ġthere by
å¹³ å®ī
ä¾ ł
ĠChristian ity
æµ ı
åĪĿ å¿ĥ
eg a
Ġdyn amic
ä¸į å¤Ł
pt ic
L ast
ĠC am
è¶Ĭ åįĹ
è§Ĩ ä¸º
æĲº æīĭ
å¸¸ è§Ħ
éĥ İ
æĿ¥ äºĨ
N S
ĠD utch
Ġgir l
ĠE r
se ll
Ġinter face
Ġec ological
èģļ ä¸Ļçĥ¯
æĽ Ŀ
ä¸Ģä½ĵ åĮĸ
fore st
et ing
ange red
èĬ± åĽŃ
æµĻæ±Ł çľģ
åħ¬ å¹³
Ġregard ed
åģļ çļĦ
ost ic
-cent ury
Ġmod erate
Ġcon ce
Ġtax es
Ġcover ing
ä¾Ŀ éĿł
R NA
Ġl aser
ä»Ĭ åĲİ
Ġwhe el
Ġpoint ed
Ġn ice
Ġmanufacture rs
Ġinteract ive
ĠL ee
pl ing
Ġlog ic
çĶ· åŃĲ
æĬĳ åĪ¶
ä½ĵ ä¼ļ
ä¸į è¶ħè¿ĩ
ep ing
Ġhard ware
æıĲ ç¤º
Ġme als
âĢľ æĪĳ
ĠSaf ety
' ,
Ġatt ach
â Ĩ
Ġchem istry
æĵ ħ
æĪĲ äº¤
Ġeduc ators
Ġad vent
åī ª
å®ŀçİ° äºĨ
âĢĶ and
.ht ml
Ġse at
ï¼Į éĩį
å¹¶ éĿŀ
Ġgl ac
ĠHeb rew
è¯¸ å¤ļ
çŃ¾ çº¦
ac ent
Ġl es
Ġfl ash
æĸ° æĹ¶ä»£
å°¼ äºļ
u an
Ġille gal
ĠPolic y
ĠMed ia
ç§ĳåŃ¦ å®¶
P art
Ġcour ts
ĠM ath
ï¼Į å¸Ĥåľº
é«ĺ æĸ°æĬĢæľ¯
im m
ild ren
Ġengine ers
Ġco verage
åĪĳ äºĭ
use t
it i
Ġinnov ative
ĠHe art
ï¼Į æīĵ
as m
Ar t
Ġresearc her
Ġexpand ed
åĲĮ æŃ¥
10 4
Ġf lying
b ar
Ġprotect ive
ï¼Į åĪĨ
æłĳ èĦĤ
Ġoverw hel
Ġelse where
ç»Ī ç«¯
ä»Ĭ æĹ¥
Ġ ^
Ġt ong
çļĦ åºĶçĶ¨
æ£ ī
th on
é£İ æľº
ãĢĭ Ċ
ãĢĤ ä»Ĭå¹´
Ġprov ince
Ġper m
ĠL y
ĠB oston
èĲ½ åľ°
âĢľ å¤§
Ġiniti ative
ï¼Ī ä¸ī
çŁĽ çĽ¾
çº ²
Ġcl ub
å¤± è´¥
Ab out
ĠÂ £
ï¼Į åİ»
èµ° åĩº
äº Ń
ãĢģ äºĮ
Ġpre ced
u y
çĪ± å¿ĥ
æĮ º
æ¯ķ ç«Ł
å±Ģ éķ¿
Ġl ens
Ġcomp ound
ĠC ard
ï¼ĮåĬł å¿«
åĵ² åŃ¦
-in f
Ġm ixture
Ġbo at
éĹ¨ ç¥¨
å©ļ å§»
Ġthreat ened
Ġh idden
Ġbr ush
ĠSt art
ĠO l
ur ches
C A
Ġreport ing
ĠS et
ĠQue en
ï¼Į æĽ¾
éķ¿ æĹ¶éĹ´
çļĦ ä¸ŃåĽ½
å°½ å¿«
ra ce
åįł åľ°
å»ºçŃĳ éĿ¢ç§¯
ist ant
hold ers
Ġh osp
å»º æĿĲ
- J
Ġsh oot
Ġqu iet
Ġant ioxid
ĠW ay
é¥® æĸĻ
èħ ¿
çłĶç©¶ ä¸Ńå¿ĥ
Ġmathemat ical
æĬĬ æı¡
åİ»å¹´ åĲĮæľŁ
ag en
H ist
èĭ± æĸĩ
åĬ³åĬ¨ åĲĪåĲĮ
Ġpl ain
Ġp in
Ġag ent
ĠConf erence
ãĢĤ ä¾ĭå¦Ĥ
re al
æľĪ çļĦ
æ¬£ èµı
Ġupd ated
ĠT om
è¿Ľ ç¨ĭ
ãĢĤ ä½ł
are n
Ġdeg rad
Ġcool ing
Ġcontain er
ad el
ï¼Įæľī çļĦ
æľŁ åĨħ
ä¸ ĺ
rib e
Ġfunction ing
å¤§ éģĵ
i ations
O W
Ġvers ions
ï¼Į é©¬
éķ¿ æ²Ļ
æ°ĳ èĲ¥
åı ł
å»¶ ä¼¸
ak a
ach uset
Ġaffect ing
ä»½ é¢Ŀ
Ġfall ing
ĠGeorg ia
ä¸ī æĺ¯
pl ay
achuset ts
Ġsw it
é¼ ł
çī© èµĦ
Ġstop ped
Ġimprove ments
Ġbelie ves
ĠG ulf
æ¶¦ æ»ĳ
b rid
ĠFranc isco
éľ ¸
çŃ¾ ç½²
æĶ» åĩ»
å½ĵ å¹´
Ġdesc ript
Ġcharacter istic
Ġbehavior al
Ġb rows
ï¼Į åıĳçİ°
éĩį çļĦ
æĺ¯ä¸Ģ å®¶
å¯¼ å¸Ī
Ġo v
Ġatt itude
çļĦ åħ³éĶ®
æľĢ ä¸º
Ġlight s
åľ° è´¨
å°± è¦ģ
ic y
D S
10 6
Ġcomp rom
ĠAr ctic
éħ° èĥº
æĿ¿ åĿĹ
æĬĢæľ¯ åĴĮ
æ®ĭ çĸ¾
ĠUn fortunately
æĸ° åĬłåĿ¡
åį³ ä½¿
ut ing
St ep
Ġbiod iversity
ĠH ospital
éļĲ æĤ£
æĪĲ æķĪ
åı· çº¿
u gg
Ġwhe at
Ġsepar ated
ĠP ass
æĮĩ å®ļ
å°Ĩ åħ¶
ä¿® è®¢
ou l
Al so
Ġv en
Ġtrib es
em a
Ġbur ied
ĠPenn sylvania
ĠOh io
Ġord ers
Ġinc ident
ĠCh o
ï¼Į è¦ģæ±Ĥ
Ġsus cept
Ġst ake
Ġm ir
æĭį åįĸ
æ¯ı ä¸ªäºº
l ast
Ġen ables
éĢī çĶ¨
æ°ĳ çĶŁ
å¸Ĥ å§Ķ
ic ular
Ġs izes
ĠCon vention
æĻ Ĵ
Ġt ick
è½¦ çļĦ
æ³ ª
10 7
Ġexpl icit
æī ®
b ec
ĠH and
ly mp
c m
Ġarg ued
ĠO tt
Ġ é¥°
å¼Ģ å·¥
Ġfac es
ĠPol it
ert y
è¾ĥ ä½İ
åĪļ åĪļ
rou d
Ð ¸
17 6
Ġmig ration
ĠF ar
Ġspok en
Ġloss es
çłĶ è®¨
ä¾Ľ ç»Ļ
am ples
Ġtechn ological
å½¢ æĢģ
å¥ ł
ãĢģ æĽ´
im ents
ĠAss ess
Ġsl ave
éħ ¬
åºŁ æ°Ķ
h us
- known
è¯ģ æį®
çĿĢ åĬĽ
åŁİå¸Ĥ çļĦ
ä¸ĵä¸ļ æĬĢæľ¯
k et
æŀ ¢
å¹´ åĪĿ
å¤ĩ æ¡Ī
ibr aries
Ġstre ets
æĥ ĳ
Ġacqu ired
å°ı è¯´
ä»£ è°¢
Ġtraum a
Ġman aging
ï¼Į éĢłæĪĲ
ä¸ĩ ç¾İåħĥ
e or
Ġexc iting
æĹ¥ çĶµ
åħĦ å¼Ł
Ġg ases
ãĢģ é»Ħ
ï¼Į å¼Ģå±ķ
çŃĸ åĪĴ
C ol
Ġt ables
ç§ī æī¿
j o
Ġsim ultane
Ġbound aries
ĠL incoln
ĠHe ad
r un
M ay
Ġown ed
Ġgra ins
Ġf ellow
Ġdes ert
Ġd ance
ĠDiv ision
çĽ ²
çĲĨ çĶ±
arch y
ĠJust ice
Ġ vel
å¸¦ ä¸Ģè·¯
ber ry
R S
Ġb ag
æĮ ¡
åĨł çĬ¶
z ym
Ġveget ation
åĽĽ å¤§
ï¼Į åįİ
if ice
at al
Ġther mal
Ġpres erve
Ġflex ible
è´¯å½» èĲ½å®ŀ
9 78
Ġmarket ing
Ġhunt ing
çİ¯å¢ĥ ä¿ĿæĬ¤
åĲĦ çķĮ
ig ate
Ġhard er
èģļ æ°¨
Ġpar ad
Ġinter ior
çº³ ç¨İ
åĿ Ŀ
åĨħ å¿ĥ
ç»ıæµİ ç¤¾ä¼ļ
æĲ ı
åįģ åĽĽ
ä¾ ¨
% ,
Ġf ur
Ġcreat ures
èĬ ¬
æĶ¿åºľ ä¿¡æģ¯
ont al
Ġhuman ity
è¿ĲåĬ¨ åĳĺ
åº ŀ
om atic
ĠWith out
ĠSystem s
å¹ ½
ä¸Ģä½ĵ çļĦ
Ġro yal
Ġm ouse
Ġliter ary
Ġf ires
ĠCol l
æĹ ¬
æĪĸ è®¸
ä¸ §
w an
Ġra c
ĠM ur
Ġsc ulpt
Ġprob ability
Ġout d
Ġdis ability
Ġaim ed
ĠO per
our se
Ġm ine
éĺŁ åĳĺ
åŃ Ł
ä¾Ŀ çħ§
op her
as ma
Ġnarr ative
Ġm g
Ġin equ
rid ay
ç´§ å¯Ĩ
æľĢ å¥½
æĶ Ģ
l ines
Ġsens itivity
Ġemot ion
èĪ Ł
Ġsur ge
å¥³ åŃĲ
Ġdri ver
Ġdram atic
ĠBo oks
te xt
Ġintrodu ce
Ġcy ber
ĠB usiness
ï¼Įä¸Ģ äºĽ
æĬ Ľ
ãĢģ åľ¨
zy me
el ve
Ġfil ter
Ġconsum ed
èĪª çıŃ
çļĦ å®īåħ¨
ãĢĤ è¿Ļä¸ª
Ġemer ging
ç³ĸ å°¿
åĢº åĬ¡
ut en
ut ation
ri ze
Ġground s
Ġer u
ĠScot land
æĿ¡ä»¶ çļĦ
Ġor b
ran ean
Ġappoint ed
ä¸į éĶĪéĴ¢
éļ §
Ġst rain
Ġfar ms
Ġeven ing
Ġent ertain
Ġ )
å®¶ éĩĮ
Ġvacc ines
æĭħ å½ĵ
ad ow
Ġarg uments
åĽŀ å½Ĵ
åıĳ èĤ²
åİĺ ç±³
åįģ ä¸Ģ
å®ŀ åľ¨
Ġsub stit
Ġsc hed
Ġf ats
Ġex haust
Ġbut ton
ĠRead ing
çļĦ æľºä¼ļ
pr int
] ,
Ġtum or
ĠB attle
é© °
æķ´ æ²»
ĠL os
äºĨè§£ åĪ°
- con
ĠMod el
è¾½ å®ģ
çŃī å¾ħ
ç¿ °
å¼ķ æĵİ
å¸¸ åĬ¡
ä¾ĽåºĶ éĵ¾
ol t
ec ess
ar ly
Ġperce ived
Ġdut y
ĠPal est
é ³
ç®¡çĲĨ çļĦ
åĨ¬ åŃ£
Ġwa iting
è¾¾ åĪ°äºĨ
æ°Ķ æ¸©
ĠL ittle
ä¹Ĳ åĽŃ
ap or
- a
Ġwonder ful
ĠL ess
Ġl ists
Ġestablish ment
ĠA L
èº«ä»½ è¯ģ
å»ºç«ĭ äºĨ
ä¿¡ ä»»
htt p
Ġpar agraph
Ġexp ed
æł ½
æĲŃ å»º
æ½ľ åĬĽ
z er
çŃī é¢ĨåŁŁ
æľº ç»Ħ
å¯¹ æİ¥
M D
Ġvit amins
Ġbe at
æĭĽ åķĨ
å½ĵ å¤©
ric ted
ograph ical
Ġt or
Ġavail ability
Ġassum ed
æ°Ķ è±¡
Ġequ ation
Ġanaly ze
Ġparam eters
Ġempt y
Ġcommit tee
ï¼Įä¸Ģ çĽ´
è¯Ħ è®º
å¼ķ åħ¥
ob ile
Ġl ip
Ġher itage
Ġf o
ĠR h
æĸ ľ
Ġres id
ĠSur vey
Ġk illing
J ust
Ġexec utive
ĠS anta
ĠI T
æĪĲä¸º äºĨ
å¨ģ èĥģ
ĠT ry
èģĮ ç§°
è¯´ æ³ķ
æĺ¯ éĿŀå¸¸
å¯¼ åĲĳ
U nder
ĠF ind
æĺ¯ åĽłä¸º
åıĳ å°Ħ
åħ³ éĹŃ
å®¶ çĶµ
S im
æ·±åľ³ å¸Ĥ
å±Ĥ éĿ¢
usal em
ĠG ar
Ġtem por
Ġsent ences
æīİ å®ŀ
ï¼Į æ·±
æ°´ çļĦ
â Ī
Ġd ense
èİ ī
æĢ§ æł¼
åı ¹
b ox
ä¸ľ éĥ¨
Ġinter ventions
Ġhabit ats
ĠTur k
al ities
P U
Ġsp ray
Ġb are
ç´§ æĢ¥
ç¤¾ä¼ļ ä¸»ä¹ī
man n
C ar
æĭ Į
ä¸´ æĹ¶
Ġcollect ive
æłĩåĩĨ çļĦ
éĻĨ ç»Ń
ç«Ļ åľ¨
æĹł çĸĳ
åŃ Ŀ
å¿ĹæĦ¿ èĢħ
Ġperson ality
Ġp and
ĠId ent
èĶ ¡
åģļ æ³ķ
ï¼Į æĥ³
è¶ĬæĿ¥è¶Ĭ å¤ļ
å½±åĵį åĬĽ
ä¹Ł èĥ½
Ġad verse
ĠPort ug
ĠM ess
å¾Ī æľī
) ||
Ġo m
ĠTest ament
ç«ĭ è¶³
ip her
gen er
Ġphys ically
Ġheav en
ç²¾ å¿ĥ
Ġstri ke
Ġlung s
ç»Ł çŃ¹
Ġenorm ous
ĠB a
åĨħ èĴĻåı¤
å·´ è¥¿
ri x
ï¼Į è®¸å¤ļ
è®² è§£
åĴĮ æĬĢæľ¯
äºİ æĺ¯
ĠSp irit
çİ¯ æ¯Ķ
çģ¾ å®³
Ġsoc ieties
Ġnewsp aper
Ġcan cers
ĠAn alysis
ï¼Į æį®
çŃĶ æ¡Ī
æ¾³ éĹ¨
èģļæ°¨ éħ¯
çº¿ ä¸ĭ
æĿĥ å¨ģ
æĭĴ ç»Ŀ
ä¼łæĦŁ åĻ¨
Ġprior ity
Ġphotograph s
Ġdis m
Ġdeep ly
Ġd imens
Ġadv is
ĠPar liament
ï¼Įæľī æķĪ
å¾Īå¤ļ äºº
å¤ı åŃ£
Ġprof ile
ï¼Į åĥı
é¹ ¿
im p
al i
ĠM ax
åĽŀ æĬ¥
Ġachieve ment
ĠP ur
ĠMass achusetts
ï¼Į äºĮ
éĿ¢ åīį
å¼Ģ å¹ķ
4 50
Ġvari ations
ç²ī ä¸Ŀ
æī¶ æĮģ
M I
ĠO bs
ĠC irc
ä¾Ŀ èµĸ
if ted
ap es
åıĳ èµ·
å¾Ī é«ĺ
Ġexpect ations
ens ed
Ġch ances
è¿Ŀ è§Ħ
çıŃ çº§
å½ĵ ä»£
- ex
Ġeng aging
Ġdist ricts
ĠC lick
Ġmy self
ï¼Į æľª
è¡¥ åģ¿
åĨħ æ¶µ
ä¹Ł è¦ģ
ãĢģ çĶµåŃĲ
omet ry
T V
Ġcorrespond ing
éĥ½ å¸Ĥ
é¡¾ éĹ®
ãĢģ åħ¨
s m
æ¬ ł
Ġreason able
ĠMod ern
èİ· å¥ĸ
w ords
16 8
éĢļ æĬ¥
åĬł æĭ¿å¤§
åħ³ èĬĤ
Ġunivers ities
Ġkeep s
ĠPh ot
ä¸º æĤ¨
k ind
Ġneut ral
æ³ Ĭ
åŃ¦ åĳĺ
v in
us cript
Ġres c
Ġra ising
Ġexpl oration
æ²» æĦĪ
æ¬§ åħĥ
æĸ° çĶŁ
æī Ń
äºº æ¬¡
ou ds
C ons
çĹĽ èĭ¦
ĠEconom ic
ç¿ ¼
in f
h ar
Ġw ider
Ġsens ors
ï¼Į çľģ
æŀ ª
the w
Ġent it
éļ¾ åº¦
èĻ ¹
g ence
éĤ£ éĩĮ
æĿĲæĸĻ çļĦ
Ġnot ion
ag an
H z
Ġoffic er
ĠO lymp
ï¼Į è¿ĳ
Ġsett led
Ġplant ing
è®¾è®¡ çļĦ
åĸľ çĪ±
Ġst ones
Ġperform ing
ĠL ast
èĥ½åĬĽ åĴĮ
åıĳ ä½ľ
å® ´
çķĻ ä¸ĭ
åįģ ä¹Ŀ
å½ Ń
å°Ĩ ç»§ç»Ń
ãĢĤ ä¸»è¦ģ
E O
é¸ ¿
æīĵ åĩ»
ic ian
ĠM ean
F C
1 12
Ġapp eal
å¢ŀ åĢ¼
ãĢĤ æ¯Ķå¦Ĥ
k l
Ġtem porary
Ġf isher
Ġc ure
ĠPhil ipp
as hes
Ġsustain ability
Ġf uels
æī ĳ
å·´ é»İ
Ġs ad
Ġpsych ology
Ġlow est
Ġcardi ovascular
çļĦ ç¬¬ä¸Ģ
he a
Ġf ought
ĠAg ain
éĽĨåĽ¢ æľīéĻĲåħ¬åı¸
çĶŁäº§ çº¿
âĢľ We
12 3
Ġfocus ing
åĲĪ å¹¶
ip e
Ġbe ans
Ġass ert
ĠF act
è®¤ çŁ¥
ain ts
Ġher b
Ġcustom er
Ġcon clus
åįģ äºĶ
ce ans
are t
at i
Ġsh ore
Ġking dom
Ġc as
ĠSp ring
çº¦ ä¸º
Ġprom oting
Ġfat igue
æķĳ æı´
åĪĽ å§ĭ
å½± åĥı
ï¼Į èĩªå·±
åĻ¨ æ¢°
W here
å°± æľī
h ire
Ġmanif est
ĠP oint
ï¼Įä¹Ł æľī
åī¯ ä¹¦è®°
U L
Ġd im
ç²® é£Ł
âĢĿ ä¹ĭ
Ġquant ity
Ġlif etime
è®° å¾Ĺ
çĶĺ èĤĥ
r ity
Ġver tical
èĳĹåĲį çļĦ
ãĢģ å»ºçŃĳ
. '
Ġlab our
Ġcontribut ions
Ġch air
Ġcalcul ated
èĮ Ĥ
çľĭ çľĭ
og y
ment ia
Ġpain ful
Ġext ension
Ġman ager
Ġl osing
ĠSen ate
end ar
Ġent ering
å¿ Į
Ġu l
Ġt ens
Ġrequire ment
ç§ ©
åįļ è§Ī
Ġviol ent
ĠA C
ï¼Į è¯´
å¤§ æ°Ķ
as y
ï¼Įä¹Ł å°±æĺ¯
æħ¢ æĢ§
å² ³
Ġsav ed
Ġdirect ions
Ġconscious ness
ĠEgypt ian
ĠAs se
åŁºéĩĳ ä¼ļ
Ġprefer red
ï¼Į è¿Ľè¡Į
äºı æįŁ
um er
ĠLabor atory
N e
Ġmind s
ĠColor ado
. E
Ġsc ores
ĠViet nam
èİ İ
ç¼´ çº³
éŃħ åĬĽ
çķ ľ
Ġeng agement
ant ed
Ġequ ality
æ±¡ æ³¥
Ġprom ise
å¼Ģ è®¾
Ġexhib it
Ġens uring
æĮģ æľī
Ġha ven
Ġearthqu ake
ĠH im
åį° åıĳ
pl ed
i op
epend ent
Ġinvestig ate
Ġco at
Ġtrans mit
Ġfing er
ab s
ç»Ħ å»º
ä¸¾ æİª
Ġgu ess
éĢ »
ç¨ĭåº¦ ä¸Ĭ
æĽ´ å¤§çļĦ
ä¸į å¼Ģ
B I
ĠP ak
ĠInd eed
è´Ł æĭħ
ãĢģ åĪĽæĸ°
: ||
Ġdefic iency
Ġadd iction
å¼ Ħ
G O
ï¼Į åĪ©çĶ¨
æĪĲ å¹´
å¯¹ æ¯Ķ
Ġmet als
Ġbeg un
ĠKe y
ç»Ħç»ĩ çļĦ
Ġmov ie
å¢ĥ å¤ĸ
ä¸ Ī
ĠIsl amic
éķľ å¤´
åĨ· åį´
Ġvirt ually
Ġsur g
Ġst yles
Ġgrav ity
Ġecosystem s
Ġc ord
ĠEl izabeth
æº ¢
å¤§ å°ı
ĠWild life
èĲ¥ä¸ļ æĶ¶åħ¥
æľ¬ ä¹¦
il a
Ġmar g
Ġact ively
ad vant
éħį ä»¶
Ġclass ified
æ¡¥ æ¢ģ
ru e
æĭ ³
æ¤ Ĵ
ĠS ection
ĠDig ital
ĠAgricult ure
å¯¼ ä½ĵ
Ġag ing
Ġadapt ed
åģľ è½¦
å® Ļ
Us ing
Ġh all
Ġact ing
çļĦ åħ³ç³»
Ġsumm ary
Ġev ident
Ġbacter ial
âĢľ ä¸į
G e
Ġcap abilities
ĠG re
éĵ¶å±ĳ çĹħ
ç© Ĩ
g ien
Ġver b
Ġtell ing
Ġfe els
Ġe ase
ĠIs lands
éĿŀ æ´²
ç»ĵ å©ļ
æľī å®³
æĪĸ æĺ¯
oper ative
Ġacc ord
Ġab stract
ĠCon nect
çİ° çĬ¶
ail ed
Ġwould n
Ġshap ed
Ġprop ag
ĠJer usalem
ç®Ģåįķ çļĦ
ç« Ń
æĽ´ é«ĺ
z o
t rans
AP P
ç¬¬ä¸ī æĸ¹
æĽ´ å¤§
l ims
Ġspl it
Ġse vent
ĠP age
æķ°åŃĹ åĮĸ
åĲĦ ä½į
åĩºçİ° åľ¨
äº§åĵģ è´¨éĩı
ra ined
Ġp H
Ġgod s
Ġexist ed
Ġclass ical
ĠS aint
ĠHar vard
ĠAlex ander
é¼ İ
ç² ¤
æĿ ī
th ritis
- en
Ġvers us
Ġur ine
om ers
Ġcomput ing
æŁ ¯
G l
Ġceleb rated
ĠHaw ai
æĴ Ĵ
äºº æĸĩ
Ġtarget ed
Ġatt ribut
ç¯® æĿ¿
ä¸ĸçķĮ æĿ¯
on al
Ġdeterm ining
äº¤éĢļ è¿Ĳè¾ĵ
Q L
Ġt ip
ĠSt an
ĠMus ic
çŃ Ĵ
çĥŃ çĪ±
ä¸Ĭ ä¸Ģ
Î ±
ick ing
Ġcon vey
Ġtrans mitted
Ġremark able
Ġpass ion
è®² åº§
ä¿ ±
Ġas c
Ġaccompan ied
å¦ Ĩ
u um
Ġsche me
Ġloc k
åıĹ çĲĨ
å®¶ æĹı
U V
Ġresist ant
Ġir rig
è½´ æī¿
è®© æĪĳ
osp el
or ig
Ġwatch ing
ĠAv oid
Ġreturn s
ç²¾ åº¦
æ¬§ çĽŁ
å®¢ è§Ĥ
Ġstrateg ic
çĥĺ å¹²
ãĢĬ ä¸ŃåĽ½
A re
Ġp ion
Ġox id
Ġan ger
ï¼Ľ åľ¨
ï¼Į åįķ
åľº åľ°
åĪ° æĿ¥
å°ı ç¼ĸ
ãĢģ æķĻèĤ²
Ġsp inal
Ġr anging
ä¼ĺ å¼Ĥ
ãĢģ å¤ĸ
èĬ ½
Ġres il
ï¼Į èİ·å¾Ĺ
æµı è§Ī
ĠOr ig
-m aking
ĠAm azon
èĽĭçĻ½ è´¨
åĨ ¯
çĪĨ åıĳ
å¹´è½» äºº
ãĢģ ä¸Ģ
Ġwithd raw
Ġsymbol s
Ġint ention
çĶµè§Ĩ åı°
æµİ åįĹ
åĿĩ åĮĢ
Ġc ub
Ġbat teries
çĶ· æĢ§
åĽŀ å¿Ĩ
id al
Ġproduct ivity
ĠW al
ĠC ub
é¥ ¼
ç¡®è¯Ĭ çĹħä¾ĭ
å¸Ĥåľº ä¸Ĭ
Wh o
ĠNav y
é¦ĸ æī¹
åĳ½ è¿Ĳ
ĠV an
æĺ¾ å¾Ĺ
æĹ¥ æĻļ
å© Ĩ
ï¼Įä¹Ł åı¯ä»¥
é«ĺ å³°
Â° C
act ions
Ġmedic ines
Ġlo ose
ï¼Į ä½įäºİ
æ¼Ķ åĶ±
å¼ı çļĦ
er ies
Ġst ood
Ġrob ot
Ġcontin uing
éŁ µ
è¾ĥ é«ĺçļĦ
çļĦäºº çĶŁ
çİĩ åħĪ
åŁºç¡Ģ ä¸Ĭ
is d
am ps
Ġsp r
Ġsod ium
Ġrest oration
Ġremov ing
çĶ¨æĪ· çļĦ
if ier
hem istry
Ġth read
ĠS olar
æľīåħ³ è§Ħå®ļ
äºī è®®
ond ay
aw a
Ġvict ory
Ġnutrition al
èĢĮ æĪĲ
åįĥ çĵ¦
ä¼ĺç§Ģ çļĦ
Ġsac red
Ġdomin ant
Ġdefin itely
ï¼Į åĲ¦åĪĻ
éĩį å¤į
ç§© åºı
æľĪ èĩ³
äºī åıĸ
iter ranean
Ġsc ope
æ± °
ä¼ł å¥ĩ
Ġquant um
æĺĨ æĺİ
å¹² åĩĢ
å¤ļ å¹´æĿ¥
Ġf rust
Ġapp lying
éĶĢ åķĨ
çĩĥ çĥ§
æķĻèĤ² çļĦ
å¹¼åĦ¿ åĽŃ
- Ċ
Ġwebs ites
Ġref erences
ig er
Ġocc as
ĠR ight
ĠM oses
ï¼Įåıª æĺ¯
çļĦ ä¸ľè¥¿
w as
iv est
Ġcoun cil
Ġc ow
å¹´ ä»¥æĿ¥
) çļĦ
Ġdifferent ly
æ° ®
Ġw ars
Ġre verse
Ġperson nel
ĠD rug
è®¾è®¡ å¸Ī
çĲĨ å·¥
ç¦ı åĪ©
åĪĹ åħ¥
å®¢æĪ· çļĦ
æĴŃ æĶ¾
å©´ åĦ¿
eut ic
aw n
Ġw age
Ġinteg ration
Ġdiscuss ions
æıĲä¾Ľ çļĦ
Ġear s
ï¼Į âĢĿ
åł ª
ä¸į åľ¨
ĠD O
çĶµ ç½ĳ
åĬŁ æķĪ
åħ± äº§
Ġob st
Ġd uration
ĠC orn
èĩªèº« çļĦ
Ġcur ve
ĠB ang
pl o
he et
Ġg athered
Ġfin ish
ç»ĺ çĶ»
å¾Ĺ ä»¥
ä¸ļ çļĦ
T H
ï¼Ī ä»¥ä¸ĭç®Ģç§°
éļ§ éģĵ
åıĳå¸ĥ äºĨ
ãĢģ åĮĹäº¬
ol ine
Ġexpert ise
è¦ģ ç´ł
Ġprescrib ed
Ġc raft
éģŃ éģĩ
çºª å¾ĭ
æ¡Ĩ æŀ¶
åħļ å»º
å¹´ çº§
r h
Ġreg ime
ĠBi ology
åĪ¶éĢł åķĨ
% åĴĮ
æ¨¡ æĭŁ
å¦ĩ å¥³
äº§ åĢ¼
Ġt ack
Ġsp oke
å¦» åŃĲ
ä½ľ å®¶
Ġserious ly
Ġholid ay
Ġg ent
Ġdiff er
è° Ĭ
æŃ£ è§Ħ
ãĢģ åįİ
er ts
Ġc ran
ĠD own
è´ ¾
æ°´ æŀľ
Ġcolon ies
Ġbe e
ĠB ack
un c
Ġliter ally
é«ĺéĢŁ åħ¬è·¯
çĪ ½
å¼Ģåıĳ åĮº
å·¥ äºº
æ³ķå¾ĭ æ³ķè§Ħ
ãĢģ ä»¥
24 0
ç¬¬ ä¸ĥ
æ´» è·ĥ
åħļ æĶ¯éĥ¨
åģ ·
C o
Ġdri vers
Ġd ress
çĶ¨ è½¦
æ³° åĽ½
1 15
åĬŀ äºĭ
Ġfriend ly
ĠE PA
æĸ° å»º
ment ed
Ġt one
Ġse es
Ġg ift
ĠI D
éĽĨåĽ¢ åħ¬åı¸
å¯Į æľī
II I
Be fore
èµ· éĩį
Ġtra its
Ġcan n
æĸ° çĸĨ
ä¸ ¢
R ef
Ġcra ck
åĲĦ åĽ½
å¯¹ åħ¶
Ġsong s
Ġsens or
Ġsafe ly
Ġhypothes is
ĠR NA
b r
ãĢĤ æĪªèĩ³
Ġnut s
Ġm unicip
éļ¾ é¢ĺ
m ond
Ġte ens
Ġrec re
Ġmembran e
çĪ± å¥½
çª Ħ
Ġbar rier
çĤ¹ åĩ»
åŃ¦ å®¶
åĪĨ åħ¬åı¸
l ock
' d
Ġre aches
Ġcolon ial
Ġadop t
è¿ĺ åı¯ä»¥
çī¹ å®ļ
Ġaut on
k m
Ġs essions
Ġc otton
ĠBl ue
ĠAb raham
åĬ© æĶ»
å± Ī
Ġw elfare
æ² «
ä¸ª ä½ĵ
Ġas p
Ġconver ted
ç»Ĩ èıĮ
iz z
aw are
E ach
Ġest ate
ĠSund ay
åľ¨ è¿ĻéĩĮ
ãĢģ å¯¹
Ġpriv ile
Ġd ict
Ġch ose
é¥° æ¼Ķ
on ents
ian o
agn etic
æİ¥ ä¸ĭæĿ¥
åıĳ éĢģ
ä¿¡æģ¯ æĬĢæľ¯
Ġfacilit ate
Ġdevelop s
ĠF red
ç«ŀ æĬĢ
åįı ä½ľ
å¥³ åŃ©
è¿ĺ ä¼ļ
æĬĢ å·§
hav ior
Ġto b
Ġcl ock
ĠMin istry
èħ Ĭ
ment ation
S m
- off
Ġun n
Ġtel esc
Ġsp ots
am il
Ġs oph
éħ ±
åıį å¤į
åįģ å¤§
åį ľ
å µ
L ike
Ġpoet ry
Ġinvolve ment
Ġdro pped
Ġbe ach
ĠJac ob
åħ Ĩ
åºĶ èģĺ
Ġpartic le
Ġdr inks
ï¼Į åĪĩå®ŀ
ï¼Į å°½ç®¡
åŁº çĿ£
Ġrec ording
Ġlog ical
Ġcomp ost
ĠL im
å¢ĥ åĨħ
Ġopin ions
Ġapparent ly
ĠT own
Ġat oms
Ġant icip
ĠO s
ç»Ļ äºĨ
åİ ī
Ġdev ast
Ġd airy
å¤ª å¤ļ
äººåĳĺ çļĦ
ch o
çĽ® å½ķ
çļĦ è¿ĩç¨ĭä¸Ń
çĥ ¤
æ¸ ´
Ġrepresent ative
Ġbre aking
ĠIn vest
Ġinv asion
èģļ çĦ¦
çļĦ è¿ĩç¨ĭ
end a
Ġsp an
ï¼ĮæĽ´ æĺ¯
ï¼Į åħ¨çĲĥ
æĹł éĻĲ
æĹł æĦı
æķĻ æĿĲ
iss ance
D espite
Ġj oy
Ġar med
è¦ģ æ³¨æĦı
åŃ¦ æľŁ
å±± åĮº
ãĢĤ çİ°
Ġwe igh
Ġcomplex ity
ï¼Ł âĢĿ
âĢĿ ï¼ī
Ġtra ce
Ġrecy cling
Ġchrom os
æľīéĻĲ è´£ä»»
æľĢ åħ·
ibl ical
adel ph
ĠWik ipedia
G DP
) ãĢĤĊ
Ġoccup ied
Ġfac ulty
Ġcl ay
ĠF il
åĽŀ å®¶
. R
Ġfund ed
éĥ½ åı¯ä»¥
ä¾ ¯
Ġdef ault
Ġcl ients
Ġagg ressive
éĺ² èĮĥ
è¡ Ķ
Ã ±
ino is
å®ŀ ä¹ł
æħĪ åĸĦ
åĽŀ åºĶ
Ġde ploy
ĠInc re
ĠAs k
Ġw at
Ġch ocolate
ĠV e
ï¼Į æĤ¨
ä¹ĭ å¤Ħ
f ast
P ub
Ġut ility
Ġpriv acy
çĸ¾çĹħ çļĦ
åĩı è½»
ãĢĤ (
éĩį ç»Ħ
æĿĲ è´¨
æīį æĺ¯
ãĢģ éĩĳ
ic ts
ful ness
Ġnot iced
ĠL ater
æĺ¾ çĦ¶
äºĳ è®¡ç®Ĺ
cl aim
Ġind irect
zym es
Ġt act
Ġident ical
å¾® çĶŁçī©
Ġv ot
ĠBudd h
éŁ ¦
è½¦ éĹ´
Ġgard ens
éĤ ĵ
è·¯ ä¸Ĭ
è®° è½½
ãĢģ ç»ıæµİ
Ġplant ed
Ġdevelop ments
åıĤ å±ķ
å±Ģ éĥ¨
Ġz ones
Ġcon vert
ä¾µ æĿĥ
Ġd ies
ĠO ffic
ï¼Į æ¬¢è¿İ
è½¬ è®©
åĮº åĿĹ
ä¹Ĳ è§Ĥ
Ġclass ic
èĮ ħ
Ġqual ities
Ġcol ony
çĶµè§Ĩ åī§
ç³ĸå°¿ çĹħ
v ation
Ġth roat
Ġsu it
Ġsu g
Ġpost s
Ġper mit
åĽº ä½ĵ
av en
ĠT O
ĠCh ief
ĠAngel es
ï¼ī åľ¨
æľªæĿ¥ çļĦ
åĨłçĬ¶ çĹħæ¯Ĵ
Ġlimit ations
Ġf et
Ġreal ized
çĶŁ æĪĲ
Ġtransfer red
Ġmod ule
ĠMed iterranean
éĤ® ä»¶
æĢ Ĵ
åĬ© åŃ¦
ãĢģ åĽ½éĻħ
olog ically
if er
Ġveget able
Ġsleep ing
Ġpe er
Ġcur rency
æ¯ ħ
å®ĩ å®Ļ
Ġspec ified
Ġm ature
Ġinf ants
Ġble eding
éĻ¢ å£«
æĪ· å¤ĸ
åįģ åħŃ
oc ated
Ġres erved
Ġp ill
Ġc ul
ï¼Įåħ¶ ä»ĸ
èģļ éĽĨ
åĽ½ äº§
ä¸¤ æ¬¡
ivest ock
aterial s
Ġent hus
è¢« ç§°ä¸º
å¦ ¥
S O
Ġsh orter
ĠG all
æľĢ å¤ļ
åĳ³ éģĵ
Ġeng ines
çĨ Ķ
ä¸ľ äº¬
-A merican
Ġdiv ine
ä¼ł åªĴ
à ¥
ne ys
al so
Ġpre y
ĠL ew
è¥¿ æĸ¹
æĶ¿ åĬ¡
äºĴ çĽ¸
äºº åĴĮ
ut her
m ers
Ġvis its
Ġtob acco
Ġjoint s
Ġdisplay ed
æĽ °
æĩ Ī
og ens
Ġp el
Ġorig ins
ĠH um
ons cious
Ġd ating
Ġco operation
ĠComm ons
çļĦ çĽ®æłĩ
æľĢ æĹ©
acks on
Ġher self
Ġceleb rate
ï¼Į ç¾İ
çļĦ è´¨éĩı
H T
Ġinc ent
Ġcho osing
èĢĮ ä¸Ķ
å¹´ å¼Ģå§ĭ
ä¸Ń éĹ´
Ġwe aring
Ġsubs id
Ġhand ling
Ġann ually
ĠO S
ĠB ureau
è¿ĩ äºĨ
è½¬ è½½
æĪ¿ éĹ´
lect ed
éĹ ¸
u per
ĠHer itage
ï¼Į è¿ŀ
çķĻ åŃ¦
æĽ´å¥½ åľ°
æ¶ Ľ
ric ks
Ġch urches
Ġbal anced
ï¼Įæľī äºĽ
ï¼Įæ¯ı å¹´
æĺŁ çº§
åĲ¸ éĻĦ
P ost
Ġdra ft
ï¼Į éĩĳ
çŃī éĹ®é¢ĺ
æ§ ½
Ġsc at
Ġrest ore
Ġc rown
Ġbu ff
ĠPak istan
ï¼Į åıĮæĸ¹
us ive
od ed
adelph ia
Ġunlike ly
ĠB uilding
éĻĦ å±ŀ
th is
er as
Ġenjoy ed
ĠC ode
ĠB al
ï¼Į åºĶè¯¥
åĨĽ äºĭ
ide o
chn ology
Ġs aving
Ġcont ents
Ġcl othes
å»¶ ç»Ń
ä¹ĥ èĩ³
ys ical
g a
Ġor ange
Ġdesc end
Ġcontroll ing
Ġassoci ate
ĠSecret ary
æł¼ åħ°
/ h
Ġvolunt eers
éĴ ł
èķ ´
æįĲ èµł
ä¸į çĶ¨
ãĢĭ ãĢĤĊ
Ġg ly
ĠM ove
æĺİæĺ¾ çļĦ
. edu
Ġreve als
éĤ£ æł·
éĢ ¢
æī© å±ķ
åĨľ èį¯
åĨĻ ä½ľ
ä¸Ĭæµ· å¸Ĥ
M C
Ġpray er
Ġhapp iness
ĠMex ican
éª¨ å¹²
è½¬åŀĭ åįĩçº§
æİĴ æ°´
æ² ª
om eter
ĠÂ ©
Ġstream s
Ġowners hip
Ġg ast
Ġb orrow
ĠN ob
out heast
Ġpil ot
ï¼Įè¿Ļ ä¸Ģ
å¤§ æĤ²
ä¹Ł å°±
u ity
u i
Ġreplace ment
Ġpurch ased
Ġpartners hip
Ġrest aur
çĲĥ è¿·
æĲº ç¨ĭ
- K
Ġsp in
ĠEn cyclopedia
ĠC T
ï¼Įäºİ æĺ¯
èĩª ä¿¡
æŁĲ æŁĲ
âĢĿ )
16 5
éŁ §
æĸĩ èīº
æĦŁ åıĹåĪ°
E ng
Ġn om
Ġhyd ro
æĥħ èĬĤ
ä»ĭç»į äºĨ
ous es
Ġvar ies
Ġv ibr
Ġmamm als
å¼º å¤§
Ġminor ity
ĠS on
ĠPro cess
åĢº åĪ¸
ä¼ ª
ĠOb ama
ĠCont in
ï¼Įä½Ĩ åľ¨
èģĮ åĬ¡
å¼º åĪ¶
Ġsu icide
Ġasse mbly
ĠS everal
é½Ĳ åħ¨
è¾ī çħĮ
y ou
ĠV itamin
æĪĳä»¬ åľ¨
ãĢģ å·¥ç¨ĭ
éĻĦ ä»¶
ç¤¾ä¼ļ çļĦ
æĲŃ éħį
å¡« åĨĻ
ĠF ield
ĠA S
ç«ĭ æĸ¹
ä¸Ģ é¡¹
v i
m ble
Ġmeaning ful
Ġevery where
ĠTreat ment
ĠConf ed
å½¢ çĬ¶
ä¸» è§Ĵ
ãĢĬ ä¸Ńåįİäººæ°ĳåħ±åĴĮåĽ½
iz ers
Ġtong ue
Ġper f
Ġimmig rants
Ġacknow led
ĠM ach
èĦ Ĩ
èĥĮ åĲİ
è¿ĲèĲ¥ åķĨ
æĢ» ç»Ł
t op
ĠGree ce
è¡¨ å½°
çĹ ķ
Ġrestrict ions
Ġpay ing
Ġgradu ate
ï¼Įå°± ä¼ļ
çļĦ éĢīæĭ©
æĬĵ ä½ı
S cient
Ġaut o
ĠM id
çĦĬ æİ¥
ç¨ £
åħ¨ åĬĽ
Ġreflect ed
Ġexpl oring
Ġcert ific
Ġc ab
ĠD ie
ĠC apt
æľī çĤ¹
åľº çļĦ
åħ¬åĬ¡ åĳĺ
V iew
Ġfil ms
Ġemer ged
Ġasse mb
ĠWe ek
ç»ĵæĿŁ åĲİ
Ġf t
ĠTur key
ĠM A
å½¼ æŃ¤
Ġw al
Ġread ily
ĠPer haps
ĠF arm
ĠD ictionary
ï¼Į æĹ©
éĩįè¦ģ çļĦæĺ¯
èĢ¶ ç¨£
ç¦ ħ
æ¶² ä½ĵ
ad or
E V
éĢłæĪĲ çļĦ
è¿ĺ æ²¡æľī
çĶ¨äºº åįķä½į
åį §
. ||
èĥ½ åľ¨
ä¹Ł å°±æĺ¯
Ġsur prise
Ġspace craft
Ġoutbre ak
æ¯Ķ äºļ
ri p
Ġcomp ass
æ¯ĶèµĽ ä¸Ń
om al
ast ics
Ġele ph
Ġbe ars
ï¼Į æīĢ
ä¹Ł è®¸
r ons
é£ ĺ
è¦ģ æľī
ç½ļ æ¬¾
å¾ħ éģĩ
Ġsc iences
Ġp ets
Ġadv ances
è´µ çļĦ
åįĬ å¯¼ä½ĵ
å®ŀ æĹ¶
Ġt ension
Ġche ap
æ¼ ł
Ġinv asive
Ġdocument ed
ï¼Į åŃ¦çĶŁ
ol k
Ġpro x
èģļä¸Ļçĥ¯ éħ°èĥº
æ¸Ĺ éĢı
th od
Ġple asure
Ġd il
Ġas h
ĠH indu
éģ £
è¥¿ çıŃçīĻ
ay er
åľ¨ åĨħçļĦ
å¼ĺ æī¬
ä¹ħ çļĦ
Ñ Ģ
S ource
Ġp ace
Ġgrad es
æĢ ¨
æ°´å¹³ çļĦ
å±ı å¹ķ
Ġen cl
ĠA ff
è¡ ·
æĹ¶ä»£ çļĦ
ä¸ĸçķĮ çļĦ
ira ble
% .
Ġste am
Ġre ign
Ġcirc ulation
æħ ķ
åįł æį®
c in
Ġsudden ly
Ġc ited
Ġbreak s
ĠBudd ha
1 18
Ġwork er
Ġstr ange
Ġspecial ist
Ġh at
è§£ éĻ¤
æ·ĺ æ±°
ne um
T wo
16 4
Ġunder ground
åº§ è°Ī
ä¹ĺ å®¢
Ġvar ied
ĠNe xt
ï¼Į é»Ħ
ï¼Į èĬ±
èĮ¶ åı¶
çĽĳ å¯Ł
çıŃ ä¸»ä»»
æ¹ĸ åįĹçľģ
åľ¨ ç¾İåĽ½
ä¹¦ éĿ¢
eed ing
Ġben e
ĠMus lims
é£Łåĵģ å®īåħ¨
æī¿ åĬŀ
Ġbur den
Ġabsor b
ĠU V
éĺ ģ
æ¶Ī å¤±
iss ipp
Ġsus pect
Ġsav ings
ĠMar ine
ol ph
el ly
Ġrul ed
Ġref used
è¾ĥ å¤§çļĦ
æŀģ å¤§
il st
Ġman ual
Ġju ice
Ġcomp os
ĠD iet
ç§ĳåŃ¦ æĬĢæľ¯
ç§» æ°ĳ
åĿ ĳ
ä¸Ģ æł·çļĦ
Ġther m
Ġinhabit ants
Ġbu ying
ï¼Į ç»Ħç»ĩ
è¡ į
ç °
åı Ļ
ãĢģ ä½İ
â ĸ
ig ious
est ions
S ec
ĠE ll
ĠBe ing
ç²¾ å¯Ĩ
ffect ive
Ġw ise
èº« å¿ĥ
ç½ĳç»ľ å®īåħ¨
åĬ³åĬ¨ èĢħ
Ġpres erved
Ġneur ons
Ġmax im
Ġelect ions
ï¼Į åŁ¹åħ»
èĢģ æĿ¿
è®¸åı¯ è¯ģ
è®² è¯Ŀ
çĶŁ åĬ¨
åıĬ çĽ¸åħ³
Ġcompet itive
ĠPe ace
Ġfif th
ĠAr ts
é¦ĸ éĥ½
Ġpen et
ĠA k
ï¼Įå¦Ĥ ä½ķ
è§Ĩ éĩİ
æĢģ åĬ¿
åĬł éĩį
ä¿¡ æīĺ
Ġult imate
Ġt ap
Ġbar riers
è´§ è¿Ĳ
p ass
Ġc ough
ĠStand ard
at us
Ġs hed
Ġl akes
Ġconvers ion
ĠL og
Ġ( âĢľ
ãĢģ æĻºèĥ½
ĠHistor ical
ĠA ction
çĶµ ç¼Ĩ
æľī åºı
å¤į å·¥
ä¼¦ æķ¦
. J
Ġancest ors
Ġal arm
çĻ¾ å¹´
åħ¬ æĸ¤
Ġprov ision
ĠF air
ĠAnd rew
ï¼Įå½ĵ æĹ¶
è¿Ļä¸ª éĹ®é¢ĺ
çļĦ å¤ĸ
æĪı åī§
Ġsm ell
Ġelectr ons
ĠTr ust
æĪ Ī
Ġt ill
Ġsp atial
ĠR est
ĠH a
æĸ°èĥ½æºĲ æ±½è½¦
å¤ı å¤©
âĢľ äºĶ
Ġl ingu
ĠTem ple
ĠL uc
å¯» æ±Ĥ
ur able
Ġs ons
Ġpaint ings
Ġc able
ĠC reek
é¥ ²
æ» ŀ
ä»¥ å¾Ģ
ĠCent ury
è£ ķ
æµģ éĢļ
ment al
U se
Ġevolution ary
Ġapp lies
ï¼Į éĥ¨åĪĨ
çļĦ è¡Įä¸º
ä¸» æ¼Ķ
ãĢģ æĬĹ
12 8
Ġsurve ys
Ġspecial ized
Ġcould n
ï¼Įå®ĥ ä»¬
è¿ĩ åº¦
16 3
Ġrepresent ing
Ġpract ition
ï¼Į çĽ¸ä¿¡
æĽ´ æį¢
å¾Ī å®¹æĺĵ
Ġmeet ings
ĠS P
ï¼Į çľŁ
æľīéĻĲè´£ä»» åħ¬åı¸
åľĨ æ»¡
åĩº ç§Ł
M O
Ġins ights
åĩĿ èģļ
ä¾¿ æį·
ä»¶ äºĭ
Ġsol ving
Ġs ister
ĠSm all
ĠK ids
ï¼Į éĺ¿
èĥ ĸ
ç©¶ ç«Ł
ç¨³å®ļ æĢ§
æľº çĶµ
åŃĲ å¥³
å»ºè®¾ é¡¹çĽ®
Ġbas ically
ï¼Į éĻįä½İ
ï¼Į è¾¾åĪ°
éĩį éĩı
è¿Ļ ä½į
åĤ ħ
å¤§ æ¡¥
Ġt ends
ç»¼åĲĪ æĢ§
æµª è´¹
. ),
Ġover view
Ġo ste
Ġanaly zed
ĠH ot
å¼Ģ éĢļ
ac les
Ġbene ath
Ġsurg ical
Ġemp ire
ĠB ush
ï¼Į åıĳå±ķ
reg on
-sh aped
æķħ éļľ
S ub
å¤į èĭı
ä¸ĩ äº¿åħĥ
ãĢĤ ç»ıè¿ĩ
T O
2 10
ãĢģ åī¯
Ġposs ibilities
Ġhorm ones
ĠC A
èģĮ èĥ½
çĽ¸ ä¼¼
å¸¸ å¸¸
o ons
b ury
Ġaccur ately
ĠI ce
èĬĤ çľģ
å¤Ħ çļĦ
ä¸Ĭ éĿ¢
ãĢĤ ä¸Ń
Ġemb ed
ĠK ent
èģ ª
åŀ «
Ñ Ĥ
un ar
Ġpow der
Ġinv ention
ĠP ope
ĠL i
åı¯æĮģç»Ń åıĳå±ķ
ä¸ĩ è¾Ĩ
ãĢĤ åŃ¦æł¡
N ational
F A
Ġprof ound
Ġattract ive
ĠC r
j i
en za
Ġline ar
Ġabsolute ly
ĠR ail
ĠGard en
æĸĩ æĹħ
ru b
es ium
b ra
P lease
13 5
Ġman uscript
Ġg um
Ġallerg ic
Ġpr ime
Ġen zyme
M ar
Ġrequ iring
Ġab ol
ĠLe vel
Ġ( "
æŀĹ ä¸ļ
æĿ¡ä»¶ ä¸ĭ
å¾Ī å°ĳ
Ġreprodu ctive
éĩĩ éĽĨ
æĿ¥ ä¿¡
åĮ ł
åĪĽ ç«ĭ
å·¥ä½ľ èĢħ
Ġaccompl ish
ĠR am
ĠMc C
ĠM ajor
omet ric
Ġdi pl
Ġal ign
åĴĮ åıĳå±ķ
äº¬ ä¸ľ
Ġperfect ly
Ġman agers
Ġattempt ed
ĠF riday
âĢľ I
or ters
est hetic
Ġv ig
Ġregist ered
Ġlight ing
ï¼Į åħĪ
ç¥ĸ åĽ½
æ°ĳ ä¸»
ãĢģ åı¯
ter ior
Ġsw elling
ä¸» å¯¼
ãĢĤèĢĮ ä¸Ķ
ul ed
ass ium
Ġpreval ence
éĨ ī
é¾Ļ æ±Ł
çļĦ çī¹çĤ¹
æŃ£ç¡® çļĦ
åĲĮ äºĭ
âĢľ åıĮ
Ġtrans plant
Ġde mentia
Ġde er
è¿ĺ å°Ĩ
åĩ ¸
å®ģ æ³¢
ater al
ane ous
The n
Ġun cle
Ġdiscipl ine
reg ular
ĠN orm
æ°´ æ³¥
Ġtre m
ĠC H
ä¼ģä¸ļ åĴĮ
Ġproduct ive
Ġh al
ĠCor por
æĸ¹ éĴĪ
å¹³ ç¨³
u is
Ġref lection
Ġpen al
éĢ ¸
ä¸¤ ä½į
C om
A ut
Ġs ale
Ġprecise ly
Ġestablish ing
Ġalgorith m
ĠIll inois
Ġvir al
ĠM ic
äºĮ æ¬¡
ä¸ĩäºº æ¬¡
Ġt ort
Ġrhy thm
Ġpup ils
Ġmagn itude
Ġleg it
Ġillness es
åĲĪ èĤ¥
Ġfore cast
Ġen forcement
Ġdistingu ish
Ġcalcul ate
ä¸º æŃ¢
Ġs ulf
èģĮ ä½į
æĹ¶ åħī
Ġathlet es
ï¼Į æľįåĬ¡
D L
Ġsed iment
çľĭ åĩº
æĺ¨ å¤©
åĬ¨ è½¦
Ġvill ages
Ġp airs
çĶ± æŃ¤
ç¾İä¸½ çļĦ
ç»© æķĪ
ç³ Ĭ
Ġdepos its
èĦ ¾
or i
ĠCl ub
ĠA M
çľģ å¸Ĥ
æĪ¿ åŃĲ
olog ic
app ed
ï¼Į æīĢæľī
Ġtot ally
Ġimag ination
Ġchick en
ĠOf ten
ĠN eed
ä¸¤ å¤§
Ġwork place
ĠA R
éĵ Ń
Ġprepar ing
Ġper t
Ġb ought
ĠE mer
è¯ŀ çĶŁ
çĥŃæ°´ åĻ¨
R el
Ġscen ario
ĠT H
çħ§ é¡¾
ç®Ģ ä»ĭ
åĴĮ ç®¡çĲĨ
ĠAnt ar
éª ¤
èĳ¡èĲĦ éħĴ
åı¯ è¾¾
åİŁ æĿ¥
rit ten
Ġentit led
Ġcandid ates
ent er
Ġd imin
ï¼Į åħĪåĲİ
Ġend ing
Ġdesign ated
ĠN utrition
çĥŃ éĹ¨
ç§į åŃĲ
å±Ģ éĿ¢
Ġm ail
åĪĹ è½¦
ok ed
Ġpack age
Ġmin imal
ç½ĳ é¡µ
ç³ ķ
Ġs ending
Ġin ev
Ġar ise
Ġar c
ĠPhil adelphia
åįķ åħĥ
l av
edi ate
aus es
è¾ĥ å¼ºçļĦ
çŀ ¬
æŁĲ ç§į
æľī åĪ©äºİ
oph ical
om ed
Ġtransl ated
ĠH ard
æī¿ åıĹ
er ally
an ing
Ġse al
Ġdist ant
ĠH ence
åĪĨ è§£
å¹¿ éĺĶ
qu ar
- est
Ġwood en
ĠAd am
Ġreason ing
Ġdis advant
Ġaddress es
è¿ŀ éĶģ
æĪĲåĬŁ çļĦ
æĢ» çĽĳ
issipp i
g ments
b est
Ġt ag
Ġoil s
Ġiniti atives
Ġassign ment
ĠF ed
æĲ ħ
æ´»åĬ¨ ä¸Ń
em ies
b ell
-sp ecific
Ġcorpor ate
Ġchann els
Ġcal m
ĠRes erve
ĠC ost
éĢļ é£İ
è¿Ļ åı¥è¯Ŀ
åħļå§Ķ ä¹¦è®°
å·´ å£«
ĠDan iel
å¨ ĥ
å¤į åį°
ä»·åĢ¼ è§Ĥ
Ġgl obe
Ġpand emic
ĠGu ard
é«ĺ åİĭ
åıĳçĶŁ äºĨ
ä¸Ĭ æľī
Ġstat istical
Ġcontribut ing
ĠP oly
ĠMicro soft
åĽ¾ åĥı
ra ine
ict ions
R ep
Ch rist
Ġjud gment
Ġbro ke
Ġatt ributed
è¿Ľ çĲĥ
æĸ¯ åĿ¦
ãĢģ åĮº
riend ly
or us
erv ing
Ġsp ons
åħ¨ æĸ°çļĦ
äº§ä¸ļ çļĦ
igh th
20 5
Ġsurpris ing
Ġmor ph
Ġcut s
Ġaccept able
ĠW hether
ĠS qu
ç¯® çĲĥ
ä¾Ŀ æĹ§
ãĢģ æ±½è½¦
Ñ ģ
et he
Ġinflu ences
Ġcons ent
ï¼Į åĬĽ
çŃī å¤ļç§į
æģ ¼
Ġne urolog
ĠJ r
ï¼Į çī¹åĪ«
æľ¬ æĸĩ
å°ı åŀĭ
quir y
ic ations
ĠTw itter
ä¹Ł æ²¡æľī
Ġpain ted
ï¼Į åħ·ä½ĵ
11 7
Ġsh r
Ġro oms
ï¼Įè¿Ľ èĢĮ
éĺ² çĸ«
è´¢æĶ¿ éĥ¨
çĻ¾ åº¦
åĮ»çĸĹ åĻ¨æ¢°
c ule
C I
Ķ Ģ
Ġw ing
Ġsurround ed
Ġsub sc
Ġcre am
ĠC rit
éģµ å¾ª
çıŃ åŃĲ
æŀ¶ æŀĦ
æĬ ļ
æ¸¯ åı£
æ´ ½
åħ¬åı¸ åľ¨
ol er
Ġgen ome
Ġdistur b
Ġcy cles
é¢Ħ è®¢
çļĦ æķĪæŀľ
ned y
èİ· æĤī
è§£ æĶ¾
åıĤ æķ°
f e
ab out
a is
17 1
Ġrefuge es
ĠHel p
ç¿ Ķ
ç§ĺ å¯Ĩ
ä½ĵ åĨħ
M an
Ġo l
Ġcell ular
ä¸» åľº
ro se
V D
Ġput s
Ġconf usion
ĠApp le
çļĦ éĢļçŁ¥
ch ain
? ?
/ A
Ġoutd oor
Ġg ate
ĠPh D
æİ¥ æĶ¶
æ¸ħ åįİ
åİŁ æľ¬
äººä»¬ çļĦ
ä¹¡ éķĩ
oc ument
T rans
He alth
Ġadolesc ents
Ġ ion
çŃī çĽ¸åħ³
ä¾ ¦
C lick
Ġinst ances
Ġinc idence
åĪĨ çļĦ
ä»ĸ åľ¨
ä¸» æµģ
M e
15 5
Ġsch olar
Ġpass es
Ġf an
éħ ¿
çŃ ĭ
ä¹ĺ åĿĲ
16 1
Ġthy roid
Ġrest ricted
Ġhum idity
ĠWh ich
ĠO nt
ĠF DA
å¸Ĥ æĶ¿åºľ
Ġland ing
Ġmetabol ism
Ġdis ag
ĠD am
ï¼Į å»ºè®¾
åĢŁ åĬ©
ãĢĤ æ¯ı
Ġsimultane ously
Ġpers u
Ġlic ense
Ġdist inction
ç»ıæµİ çļĦ
æī¹ è¯Ħ
Ð ½
Ġsever ity
ä¸¤ äºº
ist ing
e em
Ġw ings
Ġgram mar
Ġdi arr
ï¼ļ åľ¨
çĭ ®
å¥³ å£«
ãĢĤå½ĵ çĦ¶
in ces
a fter
Ġmer ch
Ġaddress ing
ĠF er
å¤§ äºİ
ä¾¿ æĺ¯
ä¸į çŁ¥
E X
Ġmem or
Ġm ira
Ġcor on
ĠC op
éĽ¶ éĥ¨ä»¶
çļĦ åħ¨
æī© å¼ł
å· ¢
AT ION
Ġre ef
æ¯Ķ éĩį
å®ŀ åľ°
ol ves
- inc
ï¼Į çī¹
èĵ ¬
æĥ §
ri um
Ġcomb ine
Ġaltern atives
æ±¡æŁĵ çī©
Ġext ens
Ġexc lud
èĲ½ åĲİ
ç¥ŀ ç§ĺ
åĶ®åĲİ æľįåĬ¡
el a
æķı æĦŁ
åĪĽ åĬŀ
Ġsc ales
Ġcreat ivity
Ġatmosp heric
ï¼Įå¦Ĥ ä»Ĭ
èĳĹä½ľ æĿĥ
è¥¿ åįĹ
ä½ľ çī©
Ã ¨
row th
el ing
Ġmil it
Ġhop es
çĶµ åİĭ
æĲº å¸¦
æ´ Ĵ
åŃ¦ çļĦ
gh an
Ġcandid ate
ĠAre a
oc ity
er b
è¿ľ ç¨ĭ
Ġdram atically
Ġbot tle
ĠPhys ical
ĠAsse mbly
éĶ Ĥ
å·¥ ä¼ļ
a que
ï¼Įè¿Ļ éĩĮ
âĢľ å°ı
Ġsc r
Ġminim ize
Ġkne e
Ġhy gien
ĠUn ivers
åĪ¤ åĨ³
å® ł
å¥½ è¯Ħ
- ray
Ġneigh b
Ġflex ibility
Ġemploy ee
å¹´ åľ¨
å¸ Ĩ
ä¸į å¤ļ
ov es
Ġsepar ation
Ġconsequ ence
Ġbond s
æ¼Ķ è®²
åĲ¬ åĪ°
åıĬ åħ¶ä»ĸ
ä½ľ é£İ
ãĢģ èĩª
Ġp uzz
Ġcl ouds
ĠBl ood
çĤ ®
åıį é¦Ī
å¸ ½
st ru
bo oks
Ġsem i
Ġin herent
è¯Ĭ çĸĹ
æ½ Ń
U p
K e
Ġro d
ï¼Į åģļå¥½
ãĢĤ éĤ£
Ġsurpris ed
Ġprison ers
Ġcontin ent
é ĳ
æĹħæ¸¸ ä¸ļ
äº¤æĺĵ æīĢ
he ets
ĠW riting
éĩĳèŀį æľºæŀĦ
çŃī çļĦ
æįŁ ä¼¤
å±± æ°´
Ġas ide
ĠD esc
ï¼Į æĶ¾
èĳ£äºĭ ä¼ļ
èĩ Ĥ
æī§ ä¸ļ
ugh t
od s
Lear n
ĠG DP
æĪĲ äºº
åĪĿ ä¸Ń
å¿«éĢŁ åıĳå±ķ
Ġsatis fact
Ġreg ulate
Ġhosp itals
Ġextra ord
ĠPl ace
éĳ «
ç§ĺä¹¦ éķ¿
æĹ¥ åĨħ
åĤ ²
å½ĵ äºĭ
ä¸Ń èį¯
ãĢģ çİ¯å¢ĥ
is ations
Ġmed ieval
Ġl ob
Ġadministr ative
Ġ Ø
çļĦ é¦ĸ
å°ı éķĩ
Ġh oly
Ġ ~
ï¼Į åĪĺ
å¤ļ åĲį
å¤§ æī¹
iv ities
Ġrel ate
Ġpredict ed
Ġl ibraries
Ġefficient ly
è¿Ļ éĥ¨
å®ŀ è®Ń
å¥³ äºº
ath an
Ġend angered
é¥Ń åºĹ
è®¾ å®ļ
è§Ĩé¢ĳ ç½ĳç«Ļ
åģ¥åº· çļĦ
Ġp ose
Ġfib ers
ĠSt ation
ĠM aster
ãĢģ å·¥ä¸ļ
lect ric
2 30
Ġoccasion ally
rop ol
ik a
An y
Ġwind s
Ġvary ing
ĠJ ackson
è¿Ľ åĩºåı£
ä¾µçĬ¯ äºĨ
âĢĿ ï¼Ľ
Ġdo ors
ĠRem ember
ĠH em
è±¡ å¾ģ
o a
G S
Ġtheore tical
Ġdimens ions
Ġcollect ions
Ġcitiz en
Ġbi as
Ġam ino
å¤ ķ
Ġrec all
Ġlib eral
Ġleg end
ĠH it
çļĦ ä¸ĸçķĮ
åĴ ¸
Ġthem es
Ġsurv ived
Ġreg ister
åİ Į
ä¸Ģ å¼ł
ãĢģ çŁ³
ool s
Ġt ab
çļĦ åıĺåĮĸ
åİŁ åĪĽ
. ).
Ġmotiv ation
åİĨåı² ä¸Ĭ
å¥ł å®ļ
% å·¦åı³
Ġhy brid
ä¼ļ å±ķ
Ġre venue
Ġne ural
ĠCol on
èĮ ¨
ç§ĳ çĽ®
åıĳ æĶ¹
iv ation
Ġcop ies
ĠO regon
ï¼Įæľ¬ ç½ĳç«Ļ
ç®Ĺ æ³ķ
æĸ° é²ľ
Ġfav our
Ġdiv ide
ĠN O
ĠA h
ï¼Įæ¯ı å¤©
é£İ çĶµ
ãĢģ è®¾è®¡
ov ing
b el
Ġrob ust
Ġen zymes
ĠM P
ï¼Į æŃ¤æ¬¡
æ°´ è´¨
åĪĽå§ĭ äºº
ub ble
eng ers
T ra
Ġper pet
Ġle cture
Ġc odes
æĮ¯ åħ´
æī¿ è®¤
Ġun em
Ġreflect s
Ġo ceans
Ġkilomet ers
ĠR ather
ĠB ern
ï¼Į å¢ŀåĬł
æľº åºĬ
æĢ» éĩı
11 3
Ġwas h
Ġtum ors
Ġrepe at
Ġoper ated
Ġencoura ging
Ġdis k
åıĺ éĿ©
åĨ¶ éĩĳ
ä¹ĭ æīĢä»¥
pect ives
Ġvis iting
Ġprec ip
ĠCor ps
è§Ĥ åħī
åģĩ æľŁ
åºŁ çī©
ur d
ac le
16 6
Ġjur isd
Ġb ags
Ġopt imal
Ġh ier
Ġatt itudes
Ġallerg ies
ĠMiss issippi
åı¯èĥ½ æĺ¯
åİ» äºĨ
ot ypes
eli hood
Ġsystem atic
Ġelev ated
èĳ ±
çļĦ å½¢å¼ı
iv ate
ater nal
Ġprop osal
Ġpay ment
Ġenc ounter
ï¼Į ç»§ç»Ń
åįĹ æĸ¹
å¤§ åİ¦
Stud ents
Ġrel ating
ĠC ell
çľ ī
å®īå¾½ çľģ
ä¹ĭ æĹ¥èµ·
ra it
è¯· æ±Ĥ
çĻ» å½ķ
åĪĿ æľŁ
T ER
Ġfasc inating
ĠH T
- or
Ġinter m
ĠM ot
çļĦ ç¤¾ä¼ļ
ç¨ »
åħĭ æľį
b ow
ab ling
Ġwid th
Ġsoil s
ï¼ĮåĲĮæĹ¶ ä¹Ł
å±± å¸Ĥ
ä»ĸ è¯´
red it
Ġhon est
ĠD ue
Ġ ...Ċ
ï¼Į åĽĽ
å½¢æĪĲ äºĨ
ĠB ased
æĥ ©
æ¹ĸåĮĹ çľģ
åĲ ķ
Ġsym pt
Ġl ivestock
æŁ¥ çľĭ
æīĵ çł´
ur se
é Ħ
èģĶåĲĪ åĽ½
å¥ĸ é¡¹
th rough
n et
Ġrain fall
ĠO p
ï¼Į åĳ¨
åĸ »
ast ing
/ j
Ġra ys
Ġmist akes
Ġdiet s
ï¼ĮçĽ´ åĪ°
åĪ ł
ä¸į èµ·
ä¸Ĭ çº¿
Res earchers
% Ċ
Ġrese mb
ĠL ED
ï¼Į éĻĪ
ustain able
ill ance
ar b
Ġsal mon
åİĤ æĪ¿
åį ¸
å³ »
pl ate
Ġp ale
Ġadop tion
ĠN ic
åħħ è¶³
å¿ĥ èĦı
k er
ibb ean
exp ected
Ġret ail
ĠPro duct
æľŁ è´§
ä¿Ŀ åħ»
" )
Ġelder ly
ĠM ain
é¡¹çĽ® å»ºè®¾
èĭ¥ å¹²
un ning
ay lor
ard ed
Ġsect ors
Ġeth ics
ĠS S
ĠL ine
çļĦä¸Ģ éĥ¨åĪĨ
æľ¬ åľŁ
ang el
/ w
æī© æķ£
ä¸ĢçĽ´ åľ¨
it le
Ġsuggest ing
Ġcan al
éĥ ¡
é¡¶ çº§
ç±» çļĦ
ä¸ĵ è¾ĳ
Ġf raction
Ġbl ank
ĠWil son
ĠR isk
èĲ Ŀ
ç¡¬ åº¦
ä¸ļ çķĮ
oc a
M od
Ġtreat y
Ġtend ency
Ġgra ms
Ġdem ocratic
Ġbul lying
ow ered
P D
Ġconflic ts
ĠM ap
ĠAl aska
h ost
Ph one
Ġre vers
ĠSc ript
ï¼Į ç´¯è®¡
çİ Ħ
æĺİ çļĦ
Ġtow er
Ġt ough
Ġsumm ar
ĠSchool s
ä¸Ģ åº§
th ur
res hold
! âĢĿ
Ġrespons ibilities
Ġr h
Ġquant ities
Ġpros per
Ġpopular ity
Ġm ask
Ġca ve
ĠInd igenous
Ġ âĢĿ
ï¼ĮåĬł ä¸Ĭ
æİ¥ çĿĢ
å¹ħ åº¦
ãĢģ ç¾İ
cept ions
. N
Ġr anges
Ġbus y
ĠMount ain
ĠF ish
ï¼Į éĢīæĭ©
å¤± ä¸ļ
ãĢģ åİ¿
Ġpl ates
Ġpestic ides
Ġmin ister
Ġimp air
Ġh urt
Ġdeb ris
æĹ ±
åĤ¨ å¤ĩ
ä¸Ńå¿ĥ çļĦ
- V
Ġchar ges
ĠInd ones
åħ¬ åħĥ
ãĢģ åĲĦ
Ġn oun
Ġmetab olic
Ġexpand ing
Ġer osion
ï¼Ľ èĢĮ
ï¼Į è®¤çľŁ
çº¦ å®ļ
h and
T able
/ L
Ġinstall ation
Ġdigest ive
çĩĥ æ°Ķ
å°Ĩ æĪĲä¸º
Ġopt ical
ĠStand ards
ĠJ ack
çļĦå¤§ åŀĭ
äºĨ ä¸ŃåĽ½
re ens
Ġshe ep
Ġexhib ition
Ġengine er
Ġelement ary
Ġdis h
Ġanalys es
ĠKore an
èĬĤ æĹ¥
è·µ è¡Į
çºł çº·
ä¸º å¤§å®¶
èĢĥ åı¤
12 1
Ġsuscept ible
Ġamong st
éĢ» è¾ĳ
çĪ¸ çĪ¸
ä¸ĵæ³¨ äºİ
m ia
R em
Ġdevelopment al
Ġal ert
ç¬Ķ è¯ķ
æĸĩåĮĸ åĴĮ
nes ota
i ro
ck ing
art y
Ġst ere
Ġincorpor ated
ï¼ĮèĢĮ ä¸įæĺ¯
åı· çłģ
. :
ĠJeff erson
è¯Ń æĸĩ
æ¸© é¦¨
Ġv om
Ġmag azine
Ġbrother s
Ġabund ance
æĦ ī
ä¼° è®¡
as hed
T M
ĠH aving
è¿ĩ äºİ
æŃĮ æīĭ
æĶ¯ æı´
if ting
P r
Ġsh oes
Ġmy ster
Ġguarant ee
ĠV iew
èªī ä¸º
è¦ģæ±Ĥ çļĦ
ä»Ĭ å¹´çļĦ
Ġsc hem
Ġprev ents
ĠSupp ort
ĠPro ble
æķ°æį® åºĵ
å¿ħè¦ģ çļĦ
äº« æľī
16 2
ĠL at
çĶµ æµģ
å¼º çĥĪ
17 4
åľ° åĽ¾
ãĢģ å¼ł
y t
du ate
Ġphenomen a
Ġh ung
ĠR en
æķ° æİ§
Ġbutter f
ĠL ook
ï¼Į éĴĪå¯¹
éĿ ĸ
å¿« éĢĴ
å®¢ è¿Ĳ
å¦Ĥæŀľ ä½ł
rodu ct
ph al
-b y
åĲĪ ä¼Ļ
åĲ¸å¼ķ äºĨ
å¤§ è§Ħæ¨¡
Ġcontain ers
ĠTra de
å¼¹ æĢ§
- line
Ġspread ing
Ġmal aria
Ġconf ident
ĠUn like
èĤ ¢
å¿« çļĦ
ä¸Ńå°ı ä¼ģä¸ļ
p re
ĠPh ilos
æŃ¥ ä¼Ĳ
it ic
d a
Ġrece ives
Ġr ough
Ġent rance
Ġar thritis
Ġappro val
çĻ¾ ä¸ĩ
åĺī å®¾
ä¹ĭ éĻħ
ãĢģ éķ¿
om ous
R eg
Ġse gment
ĠS us
æĹ¶éĹ´ ä¸º
æģĴ å¤§
åĬ³ åĬ¡
ãĢģ ä¸ĵä¸ļ
w estern
Ġpost ed
Ġpoll ut
Ġoff ices
æĹ¶éĹ´ åĨħ
ou ri
Ġlik elihood
Ġconclus ions
ĠChar l
æ¿Ģ çĥĪ
åľ° è¯´
äºº äºĭ
i y
) :Ċ
Ġinvent ed
ĠSt ory
ï¼Į æĶ¯æĮģ
ï¼ ĵ
çĸ ¯
æĦŁ åĬ¨
z one
. The
rep rene
ing er
Ġtra il
Ġoffic ially
Ġdi agram
Ġcap s
ĠKen nedy
ï¼Į åĪ¶å®ļ
e ven
N G
Ġm issions
ï¼Į çĽ¸
çĸ¼ çĹĽ
æľĪ åĪĿ
æ¤ ħ
åŁºæľ¬ ä¸Ĭ
ä¸º ä¾ĭ
ãĢģ çĻ½
os itive
istic ated
Ġisol ation
Ġaband oned
imens ional
Ġwhen ever
æľī æľĽ
ä¸įå¾Ĺ ä¸į
Ġbe ll
Ġabund ant
ï¼Į æ²¡
å¤ĦçĲĨ ä¸İ
k g
/ f
ï¼Į é¼ĵåĬ±
é»ĳ é¾Ļæ±Ł
æ°´ ä¸Ń
åĵģçīĮ çļĦ
Ġphysic ians
Ġcollect ing
ï¼Į æİ¨è¿Ľ
æ ª
å¤§ å¤ļ
Ġst abil
Ġpat ent
Ġin ch
Ġflu or
åıĹ æ¬¢è¿İ
åĪĨ æķ£
A çº§
Ġf ant
ĠAn cient
åĲĪçĲĨ çļĦ
åºĨ ç¥Ŀ
Ġwe aken
Ġthan k
Ġeat en
åĪ¶ èį¯
å¤ĸ éĥ¨
Ġsuggest ions
Ġst er
Ġorient ation
Ġdut ies
Ġcr imes
ĠP ut
çľĭ è§ģ
ç½Ĺ é©¬
æĢ» æī¿åĮħ
Ġgra ce
Ġg est
ĠEm peror
ï¼Į çĶ·
éªĮ è¯ģ
çªģ åıĳ
æĺ¯ æĪĳ
y es
it ate
ar ter
C he
éĢ ¼
èĤ¡ ä»·
Ġs elling
ç´« å¤ĸ
ä¼ģä¸ļ åľ¨
af e
P L
Ġinsp iration
Ġburn ed
Ġalg ae
ĠCons ider
ï¼ĮæĪĳä»¬ å°Ĩåľ¨
ï¼ī ï¼Ľ
åħ± è®¡
å¹³æĸ¹ åħ¬éĩĮ
Ġswim ming
Ġpart ly
Ġfa ult
Ġc ourage
ĠAssess ment
éĶħ çĤī
ff e
aut hor
Ġpass word
Ġadj acent
ĠW ales
ï¼Įè¿Ļ ä¹Łæĺ¯
è§ģ è¯ģ
å°¤åħ¶ æĺ¯
ef in
Ġregul atory
Ġ %
èģĮä¸ļ æķĻèĤ²
æıĲé«ĺ äºĨ
åķ ¦
åı¸ æľº
th ood
o is
ig m
Ġth irty
Ġrep et
èĦ±è´« æĶ»åĿļ
è¶ħ å£°
ç®¡çĲĨ å±Ģ
ä¸Ģ çīĩ
â ĶĢ
Ġspeak er
Ġdescrib ing
ï¼Į éĺ²æŃ¢
w orth
form ed
ar bon
Ġprov isions
Ġf iction
Ġalong side
ï¼Į å¼Ģå§ĭ
çľģ ä»½
æĺİ å¹´
æ¿Ģ ç´ł
åĩĢ æ°´
Gen eral
æ¯ı æĹ¥
å¿ĥ éĩĮ
å¿ĥ ä¸Ń
ä»ª è¡¨
00 1
Ġo w
Ġconsist ently
ï¼Į èĢĲ
ï¼Į æĤ£èĢħ
ï¼Į ä¸¥æł¼
çĪ ¬
åľ¨ åħ¨åĽ½
ãĢģ é©¬
s we
æī® æ¼Ķ
ä¸¾ æĬ¥
ucle ar
u ilt
os aur
Ġassoci ations
ï¼Į çłĶç©¶
ä¸į åıĺ
11 6
Ġph ones
Ġdisp ers
Ġb ron
ï¼Į çĶŁäº§
ï¼Į åĽ½éĻħ
èĻ ¾
æ¸ Ŀ
ãĢĤ ä¸ĢèĪ¬
Ġrep utation
Ġarr ival
ĠTh ird
ĠT urn
ĠBul gar
éĺ² èħĲ
ç» ³
åĪ« çļĦ
åħ¬ å¯ĵ
âĢľ æĸ°
az e
éĻķè¥¿ çľģ
D NA
-h and
Ġbra ins
å¼Ģ å¿ĥ
um ns
éĻ· åħ¥
èµ· çĤ¹
æľ¬ è´¨
åħ³ èģĶ
sc ience
- int
Ġint r
Ġcontamin ated
Ġcham ber
ĠM onday
ĠI de
ï¼Į çĦ¶èĢĮ
å®¹ åĻ¨
rib le
éľ ŀ
ç²¾ ç»Ĩ
æŀ¢ çº½
æļĤ æĹ¶
åľ° ä¸Ĭ
å¸¦ å¤´
ä¸ĭ è·Į
st ers
Ġv ice
Ġtherap ies
Ġe rect
Ġal umin
ĠClin ical
ï¼Į å¼ºåĮĸ
æ¸ħ çĲĨ
ä»ĺ åĩº
ãĢģ çĽ´
rid ges
éħį éĢģ
Ġtw elve
Ġexc av
ĠH yd
åī§ æĥħ
å¸Ĥ æĶ¿
qu es
ple x
du ction
Ġweek ly
ĠP DF
ä¸ī åįģ
nt il
Ġsh ade
ĠP rom
åľ¨ è¿Ļä¸ª
ä¹Ł å¾Ī
In tern
Ġtherap eutic
ĠB on
éģĹ åĿĢ
Ġpl asma
Ġd ried
å¤« å¦»
de velop
Ġp roud
Ġmur der
Ġgl ob
ĠJ ones
ç®¡çĲĨ å·¥ä½ľ
æī¹ åıĳ
L S
ï¼Į é¦ĸåħĪ
åºĵ åŃĺ
ist ically
ar ks
Ġse w
Ġapp l
Ġal tered
çĹħ åĽł
æĹł ç¼Ŀ
Ġhealth ier
Ġcont rad
Ġclass ification
Ġcam ps
éĥ½ æ²¡æľī
åĻ¨ ä»¶
ä¸º äºº
riz ona
on ing
P DF
çļĦ åĲĪä½ľ
ç»§ æī¿
åħ¥ åı£
t ra
ore r
ĠWilliam s
ĠIs a
åıĹ çĽĬ
ĠL inux
ĠH ig
èĥ½åĬĽ çļĦ
åŀĭ åı·
D R
Ġb ull
Ġall ergy
è®© ä½ł
çļĦ é¡¹çĽ®
æľī å¤ļ
id ers
T I
Ġd oses
Ġaward ed
çī© æĸĻ
á ¹
ct ors
ĠT enn
çĶ¨ çĶµ
çİ°åľ¨ çļĦ
åıª æıĲä¾Ľ
sp ec
in us
Ġdyn amics
Ġconsist ing
Ġcal endar
æīĢå¾Ĺ ç¨İ
åĳĬ çŁ¥
W ill
? "
è±ª åįİ
çĻĮ çĹĩ
å· ©
ian ces
Ġn inet
ĠBet ween
æŀ ļ
æ²³åĮĹ çľģ
åħ¨ æĸ¹ä½į
en h
Ġincorpor ate
æİ¥ åĪ°
åħ¥ åŃ¦
Ġsynt hetic
ĠBer lin
ï¼Įå½ĵ çĦ¶
æľŁ æľĽ
åĨ³ å¿ĥ
ï¼Įæ¯ı ä¸ª
æłĩ çŃ¾
æĹ¶éĹ´ çļĦ
æĴ °
åĪ° ä½į
ä»Ķ ç»Ĩ
ec onomic
Ġve ctor
ĠOnt ario
çģ« ç®Ń
æĽ´ æľī
åıĸ ä»£
åħ¨ ä¸ĸçķĮ
Ġpart ial
Ġm ile
Ġd ying
æĹł æķ°
æĪĲ åŀĭ
æºĲ äºİ
P E
Ġl oud
Ġirrig ation
ĠThe ory
ĠD yn
çª ĳ
åİŁ å§ĭ
åįķ ä¸Ģ
åĮºåĿĹ éĵ¾
âĢľä¸Ģ å¸¦ä¸Ģè·¯
ug s
ons in
Ġsome where
Ġprol ong
Ġdischar ge
Ġcoll apse
ĠM ind
ĠCar ibbean
éĻĦ åĬł
èŃ¦ å¯Ł
åı¯ä»¥ éĢļè¿ĩ
åĦ Ĵ
Ġpl acing
ï¼Įä¸į æĺ¯
ï¼Į çĻ½
æĭ ĺ
Ã³ n
Ġcam eras
ĠW ed
ĠN eg
è¿Ľ åº¦
ro le
isc onsin
________ ________
Ġtrans formation
ĠH op
é¸ Ń
ç®¡çĲĨ åĬŀæ³ķ
å¸¦ æľī
ä¸įä»ħ ä»ħ
ĠP ain
ĠO N
çİ¯å¢ĥ çļĦ
Ġstru ck
Ġcont amination
Ġbound ary
Ġaff airs
çĲ ³
å·¨ å¤´
ï¼Į æĮģç»Ń
èī ĩ
C al
Ġfertil izer
ï¼Įå¹¶ å°Ĩ
çŃī å·¥ä½ľ
åĵ Ń
åıĺ åĬ¨
å¼ķèµ· çļĦ
A c
Ġprot est
Ġfing ers
Ġexp ort
ĠComp uter
çļĦ çĽ®çļĦ
ç»ı éĶĢåķĨ
ä¹ĭä¸Ģ çļĦ
b urn
Y es
ĠU k
ç¬¬ åħ«
çª Ŀ
æ¨¡ åħ·
ä¸Ģ è½®
Ĥ ¬
Ġpe ers
Ġp or
Ġcry pt
Ġacqu ire
Ġabsor bed
è¾¹ ç¼ĺ
æĸĩ çĮ®
uss ion
F S
Ġfore ver
Ġapprec iate
ï¼ĮåĽł èĢĮ
é¹ °
è´¦ æĪ·
æ¸¯ æ¾³
åĮĸ åĲĪçī©
ä¸Ģ è¡Į
urs day
B ack
Ġinf in
Ġ æľĪ
èĳ Ľ
ç©º ä¸Ń
æĬ¥ èŃ¦
å®¶ æĶ¿
ä¸Ģ çŃīå¥ĸ
ne a
n ia
i ac
èį· åħ°
è¿Ļ é¡¹
çļĦ æĪĲç»©
åı° åĮĹ
åįł æľī
ob ic
epend ence
Ġpar ks
Ġabsor ption
ï¼Į èĢģ
et ically
Ġmin i
Ġh o
Ġc ig
ĠW atch
çģ« çģ¾
F ig
Ġmem ories
Ġconst ra
Ġatt ended
èĨ ¨
itz er
Ġth row
Ġprodu cers
Ġdel iber
Ġarg ues
æ± Ľ
ra id
-cl ass
ĠMin nesota
ĠMat thew
ĠMars h
éļ ¶
çĽ¸å½ĵ äºİ
æº¶ æ¶²
Ġorgan ism
Ġcomple ment
ĠJer sey
æĤ Ķ
æ¹¿ åľ°
16 9
Ġp ediatric
Ġbroad er
åı¯èĥ½ æĢ§
Ġsub mit
Ġinj ured
ï¼Į ä¾Ŀæ³ķ
èĥĮæĻ¯ ä¸ĭ
æľī åĬĽ
å·´ å·´
in ery
Ġtoler ance
èĢģå¹´ äºº
çĿ¡ çľł
ç Ģ
æĬ¤ æłı
Å į
art en
Ġret ain
Ġplatform s
ĠTe xt
ĠS elf
ĠL ocal
ĠApp lic
Ġ æľ¬
è¡£ æľį
çľĭ çĿĢ
Ġd ivers
Ġconsum ing
Ġb orders
ĠRe al
ĠCult ure
é¢ĳ çİĩ
çĮ ľ
ra c
ious ly
. H
Ġsp ine
ĠCar l
d ess
ĠâĨ ĳ
Ġh am
Ġassess ments
ĠScient ific
ï¼Į å½±åĵį
çĽ¸åħ³ éĥ¨éĹ¨
åŃĺåľ¨ çļĦ
å¹¿æ³Ľ åºĶçĶ¨äºİ
äºĨ å¾Īå¤ļ
Ġseason al
Ġpred omin
ĠDi abetes
ç§ģ äºº
æĺ¯ æĪĳä»¬
ä¿¡ å¿µ
-c ol
ĠM other
ĠBudd hist
è¯ Ī
æ±Ł åįĹ
s k
B D
èĬĤ å¥ı
iet h
Ġsurv iv
Ġre h
Ġflav or
Ġed ges
æķĻèĤ² æķĻåŃ¦
å¤ļ äºº
health y
ell er
Ġval ve
Ġspeak ers
Ġsoc io
Ġdevelop ers
åĮº åĨħ
erm at
Th rough
G A
Ġre nt
Ġdr ives
Ġattribut es
ĠC S
èĳ ¬
æ³¢ åĬ¨
Ġaccount ing
çļĦ é£Łçī©
æİ¨ è¡Į
å®ŀéĻħ æĥħåĨµ
ãĢģ å·¥ä½ľ
ut ical
ct u
éĶĢåĶ® é¢Ŀ
ä½ĵ ç§¯
ä¸Ģ æĹ¦
Ġsacr ifice
Ġinfect ious
Ġauthent ic
ĠOther s
ĠDem ocratic
é¢ĺ æĿĲ
çŃī æĸ¹å¼ı
æº ĥ
åĿĩ ç³»
ä½İ æ¸©
ãĢģ ä¿¡æģ¯
Ġeduc ated
Ġdiagn ostic
ĠTh anks
èħ »
èĥ½ èĢĹ
èĥ½ åĲ¦
æ¸¸ æ³³
æ¸© å®¤
ou lt
ly n
12 6
11 4
Ġcarbohyd rates
ï¼ħ ï¼Į
ç¼© çŁŃ
å¤ª å¹³
it us
Ġrepresent atives
é«ĺè´¨éĩı åıĳå±ķ
åľ¨ æł¡
r ass
16 7
Ġclust er
ĠRom ans
ĠPol and
ĠF ac
ï¼Į æĿ¥èĩª
æĭī æĸ¯
Ġwel come
Ġval ley
Ġconnect ing
è½¨éģĵ äº¤éĢļ
è´Ŀ å°Ķ
ãĢģ å¸Ĥåľº
rel s
17 2
Ġenh anced
è´µ åı¸
æĶ¾ æĿ¾
w a
ib et
Ġrout es
Ġconstitution al
Ġb its
ĠC all
æľĢ é«ĺçļĦ
åľ¨ åĮĹäº¬
wh o
Ġreview ed
ĠW W
ĠS n
ĠHis pan
ï¼Į çĪ±
ç¿ ł
ç¢ Ĺ
æĶ¶éĽĨ äºİ
åİĨ ç¨ĭ
ä¼ļ å¯¹
arm a
Ġfat al
è¿ĩ æķı
ues day
15 2
Ġh ol
Ġfe ather
Ġdefin itions
ĠK n
çļĦ å¤©
æĹ¥ åĪ¶
ä¾Ľ æ°´
Ġeconom ics
Ġachie ving
ĠNet her
é¢Ħ çº¦
14 5
Ġinvest ments
ç»ĦæĪĲ éĥ¨åĪĨ
åħ¨ æ°ĳ
å¹´ ä¸ŃåĽ½
å¸¸ æĢģ
m ony
L O
Ġconven ient
èµ¢å¾Ĺ äºĨ
æº ¯
åĿļ å®ŀ
å¯¹ è¯Ŀ
å®ĮåĸĦ çļĦ
Ġworks hop
Ġpart ially
çĽ¸åħ³ èµĦæºĲ
å¤§æĤ² åĴĴ
äº§çĶŁ äºĨ
j ud
Ġret urning
Ġpun ishment
ĠS av
ĠHit ler
åĿĩ ä¸º
Ġindepend ently
éĤ®ç®± åľ°åĿĢ
æĳ Ĭ
ãĢĤ å¤§
ook ed
Ġsoph isticated
Ġon set
Ġ åĴĮ
è½½ ä½ĵ
çļĦ åŃ¦ä¹ł
åĮĹ æĸ¹
17 3
Ġimpro ves
ĠB est
éĢī ä¸¾
è¿Ľ åıĸ
æľ¬ç«Ļ æĶ¶å½ķ
åĪĨ ä¼ļ
ä½ Ĳ
is ons
Ġnum er
ĠTe achers
é»ĳèī² ç´ł
æĹłæĦı ä¾µçĬ¯äºĨ
æĬķ ç¥¨
äº§ä¸ļ åĮĸ
ä¹¦ çĶ»
Ġp ine
ĠN OT
ĠA z
Ù Ħ
ot ten
Ġemploy ers
ĠGovern or
ï¼Į é¡¹çĽ®
ï¼Į åĪĽéĢł
çļĦ åĽ½éĻħ
E l
! !
Ġprevent ed
Ġhoriz ontal
Ġcivil ization
ĠVol ume
ĠLew is
ĠA ud
ï¼Į æķ´ä¸ª
ç½ ķ
ç¥Ŀ ç¦ı
æ³¨ åħ¥
15 7
Ġutil ized
Ġin e
Ġex ch
å¿ĥ çģµ
ä¸ī ç§į
ult ure
ins ula
Ġear ned
ĠT ar
ĠSt ill
ĠSh ould
ĠArab ic
çļĦä¸Ģ åĪĩ
çĶ¨ èį¯
æĪĺ èĥľ
v ae
ul ates
u z
Ġsh ares
Ġre nder
ç¼º çĤ¹
å°ģ éĹŃ
ari os
-in du
Ġfit ness
ĠF uture
ï¼Į æĹ¥æľ¬
èģĶ éĤ¦
æĹłæĦıä¾µçĬ¯äºĨ è´µåı¸
åıĺ å½¢
v y
ĠY es
ï¼Į å®ĮæĪĲ
èĢĥèĻĳ åĪ°
è¯± åıĳ
çļĦ ç»ĵæŀľ
ä¼Ĺ çĶŁ
ãĢģ æĿİ
Ġt ied
Ġh ills
ĠO cc
ï¼Į å¾Ĺ
æķ£ çĥŃ
åıĤä¸İ å½ķåĪ¶
ä¿¡ èªī
ãĢģ çİĭ
Ġstret ch
Ġmole cule
Ġcont rary
ĠAs h
ï¼Įè¯· ç»Ļ
ï¼Į ç»ĵæŀľ
éĥ¨ çļĦ
çĭ ¼
æĹłæĦıä¾µçĬ¯äºĨè´µåı¸ çīĪæĿĥ
æĮĩ åįĹ
ä¼Ł å¤§
ear ly
? âĢĿĊ
Ġimplement ing
ĠTe aching
ä¸º æł¸å¿ĥ
u v
im en
Ġv ag
Ġso vere
Ġatt ain
ĠN ap
ĠK ansas
ï¼ĮæĪĳä»¬å°Ĩåľ¨ ç¬¬ä¸ĢæĹ¶éĹ´
èı Ĭ
æľī åĬ©äºİ
å°Ĩ ä»¥
pl an
Ġref rig
Ġfact ory
Ġcar ries
èµĦæºĲ åŃĺåĤ¨
è£ħ éħį
æıĲä¾Ľ å½±çīĩ
az z
Ġpurs ue
Ġlast ing
Ġkit chen
Ġinteg rity
çĭ ±
åįķ çĭ¬
in th
ag le
Ġg erm
Ġcamp us
ĠC DC
è¦ģ åľ¨
T E
Ġst ems
Ġsens es
Ġdrop s
Ġconf used
æıĲä¾Ľå½±çīĩ èµĦæºĲåŃĺåĤ¨
æ³¡ æ²«
åĲĪ è®¡
ä¸ļåĬ¡ çļĦ
Ġtra cks
Ġp est
Ġn odes
Ġacc idents
ĠP aper
ĠEn ter
éĥ Ĭ
åĲĦå¤§ è§Ĩé¢ĳç½ĳç«Ļ
em or
Ġthe sis
Ġn ort
Ġequ ipped
ĠJ im
åİ» éĻ¤
ãĢģ äº§åĵģ
12 2
Ġv ine
Ġpip e
èĪ ¶
çŃī å¤ļ
æ´¾ åĩº
åīį æ²¿
ãĢģ é£Łåĵģ
web é¡µéĿ¢
ik i
ap ing
Ġcount ies
Ġass ault
ĠT ree
ĠAm endment
is ition
Ġf les
Ġevalu ated
ĠW alk
éľĢè¦ģ çļĦ
ç«ĭæĸ¹ ç±³
ä»ħ ä»ħ
- O
Ġsett lers
Ġhistor ians
ï¼Įå¹¶ä¸į æıĲä¾Ľå½±çīĩèµĦæºĲåŃĺåĤ¨
ï¼Ī å¦Ĥ
æ½ľ åľ¨
æ°Ķ æ°Ľ
Ġw ound
Ġun expected
Ġth reshold
Ġmut ations
Ġimpl ies
Ġf irms
ĠWith in
ï¼Į çĶŁ
çļĦ æĦŁè§ī
ç³» æķ°
æĿ¥ è¥¿äºļ
u ine
-qu ality
Ġbl o
ĠCon stant
ĠBar b
ï¼Į éĿŀå¸¸
ä»ĭ è´¨
own ers
ios ity
Ġart istic
çŃī æĸ¹éĿ¢çļĦ
ç¦ ½
å·¥ç¨ĭ æĬĢæľ¯
ãĢģ æĹħæ¸¸
n als
Ġtra ding
Ġparticip ating
Ġm i
ĠT y
ĠF a
å®Įæķ´ çļĦ
Ġpres ervation
Ġel ig
ĠStud ent
ĠA rizona
éĤ®ç®±åľ°åĿĢ æĿ¥ä¿¡
ç»ĥ ä¹ł
æº¶ åīĤ
å£« å°¼
äºº å¿ĥ
F inally
Ġso y
Ġimp ressive
Ġfree ly
Ġavoid ed
ĠRes earchers
ĠPr int
é¢ģ åıĳ
è·¨ è¶Ĭ
ä¸Ĭ çº§
ãĢģ ä¸ľ
ip ation
Ġwor n
ĠInt eg
æĶ¶éĽĨäºİ åĲĦå¤§è§Ĩé¢ĳç½ĳç«Ļ
åĽŀå¤į è°¢è°¢
å¹´ èµ·
å¯¹ å¾ħ
ry pt
M B
Ġantib odies
ĠS ud
Ġ ä¸Ĭä¼ł
ï¼Įä¹Łä¸į åıĤä¸İå½ķåĪ¶
ï¼Į æĺİç¡®
æĸ Į
æ¹¿ åº¦
åĿĩç³» æĶ¶éĽĨäºİåĲĦå¤§è§Ĩé¢ĳç½ĳç«Ļ
webé¡µéĿ¢ æľįåĬ¡
. -
ĠV ar
ĠPr ince
èŃ¦ æĸ¹
èĬĤ çĤ¹
å¾® ä¼ģä¸ļ
ãĢĤ æĸ°
l am
j a
ace utical
ĠJ on
Ġ à¤
ï¼Įè¯·ç»Ļ éĤ®ç®±åľ°åĿĢæĿ¥ä¿¡
æī ĩ
æ¶ī å«Į
ãĢĤèĭ¥ æľ¬ç«ĻæĶ¶å½ķ
2 60
Ġpot assium
Ġoccup ation
Ġobvious ly
ï¼Įæľ¬ç½ĳç«Ļ åıªæıĲä¾Ľ
ï¼ĮæĪĳä»¬å°Ĩåľ¨ç¬¬ä¸ĢæĹ¶éĹ´ å¤ĦçĲĨä¸İ
ï¼ĮæĪĳä»¬å°Ĩåľ¨ç¬¬ä¸ĢæĹ¶éĹ´å¤ĦçĲĨä¸İ åĽŀå¤įè°¢è°¢
éĩįåºĨ å¸Ĥ
è¿ª å£«å°¼
å« ©
å¤ĸ çķĮ
ic ut
for ced
Ġwas hing
Ġtradition ally
Ġarr ive
ç¾İ å¥½çļĦ
åĤ¬ åĮĸ
ãĢģ åĽ½
gg ed
çļĦ æł¸å¿ĥ
æĺ¯ ä»İ
bor ne
åľº ä¸Ĭ
åĢ¡ å¯¼
ãĢģ ç§ĳçłĶ
15 3
12 7
Ġdent ist
Ġbe aring
Ġavoid ing
ï¼Į åĨħ
èº«ä½ĵ åģ¥åº·
è¶ħ å¸Ĥ
è¡ ¬
æĭ¿ åĪ°
Ġrad i
Ġp ap
Ġbroad cast
ĠSimilar ly
åĲ ŀ
Ġstrugg ling
Ġm uc
Ġind oor
Ġfin ance
Ġdev oted
éĻ Į
è¢ ģ
çļĦ åĽ½å®¶
åĪĨ æķ°
å® ª
å¥½ äºĨ
en er
el d
Ġt y
Ġp ests
Ġindic ating
é¢ĳ éģĵ
çĽ¸åħ³èµĦæºĲ åĿĩç³»æĶ¶éĽĨäºİåĲĦå¤§è§Ĩé¢ĳç½ĳç«Ļ
åĨ Ī
ãĢĤ éĻ¤äºĨ
ï¼Įä»¥ ä¾¿
æ¸ £
äº¤ åıī
A merican
Ġv oting
Ġh arsh
Ġbl adder
çļĦ åħī
çĳŀ å£«
æµ· åįĹ
Ġoper ational
ĠPro per
åķĨ ä¼ļ
åĲİ ç»Ń
åĩº åĶ®
isc ipl
1 19
Ġvel ocity
Ġin ver
é«ĺåº¦ éĩįè§Ĩ
è·¯ å¾Ħ
æļĤ åģľ
å¿½ è§Ĩ
ris k
ecess ary
Ġt anks
ĠInt roduction
éĺ¿ å°Ķ
ä¸Ģ åı¥
ä¸º åŁºç¡Ģ
ogn ition
Ġw ake
ĠW HO
ĠTurk ish
ĠJ ava
ĠB at
ï¼Į è®°èĢħ
è¯ķ åĽ¾
çļĦ å»ºè®¾
çļĦ ä½ľåĵģ
æľįåĬ¡ ä¸Ńå¿ĥ
E W
Ġdes k
ĠW isconsin
æ¬ º
M M
Ġdisc om
çļ®èĤ¤ çĹħ
æĻºèĥ½ æīĭæľº
å¯¹ åºĶ
Ġreject ed
Ġir regular
Ġappoint ment
ĠT raining
èĹ ¤
æ¡ ©
åĤ¨ åŃĺ
å¼ ¦
x ual
str ate
- r
Ġexpress ions
Ġel abor
Ġattack ed
Ġassess ed
ĠM rs
ĠEx ec
ï¼Į æĹ¥
æĦŁ æģ©
åİŁ æĿĲæĸĻ
å°ĳ çļĦ
ä¸į éľĢè¦ģ
est one
Ġshe ets
ï¼Ī åĽĽ
å§ ļ
ropri ate
orm s
do i
Ġwh ales
Ġres idential
Ġpar liament
çķ ı
æĪĳ å¸Ĥ
oc ent
Ġgent le
Ġg ran
Ġess ence
ĠAr m
å¾ģ æ±Ĥ
âĢľ ä»¥
akes pe
Ġlab els
Ġimportant ly
Ġdesign ing
Ġcirc les
ĠPract ice
é¦ĸ ä¸ª
èįī åİŁ
çļĦ åİŁåĪĻ
uls ion
Ġsitu ated
Ġr ats
çķĻ åľ¨
å¹¿å·ŀ å¸Ĥ
au c
Ġsucceed ed
Ġspeed s
Ġnurs ing
Ġimmig ration
ĠRepublic an
ĠC R
ï¼Į çĽ´æİ¥
å· ·
å°Ĩ æĺ¯
å®¡ è®®
äºº åĿĩ
Ġpublic ations
Ġapp et
Ġaccompl ished
ĠGerm ans
ï¼Į ä¿ĿæĮģ
Ġsubsequ ently
Ġk g
ĠOr der
ĠN ation
å¢ŀ å¹ħ
reat ment
he ster
ade qu
. B
Ġgra y
ç»ĵ è®º
æļ´ éĽ¨
Ġshel ter
Ġb ite
çŃī è¡Įä¸ļ
æĺİ å¤©
åıĳ æĢ§
yp ically
y an
um bers
15 8
Ġtrib e
Ġmob ility
Ġexc ited
Ġalgorith ms
ĠJ un
è¾ĥ å¤ļ
çļĦ è¡¨çİ°
æľī è¶£
æĸ°åįİ ç¤¾
åĲİ æľŁ
at oes
a ver
15 1
Ġcy l
ĠMiss ouri
Ġ Â·
éĢ Ŀ
13 7
Ġshall ow
Ġper mitted
ĠM uch
ï¼Į çº¦
ï¼Į æĺĵ
è¿ľ è¿ľ
ãĢģ åĮĸå·¥
akespe are
X X
28 0
Ġfound er
Ġdist ribut
l ist
Ġv on
Ġhun ger
ĠN Y
ï¼Į éĩįçĤ¹
æĬķ è¯ī
ress ing
orig inal
Res earch
Ġstra ins
Ġinf lation
ĠPr im
ĠM arc
ï¼Į å®ī
èĭ į
åħ´ å¥ĭ
å¹´ ä¸ĬåįĬå¹´
ãĢģ æľĢ
gen eration
at ories
P H
Ġcare g
ĠP R
ĠMat hemat
çĥ ¹
æķ ²
âĦĥ ï¼Į
ne g
ip h
P s
Ġw ax
Ġan throp
åı£ èħĶ
o T
F urther
Ġy es
Ġthor oughly
Ġp ink
Ġdisc l
ĠD uke
åıĳå±ķ åĴĮ
åīį æľŁ
å¥ ¢
å¸ĪèĮĥ å¤§åŃ¦
å®¶ ä¸Ń
ac on
- rich
Ġb inding
ï¼ĮåĲĮæ¯Ķ ä¸ĭéĻį
ï¼Į èµ°
éĢł ä»·
è¿Ľ æĶ»
ç®¡çĲĨ åĴĮ
åĳĬè¯ī è®°èĢħ
Ġp ond
Ġcirc ular
éĵ ħ
è£ħ æľº
çĺ ¦
æī¿ è½½
ä¸Ģ æĶ¯
âĢľ It
ran ch
. P
Ġle ak
éĺ Ĳ
è§Ħ ç«ł
æ¶¨ å¹ħ
nes day
ik ing
Ġdistingu ished
Ġassist ant
ĠP u
ĠJ ean
ĠAn ne
éħ µ
åıĳçĶŁ çļĦ
per t
Ġtravel ing
Ġres olve
Ġb ills
ĠProt est
ï¼Įå¤§ åĬĽ
ä¸ļ ä¸»
Ġsp ark
Ġagg reg
ĠAf ghan
ï ¹
éĽ¶ ä»¶
ä¹ĭ åľ°
st ic
d d
Ġdispl ays
éĺ² æ°´
åħ¥ ä½ı
ps on
ĠWork ing
ç¹ģ èį£
åĬ© çĲĨ
ãĢģ çĶŁæ´»
yl on
an ium
F T
Ġobs er
Ġmir ror
ĠT el
ĠF le
åĢ¼å¾Ĺ ä¸Ģ
Ġconcent rated
ĠF ull
é¢Ĩå¯¼ å°ıç»Ħ
çĪĨ çĤ¸
åıĳå¸ĥ ä¼ļ
ãĢĭ æĺ¯
ric ane
ree ment
Ġqual ified
Ġprom ising
Ġimmun ity
Ġcol ored
å»ºçŃĳ çī©
å®¢ æĪ¿
å¤įæĿĤ çļĦ
å¤Ħ åĪĨ
Ġa ster
ĠNaz i
ĠN a
ist ent
Ġt rick
Ġpr one
Ġembed ded
Ġdecre ases
çģ« è½¦
æĲħ æĭĮ
æµģ åŁŁ
åĿĲ èĲ½
åīį æĿ¥
åĪ¶ æĪĲ
åħ¬ ç§¯
å½ĵ ä¸ĭ
å¹´ åĨħ
Ġpr iest
Ġn ick
Ġhygien e
ï¼Į ä¸ĸçķĮ
çĻ» éĻĨ
âĦ ¢
lamm atory
Ġupd ate
ĠTh ink
çĲĨ è´¢
æķ° åįģ
æ°ĳ èŃ¦
å¥¥è¿Ĳ ä¼ļ
as ia
Ġt orn
Ġext inction
ï¼Į åĩłä¹İ
ï¼Į äºĨè§£
éĢī æĭĶ
å¸® æī¶
f unction
Ġprogress ive
Ġdefect s
ĠF ollowing
èĤĮ èĤī
çī¢ è®°
æ°ĳ èĪª
Ġpres cription
Ġdef ines
Ġaccord ance
ĠDav is
Ġextraord inary
Ġcol umns
ï¼Į ä»į
çłĶç©¶ åĳĺ
æŃ¥ è¡Į
u fficient
Ġpred ators
Ġorgan isation
ĠT an
ãĢĭ (
Ġmanufacture r
Ġf ate
Ġcr ust
ĠRed u
ç¾İ è§Ĥ
ç¬¬ ä¹Ŀ
ç§¯ åĪĨ
ãĢģ çİ¯ä¿Ŀ
ay ing
W ell
Ġlo op
Ġhistor ian
Ġdead ly
ï¼Į çĶ¨äºİ
ï¼Ī åĮħæĭ¬
è¯ģ å®ŀ
çĮ İ
æĺ Ń
å¤įåį° ä»¶
sequ ently
ran k
e ous
Ġke ys
ĠNether lands
ĠL t
ï¼Į æĿ¨
é» ı
çļĦ åŁİå¸Ĥ
æĹĭ è½¬
ãĢĤ è¿ĳå¹´æĿ¥
art s
Ġsequ ences
Ġaf raid
ĠW ars
ĠH an
è·Ł è¸ª
æ¸ħ åįķ
åī§ éĻ¢
åºŁ å¼ĥ
å¯¼ èĪª
.âĢĻ Ċ
Ġarrange ment
ĠUr ban
ĠCent ers
çľĭ èµ·æĿ¥
ä¸į å¦Ĥ
ãĢģ æ²¹
z ant
IS T
Ġat omic
ï¼ ı
éĥ½ å¾Ī
é« ĵ
åĲİ æŀľ
sec urity
Ġunder go
Ġre nd
Ġmyst ery
Ġen abled
Ġde leg
Ġc ensus
ĠPhys ics
éģ Ĥ
æłĩ é¢ĺ
äºĶ éĩĳ
Ġtrack ing
Ġstra w
Ġr ings
Ġh ide
Ġb uck
ĠS ource
æľĢ åĪĿ
ber ries
12 4
Ġwire less
Ġsp ir
Ġdemonstr ates
ĠSch olar
çļĦ åĬŁèĥ½
åĩł åįģ
o il
V R
Ġg aps
Ġfem in
ĠScient ists
è¿½ ç©¶
æĪ¿ äº§
åľ° å¤Ħ
äº¤ ä»ĺ
We b
Ġsens ory
ĠS em
ĠO il
ĠCh all
ï¼Į æĹ¶
è¥¿ åĮĹ
åĲĮ è¡Į
åĮĹäº¬ æĹ¶éĹ´
å¥½ å¤Ħ
ä¸Ī å¤«
ĠB rain
ĠB ell
çļĦ åıĳçĶŁ
æ±ĩ æĬ¥
åĵĪ å°Ķ
å¹³ éĿ¢
ch ron
Ġre ar
Ġh ack
Ġaccomp any
ĠQ ur
ĠDiff erent
ĠC ase
Ġ ||
éĩĩè®¿ æĹ¶
çļĦ æľĭåıĭ
ç´ł åħ»
åĿļ åĨ³
åı Ķ
un s
Ġdep r
Ġb ark
ï¼Į ä»Ĭå¤©
hed ral
Ġvacc ination
Ġlo an
Ġge ographic
ĠCle an
éĩĮ æĸ¯
è¾ĸ å¸Ĥ
åīį è¿Ľ
ä¼ ½
Ġconduct ing
éĨ Ľ
åĮĸ å¦Ĩ
åħ¬ æŃ£
ak h
. d
Ġhard ly
Ġen lar
Ġb er
Ġantibiot ic
Ġafford able
ï¼Į èĩ´åĬĽäºİ
çļĦ éķ¿
ä¼ł è¯´
âĹ ı
15 6
Ġcontrovers ial
Ġax is
éĩĮ ç¨ĭ
é«ĺ èģĮ
ç§ĳ æĻ®
æľª èĥ½
åħ» æĪĲ
ust er
ub le
ol lo
Ġpub l
Ġexpl ored
Ġcap ability
çļĦ éĤ£
ä¸ Ľ
ver ages
roph ic
m od
ĠCh ap
ï¼Į å·¥ä½ľ
vel ength
OR D
. L
Ġname ly
Ġdial ogue
é¡ ½
çłģ å¤´
ç¦ıå»º çľģ
åĽŀ æĿ¥
åıĹ ä¼¤
ä½ĵçİ° äºĨ
ãĢģ èĬ±
ãĢ ī
Ġpros pect
Ġdoct rine
Ġadapt ation
ĠF ram
ï¼Į éĿ¢å¯¹
ãĢĤ æŃ¤æ¬¡
, âĢĻ
" We
Ġout line
Ġmed itation
ĠAll ah
æľ¨ æĿĲ
ä¸Ĭå¹´ åĲĮæľŁ
ãĢģ åħ¨åĽ½
A g
Ġcompl iance
Ġcomp aring
ĠDar win
ĠD aily
ĠAl tern
æŀģ ä¸º
ä¸į ä½ı
ra red
Ġtal ks
Ġche ese
ĠP L
ĠIss ue
èĪ¹ èĪ¶
èµĭ äºĪ
æİ¨ åĩºäºĨ
Ġteac hes
Ġcl oth
è¿ĺ èĥ½
æİĴ æŁ¥
Ġstri king
Ġgovern or
Ġdiscom fort
Ġadvert ising
ĠG ir
å¤§ è¿ŀ
iv als
B O
Ġconf ront
ĠB h
Ġ es
ç¼º éĻ·
åĨ² çªģ
å¼º åĬ²
Ġrefer ring
Ġoccur rence
Ġm arch
Ġir re
Ġbe et
ĠF ront
çĿ Ĳ
çļĦ åħ¶ä»ĸ
ç¨³ æŃ¥
åŁİä¹¡ å»ºè®¾
åħļ ç»Ħç»ĩ
å¼Ģå±ķ äºĨ
i atric
al og
Scient ists
Ġsust ained
Ġport ray
Ġess ays
ĠSy ria
ĠPy thon
ĠMary land
ĠIm port
æ³¨åĨĮ èµĦæľ¬
g reen
ep s
ce eds
b ul
at ible
abil itation
W ater
Ġtour ism
çļĦäºº æīį
H igh
éĹ¨ åºĹ
çĶŁ çĲĨ
æĶ¹ ç¼ĸ
åĬ Ŀ
/ T
Ġth inks
Ġsearch ing
Ġreview s
Ġmon ument
Ġm ercury
Ġj aw
âĢ ²
iot ic
Ġtele phone
ĠH ay
å¥½ å¥½
onym ous
Ġsk ull
ï¼ĮæĪĳä»¬ çļĦ
çĽĳ ä¼ļ
ä½į å±ħ
im edia
Ġtox ins
Ġrul ing
ï¼Įä¸į ç®¡
è ©
ç«ĭ æ³ķ
æĽĿ åħī
äº² èĩª
U D
Ġtrem end
Ġrecomm ends
Ġpr ies
Ġdefe at
ĠH on
èĢĥ éªĮ
çļĦ æĶ¯æĮģ
çĨ Ļ
ãĢ Ī
on in
do ors
atur day
Ġelectron ics
ï¼Į æ»¡è¶³
è¶ĬæĿ¥è¶Ĭ å¤ļçļĦ
åĬ¨ æ¼«
y ard
Ġv ow
Ġpath ways
Ġhe al
æĨ ¾
ä¸į å¤ª
Ġwrit ings
Ġse asons
Ġcalcul ations
ĠT B
ĠH om
ĠA N
éĢĢ åĩº
ç±»åŀĭ çļĦ
æĬĢæľ¯ åĪĽæĸ°
æ½ ĺ
æ¸Ĳ æ¸Ĳ
åĩı éĢŁ
åħ» çĶŁ
C L
-inc ome
Ġtim ing
Ġd ow
ï¼Įä»¥ åħį
éģĵ çĲĨ
åįģä¸ī äºĶ
åĩł å¤©
ãĢģ çĶŁçī©
Ġprog ression
ĠC it
å±Ĭ ä¸ŃåĽ½
ãĢģ åħī
ow a
ond ition
greg ation
Ġrel atives
Ġdist ract
éĻĲ äºİ
ç§ĳåŃ¦ çłĶç©¶
Ġsam pling
Ġdiarr hea
ĠO pp
ï¼Į å¾Ģå¾Ģ
éĤ ª
é£İ åħī
Ã §
th al
in ian
Ġreserv oir
ĠN ep
ï¼ ķ
èĩª è§ī
èª ĵ
æĮĤ çīĮ
æ®ĭçĸ¾ äºº
erg arten
In c
Ġutil ize
Ġoverwhel ming
ĠH o
ï¼Į çĥŃ
æĪĲç«ĭ äºĨ
Ġscen es
ï¼ĮæĹłè®º æĺ¯
è§£ è¯»
çļĦ ç»ıæµİ
æĬ Ħ
åķĨ å®¶
äº® çĤ¹
ãĢĤè¿Ļ æł·
sp ring
p ress
Ġunt o
Ġpoll en
Ġmut ual
Ġmonth ly
èĪª çº¿
çĶŁäº§ ç»ıèĲ¥
åĩ» è´¥
ãĢģ äº¤éĢļ
m g
Ġl ying
Ġgen etics
Ġcons ensus
ĠNe uro
å¹´ ä»¥ä¸Ĭ
å·²ç»ı æĪĲä¸º
ä¸į ä½Ĩ
ãĢģ ç¾İåĽ½
ig ma
at re
Ġhaz ards
çĶŁäº§ ä¼ģä¸ļ
æĥ ¨
ä¼łç»Ł æĸĩåĮĸ
e z
ag ger
14 9
Ġpersist ent
Ġmet er
Ġl unch
Ġcon g
Ġcompens ation
çªĹ åı£
c led
Ġent reprene
Ġdom inated
Ġde ce
Ġcond em
ĠT aylor
å»ºè®¾ å·¥ç¨ĭ
å¹¶ æľª
te enth
ric s
m ary
13 1
Ġw ed
åľ¨ ä¸Ģä¸ª
d on
ar ians
ĠD id
çļĦ æĸĩåĮĸ
ock et
et erm
at ile
Ġr ide
Ġmist ake
Ġfall en
Ġde hyd
ĠR ay
ç®¡çĲĨ äººåĳĺ
æ²Ī éĺ³
or ney
erc ise
ĠM and
ĠE nt
è¾ Ł
çº³ ç±³
best os
EC T
A nt
Ġgr ants
éĹ¨ çªĹ
æĲŃ è½½
Ġrest ored
Ġgener ating
Ġart if
ĠT ibet
ç»ĦæĪĲ çļĦ
åĶ ¤
åħ¶ æ¬¡
ãĢģ åĮ»çĸĹ
ob s
ann a
D ep
-f riendly
Ġprotect s
Ġco inc
ĠStep hen
ĠF A
ĠC hemical
çĸĹ æ³ķ
ick ed
Ġtransform ed
Ġmet res
Ġillust rated
Ġf rog
Ġdest ination
Ġcontinuous ly
ĠW he
ĠOb ject
ĠL uther
ç¦» ä¸įå¼Ģ
on ics
e av
Ġexec ution
Ġarr anged
ĠC ore
ï¼Įä¸į å°ĳ
Ġhighlight s
ĠU lt
ï¼Į å°½
æµ· ä¸Ĭ
åħ¬ç§¯ éĩĳ
S E
-d r
Ġs le
Ġreserv es
Ġexp end
ï¼Įä¸Ģ æĹ¦
ï¼Į ä¸ĩ
è´£ ä»¤
åıĳæĶ¹ å§Ķ
p m
ess ional
Ġris es
Ġr ib
ĠEx amples
ĠCh ile
ç»Ļ å¤§å®¶
åĬ¡ å®ŀ
äºº å¯¹
Ġvom iting
Ġl oyal
Ġh ill
è¯´ è¯Ŀ
ç¬¬äºĮ æ¬¡
æģ ¨
ä¸Ń æľĢ
Ġm ud
Ġemp ower
Ġc ope
ĠH as
éĿĴ çĿĲ
éģ ®
ol as
b et
are r
Ġg ains
Ġfert ility
ĠN umber
ä¸Ĭ å¸Ŀ
Ġsusp ected
Ġprom otes
Ġnot able
Ġhome work
Ġgather ing
ĠSo ft
å®ı è§Ĥ
ãĢĤ æĺ¯
âĢĿ åľ¨
role um
Ġdoll ar
åĩĨ åĪĻ
å¥ĸ éĩĳ
Ġintellig ent
Ġcomple tion
Ġbl acks
ĠP A
æ¹ Ľ
åľ° åŁŁ
we et
ov ed
Ch ar
Ġsub tle
Ġox ide
Ġapp s
ĠInd ividual
ĠE vent
æİĴ éĻ¤
åįģ ä¸ĥ
å¿ĥ æĥħ
å¾ģ æĶ¶
' .
Ġsw allow
Ġflood ing
Ġencoura ges
Ġan at
ĠLe ague
åĮĸ åĴĮ
âĢľ ä¸¤
i ens
Ġmodel ing
Ġinequ ality
Ġceleb ration
çĽ®çļĦ åľ°
å¤§åŃ¦ çļĦ
äºĴ èģĶ
og ram
Ġrem emb
Ġh ang
Ġgen us
çŁŃ æľŁ
æĩĤ å¾Ĺ
åĪ¶ åĨ·
ä¸» èĲ¥
x ic
b ro
Ġsympt om
Ġshould n
Ġres erve
Ġlar vae
Ġg ear
Ġbrows er
Ġ ãĢĬ
è© ¹
çļĦæľĢ å¤§
æ¨¡ èĮĥ
ush ing
tern oon
Pro f
Ġattract ed
ĠAv ailable
Ġmet eor
Ġins pect
Ġinflu ential
Ġflu ids
Ġas ks
Ġadminist ered
ï¼Įå°± åĥı
ï¼Į éĢļå¸¸
èĬ Ĵ
ç±» åĪ«
å¿ĥ æĢģ
ol it
f are
15 4
Ġsurve illance
Ġdrain age
Ġdistinct ive
Ġbul k
ĠQu estions
è¢ ĸ
ä¾¿ å®ľ
äºĭåĬ¡ æīĢ
ä¸Ģ éĥ¨
ä¸¾åĬŀ çļĦ
swe red
H is
Ġthick ness
Ġrep ublic
Ġinv ited
Ġbox es
ĠInt erest
ĠF ord
é»Ħ æ²³
èĬ ¦
çģµ éŃĤ
ä¸Ń åĮ»èį¯
ãĢĤ éĻ¤
Ġsh ipping
ç¤¾ä¼ļ è´£ä»»
D æīĵåį°
Ġsur re
Ġorgan isations
Ġf illing
Ġepis ode
Ġem peror
Ġb ind
ç µ
æĹ© ä¸Ĭ
ä»ĵ åĤ¨
thod ox
in ates
Ġsub mitted
Ġsp erm
Ġlaw n
ĠP ath
Ġ æĪĳ
ï¼Į ä¸¥
çĽ¸ æľº
ä¸į ä¹ħ
es ign
Ġp neum
Ġimper ial
Ġcas ual
Ġbu gs
Ġalph abet
ĠStat istics
ĠPhil ip
è¿ĩåİ» çļĦ
æ³¨ æĺİ
isp here
15 9
Ġgold en
Ġdirect ory
ĠFranc is
æĽ´ é«ĺçļĦ
Ch ildren
Ġy ard
Ġepid emic
ĠH ung
çĶŁ èĤ²
å¼Ģ åħ³
å§ĵ åĲį
å¤§ æĪĺ
ä¸į åĬ¨
Ġw ages
Ġscen arios
Ġbeh alf
ĠLe on
è¯Ń éŁ³
æĬµ è¾¾
å»º äºİ
å¹´ éĹ´
ES T
Ġfol k
Ġexclus ively
Ġdin ner
Ġassum ption
ĠInt ellig
ĠC old
ï¼Į éļı
ï¼Į æ·±åħ¥
éĽĩ ä¸»
èģĶåĲĪ ä¼ļ
çļĦ æĢģåº¦
æŃ ĩ
åģĩ æĹ¥
ãĢĤ åĽł
v als
Ġp ushed
Ġcor al
ĠNever theless
éĥ¨ éĺŁ
çļĦ é£İéĻ©
çļĦ ä¼ĺåĬ¿
æłĩ è¯Ĩ
å¹² æī°
å¯Ĩ éĽĨ
W ind
Ġdist ances
è¿ľ ç¦»
æĸ°åĨłèĤºçĤİ çĸ«æĥħ
on ent
il ly
ic ul
Ġst rand
Ġfeature d
Ġen act
Ġdiscover ies
ï¼Į åħī
çļĦé«ĺ åº¦
ãĢģ çĥŃ
dom inal
Ġstead y
Ġpres um
Ġexped ition
Ġem it
Ġconfig uration
ï¼Įè®© æĪĳä»¬
å¹´ èĩ³
go vern
( )
Ġprec ision
Ġassum ptions
ĠBuddh ism
æ¢ ³
åı¤ èĢģ
äº® çĽ¸
ãĢģ ç§ĳæĬĢ
re ll
- ac
ĠD ub
äº§ä¸ļ åĽŃ
â ħ
au g
- he
Ġn ic
Ġlo ans
Ġdi ver
Ġdet erior
Ġbe am
ĠBel g
ĠB ol
Ġ rom
ï¼Įè¿Ļ æł·çļĦ
çļĦ ç¾İ
çī¹ ç§į
Ġnucle us
Ġdegrad ation
ĠB an
è¡Į é©¶
åı² ä¸Ĭ
åħ± èµ¢
å¿« æį·
å± ¡
ãĢģ éĩĳèŀį
au nd
Ġop ens
Ġen emies
Ġaccept ance
ĠSh ort
å¸Ī èµĦ
n i
n ected
A ct
ĠS her
ĠEss ay
ĠAn imal
èİ ŀ
å¤į åħ´
amm ad
-m ade
Ġpolit icians
Ġillust rate
Ġar bit
ĠCorpor ation
Ġ |Ċ
ï¼Įä¸Ģå®ļ è¦ģ
é¢Ħ èŃ¦
ä¸į åı¯èĥ½
G u
F ind
Ġthor ough
Ġsh ield
ĠS ac
è¿ĩ æĿ¥
çıį æĥľ
åİ ķ
å»ºè®¾ åĴĮ
n on
Ġpip es
Ġal ien
ï¼Įå½¢æĪĲ äºĨ
çĽ´ åĪ°
åĥ §
ä¿¡æģ¯ çļĦ
f ire
Ġfollow ers
Ġad mitted
Ġ `
çºª å§Ķ
æ±Łè¥¿ çľģ
ä¸Ĭ ç½ĳ
ä¸º ä½ķ
ph ones
int on
ĠF all
ĠC N
ï¼Į å¼ķå¯¼
æĺŁ åº§
æĴŃ åĩº
be ing
/ t
. s
Ġport ions
Ġdisapp ear
ï¼Į çĶ¨æĪ·
èī° éļ¾
åĩºçīĪ ç¤¾
å¹´ åĲİ
ile y
A ss
Ġconserv ative
ĠC ensus
Ġ ic
çī¹æ®Ĭ çļĦ
ãĢģ å¤©
E m
Ġstim ulate
Ġnecess ity
Ġm apping
Ġcateg or
ĠThe rapy
ï¼Įè¿ĺ è¦ģ
è´Ł åĢº
è¢« è¯Ħä¸º
åĿļ å®Ī
the y
il ib
13 3
/ S
Ġres on
Ġinst ant
Ġen comp
Ġal ike
ĠMove ment
ç±³ çļĦ
ä»¿ ä½Ľ
ent ieth
Ġemer ge
Ġch ron
è¿Ĳ è½¬
åħ¨ åİ¿
å¤§ èĦĳ
å¤ ¸
ru p
Ġext rem
æ± ª
å¤į åĪ¶
ä¸Ĭ çıŃ
3 20
Ġmarg inal
ĠG iven
æĬ¤ å£«
åħ¨ ç¨ĭ
äºº ä¸İ
ä¸Ģ åĳ¨
Ġsaf er
Ġnerv es
Ġimp ression
Ġcr ash
ĠS ix
çĸ ¹
çĶ» å®¶
åĴ ³
âĢĿ æ´»åĬ¨
up iter
is ible
id ae
- out
Ġpath s
Ġint ra
Ġincor rect
Ġgun s
Ġemp ir
Ġdefe ated
ĠF low
ĠD om
æ¯ķä¸ļ äºİ
åĽŀ é¡¾
å®ĺ åĳĺ
Â ©
per ial
em ed
Th ough
-m ail
Ġun ity
ĠS leep
ĠMar ia
Ġ @
éľ ī
è¿Ŀ çº¦
æįŁ åĿı
p ower
R ed
Ġor n
Ġdig it
Ġdang ers
ĠY ears
ĠB io
åĲ¬ åıĸ
åħ° å·ŀ
Ġleg acy
Ġincred ible
ï¼Į èĩªçĦ¶
çĪ± åĽ½
æĻ ´
o ard
Ġnewsp apers
Ġfro zen
ĠDe ath
ĠConnect icut
æīį ä¼ļ
åĬł ä»¥
ä¼ĺ è¶Ĭ
ãĢģ è´¨éĩı
se ction
Ġloc ally
ĠSh akespeare
ĠR us
ĠH unt
éĿ¢ ä¸Ĭ
ãĢĤ åħ¶å®ŀ
ivers ary
as se
13 6
Ġsole ly
Ġign ored
Ġcommand er
ï¼Į ç¬¬ä¸Ģ
äºĶ ä¸ª
ãĢģ ä½¿çĶ¨
x x
ĠÂ °
Ġorigin ated
Ġorgan ize
Ġdiscuss ing
Ġchap ters
ĠB ridge
è½® èĥİ
æľį çĶ¨
ãĢģ åģ¥åº·
ur ated
or se
app y
ĠPsych ology
äººæ°ĳ ç¾¤ä¼Ĺ
ug ar
ount ered
h ops
/ Ċ
Ġinject ion
ĠK ong
ï¼Į åı¦å¤ĸ
çŃī äºİ
l ings
are st
H ave
Ġfle et
ĠSym ptoms
ĠBe havior
è¯Ŀ é¢ĺ
çļĦ åħ¬åı¸
çī¹èī² çļĦ
åĨħ åľ°
ä¸ĭ ä¸ĢæŃ¥
n ings
Ġo ught
Ġg ifts
è ¤
çĪ µ
æĺ¯ ä¸įæĺ¯
åħ³ æĢĢ
ãĢģ ç½ĳç»ľ
Ġresc ue
Ġlib erty
Ġincl usion
éĺ¿éĩĮ å·´å·´
æ¾ Ħ
åľĨ å½¢
åħ¬ä¼Ĺ åı·
Ġo vers
Ġfurn iture
Ġepid em
Ġdism iss
ç§į ç§į
æ¼Ĥ äº®
åĶ® ä»·
ä¿® è¡Į
och ond
Ġver se
Ġterrit ories
ĠG reg
Ġ icon
ï¼Į ä»·æł¼
éļ Ļ
æ¶² åİĭ
åĽ½éĻħ åĮĸ
ole cular
em et
-d ef
Ġpoor ly
Ġhe ter
Ġgen uine
Ġen abling
Ġcorrel ation
ĠUnder standing
ĠSwed en
atch ing
Ġtrans f
Ġlic ensed
Ġalle ged
éª Ħ
èģĺ çĶ¨
çŁ¿ å±±
æĤ£ æľī
ãĢĤ ç»ı
form ance
Ġthr ive
Ġs au
ĠGu id
æĹ© å·²
åŃĲ å®«
F L
Ġvol umes
Ġshould er
Ġcontribut es
Ġbo ards
ĠT alk
ĠS ep
ĠB eg
æł¼ å¼ı
æľįåĬ¡ å¹³åı°
ãĢĤèĭ¥æľ¬ç«ĻæĶ¶å½ķ çļĦ
or b
Ġdis put
ĠR ose
ï¼Įå¹¶ å¯¹
ç§ĳ éĻ¢
æĹ© åľ¨
æĬĵ å¥½
æ²ī æ·Ģ
åıĳçĶŁ åľ¨
å¾® è½¯
Ġpath ogens
ĠM ong
åľ¨ åħ¨çĲĥ
åĮ»éĻ¢ çļĦ
im b
J an
Ġmom ents
Ġflow ing
ĠI ron
ï¼ī æĺ¯
åıį å¯¹
åĩı æİĴ
ä»İ æĿ¥
ä¸İ ä¸ŃåĽ½
i ors
Ġs el
Ġparticip ated
Ġl apt
Ġarrest ed
ĠOr d
ĠM os
ĠH ong
äºĨ å¯¹
ãĢĤ æľ¬æ¬¡
ãĢģ æľºæ¢°
osa urs
ge red
e ared
Ġher bs
Ġenc ountered
ĠMon th
ĠD un
èĭı å®ģ
æ¢ ¨
åħ¥ å¢ĥ
ry ing
ch a
Ġsevere ly
Ġmass es
Ġfra ud
Ġan swered
Ġan ch
ĠRep resent
çļĦ æķĻèĤ²
åħ³ çĪ±
ä¾ĭ åŃĲ
-d imensional
Ġin adequ
Ġhar ass
ĠH ur
ï¼Įç»ı å¸¸
æŃ¤ ä¹ĭå¤ĸ
æıĲ åıĸ
å¤ĸ çļĦ
Ġdeterm ination
Ġcritic ism
ĠL ind
éĵĿ åĲĪéĩĳ
ä¸Ńå°ı åŃ¦
g rim
as al
ĠB ow
äºĭ å®ľ
ä¸Ń çŃī
Ġrepeated ly
Ġinher ited
Ġcolle ges
ï¼ļ ãĢĬ
çº¿ åŁİå¸Ĥ
bur gh
Ġpick ed
Ġover se
Ġcoord ination
Ġcat aly
ĠB alt
èī² åĪĹ
è¸ ¢
è´ ª
ç« £
åħ± å»º
åħ ĳ
å·¥ä½ľ å®¤
å¦ ¨
- k
Ġdecl ined
Ġbat tles
çµ ®
æľī æľºä¼ļ
åŃĶ åŃĲ
an ol
act ic
Ġhazard ous
Ġh orn
Ġcounter part
Ġb eds
èį Ĩ
è§Ĥ èµı
çļĦ æłĩåĩĨ
æ¯ı æ¬¡
ä¸Ģæ¬¡ æĢ§
B oth
Ġstop s
Ġsee ks
Ġexec uted
ĠST EM
è¾ĥ å¥½çļĦ
çļĦ å¤ļ
æĢ§ å¼º
åķĨ åľº
å¤§ æ¥¼
å¤§ å¥ĸ
ãĢĤ å°½ç®¡
le ton
. T
ï¼Į æĶ¿åºľ
çĽĳ çĲĨ
å¼Ģ äºĨ
as ures
ac ular
Ġfrequ encies
Ġconvers ations
Ġcomm ands
Ġaccess ed
Ä «
C M
Ġtim ber
Ġre plic
Ġeconom ies
ĠDie go
ĠCon c
çļĦ äººåĳĺ
çī ²
åľ¨ åĽ½åĨħ
å®¶ ä¹¡
Ġinflu enza
Ġ Ï
è½ °
æŃ¥ éª¤
æĬķ äº§
æĪĳ éĻ¢
ig ration
Ġtext ure
Ġsynt hesis
Ġod d
Ġign ore
Ġfac ial
Ġconj unction
ĠF ive
çİ ²
æľĪ ä¸Ń
æĪĸ åħ¶ä»ĸ
åº¦ åĴĮ
å®ī ç½®
ä» ĩ
äºĮ æ°§åĮĸ
s ome
ro ck
inc ial
Ġn urse
Ġinvest ors
ĠG er
è¿Ļä¸Ģ çĤ¹
ç¼´ è´¹
æĪĺçķ¥ åĲĪä½ľ
åĬŁ å¤«
ä½ľ äºĨ
- per
Ġstake holders
Ġreal istic
ĠTreat y
ĠR ub
æıĲåĩº çļĦ
åĮ»çĸĹ æľºæŀĦ
N et
ES S
Ġmagn esium
Ġcat ast
ĠGen esis
é«ĺçŃī æķĻèĤ²
èģĶ åĬ¨
è·¨ å¢ĥ
ä¸ī çº§
ues e
st ead
N ext
In ter
Ġweap on
Ġse iz
ĠVictor ia
ĠSam uel
ĠArch itect
ï¼Į åŃ¦ä¹ł
ï¼Į åıĳ
éĴ¢ ç»ĵæŀĦ
è¿İ æİ¥
ç¡« éħ¸
åĮ» æĬ¤
u f
the ning
Ġwa velength
Ġuncertain ty
Ġt ired
ï¼Įå®ĥ çļĦ
ï¼Į æ¸ħ
éĺ¿ æĭī
æķĻ å®¤
ä¸İ åħ¶ä»ĸ
Ġmosquit o
Ġmark ers
ĠUn it
ĠBy zant
ï¼Įä¸į åĲĮ
èº« ä¸º
æĢ§ å¥½
åŁŁ åĲį
åĿĲ åľ¨
ä¸º åĩĨ
ic ting
he astern
Ġsp elling
Ġsh adow
Ġmult ip
Ġfor b
Ġbr ill
ĠPM ID
èĲĿ åįľ
ç»ıåİĨ äºĨ
lar ation
Ġrub ber
Ġqu ote
Ġinvestig ated
Ġdepart ments
ĠEduc ational
éĢĤ å®ľ
è¿Ļ åľº
æĺ¯ è¦ģ
æ¸¸ ä¹Ĳ
æµ ĩ
åĴĮ ä¸ŃåĽ½
end ers
V I
Ġphilos ophical
Ġgalax y
Ġang ry
ï¼ĮåĲİ æĿ¥
å¸Į èħĬ
P at
Ġrock et
Ġphr ases
Ġp upp
ĠK at
æĢ ¡
äºĳ åįĹçľģ
ãĢģ åĪĨ
ab ama
Ġver teb
Ġterm inal
Ġaqu atic
ĠG rant
ĠE S
ï¼Į è¿Ľåħ¥
Ġstorm s
Ġmet ap
ĠAr ist
ç¼ ¸
ç¨³å®ļ çļĦ
æłĩå¿Ĺ çĿĢ
åħĪ éĶĭ
å¿ĺ è®°
om on
o en
in ator
13 2
Ġview ing
Ġpass ive
Ġint ensive
Ġgu ides
Ġacknow ledge
ĠMount ains
æŃ¦ åĻ¨
åįķä½į çļĦ
åĩº åİ»
ä½Ļ é¢Ŀ
Ġpay ments
Ġninet eenth
Ġimag ery
Ġab road
ĠPr ime
ĠP oll
ĠN ame
Ľ èµ·
Ġl y
Ġindic ators
Ġeduc ate
Ġappet ite
ĠPol ish
ĠA IDS
ä¸į ç®¡
vel t
re strial
emet ery
- ed
Ġfif ty
éĺµ å®¹
ä¹Ł åı¯
ä¸ĩ ä¸ª
ãĢģ æĸ½å·¥
v asive
P T
Ġstress ed
ĠTrans port
éĻį éĽ¨
é¹ ¤
è®¤ åĲĮ
è§£ çŃĶ
æĸ¯ æĭī
æĦŁ åºĶ
åįķä½į åĴĮ
27 0
Ġm akers
Ġfil ters
Ġdra g
ĠS ens
ï¼Įä¸į ä¼ļ
éĥ½ çŁ¥éģĵ
çº¦ ç¿°
æĶ¶ åıĸ
å· ¾
å¤į åıĳ
T ube
F e
Ġpro sec
Ġpr ide
Ġhyper t
Ġcross ing
ĠFre edom
Ġ ?
çŁ³ å¢¨
åįļè§Ī ä¼ļ
äºĮ çŃīå¥ĸ
om ical
Ġl ith
Ġconclud e
Ġcomm od
çļĦ æľī
æıĲ èµ·
æīĢ å±ŀ
as a
Ġincred ibly
Ġexpl aining
è§£åĨ³ äºĨ
æŁ´ æ²¹
Ġvac uum
Ġreprodu ction
Ġdim ension
B el
Ġdeterm ines
Ġdesign ers
Ġclass rooms
æ»´ æ»´
æµª æ¼«
oult ry
Ġph ases
ï¼Ī è®°èĢħ
çŃī å¤ļä¸ª
å§Ĩ æĸ¯
ä¼ł è¾¾
äºĶ å¤§
12 9
Ġfe e
ĠY ellow
èĽ ĩ
ç»ıèĲ¥ çĲĨå¿µ
æ³¨æĦı çļĦæĺ¯
Î ½
14 7
Ġpreval ent
çĶŁ æĦı
ç»Ļ æĪĳä»¬
ol ly
C opyright
Ġrelie ve
Ġmat rix
Ġinteg ral
Ġdec ent
Ġconsider ably
ĠM es
ĠCl ark
l og
-d ep
Ġdream s
ĠL iving
æĪĲ åĵģ
æ² ¸
ä¿¡ ä»°
ä¸ª åĪ«
Ġto ys
Ġout doors
Ġlif t
ĠUS B
ĠC ape
ï¼Į åģļåĪ°
è¡Įä¸ļ åįıä¼ļ
ç¬Ķ èĢħ
å¾Ĺ åĪĨ
å½ĵäºĭ äºº
Ġvolcan ic
Ġrot ation
ĠScott ish
èĪ ±
ç®Ĺ æĺ¯
ra ge
Ġp anc
Ġk ings
Ġcook ed
ĠP ear
ĠF OR
çıł æµ·
æ½® æµģ
åı¤ åħ¸
åİ¿ å§Ķ
âĢĶ a
Ġt ang
Ġl ig
Ġdiagn ose
Ġanal og
ĠMill er
çĤ¹ çļĦ
ç«ĭ ä½ĵ
æĬķ æĶ¾
åĳ¨ å²ģ
åĲĪ èµĦ
åĪ© çļĦ
ä¸Ń è¶ħ
ãĢĤå¦Ĥ ä»Ĭ
Ð¾ Ð
st ration
h r
ew ater
ang ers
ĠÂ »
Ġunem ployment
Ġto mb
Ġfles h
Ġcy cl
Ġcompass ion
ĠN i
èĩ´ çļĦ
çĽ ¼
æĹłè®º æĺ¯
j amin
Ġsupp lied
Ġpers pectives
Ġg au
ĠP ay
ĠB apt
éĺĢ éĹ¨
çĨŁ ç»ĥ
æĬ ¹
åħ¬å¸ĥ çļĦ
. K
Ġtravel ed
Ġt ape
Ġdam aging
Ġch ains
ĠJ ane
Ġcardi ac
ĠE dition
æİ¢ æµĭ
the re
ab etic
Ġy ields
Ġme ets
Ġcy t
ĠL ove
æº¶ è§£
å°¼ æĸ¯
å¡ĳ éĢł
r ise
i ating
T ake
çĶ· å¥³
æĶ¾ å¿ĥ
å¢ŀ å¤ļ
äºĨä¸Ģ ç§į
ine a
M on
Ġgre y
Ġalumin um
ï¼Į åĲĥ
é«ĺ è¡Ģåİĭ
èĭ ĳ
çļĦä¸Ģ æ¬¡
ç»Ŀ ç¼ĺ
ç»Ļ æĪĳ
æĮ «
åīį åĲİ
åīį åĪĹ
it ored
els on
Ġm es
Ġc el
ĠL ower
èĩªè¡Į è½¦
çľĭ åĪ°äºĨ
çļĦ æīĢæľī
çĬ ¬
çīµ å¤´
æ¯Ķ åĪĨ
åĩº èī²
W orld
M V
Ġfl ed
ĠG h
é¹ ħ
è°ĥ æİ§
åĽ¾ æ¡Ī
å¤ĩ åıĹ
ose velt
ord an
ograp her
ak i
Ġpollut ants
Ġinflamm atory
Ġground water
Ġbelong ing
ĠLar ge
ĠCapt ain
çŀ¬ éĹ´
ef its
O K
Ġgraph ic
åĭ ¿
åĩ °
äºļ å¤ª
ä¸Ńåįİ æ°ĳæĹı
ãĢģ çº¢
he res
Ġwar mer
Ġthr one
Ġan ten
ĠR A
ĠC ru
çļĦ çİ°è±¡
ç» İ
æĿ¡ è§Ħå®ļ
åľ° æĿ¿
åħ¬å®ī å±Ģ
ãĥ »
Ġprof its
éķĢ éĶĮ
åĩº ä¸Ģ
ä¸įæĸŃ çļĦ
h ard
em an
Ġp ec
çĶŁåĳ½ çļĦ
çĶµ ç«ŀ
æĿ¥ è®²
æĳ© æĵ¦
å¸Ĥ åĮº
ä¸į æĺĵ
y o
u ct
ir s
el and
ar ium
F P
14 4
Ġz inc
Ġdest ro
Ġaf ternoon
ĠT en
ĠS ite
ĠS a
ĠM oh
ĠG ames
ï¼Į å»ºè®®
çĶ· äºº
æİ¨ åĩºçļĦ
ãĢģ æĹ¥æľ¬
reat ing
or ie
Ġprop he
Ġpres chool
Ġpo ems
ĠR og
ï¼Į å®¹æĺĵ
çļĦæľĢ ä½³
Ġv iable
ï¼Į è·Ł
ï¼Į æĪĲåĬŁ
å¤§ æ¦Ĥ
ox ide
Ġmeth ane
Ġfar mer
ĠK im
ĠAust ria
æĪĳ åħ¬åı¸
æĥħ æĢĢ
åŃ¦ éĩĳ
åı¯ä»¥ è¯´
åĨħ åľ¨
Ġre n
Ġposs ession
Ġover t
Ġcheck ing
Ġapplic able
ï¼ī çŃī
æĶ¾ åħ¥
åĻª éŁ³
åİ¿ åŁİ
åħħåĪĨ åıĳæĮ¥
ä¼ł åĬ¨
ä¸Ģ çĶŁ
oles cent
al o
ĠP as
æĤ Ħ
æ·± çļĦ
å£® å¤§
ãĢĤ æľĢåĲİ
es see
M at
Ġneighb ors
Ġch a
ĠW in
ĠFore ign
ç«Ł çĦ¶
il ateral
eg u
c ut
F l
% ;
Ġprotocol s
ĠT ax
é«ĺ åĵģè´¨
çĶµåĬ¨ æ±½è½¦
æĸ°åŀĭ åĨłçĬ¶çĹħæ¯Ĵ
ather ine
Ġsk illed
Ġpack aging
ĠS ex
æľª ç»ı
æīĭ è¡¨
åĿ İ
ä¸į æĥ³
âĢĻ .Ċ
Ġrecept ors
Ġl unar
æľįåĬ¡ åĻ¨
æĽ¾ åľ¨
å¼Ģ åŃ¦
D is
Ġrevolution ary
Ġr ic
Ġpat ri
é©¬ åħĭ
èŃ¦ åĳĬ
èµĦæºĲ çļĦ
åĻª å£°
ä¼ģä¸ļ å®¶
- te
Ġj ew
Ġexp enses
Ġdis asters
ĠF ig
ï¼Į C
çļĦ èīºæľ¯
åĸĦ äºİ
ä½ľ æĸĩ
t ics
13 4
Ġsy ll
Ġser vers
ĠGold en
éĢĢ å½¹
çļĦ èĬ±
åĪĩ åī²
ä¿¡ èµĸ
ä¸į è§ģ
ut y
Ġw ra
Ġrelig ions
Ġ Ù
ï¼Į ä¿Ŀéļľ
r ish
ack ed
Ġsk et
Ġmain stream
Ġinc idents
Ġapp le
Ġag enda
ĠTh ursday
éĿĴ æµ·
ç§ĳåŃ¦ ä¸İ
Ġoper ators
Ġinstitution al
Ġgalax ies
Ġext ends
ĠP ow
ĠIndust rial
ĠArch ived
æĭ¼ æĲı
åĢ¼å¾Ĺä¸Ģ æıĲ
id ge
ard ing
.p df
Ġtub es
Ġmembers hip
Ġlim iting
ĠEv olution
æĺ ı
å½ĵ ä»Ĭ
osp here
iot ics
Ġv otes
Ġrac ism
Ġmicrob es
Ġca ffe
ĠIndones ia
ĠEn c
ĠCreat ive
éĵ¾ æİ¥
éĩĳ åĪļ
æĶ¹éĿ© å¼ĢæĶ¾
å¥ĳ æľº
p y
Ġinterpre ted
Ġden ied
Ġcorpor ations
Ġb ip
ï¼Į æ¶īåıĬ
éĺ² å®Ī
æ¬¡ æķ°
port s
is hers
ik es
er ness
b one
Ġign or
ĠZ h
ĠSpec ies
ĠInd ex
ï¼Į çľŁæŃ£
ï¼Į çº¢
éĹ¨ åı£
çļĦ é£İ
ç§ĭ åŃ£
ĠEth iop
çķĮ éĿ¢
æĹ Ń
Hist ory
Ġob sc
Ġg ums
Ġch ip
ĠComm and
ĠCar bon
çĽ® çļĦæĺ¯
æĬ¥ è®°èĢħ
æīĢåľ¨ åľ°
ãĢģ åŁİå¸Ĥ
d i
Ġpul led
Ġgen etically
Ġexam ining
ĠCh am
ï¼Į éĽĨ
ï¼Į è´Łè´£
èĦ Ĭ
è¿Ļ ä¸¤
æł· åĵģ
åıĹ è®¿
åıĭ å¥½
åİĨ ç»ı
å®īåħ¨ çļĦ
7 50
Ġindic ator
Ġcon vention
Ġcheck ed
ĠS earch
ĠAD HD
ï¼Į åıĮ
çĭ Ń
åįģ åŃĹ
åĪĽæĸ° åĪĽä¸ļ
å¿ĺ åĪĿå¿ĥ
ou ch
Ġmagn et
Ġcost ly
ĠGra de
èĭ± æł¼åħ°
è¿Ķ åĽŀ
ç²¾ èĭ±
æĶ¿åºľ çļĦ
äºĭ çī©
Th ose
A v
Ġle ct
Ġg aining
é¢ĳ ç¹ģ
æľ¬ åħ¬åı¸
ä¸Ģ åĲĮ
ä¸¥ è°¨
ause a
Ġwealth y
Ġvot ers
Ġprogram mes
Ġg ang
Ġarchitect ural
ĠT s
ĠC ass
ï¼Į éĩĩåıĸ
ï¼Į è®¤ä¸º
è¾ °
è¯¢ éĹ®
æĮĩ ç¤º
åĸ Ĭ
åĮ¹ éħį
åĨį åº¦
f ather
, '
Ġsug ars
Ġste ep
Ġspec imens
Ġshop ping
Ġpass engers
Ġp itch
Ġmount ed
Ġgra ve
Ġf oster
Ġbreak fast
ĠTor ah
ĠR and
ĠP H
ï¼Į ç»ıæµİ
ï ¬
é¢ģ å¥ĸ
è½¬ åĲĳ
çĥ¦ æģ¼
æĺ¯ å¾Ī
ic ides
ail ing
M E
2 11
Ġs ore
Ġprolong ed
Ġmur d
ĠQ uality
ï¼ļ ä¸Ģæĺ¯
ï¼Į åħ·å¤ĩ
éĺ² çģ«
çŁ ¶
åħ¶ ä¸ŃçļĦ
å¸Ĥåľº éľĢæ±Ĥ
å·¥ç¨ĭ å»ºè®¾
ä»Ģä¹Ī æĺ¯
vious ly
let ter
k o
az a
Ġb rick
ĠP rize
ĠM aterials
ĠBas ic
ä¸ľåįĹ äºļ
ä¸Ģä¸ª æľĪ
ãĢģ åĮĹ
âĢĿ åŃĹ
og l
act ivity
) åĴĮ
Ġsc al
Ġiniti ated
ï¼Į å§ĭç»Ī
ç«£ å·¥
æĬķæłĩ äºº
ps y
Ġprom oted
ï¼Įæľī åĪ©äºİ
ï¼Į åıĳæĮ¥
éĤ® æĶ¿
é¡ ·
çĸ² åĬ³
ç®¡çĲĨ éĥ¨éĹ¨
æĶ¿åºľä¿¡æģ¯ åħ¬å¼Ģ
åı¯ åľ¨
åı¤ åŁİ
ä¸ļ æĢģ
ãĢĳ Ċ
sh ore
se ud
Ġwh ilst
Ġtransp arent
Ġsing ing
Ġsil icon
Ġgovern ance
Ġfresh water
ĠT uesday
åĨ Ģ
im als
ĠR ab
ĠO pt
ï¼Įè¿Ļ å°±æĺ¯
èĲ §
ç®¡ æİ§
å®¡ ç¾İ
å¤ļ äºĨ
äºº æ°Ķ
N BA
AR T
ĠAcc ount
ï¼Į è®¾è®¡
çº§ çļĦ
æĿ ı
æ°¨ éħ¸
ãĢģ å®ī
ke ys
ï¼Ī C
è¿Ľè¡Į çļĦ
çľŁ è¯ļ
åıĳå±ķ æĪĺçķ¥
åĩĮ æĻ¨
å±Ĭ æĹ¶
ä¼ĺè´¨ çļĦ
ors hip
F R
Ġread s
ï¼Į å®ĮåĸĦ
æķĻèĤ² å±Ģ
æ®µ æĹ¶éĹ´
åİ¿çº§ ä»¥ä¸Ĭ
Ġst uck
Ġprec ious
ĠM aking
çĦ¦ çĤ¹
13 9
Ġprop os
Ġper sec
Ġad mit
Ġabs ent
ĠF lu
èģļ åĲĪ
çĶµ ç£ģ
ä¸Ń éĥ¨
] .Ċ
Ġs orts
Ġquant itative
Ġnurs es
Ġb ay
ĠA ges
çļĩ å¸Ŀ
å¢ŀåĬł åĢ¼
ä¼Ł å¤§çļĦ
Ġunn ecessary
Ġrespond ed
Ġglob ally
Ġfl ies
ĠN S
ĠM ission
ï¼Įæĺ¯ ä¸Ģç§į
éº» çĥ¦
è¿ĩ å¤ļ
çĳ °
å®¶ ä¼ģä¸ļ
ä¾Ľ çĶµ
or ce
M T
Ġhead aches
Ġb ars
ĠAl abama
ï¼Į ä»¤
ï¼ģ âĢĿĊ
æ°¸ ä¹ħ
åĪĨæŀĲ å¸Ī
p ers
app ropriate
Ġto ile
è´Ł èį·
è± «
ç¥ŀ å¥ĩ
æī§ çħ§
æĢĢ åŃķ
åĬ «
Ġtit les
Ġint u
Ġequ ity
ĠV ers
ĠT a
ĠB ru
ï¼Į è°ģ
åĴ ½
åĪł éĻ¤
å®ŀ è´¨
ä¸ļåĨħ äººå£«
Ġgr at
Ġfe as
Ġc od
éģĹ æĨ¾
ä¼ļè®¡ å¸Ī
ä¸į å¤§
ä¸Ģ åº¦
Ġtalk ed
Ġcollabor ative
Ġab d
ĠMar g
ĠM ental
ĠDou gl
ï¼Į å±ŀäºİ
ä»İ æľª
ä¸º ä¸Ńå¿ĥ
Ġsubstant ially
Ġrec overed
çļĦ èĢģ
çİ© åħ·
åı« åģļ
åĬ¨ åĳĺ
åĢŁ éī´
å½¢æĪĲ çļĦ
ur red
ou b
oc hemical
is er
il er
çĽ¸ ç»§
æĿ¡ æ¬¾
ä¸ĸçķĮ åĲĦåľ°
âĨ Ĵ
20 4
Ġens ures
Ġemb ra
ĠCre ate
æī« æıı
ä¸Ĭ æĺł
-l ife
Ġtrans actions
Ġdec omp
ĠArch ives
ï¼Į åĨ³å®ļ
èĪ Į
ç»ı çºª
åįı åķĨ
In f
B R
- em
Ġr ou
Ġmon itored
Ġmanufact ured
Ġextra ction
Ġattempt ing
ĠExec utive
çĿ£ ä¿ĥ
æĪ¿åľ°äº§ å¼Ģåıĳ
M ake
00 2
Ġsurv iving
Ġpat ch
Ġhead ed
Ġhe ated
ï¼Įåı¯ æĺ¯
åİ¨ æĪ¿
k al
/ C
Ġproject ed
Ġmut ation
Ġfail s
ï¼Į é¦ĸ
æĦı å¿Ĺ
il ty
Ġsim ulation
ĠN ort
ĠE s
ĠC ook
è¿ĺ åİŁ
æŀ £
åĩ¤ åĩ°
in ced
Ġend eav
ï¼Įä»ĸ åľ¨
èĪªç©º åħ¬åı¸
ä¸į åıĬ
u ccess
im eter
ier ra
arc hed
T HE
. F
Ġreg ulated
ĠDec laration
çļĦ ä¸ī
åİļ åº¦
ãĢģ åĽĽ
Ġvo ices
Ġpow ered
Ġpal m
Ġc er
Ġ æĺ¯
è´¢ æĬ¥
ç»ĵ ç®Ĺ
w hen
c ons
Ġspeak s
Ġmotiv ated
Ġcompar able
èĢĮ åĩº
æĢ» åĢ¼
æ³ķ çļĦ
å¤ļåħĥ åĮĸ
ä½İ ç¢³
ä¸ĭ åįĬå¹´
13 8
-s ized
Ġev ac
ĠPers ian
èĢĮ æĿ¥
æŃ §
å¯¹ æĪĳ
Ġfulf ill
Ġent ity
Ġdevast ating
Ġdescript ions
Ġann ounce
ĠT ok
ĠObs erv
ĠK y
ï¼Ī å¸Ĥ
è§ģ åĪ°
åĬŀåħ¬ åİħ
å¾ģ éĽĨ
ãĢĤ åĲĦ
-inf lammatory
Ġsubstit ute
Ġbas ics
ĠH u
ĠDef ense
çĶ¨ ä½ľ
æ³ķ æ²»
åĪ¶ çļĦ
z an
rict ion
og ene
f ront
O rig
D id
- I
Ġsl ope
Ġmean ings
Ġhistor ically
Ġdis hes
Ġconstra ints
é¢Ĩ åıĸ
è°· æŃĮ
çŁ© éĺµ
ç¬ ¼
æµĭ å®ļ
æ°´ åºĵ
åħ¨ æĹ¥åĪ¶
ä¸Ģ æľŁ
ont in
in stein
-w ide
Ġtra ged
ĠJ upiter
ï¼ī ï¼ļ
è¯Ħ å®ļ
çŁ³ åĮĸ
å«Į çĸĳ
ä¸ĭ æĿ¥çļĦ
ote chnology
Ġpath way
Ġcomb inations
ĠTenn essee
ĠCap ital
å¤ĸ èµĦ
n ames
ge bra
Ġsw ord
Ġseem ingly
Ġheart s
Ġdam ages
Ġb ands
Ġad ul
ĠO m
ãĢģ ä¿Ŀ
ur ally
re f
eng u
Ġre ven
Ġdisp ute
ï¼Ī M
ç¦» å©ļ
å·© åĽº
Ġpublic ly
Ġinterview s
Ġfest ival
ĠSt one
ĠHistor ic
è¿Ļ æ¬¾
çļĦ æµ·
æĿ° åĩº
æĶ¿çŃĸ çļĦ
ropol itan
less ly
Ġimp osed
Ġarchae ological
ï¼Įæľī æĹ¶
ç²¾ åĬĽ
æľĢ éĩįè¦ģçļĦ
æĺ¯ ä¸ºäºĨ
å¹³ åĩ¡
osy nt
Ġelectro ly
ĠBro ok
è° ħ
æľīæķĪ åľ°
æ¿Ģ æĥħ
å¿ĹæĦ¿ æľįåĬ¡
quar ters
Ġteach ings
Ġc erv
Ġaccum ulation
ĠT ri
ĠE le
ĠC ut
ï¼Įæľ¬ æ¬¡
åŃ µ
å¹¿æ³Ľ çļĦ
it ance
P I
AN D
- an
Ġingred ient
ĠProt ocol
ĠNap ole
æķĻ çłĶ
åĢ¼å¾Ĺä¸ĢæıĲ çļĦæĺ¯
å¼º çĥĪçļĦ
ä½ĵ è´¨
iz ational
H ar
Ġper ipher
Ġoper ator
Ġat om
ĠFred er
ï¼Į èµ·
é©¬ ä¸Ĭ
æ¶Īè´¹èĢħ çļĦ
åī¯ æĢ»è£ģ
å½ ¦
Ġsoc ially
Ġover weight
Ġint ens
Ġcere mony
ĠS A
ĠMark et
ĠM uh
ĠL ic
çĥ ·
åŀĤ çĽ´
å¥½ åĥı
Î ¿
ethe less
Ġspread s
Ġres idence
Ġpur ple
Ġmov ies
Ġcampaign s
ĠS el
ĠL ady
ï¼Į å¿ħ
çľ¼ éķľ
æį §
ä¹¦ ç±į
ä¸ĭ æ¸¸
ä¸Ģæ®µ æĹ¶éĹ´
ang ular
Ġrel ates
Ġpoly mer
Ġg land
Ġelect rom
Ġbott les
ĠRo osevelt
ĠDep ression
èĴ¸ æ±½
èĩªçĦ¶ ç§ĳåŃ¦
çļĦ æĬķèµĦ
æĸĩåĮĸ éģĹäº§
æİ¥ åı£
åĸ ī
ãĢģé«ĺ æķĪ
âĢĿ ä¸Ń
Ġst iff
Ġpen cil
Ġnob le
Ġkid neys
Ġk in
Ġexp ense
Ġch im
ĠM it
ï¼Į éĿŀ
æĬµ æĬĹ
æĢ¥ æĢ§
åľ¨ ä¸Ģ
å¤© åľ°
ãĢģ å¹¿å·ŀ
is a
Ġv apor
Ġpress ures
Ġj et
Ġd ual
Ġrefrig er
Ġin quiry
Ġb old
Ġastron aut
ĠB ot
éĴ¢ æĿĲ
æ¸© æ³ī
æ°ĳ äºĭ
war f
o z
am ily
14 8
Ġrespect ive
Ġgu ided
Ġem ission
Ġcor ruption
Ġb es
ĠIn iti
ĠCont act
ï¼ĮåĬł å¤§
çļĦ ä¸įåĲĮ
æĿ¥æºĲ äºİ
æİ ©
åĲ ¾
ä¿ĥ ä½¿
ä¸į ä¸Ĭ
ãĢģ æķĻåŃ¦
âĢĿï¼Į âĢľ
ont o
et on
O H
Ġye ast
Ġsched uled
Ġimm ense
Ġde als
Ġcomb ust
ĠElect ric
ï¼Į éķ¿æľŁ
éķ¿ è¾¾
æĺ¥ å¤©
åħ Ķ
os ity
14 3
Ġtelesc ope
Ġch amp
ĠPer iod
ĠN ich
åĲĪæ³ķ æĿĥçĽĬ
åħĥ ä»¶
ä»· æ¯Ķ
rou ps
art icles
Ġpharm ac
Ġis ot
Ġin k
çĶ· åŃ©
å®³ æĢķ
ä¼ļ åĩºçİ°
um ing
ruct ive
W ork
Ġvirt ue
Ġexplicit ly
Ġcross ed
Ġantioxid ants
æĻ® æŁ¥
åĩº èµĦ
ä¸ĩ äº©
ä¸¾è¡Į çļĦ
Ġpot atoes
Ġpo le
Ġh ip
Ġdraw ings
Ġcryst al
Ġcomprehens ion
Ġbo ats
ĠKnow ledge
çİī ç±³
æĳĦ åĥı
æīĢè°ĵ çļĦ
åľ¨ æľ¬
å®¿ èĪį
oth y
ot ional
Ġtremend ous
Ġtem pt
Ġmel an
Ġinter vals
Ġconsist ed
ĠSh ow
ĠPhilipp ines
ï¼Į åĪĩ
çĨ ¬
æ¬¢ ä¹Ĳ
åİŁåĽł æĺ¯
åĭ ¾
å£ ¶
iff erent
Ġsymb olic
Ġperson ally
Ġconstit ute
ĠR aj
ĠH ell
B T
Ġspecial ists
Ġpractition ers
Ġharm ony
Ġfound ations
Ġb om
ĠZ e
ĠAuthor ity
ï¼Įè¿Ļ ä¹Ł
ç¼º å°ĳ
ç»Ħ éķ¿
æŀģ å¤§çļĦ
æľº åĬ¨è½¦
åĽ½å®¶åĴĮ åľ°åĮº
ä¸¥ å³»
ãĢģ è®¾å¤ĩ
ot yp
b acks
as is
ad ic
B L
Ġshort ly
Ġprom ised
Ġcomp act
Ġblock chain
ĠCount ry
ï¼Įåįł åľ°
çľĭ æ³ķ
åŀ Ĵ
å¹´ æľ«
å´ Ľèµ·
å¥ĸ åŃ¦éĩĳ
th s
or ious
Sc ience
A èĤ¡
.ht m
Ġcomp ress
Ġbelong s
Ġb ases
Ġaff il
ĠK it
ĠF isher
ï¼Į åıĬ
èģĮä¸ļ æĬĢæľ¯
çļĦ ç¡®
åĭĩ æķ¢
Ġpro claim
Ġdisp osal
Ġcount s
æ·»åĬł åīĤ
åıĺ æĪĲäºĨ
å¸Ĥ éķ¿
igh ters
c ommun
aw ay
G od
Ġrecy cled
Ġbet a
èī° èĭ¦
çļĦ ä¸¤
æ²¿ æµ·
âĢĿä¸º ä¸»é¢ĺ
erv es
Ġsmall est
Ġsl ide
Ġsacr ific
Ġdocument ation
Ġbut t
ĠP a
ĠHawai i
ĠCult ural
æł· åŃĲ
æħ° éĹ®
pl us
Ġsn ake
Ġequ ations
Ġdecre asing
Ġclos est
ĠP arents
ç¼ĵ æħ¢
ç»¿èī² å»ºçŃĳ
æĸ° åŁİ
åħ¨ èº«
ä»£ æĽ¿
O b
14 1
Ġsp here
Ġso ap
Ġfound ing
Ġdo zen
èĢħ åĴĮ
è¡ĮæĶ¿ ä¸»ç®¡éĥ¨éĹ¨
çļĦ åģ¥åº·
åĽ° æī°
å±ķç¤º äºĨ
ä¸» äºº
éĺŁ éķ¿
çĽ¸åħ³ è´Łè´£äºº
çĸĳ éĹ®
ri ends
h is
c r
ar se
Ġvolunt eer
Ġb in
Ġar teries
ĠCommun ication
éĩį å»º
èĲ Į
çŃī çī¹çĤ¹
æİĴ è¡Į
æĬ ¬
ãĢģ è®¡ç®Ĺæľº
Ġret ire
Ġd irt
ĠV ill
èĳ¡èĲĦ çīĻ
åŀĭ æĿĲ
åķĨ åºĹ
ãĢģ ç»Ħç»ĩ
ib li
al in
Ġpract iced
Ġmethod ology
Ġfre ed
Ġconv inced
Ġcertific ate
Ġbas in
ĠPortug uese
ĠP resent
èµ Ĳ
æľĢåĲİ ä¸Ģ
æµģ æ°´
æ´¾ éģ£
åı£ ç¢ĳ
ur b
ilib rium
. .Ċ
Ġwas t
Ġst atic
Ġsec ular
Ġqu ad
Ġbuild s
ĠPat ients
ĠLaw rence
è¿Ļ ç±»
çľŁ ç©º
çĦ¦ èĻĳ
æĵħ éķ¿
åĢº æĿĥ
å¤ ¯
w ill
Ġt ear
Ġep it
Ġent ities
ĠR od
é¡µ ç¬¬
èģĶ ç»ľ
å´ Ķ
ol is
io let
Sec ond
Ġpra ise
ĠAr thur
éĽĨä¸Ń åľ¨
çŃ¾ è¯ģ
æķĳ åĬ©
æĶ¹ ä¸º
æ¯ı æľĪ
å¸Ĥ çļĦ
ol utions
Ġlater al
é¢ ł
ãĢĤ åħ·ä½ĵ
ib ration
Ġhe pat
Ġdef ining
Ġdark ness
Ġclust ers
ï¼Į å¹³åĿĩ
ï¼Ī S
çŃī åĽłç´ł
åĵª ä¸ª
åĩºçİ° çļĦ
å±Ĥ çļĦ
å¤ļ å½©
Ġneigh bour
Ġmiss ed
ĠAp ollo
è¡Įä¸ļ åıĳå±ķ
çģ¯ åħī
ç»ıæµİ å¢ŀéķ¿
ãĢģ å¹³
augh ters
ap ore
3 30
ĠRe qu
èĻļ åģĩ
çģ ¿
ras ound
D I
Ġnorm s
Ġmach inery
Ġenvironment ally
Ġed ited
Ġbe ef
Ġassign ments
è´«åĽ° æĪ·
è´¨ çĸĳ
ç¡ Ŀ
åĲ ģ
D ata
Ġland f
ĠN at
ĠD omin
ç© ´
åĪ« äººçļĦ
å¾· éĩĮ
ãĢģ èĩªæ²»åĮº
ro ts
R L
Ġwet lands
Ġreform s
Ġread ings
Ġasp ir
ĠWh it
ĠT ai
Ġ q
ï¼Įåħ¨ åĬĽ
ï¼Į éľĢ
çļĦ æ¸¸æĪı
çĶ ¸
ç¥ Ī
æ¨ ±
ä¸į åĲ«
av irus
an as
Ġwell s
Ġra ces
éķ¿ åŁİ
éģĵ çļĦ
ç¼ĸ ç¨ĭ
æ¹¾ åĮº
åģļ åĩºäºĨ
r ative
Ġstat ue
Ġp od
Ġelig ible
Ġab dominal
ĠI b
ĠAfghan istan
ï¼Į ç´§
è¯Ĺ äºº
ç£ Ĭ
æ°´ åĪĨ
å¼Ģ ä¸ļ
åºĶè¯¥ æĺ¯
ä»² è£ģ
st an
Ġprov inces
Ġloc ate
Ġinform al
Ġcur ious
Ġcons p
ï¼Įå¹¶ äºİ
æł¡ åıĭ
åį ĳ
åħ¬å®ī æľºåħ³
å¸ĥ ç½®
å¸ Ĳ
ä¼´ éļıçĿĢ
ag ine
Un iversity
Ġupd ates
Ġm im
ĠWed nesday
ï¼Į ç¬¬äºĮ
åħ¸ ç¤¼
ä¹ĭ æĹħ
pt on
ist ence
Ġwor ried
Ġpl ug
Ġoff spring
ĠS aturday
ĠM i
ĠC ra
éĢļè¿ĩ äºĨ
ç»Ļ ä½ł
åįķ çº¯
å¯Į åĲ«
ä¸»è¦ģ æľī
âĢĻ ï¼Į
ro b
kl ah
C urrent
Ġexpl osion
ĠIm perial
ĠAl bert
ï¼Į ä»»ä½ķ
éģŃ åıĹ
è¶³å¤Ł çļĦ
æĪĳ åľ¨
æ°´ å¤ĦçĲĨ
æ§ Ľ
åī ¥
ãĢģ åŃ¦
sw er
ation ally
) (
Ġsym met
Ġd rew
Ġb ats
ĠT itan
ï¼Į ç¬¬
çº ±
åķ ¤
å·¥ç¨ĭ æĸ½å·¥
å°ı äºİ
ä¸į ç¬¦åĲĪ
ä¸º æľ¬
v ance
. last
-f oot
Ġadv ised
ĠR out
ï¼Įä¹Ł åı¯
çļĦéĩįè¦ģ æĢ§
æĥĬ åĸľ
iscipl inary
ath ic
Ġver bal
Ġind ication
é¡º åºı
èĵĿ èī²
è° ¦
çĽ¸ åıį
ç§Ł éĩĳ
æ¯ı ä¸Ģä½į
âĢľ åĽĽ
re ts
c ase
Ġneed le
Ġfoot ball
Ġdescend ants
Ġacc used
ä»į åľ¨
ãĢĤ å°±
gra duate
ena issance
com fort
-l ong
Ġresil ience
Ġrel iability
Ġconsider ations
Ġat e
ç¥ŀ çļĦ
æľ¬ æĿ¥
åİŁ ä»¶
å¦ ®
. t
Ġpeace ful
Ġp ix
Ġh ind
Ġfe at
Ġcaffe ine
æ´»æĢ§ çĤŃ
åīį ä¸ī
åĪĹ ä¸º
ä»» èģĮ
Ġrad ar
Ġphys iological
Ġmult ipl
Ġf art
Ġas bestos
ĠMil itary
ĠAst ron
Ġ ä¸º
ï¼Į æĬķèµĦ
çŀ »
çļĦ å°±æĺ¯
åĲĮæ¯Ķ ä¸ĭéĻį
åĩı èĤ¥
iv o
Ġres ident
Ġcomm emor
å½° æĺ¾
ot le
ĠLt d
ĠB ob
ĠB ad
èı ±
æłĩ çļĦ
Ġth ou
Ġsatell ites
Ġfor ty
Ġde ple
Ġche aper
ĠJ oh
ĠDen mark
ĠD or
ĠAdv anced
Ġ ions
çŃī äºº
åľº åĲĪ
åĭŁ éĽĨ
å¤® è§Ĩ
å¢ĥ çķĮ
ov a
.last name
Ġob ese
Ġmen u
Ġdist ress
ï¼Į æīĭ
é«ĺæĸ°æĬĢæľ¯ ä¼ģä¸ļ
èĮ «
èī ĺ
è¯¥ åħ¬åı¸
æķ¬ ä¸ļ
æ¬§ ç¾İ
ä¼ĺ ç¾İ
ro ach
op t
G reen
Ġsold ier
Ġn ode
Ġdep icted
ĠGree ks
è¾Ľ èĭ¦
æ¼Ķ å¥ı
å¯ Ĥ
D av
Ġintrodu cing
Ġimport ed
Ġhost s
Ġann iversary
ĠV o
ĠDem ocr
ĠAn aly
ï¼Į åĽ´ç»ķ
å²ģ æľĪ
ic iency
ann el
Ġca ution
Ġas set
ĠIndian a
ï¼Įå®ŀçİ° äºĨ
è¯´ éģĵ
æľºæŀĦ çļĦ
æķĻ åłĤ
æ°Ķ æģ¯
åĭĩ æ°Ķ
P ublic
Ġwh ale
Ġrepl acing
ï¼Įè¿ĺ åı¯ä»¥
åıĸ åĨ³
åĤ¨ èĥ½
ä¸į åıĹ
Ġsatisfact ion
Ġrob ots
Ġom ega
Ġdis par
ĠC ertain
è¾ĥ å¥½
è§Ĩ è§Ĵ
çļĦä¸Ģ å¹´
ç¥ ¸
åĬł æ²¹
he ll
ex ts
-h our
Ġtest im
Ġscat tered
Ġmar gin
Ġl ighter
Ġfe es
Ġcompet e
èį §
æ» ¥
åĳ Ĩ
åĭĩ äºİ
åĪ© æģ¯
ä¸į ä½İäºİ
uls es
forest ation
Ġg el
Ġd ictionary
Ġcontract s
ĠUt ah
ĠTer rit
ĠSer ies
ĠPart icip
ĠAff airs
ï¼Į éļıåĲİ
ï¼Į åĪĽæĸ°
èĨ¨ èĥĢ
y ers
Ġstay ing
Ġgast ro
Ġcast le
ĠS O
ĠFrank lin
ç»Ī èº«
æĦŁ åħ´è¶£
åĬĽ åŃ¦
å°± ä¸į
ä¹Ĳ è¶£
Ġindu ced
Ġent ers
ĠTe am
ĠMon itor
éĥ¨éĹ¨ çļĦ
çĲ ¼
æľĢ æĸ°çļĦ
æĦıè¯Ĩ åĪ°
åŀĭ ä¼ģä¸ļ
å¸Ĥ åĢ¼
ä¸ª äººçļĦ
Ġlegisl ative
ĠC opyright
ï¼Į çĶŁæ´»
éĻį æ°´
ç»Ī æŃ¢
æļ´ éľ²
ãĢĤ ä¸ī
od ge
F O
Ġwin ning
Ġslow er
Ġpresident ial
Ġeffic acy
Ġbrill iant
ĠP ap
ĠMal ays
ç¼ĸ çłģ
æķĻ ä¼ļ
æ¿Ģ åĬ¨
æ¶ ¤
åįĬ åľº
å¹¸ è¿Ĳ
å°Ĩ æĿ¥
ä¹¦ åĨĻ
ä¸Ģ æ¬¾
ff icking
Th us
Ġless er
Ġdiscuss es
Ġcar cin
ĠCast le
éĹ¨ æ§Ľ
æ£Ģå¯Ł éĻ¢
åįłåľ° éĿ¢ç§¯
å·¥ä½ľ ç»ıéªĮ
u ly
ar p
Ġt ender
Ġjour nals
Ġint act
Ġco ating
Ġb inary
ĠEffect s
ĠB ody
ï¼Į äº¤éĢļ
éĢ¾ æľŁ
é¢ĨåħĪ çļĦ
èµ° è®¿
çļĦåīį æıĲ
çļĦ æ¯Ķä¾ĭ
ç´«å¤ĸ çº¿
æĦ ģ
åĴĮ çĶŁæ´»
åİĭç¼© æľº
ph a
5 50
Ġpush ing
Ġbrief ly
Ġal b
çļĩ å®¶
çĵ £
æľī æĹ¶
æ³ ¼
åŀ ¢
å¸Ĥ çº§
qu in
f ol
CE O
ĠTr ump
ĠCons erv
ĠB esides
éĢļ è¡Į
ä½ĵ éĩį
s ub
GB T
Ġt ale
Ġstrength s
Ġlo ads
ĠAr gent
ï¼Į åĬ©åĬĽ
éĢł çº¸
æĹĹ èĪ°
åħ¨åĽ½ åĲĦåľ°
ä¸įæĸŃ åľ°
n atural
isc al
Ġvolunt ary
Ġte ch
Ġpl aque
Ġenthus i
Ġbank ing
ĠI C
ï¼Įåıª èĥ½
çĤ¹ è¯Ħ
åĽ° å¢ĥ
å®¶ å±ŀ
ä»ĵ åºĵ
lic t
am ents
Ġworld s
Ġcere mon
ĠKen ya
ï¼ĮæľĢ å¤§
ï¼Į è½¦
é© ³
ä¼ļ å¯¼èĩ´
ä¹ĭ å¿ĥ
eren n
B et
Ġsome how
Ġmag ic
ĠSt aff
ĠG ospel
ï¼Ľ äºĮæĺ¯
ï¼Į ç¬¦åĲĪ
éĿĻ çĶµ
èĢģ åĮĸ
çĭ Ĳ
ç§ĳæĬĢ å¤§åŃ¦
åıĳå±ķ è§ĦåĪĴ
os ures
it ives
P ar
Ġbiom ass
ï¼Įä¹Ł è®¸
åŃ¦ä¹ł çļĦ
åįİ äºº
ä¸Ĭ åİ»
ä¸ª å°ıæĹ¶
ãĢĤ ä»Ĭå¤©
Ġrequ ests
Ġflo ating
Ġexpl os
Ġdat as
Ġcomb ining
Ġcol ours
Ġb ore
æľĢ å¤ļçļĦ
æĬĢæľ¯ ä¸İ
åıĸåĨ³ äºİ
åĨĽ äºº
ä»ħ ä¸º
ä¸º ä¸»è¦ģ
Ġt ies
Ġpro state
Ġchalleng ed
Ġcalc ulation
ĠProp het
ĠN C
ĠE val
um a
A ug
Ġundert aken
Ġnegot iations
Ġinter rupt
Ġc her
åĴĮ åĽ½å®¶
åĬ¨ èĦī
å® °
ãĢģ åĨľä¸ļ
s or
d es
6 50
Ġsp ite
Ġobserv ing
Ġd ign
Ġc ups
Ġang les
ĠP ast
ĠB oy
ï¼Įåħ¶ä¸Ń åĮħæĭ¬
ï¼Į è¿ĩ
éħĴåºĹ çļĦ
iz oph
Ġd ated
Ġautom atic
ĠSat urn
æĿĥ åĬĽ
æĺ¨ æĹ¥
æ°´ çĶµ
ä½Ļ åĲį
Ġra ises
Ġec ology
Ġcirc uits
Ġautom ated
Ġaut umn
åĩº åħ·
p age
ke ley
ar ation
- al
Ġterm in
Ġs emic
Ġpig s
Ġmod ules
Ġbas ket
ĠW y
ĠV I
ĠInd ependence
ï¼Į æ¯ķç«Ł
ï¼Į åıĤä¸İ
è¯ķ åīĤ
ç©¿ çĿĢ
æĢĢ çĸĳ
åĽŀ åįĩ
åıĤ çħ§
åĩ ĳ
-m on
Ġut er
Ġsh ifts
Ġprom otion
Ġnum b
Ġhead ache
Ġelimin ated
ĠR a
æĪĳ çľģ
åľ¨ å¤§
åĩ½ æķ°
åħĥ çļĦ
äº² åŃĲ
form ing
ers hip
ater n
O ct
14 2
. W
Ġg er
Ġemer gence
Ġdigest ion
Ġcomple ting
Ġapprec iation
ĠN ig
ĠG il
ĠF at
ĠBe ach
ï¼Į è¿ĳå¹´æĿ¥
ï¼Į ä¿Ŀ
ç¡ķå£« åŃ¦ä½į
åĲĦé¡¹ å·¥ä½ľ
åĩº åľº
åµ Į
ãĢĤ å°ı
let al
klah oma
ced ented
Ġillust rations
Ġde emed
ĠBen jamin
éĩĩçĶ¨ äºĨ
åĮ» åŃ¦éĻ¢
å ļ
op ing
he nd
- one
Ġwere n
Ġtravel s
Ġth rown
Ġcontrovers y
Ġanaly zing
Ġadvoc ate
ï¼Į å¤Ħ
è´Ł éĿ¢
çļĦä¸Ģ é¡¹
å°Ĩ ä¸º
ä¹Ŀ é¾Ļ
Ġpoison ing
Ġmill enn
Ġlabel ed
Ġjurisd iction
Ġh ate
ĠPolit ical
éĽĦ åİļ
é»Ħ èī²
èµĦ æ·±
æŀģ åħ¶
æĳĨ èĦ±
ä¸Ģ éĥ¨åĪĨ
ä¸º ä¸Ģä½ĵ
ãĢģ æĸĩ
ãĢģ äºĶ
plic it
ok es
Ġp oultry
Ġinter val
Ġext ending
Ġbow el
ĠR ain
ĠMem orial
èĢģå¸Ī çļĦ
è¶ħå£° æ³¢
æķ°æį® çļĦ
å®¡ çĲĨ
ä»» æĦı
I O
E arly
C or
Am ong
/ l
Ġman kind
ĠTe acher
ĠRel ations
ĠK ings
å®¶ çĶ¨
ãĢģ ä¸º
ow ed
N O
Ġexplan ations
Ġenter prise
Ġar tery
ĠS C
ĠPl ants
ĠC ert
ï¼Į äºĶ
éħ ®
èĨ ı
æį ī
æ°ĳ æĶ¿
æ® ·
åĳ¨ æľ«
åĲĮ æł·çļĦ
Ġtr ies
éľ ľ
è§ĦèĮĥ åĮĸ
ç»ıæµİç¤¾ä¼ļ åıĳå±ķ
æ¸´ æľĽ
ãĢģ èīºæľ¯
ãĢģ æ¸ħ
z ens
w all
is l
Ġcare ers
Ġcann ab
ĠW rite
ï¼Įè®© äºº
ï¼Į èĩ³
ç¼ĸ åı·
æ´Ľ æĿī
åŃ¦ è´¹
åł ¤
åı· åı¬
å·² è¢«
ä½į åĪĹ
an th
C ommon
-b l
- ad
Ġwe eds
Ġwaters hed
Ġbel t
ĠIntellig ence
éķ¿ å®ī
èĢĮ å·²
ç¥¨ æĪ¿
äºĨ èĩªå·±çļĦ
ä¸Ģ äºº
we alth
ul ative
V A
Ġinterm ediate
ĠStan ford
ï¼Į æĹ¨åľ¨
éļı æĦı
çº§ åĪ«
äº§ çī©
u ana
S ym
M r
Bl ack
Ġtrig gers
Ġtri ps
Ġperm its
Ġneurolog ical
Ġfather s
Ġex em
Ġelev ation
Ġcrow d
Ġar sen
ï¼Įæĺ¯ ä¸ŃåĽ½
éĽķ å¡ĳ
èĤ² äºº
çĿ£ å¯¼
åĽŀ èĲ½
å®ļ ä»·
Sp ec
/ b
-indu ced
Ġfoot print
Ġdiscipl ines
Ġbill ions
Ġart ic
ĠCol lection
ĠB road
ï¼Įè¿Ļ æ¬¡
ï¼ĮæĪĸ è®¸
ï¼ĮæĪĳ æł¡
èĪ Ĩ
æ© Ļ
å®¢ åľº
p o
== ==
Ġrow s
Ġforg otten
Ġdis in
ï¼ Ķ
éĹ ·
çļĦæľĢ æĸ°
æ´ĽæĿī çŁ¶
uber cul
tt es
ros ion
ing ham
co in
Ġwh ites
Ġw ounded
Ġlegit imate
Ġgl ory
Ġcl osing
Ġartif acts
ĠT al
ĠHealth y
ï¼ĮåħħåĪĨ åıĳæĮ¥
ï¼Į ä¸ĵä¸ļ
è¿Ŀæ³ķ è¡Įä¸º
æĸĩåĮĸ æĹħæ¸¸
åħ¥ åĽ´
av ed
Ġunp re
Ġlack ing
Ġj un
Ġfunction ality
ï¼Į æĺİ
é¥² æĸĻ
è¯ķ ç®¡
æ¸ Ĭ
åĽ½å®¶ éĺŁ
m atic
izoph ren
hem atic
Ġpharm aceutical
Ġco ins
ĠB all
èĴ ĭ
èı² å¾ĭ
æĹ¶ æľº
ä»İ å°ı
ä»£è¡¨ çļĦ
âĢķ âĢķ
Ù Ĩ
Ġle ts
Ġatt ending
ĠSp e
ĠC omb
èı²å¾ĭ å®¾
å®¢ è½¦
ä¸Ń çº§
ãĢĤ å¹¶
v as
- cell
Ġun healthy
Ġsimilar ly
Ġsimilar ities
Ġr ating
Ġact ors
ĠU C
ĠMathemat ics
ĠH ans
ï¼Į åĲĦç§į
éĽĨåĽ¢ çļĦ
çĶŁ æĹ¥
çĥŃ çĤ¹
åĽ½å®¶ æłĩåĩĨ
åķ¤ éħĴ
å½¢ å®¹
å·²ç»ı åľ¨
å« ģ
on duct
Ġy oga
Ġpref erence
Ġg lands
Ġflu ctu
Ġacqu isition
ĠH un
éĹ ¯
çĸ«æĥħ å½±åĵį
åĴĮ é«ĺ
åıĭ è°Ĭ
åħī æĺİ
å¾® éĩı
ãĢĤ è¿ĳ
ound ing
es ar
Ġter rible
Ġp iano
Ġoff set
Ġnot ably
Ġconcent rate
Ġalt itude
ĠV erm
ĠP ict
ĠC e
éĴ¢ æĿ¿
æ¯« æĹł
å°ı å¿ĥ
om ics
id el
ant e
Ġimpl ant
ĠH ind
ĠF acts
é«ĺçŃī åŃ¦æł¡
è®© ä»ĸ
æľ¬ ç½ĳç«Ļ
æĢ§ ä»·æ¯Ķ
æ°Ķ çļĦ
åŁº å»º
å¿½ çķ¥
äº¤ å¾Ģ
ä¹ĭ ä¸º
ar ms
/ her
Ġworks hops
Ġradio active
Ġmicro bi
Ġm ines
Ġcust oms
è¯ ł
æı´ åĬ©
ä¸į æĩĪ
× Ļ
ur rection
l ades
h ot
Ġpar ish
Ġnav igation
Ġim bal
ĠAr men
Ġ æĪĳä»¬
ï¼Įä¸Ģ åĪĩ
åĲĪä½ľ ç¤¾
åĩ ¶
ä¸Ń æīĢ
un es
il ton
elt a
ad i
Ġstruct ured
Ġrememb ered
Ġpurch asing
Ġpoint ing
Ġge ographical
ĠPub lishing
ï¼Į æıĲåĩº
åĽ½éĻħ æľºåľº
å¾Ĺ çŁ¥
ä¸º æľŁ
k ay
ad ays
Ġpredict ions
Ġdes irable
Ġcont exts
Ġbreat he
Ġaff irm
Ġactiv ists
ĠM aine
éļĲ ç§ģ
èĩªçĦ¶ çļĦ
æŁĲ ä¸ª
åĲĳ ä¸Ĭ
åįļ ä¼ļ
å°Ĩ åĨĽ
å®¶ åĽŃ
ol ia
f eeding
- use
Ġvari ability
Ġsurviv ors
ï¼Į å®Įåħ¨
è¯ķ çĶ¨
çĲĥ åľº
æľª æĪĲå¹´
æ¶ ¡
ä¼ļ å½±åĵį
ä»Ģä¹Ī æł·çļĦ
ä»¥ä¸ĭ çļĦ
ig ion
ash ing
H R
-------- --------
Ġrail way
Ġmod ify
Ġmod est
ĠPark inson
ĠMar x
ĠM IT
éĺ» æŃ¢
ç» ¸
ç§ĳåŃ¦ çļĦ
åįĥ å¹´
åį ī
ig s
id th
Ġse ats
Ġpract icing
Ġge ography
ĠO R
çħ İ
p he
itzer land
at ab
Ġtun nel
Ġsure ly
Ġrail road
Ġg ross
ĠS ustainable
ĠKent ucky
éĴ¢ çĲ´
åĬŁ å¾·
ä¸ĭ ä¸Ģ
ãĢģ è¡ĮæĶ¿
â Ĥ¬
ffic iency
b ird
S upp
D ec
Ġtit led
Ġprob e
Ġm ant
Ġextens ively
ĠR enaissance
ĠNob el
åħįçĸ« åĬĽ
å¢ŀåĢ¼ ç¨İ
ä¸¤ åĽ½
old s
oc ene
ch i
- ass
Ġtw entieth
Ġm elt
Ġjud ges
Ġdepend ence
Ġdemon stration
Ġcreat ure
Ġattach ment
ĠAr k
æĿĢ èıĮ
æĸ ¥
æİĴ åºı
æĦ ¤
åıĳ çĥŃ
ä¼łæŁĵ çĹħ
ä¸İ åħ¶
vers ion
Ġup set
Ġfrag ments
Ġbit ter
ĠD ick
ï¼ĮéĤ£ å°±æĺ¯
ï¼Įè¿ĺ èĥ½
è¿Ļ ä»½
ä½ľ æĪĺ
ä¼ ŀ
Ø ±
light en
Ġun ions
Ġfund ament
Ġfear s
Ġexclus ive
Ġcert ification
Ġa esthetic
ĠSt ock
ĠS D
ĠIsrael i
ï¼Įä¸ĭ éĿ¢
éĦ Ĥ
çĽ¸åĲĮ çļĦ
åŃ¦ å£«
åĪĨ è¾¨
âĢĿ æľŁéĹ´
ur ring
un ct
t ically
l ong
Ġrele ases
Ġagree ments
ĠP ediatric
ĠB ah
èĩ³ åħ³
åİŁ åŃĲ
å·® åĪ«
ãĢģ çĪ±
ut ers
Ġse af
Ġl enses
Ġdatab ases
ĠUs ually
ĠLouis iana
ç¿ ģ
æĢ ĸ
åº ¸
ä¸ªæĢ§ åĮĸ
op or
all ing
Ġstri p
Ġo ak
ĠL ie
ï¼Į å¹³
è°Ī åĪ¤
ç¤¾ä¼ļ åĲĦçķĮ
æĸ¹ åı¯
ãĢģ çĶµåĬĽ
ion ed
en z
ect or
Ġoper ates
ĠG ame
è£ħ ç®±
å°Ĩ å¯¹
ä¸į äºĪ
ur u
im ity
Ġperce ive
Ġdyn asty
Ġdes per
Ġadvoc ates
ĠH ad
ĠA le
ï¼Įä¸Ģ æĸ¹éĿ¢
çĪ±å¥½ èĢħ
æĬ ĸ
åĨħ åĪĨæ³Į
åħ¬ é¡·
F ood
Ġveter in
Ġpart ition
Ġobst acles
Ġmen stru
Ġcar rier
Ġbow l
ĠO d
ï¼Į å·¥ä¸ļ
é£İ éĽ¨
æĿ¿ æĿĲ
æĸ¯ ç§ĳ
æī ģ
åıĤ ä¼ļ
å®¾ é¦Ĩ
ar on
ag us
S ign
Ġtra p
Ġlong est
Ġge ometry
Ġcoll aps
Ġbe er
Ġban ned
ĠI owa
è¶ħè¿ĩ äºĨ
æ¼Ķ èīº
åĸľæ¬¢ çļĦ
äºĨ ä¸ĢäºĽ
amm a
14 6
Ġsu ited
Ġplace ment
Ġalt ogether
ĠA ward
èĲ¥ è¿Ĳ
è®¤ä¸º æĺ¯
è¥¿ åħ°
ç³ Ł
æŀ ¯
åī¯ æĢ»ç»ıçĲĨ
ä¸İ åıĳå±ķ
Im age
Ġre vel
Ġle an
Ġch ips
ĠB or
ï¼Įå¤§ éĥ¨åĪĨ
éĻª ä¼´
æĺ¥ åŃ£
organ isms
M W
K ey
Ġstay ed
Ġa ids
ĠPop ulation
çĪ± ä½ł
å¸ ĸ
å®ģ å¸Ĥ
Ġse gments
Ġr um
Ġmosquit oes
Ġext inct
Ġb iblical
ï¼Į æŀĦå»º
éļĶ çĥŃ
éĩı ä¸º
éħ ļ
å°ı ç¨ĭåºı
Ġwor ms
Ġsc rew
Ġprecip itation
Ġinput s
Ġad min
ĠVis ual
ĠUn iverse
ĠP ersonal
ĠAl ban
éľĢæ±Ĥ çļĦ
èĩªçĦ¶ èµĦæºĲ
è¾¹ çļĦ
ç»Łè®¡ å±Ģ
ç²ī æľ«
å¤ ·
âĢľ å¤©
Ù İ
v ised
sc reen
oth s
ien cies
d am
am bo
" I
Ġunpre cedented
Ġint rig
ĠAll en
éĵ ĥ
èĮ Ħ
çī ¡
est inal
Ġret ained
Ġpl astics
Ġident ifies
Ġcra fts
Ġcompris ed
Ġaccommod ate
é¢Ĩ åĨĽ
èĤ ļ
è½¬åĮĸ ä¸º
çļĦ åĬĽéĩı
ç²¾ ç¡®
æĸ° äº§åĵģ
åĵĪå°Ķ æ»¨
åĪ ®
ãĢĤ [
y stem
ot hel
Ġstr ings
Ġmob il
Ġgas oline
Ġassess ing
ĠIm age
ĠCol lect
ï¼ī ãĢĭ
éķ¿ è¿ľ
æľ¬ å±Ĭ
åĽºå®ļ èµĦäº§
r ator
Ġwar rant
Ġtru ck
Ġtra ins
Ġg ay
èĵ¬ åĭĥ
è½ ¿
çļĦ æīĭ
çĹ ´
æ°ĳ åĬŀ
æ¡ Ĳ
åįĩ é«ĺ
åĪĿ çº§
å·¥ ä¿¡
Ġtherap ist
Ġsn akes
Ġse as
Ġnegative ly
Ġins ulation
Ġdiv isions
Ġdis se
Ġdeploy ed
ï¼Į éĢĲæŃ¥
æĪ¿ ä»·
åŁ Ķ
åĴĮ ä¼ģä¸ļ
åįļå£« åŃ¦ä½į
ru bs
S ometimes
Ġsym p
Ġe ternal
Ġcount ing
Ġcontin ually
ĠR os
çº¿ æĿ¡
çº¦ æĿŁ
æĺ¯ å¦Ĥä½ķ
æ¾³ æ´²
åĵģ çļĦ
å¿ĥçĲĨ åŃ¦
å¸¸ è¯Ĩ
ä¹Ł è¢«
op athy
Ġpresent ing
Ġn ausea
Ġm ul
Ġinf l
Ġin ability
Ġimpact ed
Ġcurrent s
ĠUp d
åĿĩ æľī
åį´ æĺ¯
å° ¸
u ate
h igh
Ġsens ation
Ġleg ally
Ġgu ilty
Ġass ass
ĠLiter ature
ĠD ak
çĻ½çĻľé£İ åĮ»éĻ¢
çĳ Ł
æ¿Ģ çĥĪçļĦ
åĿĩ è¡¡
å°± è¯»
ul ent
k h
V C
Ġdiss olved
ĠRes ource
ĠPlan ning
ĠCom mer
ï¼Į æŃ£åľ¨
èĶ ĵ
çľĭ ä¼¼
çī© ä½ĵ
åĪĨ å·¥
åĢ¾ åĲĳ
e ering
Ġstri kes
Ġsepar ately
Ġinadequ ate
Ġbl ame
æł ĵ
å¹¶ è´Ń
å¤ĦçĲĨ åĻ¨
for ward
est het
ard o
Ġwat ched
Ġrev ised
Ġrec ru
Ġpries ts
Ġind o
Ġentertain ment
Ġdisapp eared
ĠR oss
ï¼Į ä¹ĭåĲİ
æĳĺ è¦ģ
æµ ĳ
ãĢĤ äºİæĺ¯
ãĢģ çĶŁæĢģ
rad es
ER S
Ġrein force
Ġrab b
Ġload ed
Ġe cl
Ġan ts
ĠC hen
ĠAll iance
éģį å¸ĥ
æ²¿ çº¿
åºĶçĶ¨ ç¨ĭåºı
å®īåħ¨ æĢ§
ãĢĤ åĲİæĿ¥
uss ian
c al
Ph oto
-res istant
Ġrul er
Ġrecept or
Ġnetwork ing
Ġdys function
éĩį çĹĩ
é½¿ è½®
é«ĺ åħ´
æ¼« çĶ»
æ°¨ åŁº
åĲį ä¹ī
åĢĻ éĢī
ãĢĤ åĪ°
ast ed
arc hes
Y et
Ġuncle ar
Ġpe as
Ġblock ed
çĹħ åıĺ
æ¤ İ
åĳ½ ä¸Ń
åĲ¯ åıĳ
åıĳ éħµ
ãĢģ ãĢĬ
âĢĿ ä¸İ
osc ow
ed ed
Ad d
Ġsaf egu
Ġhighlight ed
ï¼Į æĬĢæľ¯
èµļ éĴ±
çľ¼ åīį
åĳ¼ åĲģ
åĬŀäºĭ å¤Ħ
åī¯ ä¼ļéķ¿
W S
Ġinterf ere
Ġexam s
Ġastron omers
è¶³ ä»¥
æµģ ä¼ł
ä»¥ æĿ¥çļĦ
ãĢģ æĺĵ
Ġtack le
Ġdisc iples
èĲ į
æľĭåıĭ ä»¬
æİ¥ ç§į
åİŁ æ²¹
å·¥ç¨ĭ åŃ¦éĻ¢
ol ith
ert o
-est eem
Ġsat urated
Ġqu een
Ġfoss ils
Ġb icy
ĠTh ings
ĠS outheast
ĠDe b
ĠBl ock
çĽ®åīį çļĦ
ç½ ¢
çª ĥ
å·² åľ¨
on ge
ill es
D isc
Ġtr illion
Ġqu ot
Ġpl ural
ĠCommun ist
æĮģ èĤ¡
åŃĺ æ¬¾
åŀĭ çļĦ
åķĨ è´¸
åĲį äºº
åįļå£« åĲİ
å®Ī æĬ¤
ä¸Ń å¤ĸ
ä¸Ģ è¾¹
pe aking
Ġnav al
Ġl uck
ĠSc i
ĠIn nov
èį£èªī ç§°åı·
è¯ł éĩĬ
æŃ£ å½ĵ
æ°ĳèĲ¥ ä¼ģä¸ļ
åĻ¨ å®ĺ
åĲĪä½ľ çļĦ
ä¸İ æŃ¤åĲĮæĹ¶
ãĢĤ æĿİ
ur as
pl ane
m outh
ik h
ceed ings
-m in
Ġsh o
Ġsc reens
Ġden y
Ġdel ight
ĠW inter
ĠD u
ï¼Įåıį èĢĮ
èĤ łéģĵ
çŁ¥è¯Ĩ åĴĮ
æĪĲç«ĭ ä»¥æĿ¥
åŃµ åĮĸ
åĳ¨ ä¸Ģ
åĨħå®¹ çļĦ
å°ĳ å¥³
Ġrel ies
Ġlingu istic
Ġcryst als
Ġchem otherapy
ĠIniti ative
æĹ© æĹ¥
æ² §
ä¸ĵ çº¿
ult ural
- com
Ġr anks
Ġpron ounced
Ġphot ography
ĠTe le
è¿Ľ äºĨ
çĽ´ å¾Ħ
å®ŀæĸ½ æĸ¹æ¡Ī
å¤´ éĥ¨
ä¸į åĩº
ens ing
A G
.n et
+ +
Ġpure ly
Ġmod es
Ġed iting
ĠP erson
ĠO w
Ġ è¿Ļ
èº ģ
è£ģ åĪ¤
çĤ¹ åİ»
æł½ åŁ¹
æİ§åĪ¶ ç³»ç»Ł
äºī å¤º
ä¸įä»ħ æĺ¯
ut ri
. (
Ġv oy
Ġv ocal
Ġinsp ection
Ġco in
Ġatt ribute
Ġarrange ments
ĠUS DA
ĠAl cohol
ç»ıæµİ æķĪçĽĬ
æħ ¨
ä»·åĢ¼ çļĦ
ze ch
v ity
lu x
ad ows
Wh ich
Ġr ival
Ġb apt
ĠMc G
ĠDe ep
é²ģ è¿ħ
èµĦæł¼ èĢĥè¯ķ
èµ·éĩį æľº
ç©¿ è¶Ĭ
æ´½ è°Ī
æ¢³ çĲĨ
åŃ¦çĶŁ åľ¨
ãĢĤ æĮīçħ§
mon ary
Ġins ufficient
Ġearthqu akes
Ġbul bs
Ġachieve ments
ĠAccess ed
ĠA y
ï¼Į ç«ĭ
èĢĥ è¯ģ
çĶ¨æĪ· æıĲä¾Ľ
æĬ¥ ä»·
åħ¸ èĮĥ
re a
Ch apter
- risk
Ġwalk ed
Ġill um
ï¼Ł âĢĿĊ
æĹł éľĢ
æīĵ ç®Ĺ
æ¼Ķ ç»İ
åĻ¨ æĿĲ
åĬ³åĬ¨ åĬĽ
ãĢģ æ°Ķ
or rh
h as
S everal
B en
Ġmit ochond
Ġmark er
Ġconsult ation
ĠSing apore
ï¿½ ï¿½
è·Ł çĿĢ
çł´ äº§
æŀ «
æĴ ¼
ä¹ Ĵ
Ġwithdraw al
Ġstim ulation
Ġlandsc apes
Ġev olve
ĠS yn
ĠC redit
ĠA T
ï¼Į å±±
çĽĳ äºĭ
çļĦ æĤ£èĢħ
ç¤¼ çī©
æģĲ æĢĸ
å¼º åĽ½
ä¸» æľº
ãĢģ æ³ķè§Ħ
Ġtrans it
Ġles ions
Ġdial ect
Ġb on
ĠVir t
ĠT ogether
ĠP ra
çĮ ´
çĥŃ çº¿
æĸ½ è¡Į
æĶ¿ åįı
ä¾Ŀ æ¬¡
ä¸º ä¸ŃåĽ½
ul se
sel s
reg n
T op
Ġtut orial
Ġstrict ly
Ġf ool
Ġd ump
ĠS ant
ĠJ ordan
ĠAl ways
ĠAgricult ural
è§ģ çļĦ
è¡Į ç¨ĭ
çŁ¥ çļĦ
çīĽ å¥¶
æĸ¯ åį¡
åīį è¡Į
am ous
Ġdu ct
ï¼Įåħ¶ ä½Ļ
éķ¿ åº¦
èĲ½ æĪ·
çĶŁ æķĪ
æĪĳ æĥ³
åĸ Ĥ
åĴĮ åįİ
åĲĪéĢĤ çļĦ
h ave
F acebook
Ġmix ing
Ġinterf erence
ĠC hemistry
é«ĺ ç§ĳæĬĢ
é¥± åĴĮ
è¡ĮæĶ¿ å¤Ħç½ļ
ç¼ ł
åį« è§Ĩ
äº¤ äºĴ
sec ond
iet al
Ġpat ches
Ġinteg rate
Ġind ivid
Ġfung i
Ġexplo itation
Ġdraw s
Ġcon form
Ġappl iances
ĠSim on
ĠR ap
éģŃ åĪ°
çī º
æĿĥ çļĦ
å¤ª ç©º
å¢ ħ
ä¸Ĭ çľĭ
ry ption
on omy
et ry
J une
Ġsub strate
Ġj ack
ĠS i
ĠG i
ï¼Į çİ°åľº
èĬĤèĥ½ çİ¯ä¿Ŀ
èĬ± è´¹
æł¡ ä¼ģ
æĸ ©
om ething
H er
Ġval ued
Ġtrans cript
Ġpref erences
Ġconstit u
ĠSoft ware
ĠArch ae
ï¼Į çĿĢåĬĽ
çĶµ è§£
ell ar
H C
G ood
Ġreb ell
Ġinsp ire
Ġf its
Ġcert ified
Ġcar ing
ĠF ile
ï¼Į è¿ŀç»Ń
éĵ¶ è¡Įä¸ļ
é¢Ħ æ¡Ī
èĩŃ æ°§
çłĶè®¨ ä¼ļ
æĹħæ¸¸ æĻ¯åĮº
æĶ¾ å°Ħ
m ic
In stit
H el
-w orld
Ġreal m
Ġparam eter
Ġcru el
Ġbreak down
ĠYou th
ĠP it
çĥŃ éĩı
æĢ» çĲĨ
åħ± è¯Ĩ
å®¶ åºĦ
ãĢģ åıĳå±ķ
we ek
uc ks
ir ie
Ġwast ewater
Ġunder m
Ġinfin ite
ĠO klahoma
ĠCon n
çĽĬ äºİ
çĶ¨ å¿ĥ
å¯¹ æĬĹ
äºĮ æīĭ
A ir
Ġkn ock
Ġconcept ual
ĠSw itzerland
ĠNew ton
ĠMuh ammad
ĠG as
ĠB BC
æĥ Ł
åĶ¯ä¸Ģ çļĦ
åī ĸ
å¼¥ éĻĢ
ne e
D i
Ġto dd
Ġstr at
Ġs ake
Ġo ct
Ġhypert ension
Ġcrit ically
ĠAl f
çīº çī²
ç¤¾ ä¿Ŀ
æĻº åĬĽ
æĹ¥å¸¸ çĶŁæ´»ä¸Ń
åĲĦ æĸ¹
åħļåĳĺ å¹²éĥ¨
ä¸Ń æĸ°
w ind
g ic
crib ed
Ġw ires
Ġtoxic ity
Ġcrit ics
Ġcoord inate
ĠV ien
ĠT our
ĠSum mer
åħĪ è¡Į
å¢ŀ å¤§
ä¸Ģ åįĬ
ä¸»æĮģ äºº
v o
Ġlik es
Ġjo ining
Ġinvestig ations
ĠProtest ant
ĠC E
çĹ Ĵ
æĺ¥ ç§ĭ
å¾Ĵ åĪĳ
äººæ°ĳ åĮ»éĻ¢
ãĢĤ åħ¨
Ġshoot ing
Ġch at
ĠRad io
ĠPhilos ophy
ĠN GO
æł ĸ
æĸ° ä¸Ģä»£
æĢ» åĨ³èµĽ
ul iar
ob b
ient ed
Ġpan ic
Ġextract ed
Ġdelay ed
Ġc ous
ĠImp ro
ĠHispan ic
ï¼ĮæĹł æ³ķ
çļĦ åı¯
åĬłå¼º å¯¹
ãĢģçĽ´ è¾ĸå¸Ĥ
âĢĿ ä¸»é¢ĺ
t an
Ġs ink
Ġl ux
Ġen erg
ĠB ishop
ç±³ åħ°
æĮĩ å¼ķ
æµ· æĭĶ
åĲĦ éĥ¨éĹ¨
ãĢĤ åıªæľī
Ġtrig gered
Ġselect ing
Ġscar ce
Ġref ined
Ġprem ature
Ġoccas ions
Ġantioxid ant
ĠV ideo
ĠU pper
ĠM un
é¦ĸ ä½į
è¥ Ħ
æĺ¾ç¤º å±ı
åľ¨ æİ¥åıĹ
åĵ Ģ
ãĢĤåľ¨ æŃ¤
ãĢģ ç»¿èī²
Ġwar fare
Ġthreat ening
Ġregist ration
Ġcent res
ĠL uke
ï¼Ī äºĶ
çļĦ éĥ¨åĪĨ
ç®¡çĲĨ åĪ¶åº¦
ç¡¬ åĮĸ
åĵ ¦
åĳ½ ä»¤
å®¶ åħ¬åı¸
mar ks
NA SA
AT E
Ġlit ter
Ġatt raction
ĠSc he
ĠN eb
åĩı åħį
åĢŁ æ¬¾
ä¸į ç¡®å®ļ
it ches
Ġpass ages
Ġinv isible
ĠW as
ĠVen us
ĠH art
æľī æ²¡æľī
æģ¶ æĢ§
æĢİ æł·çļĦ
åŃķ å¦ĩ
å®ģ å¤ı
ãĢģ æľ¬
opor osis
ene z
com a
Ġvulner ability
Ġt ears
ĠV eter
ĠS ri
çļĦ çĬ¶æĢģ
çļĦ å»ºçŃĳ
ç»Ĩ åĪĨ
å®¡ åĪ¤
ãĢģ B
unc iation
rox imately
red ict
ier ce
P res
-t ra
Ġth umb
ĠRef erence
ï¼Į å®ŀæĸ½
ç¤¾ä¼ļ ä¿Ŀéļľ
æĳ© æīĺ
åĴĮ ä¸Ń
åĪ¶ çº¦
ä¸» å¼ł
we ed
ocy tes
Un fortunately
-t ype
Ġmyth s
ĠImp act
ï¼Į ä½ķ
è¡Ķ æİ¥
æĸ° æĿĲæĸĻ
æ¦ľ åįķ
å¸Ĥåľº ä»½é¢Ŀ
ä¸ª åĽ½å®¶
cer y
ar ity
D T
Ġneg lect
Ġmon etary
Ġmel ting
Ġconf ined
Ġbeh ave
ĠS ong
ĠNe v
ĠBi ological
ï¼Įä¸º ä»Ģä¹Ī
éĽĨ èģļ
çļĦ åħ·ä½ĵ
çĸĹ æķĪ
ç¬¦ åı·
æĸ° é«ĺ
æĳĦ åħ¥
æı ½
åĮº åĪĨ
ä»£è¡¨ å¤§ä¼ļ
ä¸Ģ åŃ£åº¦
Eng lish
Ġto ll
Ġol ive
Ġinf rared
Ġfirst name
Ġb ridges
ĠConfed erate
ï¼Į èº«
éĹ´ æİ¥
æĿ¥çľĭ çľĭ
æĬ¥ éĢģ
åĩł ç§į
ven ile
or ical
St art
Ġpet roleum
Ġcav ity
éĻĮ çĶŁ
è° Ń
æĦŁ åĴĮ
ãĢģ éĻĪ
sc ill
g ood
N T
Ġpack ed
Ġfeather s
Ġex ert
Ġcar p
ĠM agn
ĠB ed
ï¼Įä¸į ä½Ĩ
è¿½ æº¯
å»ī æĶ¿
å¡ Į
e u
Ġsystem ic
Ġstandard ized
Ġsec ured
Ġl iability
Ġconcept ion
ĠMean while
ĠL ive
ĠDep ending
ĠC ro
ï¼ ĸ
çĶŁæĢģ æĸĩæĺİ
åľ°æĸ¹ æĶ¿åºľ
åĳĺå·¥ çļĦ
å¹´ è¢«
å´ ĸ
ä¸Ģ æĹ¥
lud e
av y
Ġtra pped
Ġhepat itis
Ġdow nt
ĠPlan et
ĠP il
ï¼Į ä¿ĿæĬ¤
æ¸ ł
ä¸į åĲĪæł¼
ä¸Ģ ä»¶
mm a
izophren ia
Ġrecogn ised
Ġgraph ics
Ġcomp ression
ĠV ery
ĠOtt oman
ĠCo al
ĠBang lades
éĤ£ ç§į
é²ľ æĺİ
è¿ĩ åĲİ
è§ģ éĿ¢
çłĶç©¶ äººåĳĺ
çħ¤ çŁ¿
æĮ ª
ãĢģ åħ·æľī
ãĢģ ä¸Ĭ
imm une
Ġsynt hes
Ġsan ct
Ġret reat
Ġb ike
ĠTra vel
ĠReg ional
çĲĨ æĢ§
åį ¿
å±±è¥¿ çľģ
ä¼ĺ éĽħ
ãĢĤ æĪĳåĽ½
ãĢģ åĨľ
e ur
Ġret ention
Ġfram es
Ġfl ame
ĠPh arm
ĠPer u
ĠF em
ï¼ ĺ
åĬł å·ŀ
åĪĴ åĪĨ
å¹³åı° çļĦ
ä½ĵ æ¸©
lement ary
RO M
Ġf ired
ĠPl us
ĠK han
èĤ¥ èĥĸ
çģŃ çģ«
æĦ¿ æľĽ
åĨħ åŃĺ
âĢ ĭ
Ġmin istry
Ġl ining
Ġactiv ated
ĠD ra
ï¼Įä½Ĩ ä»ĸ
ï¼Į å¥³
èį£ èĢĢ
è¯Ĺ æŃĮ
æĹ¥å¸¸ çĶŁæ´»
æĦı æĦ¿
åŃ¦ åŃĲ
åĨįçĶŁ èĥ½æºĲ
å±ŀ æĢ§
ãĢģ è°ĥ
d y
au x
S w
Ġâ Ī
Ġunc onscious
Ġshell s
Ġpub lishing
Ġhoriz on
ï¼Įæĺ¯ åĲ¦
ï¼Į é¡»
ï¼Į æŃ£æĺ¯
èľ ¡
æĥħ çļĦ
æ¬§ åĨł
äººä¸º æľ¬
Ġtrib al
Ġt ie
Ġsupp ress
Ġroll ing
ĠStr ateg
ï¼Į åıĸå¾Ĺ
è¿ Ħ
è¥¿ èĹı
æ°ĳ çĶ¨
åıĳçİ° äºĨ
åı° é£İ
å½Ĵ å±ŀäºİ
op ter
iff s
Ġqu oted
Ġplan es
Ġeconom ically
ĠV iol
ĠN urs
ĠL akes
ĠB ird
ï¼Į ç»´æĬ¤
æł· æľ¬
æķĻèĤ² åİħ
æĬ¥ å¯¼
åĪ ¹
å¾Ĺ äºĨ
å¹¶ åıĳ
rolog y
er k
ack ing
-- -
Ġwar ned
Ġunc ommon
Ġmac ro
Ġdis abled
Ġcosm ic
Ġbas eline
ĠTh om
èģĮä¸ļ çĶŁæ¶¯
ç» £
åĮĸå¦Ĩ åĵģ
å½ĵ æĹ¥
ri ans
oc occ
Ġout standing
Ġlast ed
Ġl iber
ĠNapole on
ĠB uild
ĠB u
éĻį å¹ħ
é©¬ æĭī
çļĦ åıĮ
å°½ åı¯èĥ½
ä¹Ł ä¸įä¼ļ
ar ning
36 5
Ġut ter
Ġd well
Ġcounsel ing
ĠPat rick
ï¼Į èĩ³ä»Ĭ
éĺ² æ±Ľ
èĿ ¶
èķ ¾
çļĦ åŃ©åŃĲ
çĢ ĳ
æ¸ħåįİ å¤§åŃ¦
åĿĩ åı¯
åĪĽéĢł äºĨ
åħĭ æĭī
äºĴ éĢļ
äºº éĹ´
ot ive
ig o
V is
- reg
Ġy og
Ġspir its
Ġsettle ments
Ġpositive ly
Ġh ub
Ġdisc ount
ç®¡ ç½ĳ
æķ° é¢Ŀ
æĬĹ çĸ«
æĢ» æĬķèµĦ
ä»ħ æľī
ãĢģ æĹ¥
ãĢģ åŃ¦æł¡
get s
F ollowing
.... ....
% èĩ³
% -
Ġreh abilitation
Ġmaint ains
Ġche cks
ĠW right
éļı ä¹ĭ
é¦ĸå¸Ń æī§è¡Į
èµ° äºĨ
ç¦ı å·ŀ
åĽ½ èµĦ
åĳ³ çļĦ
åı¯éĿł æĢ§
ãĢģ éĩįåºĨ
ob acter
Ġve ins
Ġtransport ed
Ġsub mar
Ġr het
Ġhung ry
Ġhop ed
Ġdest ructive
Ġcitizens hip
Ġben ch
ĠNor way
ï¼Į åıĹåĪ°
è¡¨çİ° ä¸º
çŁ¿ ä¸ļ
ç»Ħ ä»¶
å¢ŀ æ·»
Ġpul se
Ġmis con
Ġincent ives
Ġgrass es
Ġform ally
Ġat he
ĠMay be
ĠMag azine
ĠFor um
ï¼Į ç²¾
æĢ» æķ°
åħ³æ³¨ çļĦ
å¥łå®ļ äºĨ
m ates
at is
- de
Ġconsid ers
Ġanim ation
ĠDise ases
ĠAnt i
èĩ³ ä¸Ĭ
çŁŃ çŁŃ
ç»ĦæĪĲ åĳĺ
å¼Ģåıĳ çļĦ
å°Ķ æĸ¯
å°ı æ¸¸æĪı
ãĢģ åıĮ
ãĢģ å±±ä¸ľ
s un
n ut
I mp
Ġneighborhood s
Ġepis odes
éĩįè¦ģ ä½ľçĶ¨
çĸ¯ çĭĤ
æĸĹ äºī
æķĪ åĬĽ
æĮĩå¯¼ ä¸ĭ
å±ķ åĩº
ä»į æľī
ãĢģ ç²¾
ys ics
im ination
U M
Ġsing ular
Ġrest ing
Ġm a
Ġinv al
Ġinter con
Ġc ows
Ġbr ut
ĠOlymp ic
è°¨ æħİ
çİ»çĴĥ éĴ¢
çİ¯å¢ĥ ä¸Ń
åĴĮ å·¥ä½ľ
åįģäºĮ äºĶ
åħ¬å¸ĥ äºĨ
t r
St ate
S ocial
-F i
Ġw ounds
Ġstret ching
Ġpre jud
ç®¡çĲĨ ç³»ç»Ł
æĤ¬ æµ®
åĨ¬ å¤©
å¥ĩ è¿¹
å¤ĸ åĩº
Ð º
Th ree
M ark
Ġflu x
Ġd edu
ĠSy ndrome
ĠH al
ĠF ox
ï¼Į ç¤¾ä¼ļ
é¾Ļå¤´ ä¼ģä¸ļ
çĶµ æ¢¯
ç¼ĸ åĨĻ
äºº å¯¿
S ur
Ġtempor al
Ġm ast
Ġb od
ï¼Įå°± åı¯ä»¥
ï¼Į B
éĢīæĭ© äºĨ
æł¸ çĶµ
æĭ ¾
æ°Ķ è´¨
åĿļ å¼º
ãĢĭ è®°èĢħ
ãĢģ é¡¹çĽ®
Ġsu cc
Ġgener ates
Ġexpl ores
ĠG ive
ĠB rig
ï¼Į åĩ¡
ç»Ħ å§Ķä¼ļ
çº ¬
ç¨ĭåº¦ çļĦ
æĶ¹åıĺ äºĨ
æ³¨æĦı åĪ°
åŀ Ħ
åĽ½ åľŁ
åıĺ é¢ĳ
ä¸¤ å¤©
ãĢĤ ä¸Ĭ
v ar
ry st
ir k
ch y
L P
Ġsufficient ly
Ġnew born
Ġd ot
Ġc oding
ĠPro ceedings
ĠK l
ĠDis order
ï¼Į ç§°
è¿Ļ åº§
è®¾è®¡ åĴĮ
ç½ĳ åĿĢ
åıĹ åĪ°äºĨ
å±ķè§Ī ä¼ļ
ãĢģ åľ°
m other
ell o
TS D
Ġinsert ed
ĠSp orts
ĠMach ine
ĠHT ML
ï¼ĮæĪĳä»¬ å°Ĩ
çĿ ¿
æĪĳ æĺ¯
åħļ ç»Ħ
åģļ å¾Ĺ
oca ust
g ram
Ġpress ing
ĠAb original
ï¼ĮèĢĮ åľ¨
ï¼Į èĩ´
ç»¼ èīº
æĬĳ éĥģ
å·¥ ä¼¤
å°Ĩ è¾¾åĪ°
ä»ĸä»¬ åľ¨
ubercul osis
an ic
. G
Ġun comfort
Ġfung us
Ġen roll
Ġd ia
ĠT rib
ï¼Į å¸¦
çıł å®Ŀ
æ·± åıĹ
åıĸå¾Ĺ çļĦ
åĩºçĶŁ äºİ
å¼ Ĭ
ä½¿çĶ¨ å¯¿åĳ½
âĢľ æĹł
ous ing
( çĤ¹åİ»
Ġworth y
Ġinvestig ating
Ġevalu ating
Ġbus h
ĠP ent
ĠL anc
ï¼Įå¹¶ ä¸İ
ï¼Į å»º
é«ĺ å±Ĥ
çļĦ æ´»åĬ¨
ç¾İ æ´²
æĿ¿ çļĦ
æĻ ķ
åĲĪ çº¦
ä¹¦ ä¸Ń
ä¸į åĪ©
ä¸ ¸
un cture
Ġs ie
Ġmunicip al
ĠM oscow
ĠL u
ï¼Į æ±ī
èĸ ĩ
èģĮä¸ļ æĬĢèĥ½
ç»ıæµİ åŃ¦
æĹħè¡Į ç¤¾
æİ¥ åħ¥
åĽĽ å¹´
M in
Ġsil ent
Ġflood s
Ġel ite
ĠSh ah
ĠSe lect
éĽķ åĪ»
åĨĴ éĻ©
å¾ģæ±Ĥ æĦıè§ģ
å·¥ åľ°
ãĢĤè¿Ļ ä¸Ģ
enn is
Ġt et
Ġoutl ined
Ġemphas ize
Ġal leg
ĠN uclear
éĩİ çĶŁ
éĨ ĭ
è´µå·ŀ çľģ
æĭ¿ ä¸ĭ
åľŁ èĢ³
M arch
D oes
Ġmuseum s
Ġinstruction al
ĠH old
ĠBer keley
ï¼Į ç»Ŀ
çļĦ ç©ºéĹ´
çļĦ ä½įç½®
æĿ¥èĩª äºİ
æķ° çłģ
æĮĳ éĢī
æĮĩ ä»¤
ãĢģ æµĻæ±Ł
âĢľ æĪĳä»¬
âĢľ åħ¨åĽ½
p ost
O U
Ġworks heets
Ġmon aster
Ġinter ven
Ġinnov ations
ĠHow ard
ð Ł
é¦ĸ å±Ĭ
å¥½ åıĭ
ãĢĤ ç¾İåĽ½
O ut
3 10
. w
Ġgra b
Ġdo zens
ĠSk ills
çĲĨäºĭ ä¼ļ
çĤİ çĹĩ
çº¿ ç´¢
åĬł å¯Ĩ
å®¢æĪ· ç«¯
ä»¥ èī²åĪĹ
re as
h ol
Ġst ain
Ġpot ent
Ġhand ful
Ġcl ot
Ġanx ious
ĠFin ancial
ï¼Į åĲ¬
çķĮ çļĦ
å¹´ éĻĲ
å¸¸ çĶ¨çļĦ
ä¸º ä¸Ģä½ĵçļĦ
ãĢģ åŃ¦çĶŁ
oc ate
ad ian
S N
" It
Ġtri angle
Ġsix th
ĠE aster
ĠCol omb
ĠB urn
éļı æľº
èĩªåĬ¨ é©¾é©¶
è®¾å¤ĩ åĴĮ
çģ« è½¦ç«Ļ
ç¯ĩ æĸĩç«ł
ç¬Ķ è®°
æĺ¯ éĢļè¿ĩ
æ³ »
æ°ĳ åĽ½
åĲĥ é¥Ń
å¼Ĥ è®®
re ach
M c
Ġs ends
Ġpec uliar
Ġgener ator
Ġafter wards
Ġacknowled ged
ĠK al
ï¼Į çŃī
éº Ł
è¾ĥ å°ı
è½ ©
æī¾ åĪ°äºĨ
æĢĿæĥ³ æĶ¿æ²»
å´ ©
å®¢ äºº
ä¸½ çļĦ
Ġund ers
Ġformer ly
Ġelimin ating
ĠF ried
ĠE at
ĠCub a
ĠC PU
ï¼Į æķ´ä½ĵ
æķ° çĻ¾
ãĢĤ ä¸Ģä¸ª
i pt
c ar
b age
Ġsurround ings
Ġst ir
Ġr ash
Ġplanet ary
ï¼Į åĲĮæł·
è½ §
è´ ®
è°Ī åĪ°
æīĢéľĢ çļĦ
æµģ æĦŁ
ä¸Ń åħ±
ä¸į å½ĵ
ä¸ª å·¥ä½ľ
ãĢĤèĢĮ åľ¨
- ph
Ġpet ition
ĠRes ults
éĻ¤ å¤ĸ
é©¬ æĿ¥è¥¿äºļ
è¡Į æĺŁ
ç§¯æŀģ çļĦ
æ¸¸ è§Ī
o vers
M icro
3 80
Ġrecip e
Ġnav igate
Ġgod dess
Ġgall ons
ĠPrim ary
é»ĺ é»ĺ
è®¡ éĩı
æŁ ¿
æĺ¯ åı¯ä»¥
æį ŀ
æīĭ ä¸Ń
æ°ĳ ä¿Ĺ
åĽ¾ å½¢
åĴĮ å¤§
ä¸Ģ å¥Ĺ
re hend
el le
% .Ċ
Ġequ ilibrium
Ġabd omen
ï¼Į å¼ķèµ·
åĲĦ æł·çļĦ
âĳ ł
ink ed
b ial
M R
L a
Ġf usion
Ġempir ical
Ġcons olid
ĠF ollow
éħĴ ç²¾
èĩ´ è¾ŀ
æľŁ å¾ĴåĪĳ
åıĳ æİĺ
å¤Ħ åľ¨
ä»İä¸ļ äººåĳĺ
ä¹ĭ æĹ¶
Ġwork force
Ġsign aling
Ġcomp iled
ĠD al
ï¼Įåħ± æľī
é¸¡ èĽĭ
æľī åĬĽçļĦ
æĶ¹ æŃ£
æ²Ļ æ¼ł
æ¯ı åĳ¨
åĲĪ è§Ħ
åįĹ åĮĹ
å¾Ĺ å¤ļ
ol en
W A
Ġwas hed
Ġunder w
Ġp our
Ġm aternal
Ġfail ing
ĠSm art
ĠH ou
ĠAn th
èĴ ľ
ä¸Ģå®ļ ä¼ļ
ãĢģ ä½ĵèĤ²
o oks
g iving
ar an
ES CO
Ġtraged y
Ġret ired
Ġinev itable
Ġc ram
ĠBas in
ĠB ron
ï¼Į è½¬
éķ¿ å¤§
é»ĳ æļĹ
è´ ©
åľŁèĢ³ åħ¶
åĩº åĽ½
åħ¬åħ± æľįåĬ¡
ãĢĤ éļıåĲİ
ã İ
Ġindivid ually
Ġemploy er
ĠM u
ĠColumb us
èģĺ ä»»
æĤ£ ä¸Ĭ
æģĲ æĥ§
re ck
% ),
Ġsubject ed
Ġland ed
Ġg ently
Ġconnect s
Ġcomprom ise
ĠAnt on
ï¼Į æĭī
èĢĲ ç£¨
çĭ ł
æľº ä½ĵ
ä¸¾åĬŀ äºĨ
Ġritual s
Ġimp aired
Ġdesign er
Ġdep ressed
ĠT R
ĠPre vent
ï¼Į èİ·
çīĩ åĮº
æµ· åħ³
ä¿® æŃ£
ä¾ £
ab y
K now
D own
/ n
Ġv ic
Ġtra ces
Ġtour ists
Ġret rie
Ġbur ial
é¢Ĩå¯¼ çıŃåŃĲ
çīĩ çļĦ
æĢ» ä¼ļ
åľ¨ æĸ°
å½ĵ æĹ¶çļĦ
å®Ŀ é©¬
å¤ļ å¤ļ
eth yl
cer pt
S R
Ġw ishes
Ġsatisf ied
Ġproblem atic
Ġcon sec
Ġbirth day
ĠB it
ï¼Į çĻ½çĻľé£İ
ï¼Į ä¸Ńå¤®
è¾¾ æłĩ
çīĽçļ®çĻ£ çļĦ
å°Ķ é¡¿
ä¸įæĸŃ æıĲé«ĺ
Ġprosper ity
Ġor th
Ġillust rates
ĠD ate
ĠA ra
ï¼ĮæĪĸ æĺ¯
ï¼Į å·´
èĤ¡ä¸ľ çļĦ
è§Ĥ éŁ³
ç§ĳ å®¤
åĮ» åĬ¡
ail and
Ġo zone
Ġchart s
ĠSu ccess
éļĲ èĹı
é¥® æ°´
è¿ĩ æ¸¡
çĶ¨ äºĨ
æł¸ åĩĨ
å®¤ å¤ĸ
ä¿Ŀè¯ģ éĩĳ
roph y
j an
Ġsp ont
Ġremed ies
Ġharvest ing
Ġd aughters
éĢģ åĪ°
é¦ĸå¸Ńæī§è¡Į å®ĺ
è®© èĩªå·±
çł į
æ¼ı æ´ŀ
åįģ ä½Ļ
åĪĽæĸ° çļĦ
st orm
ĠY e
éĿĴ å±±
èµ· æŃ¥
æĦŁ åĨĴ
ä¿¡ è´·
new s
lighten ment
ag a
Ġtable ts
Ġincl usive
Ġcultiv ation
ĠS ierra
ï¼Į å°ĳ
é¡¶ å°ĸ
èĩª æĦ¿
çĥŃ çļĦ
æµ· å²¸
åħħæ»¡ äºĨ
åħ±äº§ åħļ
Ġwe ed
Ġtour ist
Ġrecip es
Ġpl ed
Ġped est
Ġgard ening
Ġchar ging
Ġa rom
ĠYou Tube
ï¼Ľ å¯¹
ï¼Į åŃ¦
éĴ Ľ
è¿Ħ ä»Ĭ
æĸĩåĮĸåĴĮ æĹħæ¸¸
æķĻ èģĮå·¥
æĦı çļĦ
æ±ĩ èģļ
åıĹè®¿ èĢħ
åįģ è¶³
å°ı åº·
ãĢģ æĶ¿åºľ
ãĢģ äº§ä¸ļ
ut o
ust ral
ig e
P ad
. j
ĠP rior
é«ĺ æĸ°åĮº
è´¨éĩı åĴĮ
æĵįä½ľ ç³»ç»Ł
æ´Ľ éĺ³
ä¸» åĬĽ
ro d
au nt
ac ial
Che ck
-f or
Ġter rain
Ġsusp ended
Ġrestaur ants
ĠSqu are
ĠHar ry
è®¤è¯Ĩ åĪ°
è¡ĮæĶ¿ éĥ¨éĹ¨
æ¶Ĥ å±Ĥ
åĴ ¬
on ut
ad ers
Ġkey board
Ġinc ons
Ġexam ines
Ġam ph
ĠProgram me
ĠH ug
ĠG PS
ï¼Į éĽĨåĽ¢
è£ Ķ
æĢ» æĶ¯
åĩº æ¼Ķ
ãĢĤè¿Ļ éĩĮ
Î ¼
iv ic
Ġinf o
Ġhom eless
Ġcru c
Ġcar go
Ġbare ly
ĠMo ore
ĠAm b
å¤§ ä¸ĵ
ä½© æĪ´
ä¸į ä¸Ģæł·
Ġst ew
Ġmand atory
Ġdes cent
Ġd olph
ĠPart ners
ï¼Įä»İ äºĭ
èĲ¥ä¸ļ æī§çħ§
æį¢ çĥŃ
åĨľ åİĨ
ä½į çļĦ
ãĢģ å»ºè®¾
Ð »
ij ing
U C
R et
L I
Ġs its
Ġpost ure
Ġp erenn
Ġoutbre aks
Ġjud icial
Ġfro st
ĠW at
ĠSy d
ĠE mb
çµ® åĩĿ
æľī ä¸ª
ä¼ļè®® å®¤
ä¸Ĭ æľĪ
ãĢģ çī©æµģ
Â ½
F eb
C le
Ġstreng thening
Ġmicrosc ope
Ġk et
Ġholid ays
Ġfact ories
Ġcompet ing
ĠL eb
ĠC ab
ĠBel ow
ï¼Įè¿Ļ å°±
è¿ĩç¨ĭ ä¸ŃçļĦ
èµ° åľ¨
ç»ıèĲ¥ èĢħ
ç»¼åĲĪ ç´łè´¨
æľ¬ èµĽåŃ£
åĨľä¸ļ åĨľæĿĳ
å¾Ī é«ĺçļĦ
å¤ľ éĹ´
ä½ı åľ¨
ä¸Ģ éģĵ
ãĢĤå½ĵ æĹ¶
ãĢĤå¦Ĥæŀľ ä½ł
v ia
st able
pl er
ogen esis
Ġmed ian
Ġj ar
Ġindo ors
ĠPalest ine
ï¼Į èĲ¥éĢł
ï¼Į ç»Īäºİ
èĮ İ
çĶŁäº§ åŁºåľ°
ç´ Ĭ
ç¡ķå£« çłĶç©¶çĶŁ
ä¹ĭ åĨħ
ä¸į åģľ
ä¸ī æĺŁ
p a
is an
W hether
Ġap ost
ĠF est
ï¼Į ä¸»åĬ¨
æĺ Ķ
åĿ ¤
åĭĺ å¯Ł
ä¸į é«ĺ
ä¸į å®¹
m ans
ill er
Ġstop ping
Ġl act
Ġevery body
Ġdr illing
Ġbu g
ï¼Į çĽ¸åħ³
éĽĨ è£ħç®±
è°ĥ åĬ¨
çļĦ éľĢè¦ģ
ç»ı è´¸
ç»´çĶŁç´ł C
åĨĽ éĺŁ
å°± å¼Ģå§ĭ
ä¸»è¦ģ çļĦ
Ġint im
Ġcount less
Ġab ortion
ĠS ound
ĠL oss
ï¼Į å¼Ģåıĳ
æŃ£ éĿ¢
ãĢģ C
âĢĿ (
w ich
art z
G R
Ġsod a
Ġrespond ents
Ġgr asp
Ġfl ags
Ġe ager
Ġdemand ed
ĠT erm
ĠS now
éĩĳ å±±
å¥¹ ä»¬
ãĢģ æ³ķ
ret ion
le ys
Ġhe d
Ġfol ks
Ġdec k
éķ ģ
éĶĢåĶ® æĶ¶åħ¥
èĢĮ åľ¨
åĮĸ è§£
ä¼Ĭ æľĹ
ro kes
rag on
aut ions
Ġexclud ed
Ġeleph ant
ĠIm ages
éĢĤå½ĵ çļĦ
è¡Ģ ç³ĸ
çĲĨäºĭ éķ¿
å°Ĩ æľī
ä¹ĭ ä¸Ĭ
aren cy
T w
Ġuncomfort able
Ġul cers
Ġres olved
Ġprot otype
Ġm ol
Ġcook ies
Ġcon ve
ĠIn v
æģ Ń
æ¯ķä¸ļ åĲİ
æ¬§æ´² æĿ¯
åĴĮ æĸ°
åĭ ī
å®Į ç¾İçļĦ
äºĨ æĪĳ
ãĢĤä¸İ æŃ¤åĲĮæĹ¶
Î ²
ur ban
up uncture
ac erb
B ook
Ġwhere ver
Ġtraum atic
Ġsurge on
Ġprodu cer
Ġpro c
Ġprevent ive
Ġmechan ics
Ġc ro
Ġauton omous
Ġadjust ed
ĠTor onto
ĠR oc
ĠArist otle
æİĪ è¯¾
åħ¥ äºĨ
å¯¹ éĺµ
ãĢĤ ä»ĸçļĦ
ord on
I H
-p rodu
Ġsculpt ure
Ġrig id
Ġm ad
Ġhas n
ĠTh or
ĠN an
çļĦ æ¯ĶèµĽ
æŃ£ å¦Ĥ
æ°´ èµĦæºĲ
åħ³ç³» çļĦ
åħ¬åħ± åį«çĶŁ
å¤´ çļĦ
å¤© ç©º
ä¸įå°ĳ äºİ
ias is
Lear ning
Ġst ocks
Ġr ust
Ġmat ching
Ġelectrom agnetic
Ġdemand ing
ĠS ab
ĠPen insula
ï¼ĮæĪĳä»¬ åı¯ä»¥
çİ¯ æ°§
çī¡ ä¸¹
æ·±åĪ» çļĦ
ä¿® åħ»
ä¹Łå°±æĺ¯ è¯´
enn y
W omen
Ġv oted
Ġt ric
Ġsupp orters
Ġemb race
Ġd warf
Ġcryst all
Ġcont ra
ĠPro b
ĠAl b
ç¹ģ æ®ĸ
æ¸ħ æ°´
æµ· æĬ¥
åĽ½ éĺ²
åĴĮ æĶ¯æĮģ
åĳ Ģ
å½ķ çĶ¨
äº¬ æ´¥
ãĢģ åĪ¶éĢł
op en
ip se
Ġwitness ed
Ġorgan izing
Ġintest inal
Ġfo am
Ġcondition ing
Ġac re
ĠMe chan
ï¼Įå°± èĥ½
ï¼Į å»ºçŃĳ
èĪ¬ çļĦ
æĹł æķĪ
åĩ¸ æĺ¾
ãĢĤ äºĮæĺ¯
us hes
plic ity
ject ive
int estinal
ag u
Ġsuper vision
Ġmicrob ial
Ġdisag ree
Ġadvent ure
ĠGen erally
ĠC zech
è ¤Ĳ
ç¼ ħ
åĩº æ¸¸
å¥ ´
äºº çĶŁçļĦ
ãĢĤ çĶ±
ur ities
li hood
it ime
P oint
Ġunt reated
Ġpropos als
Ġpil grim
Ġcultiv ated
Ġcou pled
Ġcombust ion
Ġce ment
é«ĺ åİŁ
çŃ¹ å¤ĩ
æĿ¥ æ°´
åĴĮ ä¿¡æģ¯åĮĸ
å¦ ĸ
å¤ĸ ç§ĳ
ä½ĵ çİ°åľ¨
ãĢģ é¦Ļ
ud son
m i
if iers
Ġsol ved
Ġs or
Ġrequ ested
Ġinter d
ï¼Į è¶Ĭ
ï¼Į å¾·
é¥® çĶ¨æ°´
è¯ķ è¡Į
çĽ® åħī
æ°´ æºĲ
åĳ µ
åĩº è¡Ģ
å±Ĭ åħ¨åĽ½
ä¾µ å®³
âĪ Ĵ
â ĺ
ill ery
b led
Ġwhe els
Ġvari ants
Ġtarget ing
Ġprom ises
Ġf ans
Ġb esides
éĤ µ
é¥® çĶ¨
çİ¯ çĲĥ
æ²³ æµģ
åŀĦ æĸŃ
ogl ob
arm ing
Ġrecon struct
Ġprior ities
Ġelabor ate
Ġd amp
Ġ :Ċ
éĽĨ ç¾¤
éĢĤ éĩı
ç¾İåĽ½ çļĦ
ç¦» å¿ĥ
æĴ° åĨĻ
åŁĥ åıĬ
åİķ æīĢ
ãĢģ æ·±åľ³
ãĢģ åķĨä¸ļ
ress ions
oven ant
in ar
il i
er ce
-p oint
) ;Ċ
Ġschem es
Ġinstruct or
Ġcou ples
ĠH ope
ĠC ON
ĠAnn ual
éĵ¸ éĢł
çĶ² éĨĽ
æıı ç»ĺ
æĬ¥ è¡¨
å¢¨ è¥¿
yp ical
oler ance
it ated
ij uana
Ġvent ilation
Ġup ward
Ġsupport ive
Ġr ip
Ġillust ration
Ġhigh way
Ġce iling
Ġappro aching
ĠN ile
ĠExt ension
ĠEconom ics
ĠC ust
çĥŃ å¸¦
ç£ ħ
åĪ« å¢ħ
äº ¨
ond er
Ġchromos ome
ĠU ntil
ĠT ool
ï¼Į æĬĹ
èĥ½å¤Ł åľ¨
æĿ¥ ä¸´
æİĴ åĪĹ
æ¢ħ è¥¿
åĳĪçİ° åĩº
åĬŁèĥ½ çļĦ
å½© ç¥¨
å·¥ç¨ĭ é¡¹çĽ®
ãĢģ æ±Łèĭı
p ret
-th ird
Ġperman ently
Ġad hes
ĠSt ress
ĠH az
ĠAl ong
æİ¨ ä»ĭ
æĢİä¹Ī æł·
æ¶¦æ»ĳ æ²¹
å¯¼ æ¸¸
å¤§ è¡Ĺ
other mal
og ical
ad en
P N
M ean
-d own
Ġur gent
Ġtrust ed
Ġre pt
Ġlet ting
ĠR E
ĠBanglades h
Ġ âĢĻ
ï¼Įæĺ¯ ä¸Ģä¸ª
éĴ ī
èĥ ļ
ç¬¬ä¸Ģ åŃ£åº¦
ç¢ Į
å¢¨è¥¿ åĵ¥
ä¼ĺèī¯ çļĦ
ä¸ĩ äº¿
ãĢģ æıĲé«ĺ
â ī
os itory
V ol
Post ed
-f ive
Ġtransl ate
Ġdef ence
ĠL es
ĠB ox
ï¼Įè¯¥ åħ¬åı¸
ï¼Įä½¿ åħ¶
èģª æĺİ
è§Ĩ åĬĽ
çĶµ çº¿
çª Ł
æĶ¾ ç¼ĵ
æī© å»º
åĨ· éĵ¾
25 6
Ġsex ually
ĠTe ch
ĠSer ver
ĠD og
æĴ¤ éĶĢ
æµ· åĨĽ
åĽ½æ°ĳ ç»ıæµİ
ä¼ļ è¢«
âĢľ This
s hip
H aving
Ġtru cks
Ġtrans action
Ġr ated
Ġphosph orus
Ġc ater
Ġam bit
ĠMarsh all
ĠLe v
ï¼Į å¸¦åĬ¨
è°ĥ è§£
è®° ä½ı
ç§ģ åĭŁ
æĹ¥ è®¯
æİ Ģ
ä¸ĭ å±ŀ
ä¸Ĭ æ¸¸
it ar
alax y
-or iented
Ġwel ding
Ġw ool
Ġsm ok
Ġmyster ious
Ġmet a
Ġdepos it
Ġdel icate
ĠAg reement
ï¼Į æ³¨éĩį
çļĦæĸ° åŀĭ
æĺ¯ æĪĳåĽ½
åľ¨ å¤ĸ
åĲ¸ çĥŁ
åĮĸåŃ¦ åĵģ
us ions
b irds
S te
S M
F F
Ġtou ching
Ġfart her
ĠT ower
ĠBapt ist
ĠAnd erson
ï¼Įå¦Ĥæŀľ ä½ł
ç§ĳæĬĢ è¿ĽæŃ¥
å¯Ĩ çłģ
ä¸ºä¸» çļĦ
ãĢĤ æľªæĿ¥
ãĢģ åŃ¦ä¹ł
we g
Art icle
Ġobt aining
Ġmod ifications
Ġco h
ĠD er
ĠC EO
èŀº æĹĭ
ç¥ ·
åĲĳ åīį
r one
h n
Wind ows
Ġpass enger
Ġneighbor ing
Ġdispl ace
Ġaccording ly
ï¼Į åİ»å¹´
è¡Įä¸ļ ä¸Ń
ç¾İ å®¹
æľīåħ³ çļĦ
åı¦ æľī
å°ı åŃ©
äºĨä¸Ģ ç³»åĪĹ
z i
ins ic
ef t
ax is
20 6
Ġt ire
Ġst amp
Ġprohib ited
Ġlear ner
Ġharass ment
ĠNig eria
ĠCurrent ly
ï¼Į ç¡®å®ļ
ï¼Į æ±½è½¦
ï¼Į åŁºæľ¬
éĺ» çĩĥ
è·¯ åı£
è´¯ ç©¿
çĲĨå·¥ å¤§åŃ¦
ç»Ĩ èĩ´
ç«Ļ å¼ı
æī¹ æ¬¡
åīį æıĲ
å®ŀè·µ ä¸Ń
äººç±» çļĦ
ä¸İ ç®¡çĲĨ
ãĢĤ çİĭ
rote in
ram id
- rays
Ġsal vation
Ġpe an
Ġne arest
Ġform ats
Ġfluor ide
Ġfirm ly
Ġex acerb
Ġactiv ation
ï¼Įåħ¨ çľģ
ç©º çĻ½
æ·ĺ å®Ŀ
ä¸¥æł¼ çļĦ
âĳ ¡
ore st
-st ate
Ġoccas ional
Ġdry ing
Ġbe verages
ç¢° æĴŀ
åıĺ éĢŁ
åī¯ éĻ¢éķ¿
åĢ¡ è®®
å®ŀ ä¸ļ
å¤§ ä½¿
ä¸Ŀ ç»¸
rep resent
hes s
Ġstraight forward
Ġpre lim
Ġl augh
ĠCit iz
ĠB rand
çĶµåĬ¨ è½¦
æ²¡æľī ä»»ä½ķ
åĲ« ä¹ī
åĮ Ĩ
us ually
ul atory
S ch
AR S
Ġsqu ir
Ġp orts
Ġdr um
Ġdefin itive
Ġbl ade
Ġb ureau
ĠEx ercise
éĹ ½
éħ¸ çĽĲ
èı ĩ
è¿ ¦
ç» ĳ
æłı çĽ®
æıĲ åĲį
æ£ µ
åī§ ä¸Ń
å¼ §
urop ean
Ġsupp l
Ġprelim inary
Ġdram a
ĠW olf
ĠSar ah
ï¼Įå¹¶ ä»¥
éĿ¢ä¸´ çĿĢ
çı Ĭ
å¸¸ å§Ķ
å¢ŀéķ¿ çİĩ
äºĮ æľŁ
ä¸Ģ æĸ¹éĿ¢
ãĢĤ çĶ¨
od ia
cl am
EC D
Ġtr unk
Ġsum mit
Ġsm ile
Ġreprodu ce
Ġmod ification
Ġmetap hor
Ġexc ite
Ġcort ex
èĦ± ç¦»
æ°¯ åĮĸ
åĸĦ èī¯
å¸ ĺ
å®ŀ çļĦ
l ass
am el
U P
AS T
Ġpe at
Ġas ym
Ġadul thood
ç»Ł æ²»
æľº ç¥¨
æĮ¯ åĬ¨
æī¹ å¤į
å±ķ æľĽ
å£ģ çĶ»
ä¾Ľ çĥŃ
ä¸Ĭ æ¼Ķ
pp ers
cc oli
. uk
Ġsequ encing
Ġprocess or
Ġpot ato
Ġoff ensive
Ġintest ine
Ġimpair ment
Ġd ive
Ġbio f
Ġbe aches
ĠSyd ney
ĠEx cel
ï¼Įæĺ¯ æĮĩ
é£İ æĥħ
è¡į çĶŁ
çļĦäºº ä»¬
ç¬¬äºĮ ä¸ª
ç«ł ç¨ĭ
æĢİä¹Ī åĬŀ
ä¹Ł éĿŀå¸¸
ä¸Ģ å¸¦
ä¸ ĳ
f erence
V E
Ġsc ans
Ġpal ace
Ġcool er
Ġco e
ĠQue ens
ĠQue bec
ĠM as
çĽ² çĽ®
çļĦ æķĻåŃ¦
ç¤¼ åĵģ
åĬ© æİ¨
åĪ¶ å¤ĩ
ä»İ ä¸Ń
âĢľ éĩĳ
od d
o in
Ġr iding
Ġprov incial
Ġod ds
Ġan k
ï¼Į åı¤
æī¿ æİ¥
å¡« æĬ¥
od us
ight ing
Dav id
Ġrecon struction
Ġo un
ĠTr uth
ĠSe attle
èĴ¸ åıĳ
æĽ¼ èģĶ
æĬķèµĦ åŁºéĩĳ
åİĨåı² çļĦ
å¼Ģ éĩĩ
ä½İ çļĦ
ãĢģ å¿ĥ
ãĢģ å¤©æ´¥
pris es
Ġqu e
Ġpip eline
Ġnation wide
ĠFram ework
ĠEv idence
ĠE ve
ĠE instein
èĬĤèĥ½ åĩıæİĴ
èĩ´ å¯Į
æ±¡æŁĵ éĺ²æ²»
å¿ħ éľĢ
å±± çļĦ
ä»¥ åĨħ
ä¸ªæľĪ çļĦ
per ature
h u
erv ice
Ġvalid ity
Ġd ye
ĠWal ter
ĠVien na
ĠNorth west
ĠB rad
æľī è®¸å¤ļ
æ°´ æĢ§
åĬł åī§
å«Įçĸĳ äºº
uten ant
s ur
p us
any on
Ġweek end
Ġtrou bles
Ġorgan izational
Ġcomp elling
ï¼Įæľī çĿĢ
çĳŀ åħ¸
çĦ ļ
ç¤ºèĮĥ åĮº
æľĹ æĻ®
åŃĺåľ¨ çĿĢ
å¾Ī å¼ºçļĦ
å®ļ åĲĳ
ãĢĤ é¦ĸåħĪ
ãĢĤ å°Ĩ
ãĢģ çĶ¨
rate gy
ic ism
f irst
b ian
Ġlower ing
Ġal igned
ĠD raw
ĠChar acter
èµ· è¯ī
æļ´ åĬĽ
åıĳ æī¬
åĨ· åĨ»
å¾®éĩı åħĥç´ł
å¡ŀ å°Ķ
ä¸Ģ æĸ¹
u ated
t i
ob ia
iat ry
Sim ilar
On ly
Ġv ascular
Ġsp ill
Ġphilos opher
Ġfle e
ĠCour se
ï¼Įæĺ¯ ä¸Ģå®¶
ï¼Į è¶ħè¿ĩ
è¿½ è¸ª
æŃ¤ æĹ¶
æ°´ åĩĨ
åĬ¿ å¤´
ow ing
op oly
m ill
l ie
Ġlay ing
Ġc ock
Ġbuff er
ĠOr thodox
ĠCh air
ï¼Į èĲ½å®ŀ
ï¼Į æŀģ
é² į
è° £
çģ¾ éļ¾
æĹł æľº
äºº ç¤¾
k rit
est ing
M et
Ġu pt
Ġtime ly
Ġstrugg les
Ġparas ites
ĠSwed ish
ĠO ak
ĠL ORD
ĠGuid elines
ĠE sp
æĤł ä¹ħ
å¸ĥ é²ģ
ä½ı éĻ¢
ãĢģ éĩį
iv ia
f ig
ard less
Ex pl
Ch ina
Ġur inary
Ġspot ted
Ġlay out
Ġcounterpart s
ĠR on
ĠAntar ctic
ï¼ī æľīéĻĲåħ¬åı¸
éļĨ éĩį
çļĦ çĪ±
åĽ½ çİĭ
åĩº éĻ¢
l aim
Ġrad ius
Ġparad igm
Ġlaw yer
Ġcr ude
ĠVictor ian
ĠSaf e
ĠPub l
ĠE ric
ï¼Į ä¸¥éĩį
èĭ± è¶ħ
æĹ¢ çĦ¶
åŁºç¡Ģè®¾æĸ½ å»ºè®¾
åĭ¤ å¥ĭ
ad er
RE E
-dep th
Ġdeliver ing
Ġclaim ing
Ġappropri ately
ĠS in
ĠEurope ans
éĩı åĮĸ
è§¦ æĳ¸
çļĦ ä»·åĢ¼
ç¾İæľ¯ é¦Ĩ
anc ies
Ġhead ing
Ġf ut
Ġdes ires
Ġbl oom
ï¼Į ä»£è¡¨
èĦ± æ°´
çļĦ æĹ¥åŃĲ
å¾® ç¬ĳ
åº§è°Ī ä¼ļ
reat ening
le ans
Ġsh ops
Ġnest ing
Ġn urt
Ġm asks
Ġhe s
Ġexcept ional
éĽ¨ æ°´
èĨ Ģ
èµ Į
æĭħ å¿§
æĬĹ ä½ĵ
æīĭ æ³ķ
åīĤ çļĦ
å¤ªå¹³ æ´ĭ
ä¸ĢçĽ´ æĺ¯
bre v
Ġt ent
Ġpub lish
Ġperiod ic
Ġin exp
Ġaltern ate
ĠP S
ĠAd ams
Ġ Å
èģļ ä¹Ļçĥ¯
å®ĺæĸ¹ ç½ĳç«Ļ
Ġlect ures
Ġcomb ines
ï¼ĮæĽ´ åĬł
çļĦ è´£ä»»
åŁİéķĩ åĮĸ
åı¯ è°ĵ
ly wood
Ġtem ples
Ġport able
Ġmoment um
Ġen velop
Ġd os
ĠHop kins
ĠByzant ine
éī´ äºİ
è¯´ åĪ°
æĭī å¼Ģ
åįģ åĩł
åī¯ ä¸»å¸Ń
ur p
ron es
im ore
S um
PV C
E duc
Ġs ins
Ġrec ruit
Ġl ion
Ġf r
Ġcontact s
Ġam mon
ĠTai wan
ĠE C
è¡¡ éĩı
åĴĮ åºĶçĶ¨
âĢľ åįģä¸īäºĶ
str ong
d is
4 10
-dr iven
Ġshould ers
Ġprim itive
Ġg host
Ġdin osaurs
Ġbul b
ĠTh ailand
ĠCon sequently
ï¼Į ç»¼åĲĪ
éĺ» ç¢į
ç»ĵæŀĦ çļĦ
ç³»åĪĹ äº§åĵģ
ç¡® ç«ĭ
æĻºèĥ½ åĪ¶éĢł
æĮĩå¯¼ æĦıè§ģ
æĦı åĲĳ
åħ¨éĿ¢ çļĦ
ä¸ī åĽĽ
ä¸¥ èĤĥ
ãĢģ éĿŀ
now ned
h ouses
h al
at ics
ag rams
- man
Ġreg ards
Ġfail ures
Ġany way
ĠS ic
ĠN elson
ĠB att
ï¼Į æİĮæı¡
èĢĲ å¿ĥ
åľ¨ ä½¿çĶ¨
åı¯ è¡Į
å¢ŀéķ¿ çļĦ
ãĢģ ç§ĳåŃ¦
im ental
Ġclim b
ĠS ans
ï¼Įä¸¤ äºº
ï¼Į éħĴåºĹ
è ł
åºĶ å±Ĭ
äºĨ è®¸å¤ļ
ä¸Ĭ è¯¾
ãĢģ åĪĺ
al ry
a a
ĠSp ect
ĠAng lo
ï¼Į è§£åĨ³
ï¼ Ļ
éĴ ©
èī² ç´ł
è¡Įä¸º çļĦ
çŃī æĥħåĨµ
åŃ¤ çĭ¬
åĳ¨ äºĶ
å¹´ åħ¨åĽ½
L ist
Ġen rich
Ġed it
Ġder iv
Ġcompris es
Ġa ug
ĠPol ice
ĠBet ter
çĥŃ çĥĪ
æĮ £
æĪ· ç±į
åİ ¢
å¯¹ ä¸ŃåĽ½
ä½¿çĶ¨ èĢħ
es y
E v
-in ch
Ġswit ching
Ġsil k
Ġrul ers
Ġpract ically
Ġlink ing
Ġinvest ing
Ġimp ed
Ġfriends hip
Ġexerc ising
Ġconf using
ĠEmer gency
ĠAlex and
ï¼Įä¹Ł ä¼ļ
èĥ½åĬĽ å¼º
çİ «
ç¤¼ ä»ª
æľī ä¸Ģå®ļçļĦ
åĽł åŃĲ
åĽĽ æĺ¯
åĪĨ æĶ¯
åĩº äºİ
ä¿ ©
äºĶ ä¸Ģ
ä¸§ å¤±
w ick
og rams
ig nt
T ime
Ġhop ing
ĠNich olas
ï¼Ī çº¦
éĿ¢ä¸´ çļĦ
çĽĽ é¡¿
çļĦ æĢ»
æ³ķ å®ĺ
åīį æīĢ
å± ¯
ãĢĤ åĨį
urg ical
Ġt ales
Ġmet all
Ġinf erior
ĠJ oe
ĠImm un
ĠG ram
éĹ¨ æĪ·
èį§ åħī
åĸľ åī§
åįģ æĿ¡
å¸¸ çĶ¨
ãĢĤ é«ĺ
ãĢģ éħĴåºĹ
it o
ing e
im ated
Ġresp ected
Ġn asal
Ġh ay
ĠDak ota
ĠD ocument
ï¼Ī æĪĸ
è¿Ľåħ¥ äºĨ
æŁ¥ å¤Ħ
æľį é¥°
åı¯ åĪĨä¸º
ut ter
op hers
m us
ats on
N on
Cl ass
Ġun ited
Ġrecommend ation
Ġhand led
Ġfl ights
Ġcor rupt
ĠW rit
ĠHam ilton
ï¼Įå½ĵ åľ°
ï¼Į å¾ĹåĪ°
çķ Ķ
çī¹ å°Ķ
ç² ª
æĬĬ å®ĥ
å½¢å¼ı çļĦ
äºļ é©¬
ro st
p her
op sy
ac cess
De velop
Ġult rasound
Ġinc ub
Ġerect ed
Ġdet er
Ġdehyd ration
Ġambit ious
ĠT itle
ï¼Į å®ŀè¡Į
èµĦäº§ ç®¡çĲĨ
çļĩ é©¬
çļĦ æĹ¶ä»£
ç¨³ åģ¥
æİĴè¡Į æ¦ľ
åİĨåı² æĸĩåĮĸ
å°¤ ä¸º
ãĢģ ç»ıèĲ¥
ass ing
AL L
Ġst ating
Ġspec ially
Ġparticip ant
Ġnut rit
Ġmem orial
Ġbul let
éĿ¢ è²Į
èľ Ģ
ç»Ļ äºº
åĮº éĹ´
åĬ¨ èĥ½
å¾®ä¿¡ åħ¬ä¼Ĺåı·
å·¥ç¨ĭ æľºæ¢°
ãĢĤ äº§åĵģ
ist a
Ġt ags
Ġqual itative
Ġpresent ations
Ġkind ergarten
Ġemphas ized
Ġcivil ian
ï¼Į æĶ¹åĸĦ
ï¼Ī B
ç»Ħç»ĩ å®ŀæĸ½
ç«ĭ é¡¹
åıĪ ç§°
å®ł çī©
ä¸Ģ æīĢ
-st ep
" ï¼Į
Ġsil ence
Ġhuman itarian
Ġfil ed
Ġf right
Ġar ises
ĠTechn ical
ĠI g
æīĭ å·¥
æĪĳä»¬ è¦ģ
åı Ľ
åĩº è®©
v ic
Will iam
M ac
Ġy ards
Ġreflect ing
Ġfor cing
Ġbre eds
Ġassemb led
Ġan a
ĠT ob
ĠL oc
ĠF un
çĸĳ ä¼¼
æĸĩ æľ¬
æ¾ ľ
åľ¨ ä¸Ĭæµ·
åİŁ åĳĬ
å½ ¬
ä¹ĭ å®¶
ãĢģ æĬķèµĦ
eral d
ct ica
Ġprof iles
Ġindu ce
Ġearn ings
Ġbo ot
ĠCho ose
ĠC C
çļĦ è½¦
çĻ½ éħĴ
çĭ¬ å®¶
çĦ ķ
ç² ¹
åŃ¦ ä¸ļ
åľ¨ åħ¶
åĮĹ ç¾İ
åħī åŃ¦
ä¸į å®ľ
ä¸¤ èĢħ
Ã ¦
eed s
Rem ember
Ġlapt op
Ġh anging
Ġep ic
è¿Ļ æ®µ
æ¶Į çİ°
âĢĿ å»ºè®¾
un ks
ke eping
Ġsemic onduct
Ġlight ning
ĠDi agn
èµĦæľ¬ å¸Ĥåľº
è¯ģ ä»¶
ç´¯ ç§¯
æĶ¾ ç½®
åľ°çĲĨ ä½įç½®
åİ» åģļ
å¤ĸ äº¤
âĢĻ Ċ
it ol
ab ited
Ġtrans ist
Ġterm ed
Ġlive lihood
Ġclin ic
ĠI L
ĠC anyon
Ġ ãĢģ
ï¼Į é£İ
èĭ± å¯¸
è¾ĥ å°ĳ
æºĲ å¤´
åŃĲ éĩĮ
å¸¸ å§Ķä¼ļ
å°ı ç±³
se ts
m n
b ral
M us
-th irds
- work
Ġwater ing
Ġto mat
Ġpurs uit
Ġed itors
Ġcapital ism
Ġacid ic
ĠW ang
ĠPl ato
ĠBro ther
ĠA er
ï¼Ľ åĲĮæĹ¶
ï¼Į èĭ±åĽ½
èĸĦ èĨľ
è¯Ħ çº§
æłĳ æľ¨
åľ¨ ä¸į
est y
art ial
Ġsatisf y
Ġlike wise
Ġle ather
Ġflow ering
Ġco operative
Ġcl ues
ĠNev ada
ĠFreder ick
ĠEthiop ia
éħĴåºĹ éĽĨåĽ¢
æīĢ éķ¿
åįķ è½¦
å¤Ħ éķ¿
ro sc
Th anks
Per haps
" ;
Ġun con
Ġsim ulations
Ġguarant eed
Ġcompan ion
Ġclar ity
ĠT aking
ĠPar ks
ĠMalays ia
ç§¯æŀģ æĢ§
æĲ¬ è¿ģ
æĤ£ çĹħ
æµģ å¤±
åĿ ł
ä»¥ åħ¶
ãĢģ éĵģ
ros is
est hes
Ġrel uct
Ġpot s
Ġpneum onia
Ġpenal ty
ĠCh ron
ĠB ud
ĠB os
ĠAl ber
ï¼Įä»ĸä»¬ çļĦ
æ±¡æ°´å¤ĦçĲĨ åİĤ
åŁ¹è®Ń çıŃ
åľ¨ å®¶
åĸ· æ¶Ĥ
åº¦ è¿ĩ
å¹³ çŃī
å®ļ çĤ¹
ä¸Ń å±±
ä¸º å®¢æĪ·æıĲä¾Ľ
Ġutil izing
Ġreg en
Ġpred iction
Ġp ound
Ġg ig
Ġe ld
Ġatt orney
Ġanaly tical
ĠT ell
ĠHig her
ĠCl inton
ï¼Į è¿ľ
ï¼Į åĽŀ
ï¼Į åįİä¸º
çºª æ£Ģ
æ¶ī æ¡Ī
åĽº éĨĩ
ãİ ¡
ãĢĤ åīį
us er
il ies
P G
H ome
Ġrecre ational
Ġre ass
Ġembry os
ĠOr leans
ĠObserv atory
ĠFl ore
ĠE b
ĠDougl as
è¢«åĳĬ äºº
çĽĳçĿ£ æ£ĢæŁ¥
æĹ¶æľŁ çļĦ
æĦ §
æ¾ İ
æ°¸ æģĴ
æ¢ Ń
åħļå§Ķ åī¯ä¹¦è®°
åħ·æľī èī¯å¥½çļĦ
å®¢ æľį
ä¸Ń æłĩ
âĢ ³
ig ital
if iable
Ġs ul
Ġright eous
Ġrefuge e
Ġbreak through
Ġall ies
ĠEd itor
ĠChrist opher
ï¼Įçİ° æľī
æ¶ ħ
å¢Ļ ä½ĵ
ä¸ĭ è½¦
ãĢĤ ä¸ĭéĿ¢
oub ted
ace ous
Ġver ify
Ġsh ame
Ġrev ision
Ġcareg ivers
ĠMor ris
ĠA qu
ï¼Į å®ŀ
æľĪ ç»ı
æĻºæħ§ åŁİå¸Ĥ
æĮ ļ
åĩº èī²çļĦ
å¸Ĥåľº ç«ŀäºī
ä½ıæĪ¿ åħ¬ç§¯éĩĳ
ring e
m ir
il ia
Ġwood s
Ġunw anted
Ġquestion na
Ġpr inter
Ġp ile
Ġlast s
Ġcont est
Ġagg ression
ĠW ords
ĠG round
ï¼Į çľĭåĪ°
ï¼Į ç»Ī
èģĶ éĢļ
çŃĽ éĢī
ç©ºæ°Ķ åĩĢåĮĸ
æĬ¥ åĪ°
ä¸Ģ é¢Ĺ
od a
iv ated
em en
atic an
as i
) )
Ġweight s
Ġstrong est
Ġdisapp oint
ĠT ips
ĠJ oint
Ġ ä»İ
çĽ¸ å¤Ħ
æķ¢ äºİ
æĶ¾ å¤§
åĲĳ ç¤¾ä¼ļ
å®Į æ¯ķ
oc ide
Ġtempor arily
Ġsimpl er
Ġmat ches
Ġfant astic
Ġeleph ants
Ġastron omy
ï¼Į çĻ¾
è´Ń ç½®
è°ĥ åº¦
å½±åĵį çļĦ
ä¸»åĬŀ çļĦ
Ï Ħ
Î ¹
y st
Ġprox imity
Ġnon pro
Ġinvent ory
Ġabnormal ities
ĠC ond
ĠAct ivities
è¶³ åįı
æľī ä¸ĢäºĽ
æĭį çħ§
åķĨ çĶ¨
åıĳè¾¾ åĽ½å®¶
åħ¬ ä¸»
ä¸ľ èİŀ
ãĢģ åĮĸåŃ¦
st ud
ast ically
W H
T R
I E
Ġdiff ers
Ġcommunic ating
Ġarm ies
Ġac ne
ï¼Į éļ¾
éķ ĳ
è§Ĥ æµĭ
çŁ¥åĲį åº¦
ç² ¥
åĮ»æĬ¤ äººåĳĺ
ä¿® å»º
äºĴ è¡¥
ãĢģ ç»¼åĲĪ
Ġspect acular
Ġsc rap
ĠSw iss
ĠPortug al
ĠCur riculum
ĠB CE
ï¼Į åı¶
æ¢ Ĺ
åİŁ æľī
å¿ł è¯ļ
å·¥ å§Ķ
ä¸Ģ åıª
w idth
osynt hesis
Ġlik ed
Ġf riction
Ġd ens
Ġaster oid
Ġantib ody
ĠP ack
ĠCa esar
ï¼Į S
éĶĻ è¿ĩ
æ²ĥ å°Ķ
ä¸Ń ä»ĭ
are ttes
ĠÃ Ĺ
Ġtestim ony
Ġrend ered
Ġhier archy
Ġcerv ical
ï¼ĮæľĢ å¥½
èĦļ æŃ¥
æ´ģ åĩĢ
æ´ª æ°´
ä¸ĵä¸ļ åĮĸ
ãĢģ è´¢åĬ¡
ãĢģ çĶŁ
ãĢģ æķ°æį®
ignt y
2 12
Ġunder water
Ġse ism
Ġpuzz le
Ġimper ative
Ġhand ed
Ġfree zing
Ġfast est
Ġexpress ing
ĠScript ure
ĠA venue
éĺŁä¼į å»ºè®¾
æľĪä¸Ń æĹ¬
æĢ§ åľ°
æ³ ¸
åĲĮ ç±»
å¤į äº§
âĢľ äºĴèģĶç½ĳ
ur ate
m ath
IN E
Ġor ph
Ġmicro organisms
Ġgar lic
Ġcar ved
Ġant im
ĠY ale
ĠP un
ĠL ank
ï¼Įæľī äºº
ï¼Į ä¾Ľ
éĴ ¾
å®ī éĿĻ
ãĢģ åĽĽå·Ŀ
v ol
it ational
it ably
est ial
am an
Ġtom orrow
Ġoverse as
Ġeas iest
Ġcub ic
Ġalle v
ĠI U
ĠE ye
Ġ ib
ï¼Įä½Ĩ æĪĳ
ï¼Į å¹¿å·ŀ
é¥ ª
ç«¯ çļĦ
æł ħ
æķ ·
æĦŁ çŁ¥
å¦Ĥ åĲĮ
ä¼ĺæĥł æĶ¿çŃĸ
ii i
he ld
- end
Ġrestaur ant
Ġmaxim ize
Ġgradu al
Ġfisher ies
Ġclick ing
Ġa rose
ĠS kin
ĠIn it
ĠCommun ications
ï¼Į å±ķçİ°
é«ĺ æ°´å¹³
è¿ĲåĬ¨ ä¼ļ
çļĦçĥŃ æĥħ
ç» Ĵ
ç«ŀäºī å¯¹æīĭ
æŃ£å¸¸ çļĦ
å¤§ éĺŁ
ä» ĳ
enez uel
at ivity
Ke ep
H uman
4 48
Ġwell being
Ġtreat s
Ġsulf ur
Ġscholars hip
Ġqu otes
Ġperipher al
Ġgra zing
Ġcomp atible
Ġapp les
ĠM RI
æĭ¨ æīĵ
æ£ ķ
åī§ æľ¬
ä»ĺ è´¹
ä¸į éĢĤ
á ¸
w elling
it ations
ache lor
Ġres ort
Ġra mp
Ġpres erving
Ġme g
Ġm as
Ġbackground s
ĠUk raine
ĠIsa ac
ĠInstit utes
ĠIndust ry
ĠE t
ï¼Į åĩŃåĢŁ
çŁŃ æļĤ
çĥ¹ é¥ª
æĽ² çº¿
æĹĭ å¾ĭ
åİŁ æĿ¥çļĦ
u gen
at en
S QL
Ġoblig ations
Ġmist aken
Ġlim bs
Ġharvest ed
Ġexem pl
Ġentreprene urs
ĠProble ms
ĠMc K
çĸ ¡
çīĽçļ®çĻ£ æĤ£èĢħ
æļĳ æľŁ
æĺ¯ä¸Ģ ä½į
[...]
