{
    "Ā": 0,
    "ā": 1,
    "Ă": 2,
    "ă": 3,
    "Ą": 4,
    "ą": 5,
    "Ć": 6,
    "ć": 7,
    "Ĉ": 8,
    "ĉ": 9,
    "Ċ": 10,
    "ċ": 11,
    "Č": 12,
    "č": 13,
    "Ď": 14,
    "ď": 15,
    "Đ": 16,
    "đ": 17,
    "Ē": 18,
    "ē": 19,
    "Ĕ": 20,
    "ĕ": 21,
    "Ė": 22,
    "ė": 23,
    "Ę": 24,
    "ę": 25,
    "Ě": 26,
    "ě": 27,
    "Ĝ": 28,
    "ĝ": 29,
    "Ğ": 30,
    "ğ": 31,
    "Ġ": 32,
    "!": 33,
    "\"": 34,
    "#": 35,
    "$": 36,
    "%": 37,
    "&": 38,
    "'": 39,
    "(": 40,
    ")": 41,
    "*": 42,
    "+": 43,
    ",": 44,
    "-": 45,
    ".": 46,
    "/": 47,
    "0": 48,
    "1": 49,
    "2": 50,
    "3": 51,
    "4": 52,
    "5": 53,
    "6": 54,
    "7": 55,
    "8": 56,
    "9": 57,
    ":": 58,
    ";": 59,
    "<": 60,
    "=": 61,
    ">": 62,
    "?": 63,
    "@": 64,
    "A": 65,
    "B": 66,
    "C": 67,
    "D": 68,
    "E": 69,
    "F": 70,
    "G": 71,
    "H": 72,
    "I": 73,
    "J": 74,
    "K": 75,
    "L": 76,
    "M": 77,
    "N": 78,
    "O": 79,
    "P": 80,
    "Q": 81,
    "R": 82,
    "S": 83,
    "T": 84,
    "U": 85,
    "V": 86,
    "W": 87,
    "X": 88,
    "Y": 89,
    "Z": 90,
    "[": 91,
    "\\": 92,
    "]": 93,
    "^": 94,
    "_": 95,
    "`": 96,
    "a": 97,
    "b": 98,
    "c": 99,
    "d": 100,
    "e": 101,
    "f": 102,
    "g": 103,
    "h": 104,
    "i": 105,
    "j": 106,
    "k": 107,
    "l": 108,
    "m": 109,
    "n": 110,
    "o": 111,
    "p": 112,
    "q": 113,
    "r": 114,
    "s": 115,
    "t": 116,
    "u": 117,
    "v": 118,
    "w": 119,
    "x": 120,
    "y": 121,
    "z": 122,
    "{": 123,
    "|": 124,
    "}": 125,
    "~": 126,
    "ġ": 127,
    "Ģ": 128,
    "ģ": 129,
    "Ĥ": 130,
    "ĥ": 131,
    "Ħ": 132,
    "ħ": 133,
    "Ĩ": 134,
    "ĩ": 135,
    "Ī": 136,
    "ī": 137,
    "Ĭ": 138,
    "ĭ": 139,
    "Į": 140,
    "į": 141,
    "İ": 142,
    "ı": 143,
    "Ĳ": 144,
    "ĳ": 145,
    "Ĵ": 146,
    "ĵ": 147,
    "Ķ": 148,
    "ķ": 149,
    "ĸ": 150,
    "Ĺ": 151,
    "ĺ": 152,
    "Ļ": 153,
    "ļ": 154,
    "Ľ": 155,
    "ľ": 156,
    "Ŀ": 157,
    "ŀ": 158,
    "Ł": 159,
    "ł": 160,
    "¡": 161,
    "¢": 162,
    "£": 163,
    "¤": 164,
    "¥": 165,
    "¦": 166,
    "§": 167,
    "¨": 168,
    "©": 169,
    "ª": 170,
    "«": 171,
    "¬": 172,
    "Ń": 173,
    "®": 174,
    "¯": 175,
    "°": 176,
    "±": 177,
    "²": 178,
    "³": 179,
    "´": 180,
    "µ": 181,
    "¶": 182,
    "·": 183,
    "¸": 184,
    "¹": 185,
    "º": 186,
    "»": 187,
    "¼": 188,
    "½": 189,
    "¾": 190,
    "¿": 191,
    "À": 192,
    "Á": 193,
    "Â": 194,
    "Ã": 195,
    "Ä": 196,
    "Å": 197,
    "Æ": 198,
    "Ç": 199,
    "È": 200,
    "É": 201,
    "Ê": 202,
    "Ë": 203,
    "Ì": 204,
    "Í": 205,
    "Î": 206,
    "Ï": 207,
    "Ð": 208,
    "Ñ": 209,
    "Ò": 210,
    "Ó": 211,
    "Ô": 212,
    "Õ": 213,
    "Ö": 214,
    "×": 215,
    "Ø": 216,
    "Ù": 217,
    "Ú": 218,
    "Û": 219,
    "Ü": 220,
    "Ý": 221,
    "Þ": 222,
    "ß": 223,
    "à": 224,
    "á": 225,
    "â": 226,
    "ã": 227,
    "ä": 228,
    "å": 229,
    "æ": 230,
    "ç": 231,
    "è": 232,
    "é": 233,
    "ê": 234,
    "ë": 235,
    "ì": 236,
    "í": 237,
    "î": 238,
    "ï": 239,
    "ð": 240,
    "ñ": 241,
    "ò": 242,
    "ó": 243,
    "ô": 244,
    "õ": 245,
    "ö": 246,
    "÷": 247,
    "ø": 248,
    "ù": 249,
    "ú": 250,
    "û": 251,
    "ü": 252,
    "ý": 253,
    "þ": 254,
    "ÿ": 255,
    "Ġt": 256,
    "Ġa": 257,
    "he": 258,
    "in": 259,
    "re": 260,
    "Ġthe": 261,
    "on": 262,
    "ä¸": 263,
    "ï¼": 264,
    "er": 265,
    "Ġo": 266,
    "at": 267,
    "Ġs": 268,
    "ï¼Į": 269,
    "en": 270,
    "Ġc": 271,
    "ãĢ": 272,
    "Ġw": 273,
    "es": 274,
    "is": 275,
    "nd": 276,
    "it": 277,
    "or": 278,
    "Ġp": 279,
    "al": 280,
    "çļ": 281,
    "çļĦ": 282,
    "ed": 283,
    "an": 284,
    "Ġb": 285,
    "Ġof": 286,
    "Ġf": 287,
    "ing": 288,
    "Ġin": 289,
    "äº": 290,
    "ar": 291,
    "ou": 292,
    "Ġm": 293,
    "Ġand": 294,
    "Ġto": 295,
    "ic": 296,
    "ion": 297,
    "Ġd": 298,
    "æľ": 299,
    "âĢ": 300,
    "åı": 301,
    "le": 302,
    "ãĢĤ": 303,
    "ro": 304,
    "åħ": 305,
    "as": 306,
    "ä»": 307,
    "Ġh": 308,
    "Ġth": 309,
    "ent": 310,
    "å¤": 311,
    "ct": 312,
    "ãĢģ": 313,
    "Ġe": 314,
    "å®": 315,
    "il": 316,
    "Ġre": 317,
    "åĪ": 318,
    "om": 319,
    "ve": 320,
    "Ġl": 321,
    "st": 322,
    "è¿": 323,
    "Ġn": 324,
    "ä½": 325,
    "åľ": 326,
    "çĶ": 327,
    ".Ċ": 328,
    "åĲ": 329,
    "ly": 330,
    "åĬ": 331,
    "Ġbe": 332,
    "Ġis": 333,
    "æĺ": 334,
    "ĠT": 335,
    "ç»": 336,
    "se": 337,
    "ol": 338,
    "åĽ": 339,
    "Ġg": 340,
    "ation": 341,
    "æĪ": 342,
    "im": 343,
    "æĸ": 344,
    "id": 345,
    "et": 346,
    "å¹": 347,
    "ut": 348,
    "ce": 349,
    "ot": 350,
    "ur": 351,
    "ch": 352,
    "ra": 353,
    "ow": 354,
    "ä¼": 355,
    "ĠA": 356,
    "æĹ": 357,
    "Ġfor": 358,
    "ä¹": 359,
    "ig": 360,
    "è®": 361,
    "ĠS": 362,
    "ä¸Ģ": 363,
    "Ġthat": 364,
    "Ġu": 365,
    "Ġon": 366,
    "åį": 367,
    "ver": 368,
    "Ġst": 369,
    "åŃ": 370,
    "è¯": 371,
    "å°": 372,
    "ĠC": 373,
    "ĠI": 374,
    "Ġy": 375,
    "ir": 376,
    "æĺ¯": 377,
    "ãĢĤĊ": 378,
    "å·": 379,
    "ul": 380,
    "åľ¨": 381,
    "å¸": 382,
    "ay": 383,
    "æĿ": 384,
    "am": 385,
    "el": 386,
    "Ġas": 387,
    "æľī": 388,
    "ith": 389,
    "éĩ": 390,
    "åĮ": 391,
    "ad": 392,
    "åº": 393,
    "her": 394,
    "Ġpro": 395,
    "Ġare": 396,
    "Ġcon": 397,
    "äºº": 398,
    "Ġan": 399,
    "Ġwith": 400,
    "ä¸Ń": 401,
    "å¼": 402,
    "âĢľ": 403,
    "âĢĿ": 404,
    "if": 405,
    "æī": 406,
    "Ġwh": 407,
    "Ġyou": 408,
    "Ġit": 409,
    "Ġor": 410,
    "è¡": 411,
    "Ġal": 412,
    "éĢ": 413,
    "ter": 414,
    "åĴ": 415,
    "od": 416,
    "ĠM": 417,
    "Ġ(": 418,
    "åĨ": 419,
    "èĢ": 420,
    "çĽ": 421,
    "ä¸º": 422,
    "ĠThe": 423,
    "ä¸į": 424,
    "åĴĮ": 425,
    "åĩ": 426,
    "æķ": 427,
    "æĬ": 428,
    "ment": 429,
    "ĠP": 430,
    "å±": 431,
    "ge": 432,
    "äºĨ": 433,
    "å¯": 434,
    "å¾": 435,
    "20": 436,
    "th": 437,
    "ä¸ļ": 438,
    "è´": 439,
    "æł": 440,
    "åĽ½": 441,
    "op": 442,
    "å¤§": 443,
    "å¹´": 444,
    "ĥ½": 445,
    "ist": 446,
    "ç§": 447,
    "ate": 448,
    "ers": 449,
    "Ġde": 450,
    "èµ": 451,
    "è§": 452,
    "ill": 453,
    "ĠB": 454,
    "ies": 455,
    "ab": 456,
    "Ġhe": 457,
    "ess": 458,
    "us": 459,
    "Ġex": 460,
    "éĻ": 461,
    "çİ": 462,
    "âĢĻ": 463,
    "ore": 464,
    "Ġwe": 465,
    "ect": 466,
    "Ġsu": 467,
    "Ġcom": 468,
    "æ°": 469,
    "çī": 470,
    "ity": 471,
    "æĢ": 472,
    "æĶ": 473,
    "est": 474,
    "ac": 475,
    "res": 476,
    "ive": 477,
    "åŃ¦": 478,
    "çĶŁ": 479,
    "Ġha": 480,
    "ĠH": 481,
    "ä»¥": 482,
    "um": 483,
    "ld": 484,
    "rom": 485,
    "os": 486,
    "Ġv": 487,
    "ke": 488,
    "Ġby": 489,
    "em": 490,
    "ant": 491,
    "iv": 492,
    "çº": 493,
    "qu": 494,
    "ĠW": 495,
    "åıĳ": 496,
    "ain": 497,
    "nt": 498,
    "pp": 499,
    "Ġat": 500,
    "åİ": 501,
    "å¥": 502,
    "å½": 503,
    "å¿": 504,
    "ĠD": 505,
    "igh": 506,
    "èĩ": 507,
    "çŃ": 508,
    "Ġwas": 509,
    "ä¸Ĭ": 510,
    "ud": 511,
    "ĠE": 512,
    "ä¿": 513,
    "æŃ": 514,
    "Ġcan": 515,
    "ä¼ļ": 516,
    "çĶ¨": 517,
    "Ġfrom": 518,
    "çĲ": 519,
    "and": 520,
    "oc": 521,
    "ĠR": 522,
    "æ³": 523,
    "Ġch": 524,
    "éĹ": 525,
    "Ġr": 526,
    "å·¥": 527,
    "ort": 528,
    "åĳ": 529,
    "æµ": 530,
    "Ġne": 531,
    "éĿ": 532,
    "ĠF": 533,
    "æİ": 534,
    "¦ģ": 535,
    "èĥ½": 536,
    "ä¸ª": 537,
    "Ġse": 538,
    "ä½ľ": 539,
    "ial": 540,
    "æĹ¶": 541,
    "è¡Į": 542,
    "è¦ģ": 543,
    "æĪĲ": 544,
    "ure": 545,
    "Ġnot": 546,
    "un": 547,
    "art": 548,
    "ĠG": 549,
    "ĠN": 550,
    "åĵ": 551,
    "ical": 552,
    "Ġle": 553,
    "æŀ": 554,
    "Ġhave": 555,
    "åŁ": 556,
    "ri": 557,
    "äºİ": 558,
    "ĠL": 559,
    "åħ¬": 560,
    "é¢": 561,
    "og": 562,
    "æ¯": 563,
    "è¿Ļ": 564,
    "æ²": 565,
    "Ġsh": 566,
    "è¾": 567,
    "æĪĳ": 568,
    "åĪ°": 569,
    "Ġen": 570,
    "å¯¹": 571,
    "åľ°": 572,
    "å®¶": 573,
    "è½": 574,
    "Ġthis": 575,
    "æĿ¥": 576,
    "Ġsp": 577,
    "æĭ": 578,
    "äº§": 579,
    "åĩº": 580,
    "åı¯": 581,
    "ight": 582,
    "pt": 583,
    "Ġab": 584,
    "rou": 585,
    "ich": 586,
    "æ±": 587,
    "åī": 588,
    "red": 589,
    "Ġwor": 590,
    "all": 591,
    "æĮ": 592,
    "éĺ": 593,
    "çĲĨ": 594,
    "ther": 595,
    "gh": 596,
    "The": 597,
    "ould": 598,
    "é«": 599,
    "ions": 600,
    "our": 601,
    "ost": 602,
    "ome": 603,
    "çľ": 604,
    "é«ĺ": 605,
    "âĢĻs": 606,
    "çŃī": 607,
    "19": 608,
    "ç«": 609,
    "å¤ļ": 610,
    "æĸ°": 611,
    "Ġim": 612,
    "du": 613,
    "æ¸": 614,
    "ated": 615,
    "åĪĨ": 616,
    "ine": 617,
    "æĥ": 618,
    "Ġus": 619,
    "ard": 620,
    "per": 621,
    "ç®": 622,
    "ä¾": 623,
    "å¸Ĥ": 624,
    "out": 625,
    "ag": 626,
    "æĸ¹": 627,
    "Ġpl": 628,
    "åħ¨": 629,
    "ç»ı": 630,
    "åĬ¨": 631,
    "è¿Ľ": 632,
    "ä»¬": 633,
    "ç½": 634,
    "Ġtheir": 635,
    "ell": 636,
    "ide": 637,
    "ff": 638,
    "èĤ": 639,
    "act": 640,
    "åĮĸ": 641,
    "ä¸İ": 642,
    "ĠO": 643,
    "ans": 644,
    "Ġint": 645,
    "æ´": 646,
    "pl": 647,
    "ast": 648,
    "æĦ": 649,
    "ear": 650,
    "00": 651,
    "æĹ¥": 652,
    "201": 653,
    "éķ": 654,
    "å»": 655,
    "age": 656,
    "ust": 657,
    "èĩª": 658,
    "éĥ": 659,
    "ak": 660,
    "è¿ĩ": 661,
    "çİ°": 662,
    "ĠJ": 663,
    "ä½ĵ": 664,
    "åĲĪ": 665,
    "Ġwhich": 666,
    "æ¬": 667,
    "Ġk": 668,
    "ç¨": 669,
    "åĬĽ": 670,
    "ec": 671,
    "Ġwhe": 672,
    "ous": 673,
    "Ġyour": 674,
    "Ġthey": 675,
    "æľº": 676,
    "åĵģ": 677,
    "ĠU": 678,
    "iz": 679,
    "ä¸ĭ": 680,
    "åĲĮ": 681,
    "å®ŀ": 682,
    "ib": 683,
    "ood": 684,
    "é¡": 685,
    "Ġall": 686,
    "æľĪ": 687,
    "ult": 688,
    "å±ķ": 689,
    "Ġad": 690,
    "åĲİ": 691,
    "ĠIn": 692,
    "æı": 693,
    "å¼Ģ": 694,
    "Ġcont": 695,
    "Ġwill": 696,
    "ä¹Ł": 697,
    "Ġinc": 698,
    "end": 699,
    "ia": 700,
    "cc": 701,
    "ï¼ļ": 702,
    "ru": 703,
    "Ġdis": 704,
    "ap": 705,
    "Ġmore": 706,
    "ong": 707,
    "è®¾": 708,
    "éĥ¨": 709,
    "ä»ĸ": 710,
    "ip": 711,
    "Ġcomp": 712,
    "å»º": 713,
    "éģ": 714,
    "ew": 715,
    "Ġres": 716,
    "ations": 717,
    "vel": 718,
    "Ġhas": 719,
    "èģ": 720,
    "æľ¬": 721,
    "éĿ¢": 722,
    "ere": 723,
    "æĽ": 724,
    "åıĬ": 725,
    "å®ļ": 726,
    "ï¼ī": 727,
    "å¦": 728,
    "æĢ§": 729,
    "ï¼Ī": 730,
    "so": 731,
    "å¢": 732,
    "çĶµ": 733,
    "orm": 734,
    "Ġdo": 735,
    "ä¸»": 736,
    "åĬ¡": 737,
    "æ³ķ": 738,
    "åħ¶": 739,
    "ary": 740,
    "ater": 741,
    "ä¹ĭ": 742,
    "éĽ": 743,
    "åģ": 744,
    "å°±": 745,
    "ç¤": 746,
    "ĠTh": 747,
    "éķ¿": 748,
    "ç¬": 749,
    "åĬł": 750,
    "ence": 751,
    "are": 752,
    "é£": 753,
    "ild": 754,
    "èī": 755,
    "able": 756,
    "Ġother": 757,
    "Ġman": 758,
    "Ġcl": 759,
    "ual": 760,
    "éĩį": 761,
    "çĤ": 762,
    "ks": 763,
    "åº¦": 764,
    "èµĦ": 765,
    "è·": 766,
    "åħ³": 767,
    "Ġbut": 768,
    "èĢħ": 769,
    "è¶": 770,
    "æĻ": 771,
    "æį": 772,
    "å¿ĥ": 773,
    "Ġwere": 774,
    "ĠâĢľ": 775,
    "ry": 776,
    "èĢĮ": 777,
    "éĢļ": 778,
    "åĮº": 779,
    "ind": 780,
    "æıĲ": 781,
    "åľº": 782,
    "å¾Ĺ": 783,
    "çŁ": 784,
    "åı¸": 785,
    "åīį": 786,
    "çĻ": 787,
    "ep": 788,
    "ance": 789,
    "Ġper": 790,
    "ach": 791,
    "Ġone": 792,
    "æ°´": 793,
    "Ġme": 794,
    "Ġalso": 795,
    "Ġte": 796,
    "Ġimp": 797,
    "ents": 798,
    "åĪ¶": 799,
    "'s": 800,
    "ç¾": 801,
    "å°Ĩ": 802,
    "éĩı": 803,
    "ose": 804,
    "åĨħ": 805,
    "çł": 806,
    "reat": 807,
    "åĿ": 808,
    "æīĢ": 809,
    "ass": 810,
    "ign": 811,
    "ake": 812,
    "ress": 813,
    "è°": 814,
    "çĽ®": 815,
    "ase": 816,
    "au": 817,
    "åŃĲ": 818,
    "ç®¡": 819,
    "av": 820,
    "çī©": 821,
    "å¥½": 822,
    "åºĶ": 823,
    "æ¶": 824,
    "ition": 825,
    "æĬĢ": 826,
    "ç©": 827,
    "ĠâĢ": 828,
    "Ġso": 829,
    "æĸĩ": 830,
    "æķĻ": 831,
    "Ġj": 832,
    "åħ¬åı¸": 833,
    "ice": 834,
    "ç³": 835,
    "ction": 836,
    "Ġout": 837,
    "æľĢ": 838,
    "ber": 839,
    "Ġun": 840,
    "one": 841,
    "äºĭ": 842,
    "Ġar": 843,
    "very": 844,
    "Ġpart": 845,
    "ime": 846,
    "ç¨ĭ": 847,
    "ä½į": 848,
    "Ġapp": 849,
    "æľ¯": 850,
    "å¦Ĥ": 851,
    "ä¿Ŀ": 852,
    "ok": 853,
    "ord": 854,
    "è®¡": 855,
    "Ġabout": 856,
    "ace": 857,
    "èĬ": 858,
    "éĹ´": 859,
    "Ġev": 860,
    "ens": 861,
    "ĠSt": 862,
    "å°ı": 863,
    "10": 864,
    "ish": 865,
    "Ġwho": 866,
    "Ġstud": 867,
    "èĲ": 868,
    "ory": 869,
    "ire": 870,
    "éļ": 871,
    "ount": 872,
    "ame": 873,
    "çĸ": 874,
    "ack": 875,
    "éĥ½": 876,
    "åĳĺ": 877,
    "200": 878,
    "ï¼Ľ": 879,
    "çĿ": 880,
    "å§": 881,
    "åĢ": 882,
    "æľŁ": 883,
    "æ¯Ķ": 884,
    "Ġpe": 885,
    "ub": 886,
    "Ġhis": 887,
    "Ġinf": 888,
    "åħ¥": 889,
    "éħ": 890,
    "ç¬¬": 891,
    "çĽ¸": 892,
    "ĠK": 893,
    "Ġcomm": 894,
    "Ġsy": 895,
    "å¤ĸ": 896,
    "Ġthem": 897,
    "ors": 898,
    "å¤©": 899,
    "Ġsc": 900,
    "ue": 901,
    "å¹¶": 902,
    "ang": 903,
    "ite": 904,
    "ç§ĳ": 905,
    "ces": 906,
    "æŁ": 907,
    "ç³»": 908,
    "çķ": 909,
    "ike": 910,
    "ç§į": 911,
    "Ġ\"": 912,
    "ound": 913,
    "æķ°": 914,
    "ç±": 915,
    "ree": 916,
    "åĲį": 917,
    "olog": 918,
    "ãĢĭ": 919,
    "now": 920,
    "éĩĳ": 921,
    "low": 922,
    "ãĢĬ": 923,
    "è¡¨": 924,
    "ĠIt": 925,
    "Ġbec": 926,
    "Ġup": 927,
    "çĤ¹": 928,
    "ä¿¡": 929,
    "æĥħ": 930,
    "Ġpre": 931,
    "ie": 932,
    "åĽł": 933,
    "Ġthan": 934,
    "æĽ´": 935,
    "çĹ": 936,
    "ç½ĳ": 937,
    "éĶ": 938,
    "ric": 939,
    "ĠCh": 940,
    "ile": 941,
    "Ġmay": 942,
    "éľ": 943,
    "ä¼ģ": 944,
    "æģ": 945,
    "ä¸ī": 946,
    "å¹³": 947,
    "Ġqu": 948,
    "å½ĵ": 949,
    "å®ī": 950,
    "iff": 951,
    "åħĥ": 952,
    "Ġsome": 953,
    "ä»İ": 954,
    "ä¸ŃåĽ½": 955,
    "ian": 956,
    "ople": 957,
    "çĦ": 958,
    "çĥ": 959,
    "åıĳå±ķ": 960,
    "Ġyear": 961,
    "ays": 962,
    "ç¡": 963,
    "Ġrec": 964,
    "ail": 965,
    "ä¸ĵ": 966,
    "nder": 967,
    "ates": 968,
    "ings": 969,
    "Ġthere": 970,
    "åĪ©": 971,
    "æĪĳä»¬": 972,
    "å·¥ä½ľ": 973,
    "ç¾İ": 974,
    "Ġbeen": 975,
    "Ġwhen": 976,
    "æ°ĳ": 977,
    "è¯´": 978,
    "è´¨": 979,
    "mer": 980,
    "ough": 981,
    "æ´»": 982,
    "æ¬¡": 983,
    "åŁº": 984,
    "ph": 985,
    "Ġits": 986,
    "é¡¹": 987,
    "ä¼ģä¸ļ": 988,
    "Ġag": 989,
    "Ġinto": 990,
    "è¿ĺ": 991,
    "Ġgo": 992,
    "ren": 993,
    "æĶ¿": 994,
    "éģĵ": 995,
    "vers": 996,
    "ĠV": 997,
    "è½¦": 998,
    "æŃ¤": 999,
    "Ġtime": 1000,
    "æĦı": 1001,
    "çī¹": 1002,
    "å¼ı": 1003,
    "Ġtra": 1004,
    "éĵ": 1005,
    "æĺİ": 1006,
    "Ġwork": 1007,
    "ç´": 1008,
    "rit": 1009,
    "erv": 1010,
    "te": 1011,
    "èĭ": 1012,
    "ä½¿": 1013,
    "Ġthese": 1014,
    "éĻ¢": 1015,
    "ons": 1016,
    "ĠThis": 1017,
    "åķ": 1018,
    "Ġover": 1019,
    "æľį": 1020,
    "ä»£": 1021,
    "ally": 1022,
    "Ġpeople": 1023,
    "rough": 1024,
    "æį®": 1025,
    "æĪĸ": 1026,
    "Ġhow": 1027,
    "lud": 1028,
    "Ġdiff": 1029,
    "ç²": 1030,
    "è§Ħ": 1031,
    "åĲĦ": 1032,
    "é¦": 1033,
    "ond": 1034,
    "Ġtr": 1035,
    "ause": 1036,
    "Ġhad": 1037,
    "tern": 1038,
    "ms": 1039,
    "Ġcons": 1040,
    "ove": 1041,
    "ll": 1042,
    "æĹł": 1043,
    "Ġro": 1044,
    "Ġcol": 1045,
    "çĿĢ": 1046,
    "ä¸Ģä¸ª": 1047,
    "Ġuse": 1048,
    "we": 1049,
    "çłĶ": 1050,
    "èĪ": 1051,
    "Ġour": 1052,
    "Ġra": 1053,
    "çĦ¶": 1054,
    "ç¥": 1055,
    "æłĩ": 1056,
    "ific": 1057,
    "Ġact": 1058,
    "å¸¸": 1059,
    "æ·": 1060,
    "èµ·": 1061,
    "int": 1062,
    "ä½Ĩ": 1063,
    "Ġbet": 1064,
    "æ¡": 1065,
    "Ġmost": 1066,
    "Ġunder": 1067,
    "lic": 1068,
    "ook": 1069,
    "å¢ŀ": 1070,
    "18": 1071,
    "ities": 1072,
    "Ġknow": 1073,
    "ys": 1074,
    "irst": 1075,
    "ments": 1076,
    "lect": 1077,
    "æº": 1078,
    "Ġlike": 1079,
    "å£": 1080,
    "alth": 1081,
    "Ġsa": 1082,
    "Ġwould": 1083,
    "å¾Ī": 1084,
    "Ġbl": 1085,
    "èį": 1086,
    "ä¸ĩ": 1087,
    "åŀ": 1088,
    "Ġdes": 1089,
    "ning": 1090,
    "ject": 1091,
    "Ġacc": 1092,
    "åĪĽ": 1093,
    "ious": 1094,
    "ĠY": 1095,
    "les": 1096,
    "row": 1097,
    "æŀľ": 1098,
    "velop": 1099,
    "éĤ": 1100,
    ").": 1101,
    "æŃ£": 1102,
    "æĬ¥": 1103,
    "stem": 1104,
    "é£İ": 1105,
    "å¼º": 1106,
    "éĩĮ": 1107,
    "çĶ±": 1108,
    "è¢": 1109,
    "åķĨ": 1110,
    "Ġtw": 1111,
    "Ġnew": 1112,
    "Ġrel": 1113,
    "Ġneed": 1114,
    "æĬĢæľ¯": 1115,
    "æĮģ": 1116,
    "éĢł": 1117,
    "Ġsuch": 1118,
    "éĴ": 1119,
    "ç¼": 1120,
    "èĥ": 1121,
    "ä»¶": 1122,
    "ç»Ł": 1123,
    "æĤ": 1124,
    "Ġif": 1125,
    "ob": 1126,
    "Ġrep": 1127,
    "ational": 1128,
    "åı¯ä»¥": 1129,
    "ffect": 1130,
    "ient": 1131,
    "å¤Ħ": 1132,
    "å·²": 1133,
    "Ġchild": 1134,
    "Ġinclud": 1135,
    "çº§": 1136,
    "è¿Ĳ": 1137,
    "Ġany": 1138,
    "æł¡": 1139,
    "Ġhel": 1140,
    "ative": 1141,
    "åħ·": 1142,
    "æµ·": 1143,
    "äº¤": 1144,
    "è§£": 1145,
    "Ġgen": 1146,
    "hed": 1147,
    "ple": 1148,
    "cess": 1149,
    "èĩ³": 1150,
    "ç»Ħ": 1151,
    "è·¯": 1152,
    "Ġwhat": 1153,
    "äºĽ": 1154,
    "éĽĨ": 1155,
    "æ±Ĥ": 1156,
    "ular": 1157,
    "ç»ĵ": 1158,
    "Ġonly": 1159,
    "ov": 1160,
    "Ġhelp": 1161,
    "Ġpr": 1162,
    "äºĮ": 1163,
    "æĶ¶": 1164,
    "Ġused": 1165,
    "ced": 1166,
    "yp": 1167,
    "Ġprov": 1168,
    "ating": 1169,
    "Ġph": 1170,
    "çģ": 1171,
    "åįķ": 1172,
    "ç«ĭ": 1173,
    "),": 1174,
    "è¥": 1175,
    "ool": 1176,
    "éľĢ": 1177,
    "ä»»": 1178,
    "æµģ": 1179,
    "Ġno": 1180,
    "Ġprodu": 1181,
    "èĤ²": 1182,
    "æľįåĬ¡": 1183,
    "Ġind": 1184,
    "Ġmany": 1185,
    "å¯¼": 1186,
    "è¥¿": 1187,
    "ĠUn": 1188,
    "æĢ»": 1189,
    "Ġthrough": 1190,
    "æīĭ": 1191,
    "Ġdevelop": 1192,
    "Ġoff": 1193,
    "Ġam": 1194,
    "éĹ¨": 1195,
    "é¢ĺ": 1196,
    "Ġfirst": 1197,
    "æ°Ķ": 1198,
    "çº¿": 1199,
    "æİ¥": 1200,
    "âĢĶ": 1201,
    "éª": 1202,
    "è¢«": 1203,
    "èģĶ": 1204,
    "çľĭ": 1205,
    "ark": 1206,
    "oss": 1207,
    "ä¼ł": 1208,
    "ics": 1209,
    "çĪ": 1210,
    "Ġfe": 1211,
    "ï¼Įåľ¨": 1212,
    "fter": 1213,
    "ç¤º": 1214,
    "ne": 1215,
    "Ġspec": 1216,
    "åŁİ": 1217,
    "ise": 1218,
    "iet": 1219,
    "uc": 1220,
    "ath": 1221,
    "è¾¾": 1222,
    "åĲĳ": 1223,
    "round": 1224,
    "åŀĭ": 1225,
    "Ġpo": 1226,
    "å¸Ī": 1227,
    "Ġreg": 1228,
    "å½±": 1229,
    "Ġem": 1230,
    "çľģ": 1231,
    "Ġac": 1232,
    "12": 1233,
    "çĲĥ": 1234,
    "æ¸¸": 1235,
    "erm": 1236,
    "åıĹ": 1237,
    "æł¼": 1238,
    "åĮ»": 1239,
    "ä¾Ľ": 1240,
    "Ġexp": 1241,
    "ts": 1242,
    "çİ¯": 1243,
    "rib": 1244,
    "uring": 1245,
    "è£": 1246,
    "æ»": 1247,
    "å¹¿": 1248,
    "åįĹ": 1249,
    "hen": 1250,
    "ful": 1251,
    "åİŁ": 1252,
    "ink": 1253,
    "Ġtwo": 1254,
    "ä¸ľ": 1255,
    "ç®¡çĲĨ": 1256,
    "å¤ĩ": 1257,
    "èİ": 1258,
    "Ġsystem": 1259,
    "old": 1260,
    "åįģ": 1261,
    "ç¤¾": 1262,
    "æºĲ": 1263,
    "èº": 1264,
    "oth": 1265,
    "iss": 1266,
    "çĹħ": 1267,
    "eth": 1268,
    "Ġdiffere": 1269,
    "ä½ł": 1270,
    "ied": 1271,
    "èĮ": 1272,
    "ility": 1273,
    "çŁ¥": 1274,
    "è¿Ľè¡Į": 1275,
    "åĸ": 1276,
    "ible": 1277,
    "Ġ-": 1278,
    "Ġob": 1279,
    "Ġdec": 1280,
    "Ġass": 1281,
    "åİ»": 1282,
    "èī²": 1283,
    "als": 1284,
    "èĲ¥": 1285,
    "Ġatt": 1286,
    "æĦŁ": 1287,
    "é©": 1288,
    "Ġadd": 1289,
    "rop": 1290,
    "ased": 1291,
    "ten": 1292,
    "Ġsur": 1293,
    "æĸĻ": 1294,
    "äº§åĵģ": 1295,
    "ife": 1296,
    "èº«": 1297,
    "ĠâĢĵ": 1298,
    "æķĪ": 1299,
    "åħ±": 1300,
    "åı°": 1301,
    "åĮĹ": 1302,
    "ä¸¤": 1303,
    "15": 1304,
    "In": 1305,
    "aw": 1306,
    "ange": 1307,
    "ĠHe": 1308,
    "ng": 1309,
    "ert": 1310,
    "ä»·": 1311,
    "ç¦": 1312,
    "åģļ": 1313,
    "æł·": 1314,
    "ä¸ĸ": 1315,
    "å±±": 1316,
    "ram": 1317,
    "åĽ¢": 1318,
    "ower": 1319,
    "Ġshould": 1320,
    "ä¼ĺ": 1321,
    "fore": 1322,
    "èµĽ": 1323,
    "æ²»": 1324,
    "arch": 1325,
    "ures": 1326,
    "Ġsupp": 1327,
    "Ġfl": 1328,
    "èĦ": 1329,
    "Ġwell": 1330,
    "ç±»": 1331,
    "ble": 1332,
    "éĹ®": 1333,
    "ween": 1334,
    "åħĪ": 1335,
    "è¯ģ": 1336,
    "Ġwater": 1337,
    "Ġrem": 1338,
    "æĬķ": 1339,
    "åıĺ": 1340,
    "Ġyears": 1341,
    "ract": 1342,
    "sel": 1343,
    "Ġco": 1344,
    "Ġinv": 1345,
    "é¢Ĩ": 1346,
    "åĻ": 1347,
    "Ġsub": 1348,
    "own": 1349,
    "?Ċ": 1350,
    "æİ¨": 1351,
    "æ£": 1352,
    "gan": 1353,
    "ade": 1354,
    "å²": 1355,
    "èĢĥ": 1356,
    "åĽ½å®¶": 1357,
    ":Ċ": 1358,
    "æ²¡": 1359,
    "ution": 1360,
    "ï¼Įè¿Ļ": 1361,
    "èĬĤ": 1362,
    "Ġsm": 1363,
    "æĸ½": 1364,
    "å½¢": 1365,
    "åĩĨ": 1366,
    "its": 1367,
    "Ġcould": 1368,
    "Ġbetween": 1369,
    "è°ĥ": 1370,
    "hes": 1371,
    "Ġhealth": 1372,
    "è®¤": 1373,
    "Ġpres": 1374,
    "è®©": 1375,
    "ä¹¦": 1376,
    "Ġwhere": 1377,
    "cy": 1378,
    "æĥ³": 1379,
    "ick": 1380,
    "åĬŀ": 1381,
    "Ġhigh": 1382,
    "å·±": 1383,
    "æĪ·": 1384,
    "ç©¶": 1385,
    "Ġtrans": 1386,
    "æĶ¹": 1387,
    "å¸ĥ": 1388,
    "æģ¯": 1389,
    "wn": 1390,
    "éĺŁ": 1391,
    "ï¼Įä½Ĩ": 1392,
    "ï¼Įå¹¶": 1393,
    "å°ĳ": 1394,
    "åĻ¨": 1395,
    "Ġmake": 1396,
    "å®Į": 1397,
    "æ¯ı": 1398,
    "åĶ": 1399,
    "ily": 1400,
    "ever": 1401,
    "uch": 1402,
    "ss": 1403,
    "æ®": 1404,
    "éĻħ": 1405,
    "xt": 1406,
    "éĢī": 1407,
    "ä¹Ī": 1408,
    "çķĮ": 1409,
    "Ġget": 1410,
    "æ¼": 1411,
    "è´¹": 1412,
    "Ġher": 1413,
    "ants": 1414,
    "Ġpers": 1415,
    "ology": 1416,
    "åĪ«": 1417,
    "Ġear": 1418,
    "form": 1419,
    "ident": 1420,
    "çĻ½": 1421,
    "Ġrese": 1422,
    "èĩªå·±": 1423,
    "åı£": 1424,
    "chn": 1425,
    "Ġimport": 1426,
    "Ġbu": 1427,
    "ural": 1428,
    "æĿ¡": 1429,
    "å¸Ĥåľº": 1430,
    "ience": 1431,
    "ited": 1432,
    "åıĸ": 1433,
    "ivers": 1434,
    "Ġinter": 1435,
    "11": 1436,
    "30": 1437,
    "chool": 1438,
    "è¾ĥ": 1439,
    "Ġpol": 1440,
    "ç²¾": 1441,
    "meric": 1442,
    "å¸¦": 1443,
    "æŀĦ": 1444,
    "åıĤ": 1445,
    "çĽ´": 1446,
    "land": 1447,
    "Ġform": 1448,
    "ting": 1449,
    "åıª": 1450,
    "è¯¥": 1451,
    "æĶ¯": 1452,
    "Ġdisc": 1453,
    "è®°": 1454,
    "Ġnum": 1455,
    "é¡¹çĽ®": 1456,
    "Ġmod": 1457,
    "æĮĩ": 1458,
    "æĶ¾": 1459,
    "Ġinst": 1460,
    "å®¢": 1461,
    "ä»Ĭ": 1462,
    "ont": 1463,
    "ines": 1464,
    "åĽĽ": 1465,
    "é»": 1466,
    "Ġexam": 1467,
    "çĥŃ": 1468,
    "Ġfound": 1469,
    "ict": 1470,
    "ç©º": 1471,
    "æ³¨": 1472,
    "ists": 1473,
    "åįİ": 1474,
    "åħī": 1475,
    "ef": 1476,
    "âĢĻt": 1477,
    "æ¨": 1478,
    "ins": 1479,
    "çłĶç©¶": 1480,
    "æķ´": 1481,
    "ï¼Įä¸į": 1482,
    "è¿ĳ": 1483,
    "éĻĲ": 1484,
    "Ġbecause": 1485,
    "Ġlear": 1486,
    "Ġmed": 1487,
    "è§Ĩ": 1488,
    "éĺ²": 1489,
    "gy": 1490,
    "hat": 1491,
    "ata": 1492,
    "Ġlar": 1493,
    "ually": 1494,
    "çħ": 1495,
    "åĮħ": 1496,
    "è§Ĥ": 1497,
    "å»ºè®¾": 1498,
    "Ġafter": 1499,
    "Ġworld": 1500,
    "oy": 1501,
    "Ġsim": 1502,
    "Ġthen": 1503,
    "urn": 1504,
    ")Ċ": 1505,
    "Ġinform": 1506,
    "ism": 1507,
    "Ġdifferent": 1508,
    "Ġeven": 1509,
    "Ġlong": 1510,
    "ness": 1511,
    "Ġcent": 1512,
    "ft": 1513,
    "Ġvery": 1514,
    "Ġjust": 1515,
    "å¢ĥ": 1516,
    "æ·±": 1517,
    "Ġcar": 1518,
    "Ġexper": 1519,
    "Ġincre": 1520,
    "éĤ£": 1521,
    "Ġeffect": 1522,
    "éĿŀ": 1523,
    "å±Ģ": 1524,
    "æ¶Ī": 1525,
    "Ġway": 1526,
    "âĢĿĊ": 1527,
    "æŃ¥": 1528,
    "Ġhum": 1529,
    "other": 1530,
    "Ġdet": 1531,
    "ature": 1532,
    "ç¡®": 1533,
    "è£ħ": 1534,
    "cept": 1535,
    "get": 1536,
    "Ġcount": 1537,
    "èĻ": 1538,
    "Ġed": 1539,
    "éªĮ": 1540,
    "Ġtyp": 1541,
    "Ġsee": 1542,
    "aking": 1543,
    "ĠAmeric": 1544,
    "æµİ": 1545,
    "vent": 1546,
    "èĢģ": 1547,
    "ç»Ń": 1548,
    "ically": 1549,
    "Ġref": 1550,
    "å¤į": 1551,
    "Ġthose": 1552,
    "æķĻèĤ²": 1553,
    "åĽŀ": 1554,
    "Ġresp": 1555,
    "æ¢": 1556,
    "ollow": 1557,
    "è¯ķ": 1558,
    "ives": 1559,
    "Ġke": 1560,
    "ä¹Ĳ": 1561,
    "ç»Ļ": 1562,
    "å®¹": 1563,
    "æĪĺ": 1564,
    "Ġsign": 1565,
    "äº¿": 1566,
    "çĬ": 1567,
    "å§Ķ": 1568,
    "éĢļè¿ĩ": 1569,
    "æīį": 1570,
    "Ġvar": 1571,
    "16": 1572,
    "åĬŁ": 1573,
    "Ġprog": 1574,
    "Ġcall": 1575,
    "ç«Ļ": 1576,
    "Ġgener": 1577,
    "Ġpub": 1578,
    "cer": 1579,
    "èģĮ": 1580,
    "æ¹": 1581,
    "åĨ³": 1582,
    "iew": 1583,
    "199": 1584,
    "æĸ¯": 1585,
    "Ġchildren": 1586,
    "æīĵ": 1587,
    "å·ŀ": 1588,
    "Ġevery": 1589,
    "æĹ¶éĹ´": 1590,
    "çĶŁäº§": 1591,
    "ä½İ": 1592,
    "éĢŁ": 1593,
    "çİĩ": 1594,
    "Ġsaid": 1595,
    "æ²¡æľī": 1596,
    "ä½¿çĶ¨": 1597,
    "..": 1598,
    "omm": 1599,
    "arm": 1600,
    "Ġsoc": 1601,
    "ps": 1602,
    "ues": 1603,
    "Ġext": 1604,
    "17": 1605,
    "åĳĬ": 1606,
    "æıĲä¾Ľ": 1607,
    "å®ĥ": 1608,
    "æĬ¤": 1609,
    "ork": 1610,
    "åĬ©": 1611,
    "ck": 1612,
    "è½¬": 1613,
    "Ġpat": 1614,
    "éŁ": 1615,
    "ds": 1616,
    "åı·": 1617,
    "Ġprocess": 1618,
    "ï¼Įä»¥": 1619,
    "Ġbeing": 1620,
    "Ġresult": 1621,
    "Ġfact": 1622,
    "Ġsec": 1623,
    "Ġloc": 1624,
    "ases": 1625,
    "æĿĥ": 1626,
    "Ġeach": 1627,
    "tle": 1628,
    "led": 1629,
    "Ġpartic": 1630,
    "èİ·": 1631,
    "iron": 1632,
    "Ġca": 1633,
    "Th": 1634,
    "çĸĹ": 1635,
    "ç§¯": 1636,
    "Ġlife": 1637,
    "Ġset": 1638,
    "æ¨¡": 1639,
    "æĺĵ": 1640,
    "ruct": 1641,
    "ĠAl": 1642,
    "é¥": 1643,
    "Ġimportant": 1644,
    "æĿĲ": 1645,
    "ï¼ĮèĢĮ": 1646,
    "ï¼Ł": 1647,
    "ĠPro": 1648,
    "é£Ł": 1649,
    "Ġgra": 1650,
    "å·¥ç¨ĭ": 1651,
    "åįĩ": 1652,
    "è±": 1653,
    "Ġcommun": 1654,
    "Ġtechn": 1655,
    "ages": 1656,
    "çº¦": 1657,
    "ody": 1658,
    "ç§°": 1659,
    "vern": 1660,
    "å¿«": 1661,
    "ĠWe": 1662,
    "50": 1663,
    "ç¥ŀ": 1664,
    "ather": 1665,
    "Ġdist": 1666,
    "è¶ħ": 1667,
    "æľª": 1668,
    "Ġinformation": 1669,
    "Ġrequ": 1670,
    "cent": 1671,
    "Ġmuch": 1672,
    "Ġshe": 1673,
    "Ġmy": 1674,
    "io": 1675,
    "è®®": 1676,
    "é¦ĸ": 1677,
    "ç»ıæµİ": 1678,
    "ved": 1679,
    "Ġcre": 1680,
    "Ġdep": 1681,
    "ä¸ĵä¸ļ": 1682,
    "Ġmon": 1683,
    "Ġfam": 1684,
    "å¼ķ": 1685,
    "è´£": 1686,
    "ï¼Įä¹Ł": 1687,
    "æŁ¥": 1688,
    "åĪĴ": 1689,
    "Ġdef": 1690,
    "Ġart": 1691,
    "ward": 1692,
    "ized": 1693,
    "Ġfollow": 1694,
    "Ġown": 1695,
    "Ġduring": 1696,
    "imes": 1697,
    "çľŁ": 1698,
    "Ġent": 1699,
    "Ġread": 1700,
    "ices": 1701,
    "Ġright": 1702,
    "Ġfood": 1703,
    "ç¤¾ä¼ļ": 1704,
    "ä»ĸä»¬": 1705,
    "Ġlevel": 1706,
    "å¤´": 1707,
    "gg": 1708,
    "Ġstudents": 1709,
    "Ġsame": 1710,
    "14": 1711,
    "ĠAs": 1712,
    "æİ§": 1713,
    "ĠThey": 1714,
    "Ġlead": 1715,
    "éĹ®é¢ĺ": 1716,
    "æł¹": 1717,
    "åĨľ": 1718,
    "éĩĩ": 1719,
    "ĠRe": 1720,
    "hip": 1721,
    "è¯·": 1722,
    "æ¡Ī": 1723,
    "è¡Įä¸ļ": 1724,
    "æĢģ": 1725,
    "åŁŁ": 1726,
    "æ¸ħ": 1727,
    "èīº": 1728,
    "ection": 1729,
    "è§ģ": 1730,
    "åŃ¦çĶŁ": 1731,
    "Ġmade": 1732,
    "ï¼Įæĺ¯": 1733,
    "Ġsk": 1734,
    "äºĶ": 1735,
    "Ġdoes": 1736,
    "ç´ł": 1737,
    "Ġaut": 1738,
    "è®¾è®¡": 1739,
    "è¶Ĭ": 1740,
    "é¢Ħ": 1741,
    "any": 1742,
    "åĢ¼": 1743,
    "ä¸»è¦ģ": 1744,
    "è®º": 1745,
    "å¾·": 1746,
    "Ġstudy": 1747,
    "Ġperson": 1748,
    "ize": 1749,
    "the": 1750,
    "è¯Ĩ": 1751,
    "Ġfind": 1752,
    "åĵį": 1753,
    "æĺ¾": 1754,
    "Ġins": 1755,
    "åİĨ": 1756,
    "Ġdata": 1757,
    "Ġgrow": 1758,
    "Ġstr": 1759,
    "Ġmin": 1760,
    "åĳ¨": 1761,
    "Ġcur": 1762,
    "ĠIf": 1763,
    "und": 1764,
    "Ġend": 1765,
    "çı": 1766,
    "æŀģ": 1767,
    "Ġproble": 1768,
    "con": 1769,
    "Ġav": 1770,
    "ç³»ç»Ł": 1771,
    "èĤ¡": 1772,
    "ted": 1773,
    ".,": 1774,
    "å§ĭ": 1775,
    "ĠAn": 1776,
    "å£«": 1777,
    "Ġgood": 1778,
    "202": 1779,
    "Ġche": 1780,
    "ç±³": 1781,
    "ale": 1782,
    "Ġboth": 1783,
    "Ġpop": 1784,
    "èĮĥ": 1785,
    "çĪ±": 1786,
    "ĠFor": 1787,
    "Ġback": 1788,
    "æİĴ": 1789,
    "èĬ±": 1790,
    "ĠAr": 1791,
    "åĨį": 1792,
    "âĢĿï¼Į": 1793,
    "ä¿¡æģ¯": 1794,
    "åħ»": 1795,
    "iversity": 1796,
    "æĹħ": 1797,
    "viron": 1798,
    "Ġgrou": 1799,
    "ars": 1800,
    "ä¹ł": 1801,
    "æ±Ł": 1802,
    "åĨµ": 1803,
    "Ġexpl": 1804,
    "å®īåħ¨": 1805,
    "Ġbefore": 1806,
    "æĪ¿": 1807,
    "Ġschool": 1808,
    "Ġsmall": 1809,
    "ä¾ĭ": 1810,
    "äº¬": 1811,
    "Ġshow": 1812,
    "stand": 1813,
    "æ¸©": 1814,
    "Ġcomple": 1815,
    "Ġusing": 1816,
    "ality": 1817,
    "ä¼Ĺ": 1818,
    "omen": 1819,
    "åĽŃ": 1820,
    "éĶĢ": 1821,
    "||": 1822,
    "Ġhist": 1823,
    "13": 1824,
    "éľĢè¦ģ": 1825,
    "ince": 1826,
    "æĻ¯": 1827,
    "ivid": 1828,
    "Ġgl": 1829,
    "Ġdi": 1830,
    "ially": 1831,
    "ron": 1832,
    "Ġprot": 1833,
    "read": 1834,
    "æĸŃ": 1835,
    "Ġcor": 1836,
    "Ġagain": 1837,
    "èŀ": 1838,
    "åįı": 1839,
    "çĶŁæ´»": 1840,
    "åĪĻ": 1841,
    "äº§ä¸ļ": 1842,
    "èĩ´": 1843,
    "ax": 1844,
    "æµĭ": 1845,
    "ty": 1846,
    "ined": 1847,
    "nce": 1848,
    "iel": 1849,
    "Ġbo": 1850,
    "Ġmain": 1851,
    "æ´»åĬ¨": 1852,
    "Ġtreat": 1853,
    "Ġoften": 1854,
    "è¯Ħ": 1855,
    "ĠHow": 1856,
    "èĳ": 1857,
    "rol": 1858,
    "inal": 1859,
    "åŃĺ": 1860,
    "der": 1861,
    "ix": 1862,
    "çīĩ": 1863,
    "å¡": 1864,
    "æĸĩåĮĸ": 1865,
    "Ġtest": 1866,
    "è¶³": 1867,
    "ç»´": 1868,
    "ock": 1869,
    "ä¸ĸçķĮ": 1870,
    "éħį": 1871,
    "åĲĮæĹ¶": 1872,
    "ä½ķ": 1873,
    "å°±æĺ¯": 1874,
    "Ġsol": 1875,
    "åĽ½éĻħ": 1876,
    "oh": 1877,
    "Ġposs": 1878,
    "ute": 1879,
    "ergy": 1880,
    "æĴ": 1881,
    "Ġval": 1882,
    "Ġwhile": 1883,
    "ished": 1884,
    "imate": 1885,
    "Ġless": 1886,
    "åĪĹ": 1887,
    "ex": 1888,
    "å¥³": 1889,
    "Ġstate": 1890,
    "ĠSp": 1891,
    "åģ¥": 1892,
    "Ġlit": 1893,
    "å°Ķ": 1894,
    "æĸ¹éĿ¢": 1895,
    "ĠInd": 1896,
    "100": 1897,
    "ĠNew": 1898,
    "æ£Ģ": 1899,
    "ä¸Ķ": 1900,
    "Ġserv": 1901,
    "Ġris": 1902,
    "äººåĳĺ": 1903,
    "Ġdise": 1904,
    "åºľ": 1905,
    "Ġday": 1906,
    "Ġtake": 1907,
    "ran": 1908,
    "Ġnow": 1909,
    "çĭ": 1910,
    "akes": 1911,
    "éļ¾": 1912,
    "æĬĬ": 1913,
    "ien": 1914,
    "æĿĳ": 1915,
    "æĪĲä¸º": 1916,
    "Ġhim": 1917,
    "çĽ¸åħ³": 1918,
    "ral": 1919,
    "irect": 1920,
    "Ġnumber": 1921,
    "éĻį": 1922,
    "Ġocc": 1923,
    "ier": 1924,
    "çħ§": 1925,
    "ury": 1926,
    "åİ¿": 1927,
    "éĻ¤": 1928,
    "é©¬": 1929,
    "éħĴ": 1930,
    "Ġorgan": 1931,
    "æ¼Ķ": 1932,
    "çª": 1933,
    "vironment": 1934,
    "ulation": 1935,
    "äºļ": 1936,
    "Ġmem": 1937,
    "dition": 1938,
    "Ġcell": 1939,
    "Ġprovid": 1940,
    "æĳ": 1941,
    "Ġpower": 1942,
    "Ġresearch": 1943,
    "ï¼ģ": 1944,
    "ä¸Ńå¿ĥ": 1945,
    "ï¼Įåħ¶": 1946,
    "ĠSc": 1947,
    "Ġvis": 1948,
    "ç»ĩ": 1949,
    "çİ¯å¢ĥ": 1950,
    "å¿ħ": 1951,
    "Ġhuman": 1952,
    "Ġactiv": 1953,
    "æĻº": 1954,
    "ered": 1955,
    "iety": 1956,
    "åħļ": 1957,
    "up": 1958,
    ").Ċ": 1959,
    "Ġfun": 1960,
    "çĽĳ": 1961,
    "Ġdesign": 1962,
    "iving": 1963,
    "iqu": 1964,
    "ï¼Įä¸Ģ": 1965,
    "Ġchar": 1966,
    "Ġsupport": 1967,
    "åŃĹ": 1968,
    "çīĮ": 1969,
    "Ġbody": 1970,
    "air": 1971,
    "å¤§åŃ¦": 1972,
    "éĩįè¦ģ": 1973,
    "Ġmust": 1974,
    "åıį": 1975,
    "å½±åĵį": 1976,
    "Ġbel": 1977,
    "åĬ¿": 1978,
    "uss": 1979,
    "ä»½": 1980,
    "åºĹ": 1981,
    "Ġaround": 1982,
    "ah": 1983,
    "Ġdown": 1984,
    "ves": 1985,
    "èį¯": 1986,
    "Ġthree": 1987,
    "ital": 1988,
    "ters": 1989,
    "000": 1990,
    "åıĪ": 1991,
    "hers": 1992,
    "ï¼Įä¸º": 1993,
    "èı": 1994,
    "com": 1995,
    "Ġhand": 1996,
    "Ġest": 1997,
    "ger": 1998,
    "åİĭ": 1999,
    "Ġlook": 2000,
    "éļı": 2001,
    "ven": 2002,
    "Ġclass": 2003,
    "Ġcommon": 2004,
    "Ġredu": 2005,
    "cl": 2006,
    "èħ": 2007,
    "ï¼Įæľī": 2008,
    "day": 2009,
    "ï¼ĮæĪĳ": 2010,
    "è¦ģæ±Ĥ": 2011,
    "Ġplan": 2012,
    "Ġgovern": 2013,
    "åº·": 2014,
    "Ġconf": 2015,
    "é¾": 2016,
    "Ġstart": 2017,
    "å±ŀ": 2018,
    "__": 2019,
    "Ġdid": 2020,
    "rent": 2021,
    "èŀį": 2022,
    "aj": 2023,
    "æ»¡": 2024,
    "åħĭ": 2025,
    "Ġgreat": 2026,
    "Ġpoint": 2027,
    "ç¦»": 2028,
    "Ġelect": 2029,
    "âĢĿçļĦ": 2030,
    "ium": 2031,
    "ave": 2032,
    "ĠBut": 2033,
    "åħ·æľī": 2034,
    "æ²¹": 2035,
    "æļ": 2036,
    "æ®µ": 2037,
    "ains": 2038,
    "self": 2039,
    "åĿĩ": 2040,
    "å¹²": 2041,
    "åį³": 2042,
    "Ġcle": 2043,
    "å¼ł": 2044,
    "Ġland": 2045,
    "æĬķèµĦ": 2046,
    "ross": 2047,
    "è¯Ŀ": 2048,
    "ouse": 2049,
    "åĩł": 2050,
    "This": 2051,
    "Ġser": 2052,
    "Ġlarge": 2053,
    "ving": 2054,
    "Ġcontin": 2055,
    "gen": 2056,
    "ä¾Ŀ": 2057,
    "æħ": 2058,
    "ç®Ĺ": 2059,
    "ee": 2060,
    "çĬ¶": 2061,
    "çŁ³": 2062,
    "éĢĤ": 2063,
    "-b": 2064,
    "Ġexample": 2065,
    "ç½®": 2066,
    "åŁ¹": 2067,
    "å·²ç»ı": 2068,
    "Ġcare": 2069,
    "æĢĿ": 2070,
    "æĶ¿åºľ": 2071,
    "ring": 2072,
    "25": 2073,
    "è´Ł": 2074,
    "æī¿": 2075,
    "Ġreport": 2076,
    "ä»ħ": 2077,
    "å®¤": 2078,
    "ä¹ī": 2079,
    "æł¸": 2080,
    "ared": 2081,
    "ç¬¬ä¸Ģ": 2082,
    "åĦ": 2083,
    "ash": 2084,
    "-s": 2085,
    "itions": 2086,
    "Ġthough": 2087,
    "æķ°æį®": 2088,
    "åĽ¾": 2089,
    "è¿ŀ": 2090,
    "æŀĹ": 2091,
    "è®¸": 2092,
    "Ġincluding": 2093,
    "ional": 2094,
    "acter": 2095,
    "è®¾å¤ĩ": 2096,
    "rain": 2097,
    "Ġcour": 2098,
    "åŃ¦æł¡": 2099,
    ",âĢĿ": 2100,
    "Ġret": 2101,
    "Ġconst": 2102,
    "Ġop": 2103,
    "å¥¹": 2104,
    "ĠYou": 2105,
    "ner": 2106,
    "åĭ": 2107,
    "ä¾¿": 2108,
    "çļĦä¸Ģ": 2109,
    "å¥ĸ": 2110,
    "èĥ½åĬĽ": 2111,
    "ull": 2112,
    "éŁ³": 2113,
    "eg": 2114,
    "Ġunderstand": 2115,
    "æĥħåĨµ": 2116,
    "Ġallow": 2117,
    "çļĦäºº": 2118,
    "çĽ®åīį": 2119,
    "å¦Ĥæŀľ": 2120,
    "æĺŁ": 2121,
    "orn": 2122,
    "çĽĬ": 2123,
    "åı¯èĥ½": 2124,
    "èĭ±": 2125,
    "åĽłä¸º": 2126,
    "åĶ®": 2127,
    "çĻ¾": 2128,
    "Ġcalled": 2129,
    "Ġsom": 2130,
    "æĤ£": 2131,
    "å¢ŀéķ¿": 2132,
    "ĠThere": 2133,
    "Ġmet": 2134,
    "éĺ³": 2135,
    "è¯Ń": 2136,
    "Ġequ": 2137,
    "way": 2138,
    "ä½ľä¸º": 2139,
    "Ġpublic": 2140,
    "éĿĴ": 2141,
    "æ¬¾": 2142,
    "Ġbuild": 2143,
    "Ġstill": 2144,
    "iver": 2145,
    "Ġeduc": 2146,
    "èĲ½": 2147,
    "Ġwrit": 2148,
    "çİĭ": 2149,
    "Ġadv": 2150,
    "ãĢĤåľ¨": 2151,
    "âĢĵ": 2152,
    "ĠAnd": 2153,
    "els": 2154,
    "åŁİå¸Ĥ": 2155,
    "åĳ½": 2156,
    "æľĽ": 2157,
    "iven": 2158,
    "esp": 2159,
    "outh": 2160,
    "å¤ª": 2161,
    "æĲ": 2162,
    "æĮī": 2163,
    "åĦ¿": 2164,
    "aterial": 2165,
    "åįķä½į": 2166,
    "ç»Ĩ": 2167,
    "Ġpract": 2168,
    "ç»Ħç»ĩ": 2169,
    "Ġbeh": 2170,
    "ividual": 2171,
    "çĮ": 2172,
    "ï¼Įå¯¹": 2173,
    "ç¢": 2174,
    "ä½ı": 2175,
    "Ġknown": 2176,
    "Ġthink": 2177,
    "åĨĽ": 2178,
    "å¨": 2179,
    "åĪĽæĸ°": 2180,
    "è±¡": 2181,
    "ç§ĳæĬĢ": 2182,
    ".\"": 2183,
    "å±Ĥ": 2184,
    "Ġquest": 2185,
    "inc": 2186,
    "oms": 2187,
    "ired": 2188,
    "åŃ£": 2189,
    "ä¸¥": 2190,
    "è´¨éĩı": 2191,
    "ä¸¾": 2192,
    "éĽĨåĽ¢": 2193,
    "Ġgu": 2194,
    "reen": 2195,
    "erest": 2196,
    "Ġdr": 2197,
    "ä¿®": 2198,
    "oci": 2199,
    "çŃĳ": 2200,
    "ä»Ģ": 2201,
    "osed": 2202,
    "Ġide": 2203,
    "Ġfew": 2204,
    "ected": 2205,
    "Ġappro": 2206,
    "ĠâĢĺ": 2207,
    "Ġplace": 2208,
    "çŃĸ": 2209,
    "æĭī": 2210,
    "Ġeas": 2211,
    "conom": 2212,
    "ential": 2213,
    "lish": 2214,
    "æľīéĻĲ": 2215,
    "åĥ": 2216,
    "24": 2217,
    "åĽ´": 2218,
    "itive": 2219,
    "æĿ¿": 2220,
    "Ġstand": 2221,
    "å¤§çļĦ": 2222,
    "iod": 2223,
    "de": 2224,
    "Ġmat": 2225,
    "äºĴ": 2226,
    "ination": 2227,
    "ĠIs": 2228,
    "åĲĪä½ľ": 2229,
    "Ġmight": 2230,
    "me": 2231,
    "ries": 2232,
    "æ²³": 2233,
    "éĻ©": 2234,
    "ources": 2235,
    "åħħ": 2236,
    "oun": 2237,
    "bers": 2238,
    "ids": 2239,
    "èµ°": 2240,
    "ense": 2241,
    "raph": 2242,
    "eral": 2243,
    "ization": 2244,
    "åĩı": 2245,
    "åľŁ": 2246,
    "ason": 2247,
    "ĠWh": 2248,
    "tt": 2249,
    "ior": 2250,
    "å¥½çļĦ": 2251,
    "Ġenvironment": 2252,
    "ering": 2253,
    "ived": 2254,
    "ĠThese": 2255,
    "Ġchang": 2256,
    "åħ¨åĽ½": 2257,
    "Ġdem": 2258,
    "Ġwithout": 2259,
    "å¾Ģ": 2260,
    "ĠEng": 2261,
    "Ġwant": 2262,
    "Ġwithin": 2263,
    "ĠUniversity": 2264,
    "ç»Ī": 2265,
    "ertain": 2266,
    "å¤ĦçĲĨ": 2267,
    "ration": 2268,
    "Ġcaus": 2269,
    "Ġiss": 2270,
    "Ġindividual": 2271,
    "eng": 2272,
    "Ġenergy": 2273,
    "Ġsym": 2274,
    "ording": 2275,
    "è¡¨ç¤º": 2276,
    "æłĩåĩĨ": 2277,
    "åı²": 2278,
    "äººæ°ĳ": 2279,
    "å¿µ": 2280,
    "Ġpresent": 2281,
    "line": 2282,
    "ethod": 2283,
    "æł¹æį®": 2284,
    "ĠDe": 2285,
    "åĸĦ": 2286,
    "Ġtem": 2287,
    "å®ŀçİ°": 2288,
    "åĪĩ": 2289,
    "ption": 2290,
    "man": 2291,
    "ä»Ģä¹Ī": 2292,
    "Ġphys": 2293,
    "Ġchange": 2294,
    "Ġproduct": 2295,
    "åĢĻ": 2296,
    "Ġpur": 2297,
    "Ġplay": 2298,
    "å¤Ł": 2299,
    "å¤±": 2300,
    "Ġcap": 2301,
    "å¾®": 2302,
    "ä¸ŃçļĦ": 2303,
    "Ġdon": 2304,
    "ffic": 2305,
    "illion": 2306,
    "Ġident": 2307,
    "Ġlearn": 2308,
    "ians": 2309,
    "Ġmaterial": 2310,
    "è¨": 2311,
    "Ġdevelopment": 2312,
    "alk": 2313,
    "æĭ¬": 2314,
    "çº¢": 2315,
    "è¨Ģ": 2316,
    "å»ºçŃĳ": 2317,
    "ĠCon": 2318,
    "less": 2319,
    "è´¢": 2320,
    "Ġdirect": 2321,
    "Ġimm": 2322,
    "ä¸įåĲĮ": 2323,
    "ĠAmerican": 2324,
    "Ġsocial": 2325,
    "ä»¥åıĬ": 2326,
    "Ġ&": 2327,
    "Ġlaw": 2328,
    "Ġpot": 2329,
    "æ±½": 2330,
    "å¯Į": 2331,
    "angu": 2332,
    "Ġwomen": 2333,
    "orth": 2334,
    "Ġpass": 2335,
    "Ġdisease": 2336,
    "Ġimpro": 2337,
    "ï¼ĮæĪĳä»¬": 2338,
    "ä»¥ä¸Ĭ": 2339,
    "Ġben": 2340,
    "Ġproject": 2341,
    "åºĶçĶ¨": 2342,
    "Ġprof": 2343,
    "ton": 2344,
    "Ġanother": 2345,
    "ets": 2346,
    "Ġpos": 2347,
    "arent": 2348,
    "Ġarea": 2349,
    "iness": 2350,
    "Ġbre": 2351,
    "Ġair": 2352,
    "è¿Ļä¸ª": 2353,
    "æī¹": 2354,
    "äºī": 2355,
    "ug": 2356,
    "èĪª": 2357,
    "ability": 2358,
    "40": 2359,
    "å¼Ģå§ĭ": 2360,
    "éĵģ": 2361,
    "çĸ«": 2362,
    "Ġsit": 2363,
    "åŃ¦ä¹ł": 2364,
    "å®¡": 2365,
    "çļ®": 2366,
    "å½ķ": 2367,
    "Ġve": 2368,
    "æĻ®": 2369,
    "ris": 2370,
    "èī¯": 2371,
    "åıĮ": 2372,
    "ological": 2373,
    "agn": 2374,
    "è´Ń": 2375,
    "çĶ»": 2376,
    "èµĦæºĲ": 2377,
    "bs": 2378,
    "Ġsl": 2379,
    "ik": 2380,
    "åĥı": 2381,
    "è¯¾": 2382,
    "Ġmus": 2383,
    "çģ«": 2384,
    "åı¤": 2385,
    "rist": 2386,
    "ats": 2387,
    "åĮħæĭ¬": 2388,
    "Ġbelie": 2389,
    "åĿļ": 2390,
    "éĥ¨åĪĨ": 2391,
    "âĢ¦": 2392,
    "Ġhome": 2393,
    "åĪĿ": 2394,
    "Ġinclude": 2395,
    "çıŃ": 2396,
    "äº¿åħĥ": 2397,
    "åħį": 2398,
    "198": 2399,
    "Ġlight": 2400,
    "Ġrisk": 2401,
    "ajor": 2402,
    "Ġbas": 2403,
    "Ġinterest": 2404,
    "Ġant": 2405,
    "az": 2406,
    "ccess": 2407,
    "Ġcult": 2408,
    "Ġrest": 2409,
    "ified": 2410,
    "It": 2411,
    "å¾ĭ": 2412,
    "Ġdesc": 2413,
    "åħ¶ä»ĸ": 2414,
    "ental": 2415,
    "ĠPh": 2416,
    "rodu": 2417,
    "éĥ¨éĹ¨": 2418,
    "ained": 2419,
    "Ġbest": 2420,
    "erc": 2421,
    "'t": 2422,
    "æĺ¯ä¸Ģ": 2423,
    "ify": 2424,
    "Ġeng": 2425,
    "atic": 2426,
    "åįļ": 2427,
    "Ġet": 2428,
    "Ġmeas": 2429,
    "Ġcontrol": 2430,
    "åıĭ": 2431,
    "ield": 2432,
    "å±ħ": 2433,
    "å£°": 2434,
    "æıĲé«ĺ": 2435,
    "Ġblood": 2436,
    "æĸ¹å¼ı": 2437,
    "Ġmark": 2438,
    "--": 2439,
    "åİĤ": 2440,
    "åĲ«": 2441,
    "è¿ľ": 2442,
    "ç¾İåĽ½": 2443,
    "äººçļĦ": 2444,
    "Ġprogram": 2445,
    "æ¥": 2446,
    "Ġopp": 2447,
    "æĹħæ¸¸": 2448,
    "ç§ĳåŃ¦": 2449,
    "åį«": 2450,
    "ently": 2451,
    "Ġbecome": 2452,
    "ways": 2453,
    "atural": 2454,
    "cing": 2455,
    "ision": 2456,
    "ĠAd": 2457,
    "Ġold": 2458,
    "Ġgovernment": 2459,
    "åįł": 2460,
    "arc": 2461,
    "Ġsever": 2462,
    "å¿Ĺ": 2463,
    "60": 2464,
    "ĠSh": 2465,
    "-f": 2466,
    "Ġleg": 2467,
    "åįĬ": 2468,
    "-c": 2469,
    "Ġpain": 2470,
    "éĵ¶": 2471,
    "Ġmethod": 2472,
    "Ġeconom": 2473,
    "Ġanal": 2474,
    "ç»ľ": 2475,
    "æĿĲæĸĻ": 2476,
    "Ġlow": 2477,
    "Ġpar": 2478,
    "Ġmil": 2479,
    "lished": 2480,
    "Ġagainst": 2481,
    "ern": 2482,
    "Ġmove": 2483,
    "çīĪ": 2484,
    "Â·": 2485,
    "Ġbetter": 2486,
    "Ġearly": 2487,
    "to": 2488,
    "é¾Ļ": 2489,
    "ï¼Įä»ĸ": 2490,
    "æľīéĻĲåħ¬åı¸": 2491,
    "å¾Īå¤ļ": 2492,
    "å¯Ĩ": 2493,
    "ĠHowever": 2494,
    "gin": 2495,
    "Ġele": 2496,
    "ç®Ģ": 2497,
    "Ġanim": 2498,
    "ource": 2499,
    "here": 2500,
    "Ġproper": 2501,
    "hor": 2502,
    "æķħ": 2503,
    "Ġhere": 2504,
    "æ²»çĸĹ": 2505,
    "ead": 2506,
    "åľ°åĮº": 2507,
    "ining": 2508,
    "ills": 2509,
    "Ġorder": 2510,
    "åį°": 2511,
    "ç¾¤": 2512,
    "ãĢĤâĢĿ": 2513,
    "Ġwar": 2514,
    "ãĢĤè¿Ļ": 2515,
    "å¼Ģåıĳ": 2516,
    "Ġtoo": 2517,
    "Ġfore": 2518,
    "Ġreal": 2519,
    "ank": 2520,
    "Ġlast": 2521,
    "ï¼Įä»İ": 2522,
    "Ġkeep": 2523,
    "Ġprovide": 2524,
    "ĠRes": 2525,
    "Ġmeans": 2526,
    "Ġsecond": 2527,
    "æĪı": 2528,
    "icle": 2529,
    "åł": 2530,
    "use": 2531,
    "ission": 2532,
    "åħ´": 2533,
    "22": 2534,
    "Ġgroup": 2535,
    "ards": 2536,
    "ç¦ı": 2537,
    "éĴ¢": 2538,
    "æīĢä»¥": 2539,
    "rap": 2540,
    "ider": 2541,
    "ention": 2542,
    "è¾ĵ": 2543,
    "Ġfamily": 2544,
    "ote": 2545,
    "eed": 2546,
    "amp": 2547,
    "ĠâĢĶ": 2548,
    "çĶ³": 2549,
    "é»Ħ": 2550,
    "è¾¹": 2551,
    "Ġcause": 2552,
    "Ġoper": 2553,
    "Ġhistory": 2554,
    "ories": 2555,
    "æĭĽ": 2556,
    ".âĢĿĊ": 2557,
    "ware": 2558,
    "ï¼Įè¿ĺ": 2559,
    "Ġdev": 2560,
    "ina": 2561,
    "åŁºç¡": 2562,
    "Ġmajor": 2563,
    "ĠCl": 2564,
    "Ġsay": 2565,
    "Ġavail": 2566,
    "éĿŀå¸¸": 2567,
    "è§Ħå®ļ": 2568,
    "å·¥ä¸ļ": 2569,
    "Ġtre": 2570,
    "åŁºç¡Ģ": 2571,
    "Ġparticular": 2572,
    "Ġter": 2573,
    "Ġpossible": 2574,
    "çºª": 2575,
    "é¢Ŀ": 2576,
    "Ġoccur": 2577,
    "Ġunt": 2578,
    "ples": 2579,
    "ĠUnited": 2580,
    "ĠEx": 2581,
    "Ġpercent": 2582,
    "è§ī": 2583,
    ".S": 2584,
    "è®Ń": 2585,
    "Ġcurrent": 2586,
    "å¹³åı°": 2587,
    "Ġfin": 2588,
    "åŃ©": 2589,
    "Ġtop": 2590,
    "|Ċ": 2591,
    "è¡Ģ": 2592,
    "å·´": 2593,
    "æĭ©": 2594,
    "ä½Ļ": 2595,
    "è§Ĵ": 2596,
    "åģ¥åº·": 2597,
    "äºĳ": 2598,
    "Ġseveral": 2599,
    "ĠCol": 2600,
    "ĠZ": 2601,
    "ograph": 2602,
    "Ġnear": 2603,
    "ients": 2604,
    "Ġaddition": 2605,
    "irc": 2606,
    "ĠPl": 2607,
    "Ġmean": 2608,
    "ĠWhen": 2609,
    "Ġ[": 2610,
    "Ġsaf": 2611,
    "åĮĹäº¬": 2612,
    "pect": 2613,
    "Ġindu": 2614,
    "Ġinvol": 2615,
    "23": 2616,
    "Ġorig": 2617,
    "oid": 2618,
    "è¿ĩç¨ĭ": 2619,
    "21": 2620,
    "ret": 2621,
    "ä¸ļåĬ¡": 2622,
    "lu": 2623,
    "åĪ°äºĨ": 2624,
    "view": 2625,
    "Ġable": 2626,
    "æŁĵ": 2627,
    "Ġlearning": 2628,
    "omp": 2629,
    "åĩºçİ°": 2630,
    "ogn": 2631,
    "Ġperform": 2632,
    "idence": 2633,
    "Ġhig": 2634,
    "æĹ©": 2635,
    "Ġbenef": 2636,
    "ç½ĳç»ľ": 2637,
    "Ġthings": 2638,
    "è½»": 2639,
    "Ġperiod": 2640,
    "æĭħ": 2641,
    "Ġsince": 2642,
    "Ġbus": 2643,
    "çļĦæĺ¯": 2644,
    "èİ·å¾Ĺ": 2645,
    "Ġhapp": 2646,
    "Ġspecies": 2647,
    "Ġlangu": 2648,
    "sc": 2649,
    "Ġmar": 2650,
    "æ¹ĸ": 2651,
    "Ġopen": 2652,
    "Ġprom": 2653,
    "é¢ĨåŁŁ": 2654,
    "Ġel": 2655,
    "ï¼ļâĢľ": 2656,
    "Ġcal": 2657,
    "Ġmen": 2658,
    "Ġareas": 2659,
    "åī¯": 2660,
    "æī§": 2661,
    "ĠCan": 2662,
    "ç½Ĺ": 2663,
    "Ġscient": 2664,
    "Ġnon": 2665,
    "-p": 2666,
    "ator": 2667,
    "åĽ½åĨħ": 2668,
    "é¡»": 2669,
    "though": 2670,
    "ames": 2671,
    "ĠGod": 2672,
    "åºķ": 2673,
    "ww": 2674,
    "æ¿": 2675,
    "Ġfeel": 2676,
    "Ġamong": 2677,
    "åŃ¦éĻ¢": 2678,
    "ä»ĭ": 2679,
    "å¹´çļĦ": 2680,
    "What": 2681,
    "è®²": 2682,
    "Ġothers": 2683,
    ".âĢĿ": 2684,
    "å®³": 2685,
    "èģļ": 2686,
    "éķĩ": 2687,
    "Ġaffect": 2688,
    "Ġname": 2689,
    "Ġlim": 2690,
    "port": 2691,
    "æŃ¢": 2692,
    "åī§": 2693,
    "Ġtreatment": 2694,
    "Ġsays": 2695,
    ",\"": 2696,
    "ole": 2697,
    "of": 2698,
    "ilar": 2699,
    "åĽłæŃ¤": 2700,
    "ĠQ": 2701,
    "çĵ": 2702,
    "åº§": 2703,
    "28": 2704,
    "è¯»": 2705,
    "Ġfre": 2706,
    "æ±½è½¦": 2707,
    "osp": 2708,
    "ĠComm": 2709,
    "ï¼ĽĊ": 2710,
    "Ġsignific": 2711,
    "ĠSe": 2712,
    "æľºæŀĦ": 2713,
    "Ġbased": 2714,
    "ĠTo": 2715,
    "ç¼ĸ": 2716,
    "éĢīæĭ©": 2717,
    "Ġcountry": 2718,
    "ĠStates": 2719,
    "urop": 2720,
    "èĥ½å¤Ł": 2721,
    "èĩªå·±çļĦ": 2722,
    "åĲ¸": 2723,
    "Ġfollowing": 2724,
    "çĭ¬": 2725,
    "æĤ£èĢħ": 2726,
    "æ¸¯": 2727,
    "ĠAt": 2728,
    "ç«ŀ": 2729,
    "å®£": 2730,
    "å®ĮæĪĲ": 2731,
    "å¤§å®¶": 2732,
    "%ï¼Į": 2733,
    "Ġavailable": 2734,
    "ends": 2735,
    "sy": 2736,
    "Ġcost": 2737,
    "Ġtimes": 2738,
    "Ġcertain": 2739,
    "ling": 2740,
    "åħ¨çĲĥ": 2741,
    "rid": 2742,
    "Ġaccess": 2743,
    "æ±¡": 2744,
    "ended": 2745,
    "Ġfour": 2746,
    "Ġplant": 2747,
    "åĵģçīĮ": 2748,
    "ä½ľçĶ¨": 2749,
    "Ġhead": 2750,
    "æĴŃ": 2751,
    "ç»¼": 2752,
    "ploy": 2753,
    "Ġfac": 2754,
    "elf": 2755,
    "Ġprevent": 2756,
    "Ġdel": 2757,
    "par": 2758,
    "è¡¥": 2759,
    "ä¸´": 2760,
    "é¦Ļ": 2761,
    "ek": 2762,
    "ç»§": 2763,
    "Ġobject": 2764,
    "Ġcase": 2765,
    "å¸Į": 2766,
    "ocus": 2767,
    "ably": 2768,
    "une": 2769,
    "Ġcond": 2770,
    "We": 2771,
    "é²": 2772,
    "urther": 2773,
    "ots": 2774,
    "å°½": 2775,
    "æ¬¢": 2776,
    "Ġage": 2777,
    "æ¿Ģ": 2778,
    "Ġconn": 2779,
    "Ġrun": 2780,
    "Ġlo": 2781,
    "ĠEn": 2782,
    "Ġpost": 2783,
    "Ġstruct": 2784,
    "ised": 2785,
    "Ġview": 2786,
    "åį´": 2787,
    "ĠChrist": 2788,
    "stit": 2789,
    "Ġfree": 2790,
    "æĵ": 2791,
    "Ġlocal": 2792,
    "ope": 2793,
    "Ġcome": 2794,
    "çķ¥": 2795,
    "äºĨè§£": 2796,
    "-d": 2797,
    "çł´": 2798,
    "æĹ¶åĢĻ": 2799,
    "!Ċ": 2800,
    "Ġcells": 2801,
    "ĠCent": 2802,
    "Ġbro": 2803,
    "çľ¼": 2804,
    "Ġsuccess": 2805,
    "Ġlab": 2806,
    "çİ°åľ¨": 2807,
    "æĭ¥": 2808,
    "åı¦": 2809,
    "åĨħå®¹": 2810,
    "åıĳçĶŁ": 2811,
    "ression": 2812,
    "Ġtype": 2813,
    "Ġvol": 2814,
    "èīºæľ¯": 2815,
    "ç¨³": 2816,
    "Ġrece": 2817,
    "éĢģ": 2818,
    "Ġlist": 2819,
    "Ġpress": 2820,
    "Ġmonth": 2821,
    "æ½": 2822,
    "çªģ": 2823,
    "ething": 2824,
    "è®¡åĪĴ": 2825,
    "ean": 2826,
    "æĿİ": 2827,
    "Ġlittle": 2828,
    "Ġproblem": 2829,
    "Ġbi": 2830,
    "ç»ıèĲ¥": 2831,
    "27": 2832,
    "hy": 2833,
    "ï¼ĮâĢľ": 2834,
    "åħŃ": 2835,
    "oint": 2836,
    "Ġintern": 2837,
    "olution": 2838,
    "Ġcreat": 2839,
    "çĨ": 2840,
    "Ġyoung": 2841,
    "26": 2842,
    "ggest": 2843,
    "Ġput": 2844,
    "Ġlevels": 2845,
    "å®Ŀ": 2846,
    "ç¨İ": 2847,
    "åĨĻ": 2848,
    "resent": 2849,
    "icult": 2850,
    "å¼Ģå±ķ": 2851,
    "Ġbir": 2852,
    "åĸľ": 2853,
    "çĶ±äºİ": 2854,
    "Ġproblems": 2855,
    "Ġnatural": 2856,
    "ĠNational": 2857,
    "work": 2858,
    "åįĥ": 2859,
    "str": 2860,
    "Ġfar": 2861,
    "çķĻ": 2862,
    "Ġlater": 2863,
    "åĤ": 2864,
    "aper": 2865,
    "çº³": 2866,
    "ĠTe": 2867,
    "åĳ³": 2868,
    "åıĳçİ°": 2869,
    "ä¸ĢäºĽ": 2870,
    "åīĤ": 2871,
    "Ġlet": 2872,
    "Ġassoci": 2873,
    "ones": 2874,
    "Ġhard": 2875,
    "Ġuntil": 2876,
    "If": 2877,
    "ç«¯": 2878,
    "æ¬§": 2879,
    "ances": 2880,
    "æ¶Īè´¹": 2881,
    "äº²": 2882,
    "por": 2883,
    "å®ĺ": 2884,
    "ç¬¬äºĮ": 2885,
    "æĸ¹æ³ķ": 2886,
    "ged": 2887,
    "å¯¹äºİ": 2888,
    "Ġflow": 2889,
    "Ġbook": 2890,
    "æŁĲ": 2891,
    "ï¼Įå°±": 2892,
    "èĪ¬": 2893,
    "ä¹¡": 2894,
    "æĽ¾": 2895,
    "ç»¿": 2896,
    "ä¸ªäºº": 2897,
    "æīĢæľī": 2898,
    "å¸®": 2899,
    "Ġmaking": 2900,
    "not": 2901,
    "hem": 2902,
    "Ġseem": 2903,
    "ither": 2904,
    "å¢ŀåĬł": 2905,
    "Ġamount": 2906,
    "éľĢæ±Ĥ": 2907,
    "Ġgiven": 2908,
    "æĺ¥": 2909,
    "over": 2910,
    "ately": 2911,
    "æ¤": 2912,
    "äº«": 2913,
    "æĻºèĥ½": 2914,
    "Ġsuggest": 2915,
    "197": 2916,
    "ä¸ĩåħĥ": 2917,
    "åĬ³": 2918,
    "ortun": 2919,
    "Ġheart": 2920,
    "ĠAf": 2921,
    "æľīåħ³": 2922,
    "oks": 2923,
    "Ġturn": 2924,
    "ï¼ļĊ": 2925,
    "Ġcomput": 2926,
    "Ġimpact": 2927,
    "Ġmult": 2928,
    "ledge": 2929,
    "ç¥¨": 2930,
    "icro": 2931,
    "Ġess": 2932,
    "uture": 2933,
    "Ġcho": 2934,
    "æıĲåįĩ": 2935,
    "-m": 2936,
    "çĻ½çĻ": 2937,
    "ľé£İ": 2938,
    "Ġsw": 2939,
    "80": 2940,
    "ication": 2941,
    "ured": 2942,
    "Ġpolit": 2943,
    "Ġdeterm": 2944,
    "ĠBe": 2945,
    "å®¢æĪ·": 2946,
    "atory": 2947,
    "çĻ½çĻľé£İ": 2948,
    "ĠOr": 2949,
    "agement": 2950,
    "ĠEurop": 2951,
    "Ġfocus": 2952,
    "Ġsignificant": 2953,
    "Ġsomething": 2954,
    "app": 2955,
    "ä¸ĢæŃ¥": 2956,
    "aps": 2957,
    "èĭı": 2958,
    "åħ°": 2959,
    "Ġshort": 2960,
    "orld": 2961,
    "çĶ¨æĪ·": 2962,
    "è®¤ä¸º": 2963,
    "Ġbehav": 2964,
    "ides": 2965,
    "ä¿ĥ": 2966,
    "aken": 2967,
    "Ġcirc": 2968,
    "ä¸įæĺ¯": 2969,
    "éĿ©": 2970,
    "ç»¼åĲĪ": 2971,
    "ohn": 2972,
    "ä¸°": 2973,
    "Ġcourse": 2974,
    "Ġlikely": 2975,
    "ĠUS": 2976,
    "åĬŁèĥ½": 2977,
    "åŃ©åŃĲ": 2978,
    "éļľ": 2979,
    "Ġ$": 2980,
    "Ġalong": 2981,
    "æ¦": 2982,
    "Ġinvest": 2983,
    "ä»£è¡¨": 2984,
    "Ġdue": 2985,
    "åį¡": 2986,
    "Ġ.": 2987,
    "ä¸Ĭæµ·": 2988,
    "Ġalways": 2989,
    "æĶ¯æĮģ": 2990,
    "é¦Ĩ": 2991,
    "åĪ¶éĢł": 2992,
    "çĶµåŃĲ": 2993,
    "Ġdra": 2994,
    "ĠOn": 2995,
    "NA": 2996,
    "Ġeducation": 2997,
    "Ġfunction": 2998,
    "å²ģ": 2999,
    "è¾¾åĪ°": 3000,
    "vious": 3001,
    "æŀĲ": 3002,
    "ï¼Įè®©": 3003,
    "St": 3004,
    "ç²¾ç¥ŀ": 3005,
    "åĨł": 3006,
    "ĠMed": 3007,
    "æ´²": 3008,
    "åĮ»éĻ¢": 3009,
    "Ġcomb": 3010,
    "éĺ¿": 3011,
    "Ġfil": 3012,
    "è´Łè´£": 3013,
    "ĠAll": 3014,
    "é¢ĳ": 3015,
    "æĶ¿çŃĸ": 3016,
    "æĤ¨": 3017,
    "anc": 3018,
    "éĥ½æĺ¯": 3019,
    "Ġrad": 3020,
    "Ġappear": 3021,
    "Ġclear": 3022,
    "è´§": 3023,
    "cle": 3024,
    "aster": 3025,
    "ç»©": 3026,
    "ä¿ĿæĬ¤": 3027,
    "ours": 3028,
    "Ġsystems": 3029,
    "Ġcommunity": 3030,
    "æĪĸèĢħ": 3031,
    "Ġvir": 3032,
    "ried": 3033,
    "è½½": 3034,
    "ned": 3035,
    "ending": 3036,
    "Ġincrease": 3037,
    "Ġdays": 3038,
    "Ġsing": 3039,
    "Ġdeath": 3040,
    "åıĳå¸ĥ": 3041,
    "ä»Ĭå¹´": 3042,
    "ï¼īï¼Į": 3043,
    "Ġmillion": 3044,
    "ç§¯æŀģ": 3045,
    "ĠWhat": 3046,
    "æ°´å¹³": 3047,
    "Ġwords": 3048,
    "ï¼Įå°Ĩ": 3049,
    "Ġusually": 3050,
    "ecially": 3051,
    "æİĪ": 3052,
    "æİ§åĪ¶": 3053,
    "å¾ħ": 3054,
    "éħĴåºĹ": 3055,
    "face": 3056,
    "Ġpopulation": 3057,
    "Ġteac": 3058,
    "ä¸Ģå®ļ": 3059,
    "Ġhy": 3060,
    "Ġcentury": 3061,
    "æľ¨": 3062,
    "åºı": 3063,
    "Ġresults": 3064,
    "æ³¢": 3065,
    "Ġobs": 3066,
    "æķĻåŃ¦": 3067,
    "Ġpast": 3068,
    "æľªæĿ¥": 3069,
    "ä¸įæĸŃ": 3070,
    "ç»ĵæŀĦ": 3071,
    "ç§»": 3072,
    "ç¿": 3073,
    "Ġconsum": 3074,
    "Ġlanguage": 3075,
    "Ġdifficult": 3076,
    "ä½Ľ": 3077,
    "29": 3078,
    "Ġtoday": 3079,
    "Ġgive": 3080,
    "Ġbrain": 3081,
    "é£ŀ": 3082,
    "ape": 3083,
    "Ġrele": 3084,
    "Ġline": 3085,
    "obal": 3086,
    "åĪ©çĶ¨": 3087,
    "Ġcreate": 3088,
    "Ġabove": 3089,
    "æĭ¥æľī": 3090,
    "Ġgr": 3091,
    "ember": 3092,
    "Ġtechnology": 3093,
    "Ġspecific": 3094,
    "Ġsimilar": 3095,
    "ä¹ĭä¸Ģ": 3096,
    "Ġwhy": 3097,
    "Ġauthor": 3098,
    "etic": 3099,
    "å±Ĭ": 3100,
    "Ġneeds": 3101,
    "âĢĿãĢĤ": 3102,
    "Ġexist": 3103,
    "Ġenc": 3104,
    "éħ¸": 3105,
    "ively": 3106,
    "asing": 3107,
    "af": 3108,
    "mit": 3109,
    "Ġey": 3110,
    "èĴ": 3111,
    "Ġdescrib": 3112,
    "ptoms": 3113,
    "çĹĩ": 3114,
    "åĩĢ": 3115,
    "There": 3116,
    "å¾ģ": 3117,
    "Ġer": 3118,
    "Ġspace": 3119,
    "ler": 3120,
    "åĲĥ": 3121,
    "Ġcancer": 3122,
    "ored": 3123,
    "Ġconditions": 3124,
    "isc": 3125,
    "æĹı": 3126,
    "ç£": 3127,
    "è¶ħè¿ĩ": 3128,
    "åĩ»": 3129,
    "As": 3130,
    "Ġexperience": 3131,
    "è¿ĻäºĽ": 3132,
    "Ġparent": 3133,
    "iation": 3134,
    "especially": 3135,
    "Ġmov": 3136,
    "ox": 3137,
    "Ġdiscuss": 3138,
    "Ġrecord": 3139,
    "Ġill": 3140,
    "æĬĹ": 3141,
    "ribut": 3142,
    "ruction": 3143,
    "å·®": 3144,
    "ators": 3145,
    "Ġspecial": 3146,
    "Ġnext": 3147,
    "ĠSo": 3148,
    "most": 3149,
    "éĶĢåĶ®": 3150,
    "pr": 3151,
    "Ġcharacter": 3152,
    "åİĨåı²": 3153,
    "Ġestab": 3154,
    "Ġgre": 3155,
    "idd": 3156,
    "Ġfuture": 3157,
    "min": 3158,
    "How": 3159,
    "aining": 3160,
    "ĠEar": 3161,
    "atch": 3162,
    "Ġbegin": 3163,
    "nal": 3164,
    "ĠBl": 3165,
    "å®ŀæĸ½": 3166,
    "Ġtemper": 3167,
    "èĳĹ": 3168,
    "ym": 3169,
    "çŁŃ": 3170,
    "æ¸¸æĪı": 3171,
    "Ġacross": 3172,
    "Ġcrit": 3173,
    "Ġnecess": 3174,
    "æį¢": 3175,
    "Ġask": 3176,
    "é»ĳ": 3177,
    "Ġdam": 3178,
    "ç§Ģ": 3179,
    "ique": 3180,
    "Ġapplic": 3181,
    "ĠBrit": 3182,
    "ode": 3183,
    "Ġhigher": 3184,
    "Ġkind": 3185,
    "éĩĩçĶ¨": 3186,
    "orts": 3187,
    "Ġstrong": 3188,
    "Ġchanges": 3189,
    "èĻ½": 3190,
    "rug": 3191,
    "selves": 3192,
    "ä¼¤": 3193,
    "Ġvarious": 3194,
    "Ġprop": 3195,
    "Ġtry": 3196,
    "Ġnever": 3197,
    "å¼Ĥ": 3198,
    "Ġrespons": 3199,
    "Ġleast": 3200,
    "Ġ'": 3201,
    "çĩ": 3202,
    "Ġside": 3203,
    "ĠAfric": 3204,
    "ilities": 3205,
    "Ġhowever": 3206,
    "å½¢æĪĲ": 3207,
    "let": 3208,
    "Ġresearc": 3209,
    "Ġbusiness": 3210,
    "Ġmot": 3211,
    "ä»¤": 3212,
    "è´£ä»»": 3213,
    "196": 3214,
    "Ġtoget": 3215,
    "Ġtogether": 3216,
    "-l": 3217,
    "oney": 3218,
    "Ġprofess": 3219,
    "æĦ¿": 3220,
    "70": 3221,
    "Ġleft": 3222,
    "Ġtru": 3223,
    "omes": 3224,
    "Ġcomplete": 3225,
    "æłĳ": 3226,
    "Ġcountries": 3227,
    "åĲ¬": 3228,
    "åıĤåĬł": 3229,
    "ray": 3230,
    "ä»·æł¼": 3231,
    "oot": 3232,
    "Ġcolle": 3233,
    "åŁºæľ¬": 3234,
    "ane": 3235,
    "-t": 3236,
    ",Ċ": 3237,
    "ateg": 3238,
    "èĩªçĦ¶": 3239,
    "Ġworks": 3240,
    "Ġenough": 3241,
    "é¸": 3242,
    "ç´¢": 3243,
    "oman": 3244,
    "Ġworking": 3245,
    "åª": 3246,
    "è§£åĨ³": 3247,
    "Ġaway": 3248,
    "å°¼": 3249,
    "Ġtool": 3250,
    "Ġchem": 3251,
    "aves": 3252,
    "åĪĨæŀĲ": 3253,
    "duct": 3254,
    "alf": 3255,
    "æĺ¾ç¤º": 3256,
    "Ġespecially": 3257,
    "thing": 3258,
    "aim": 3259,
    "æ¥¼": 3260,
    "äºĨä¸Ģ": 3261,
    "åħ«": 3262,
    "å¯Ł": 3263,
    "aces": 3264,
    "Ġimprove": 3265,
    "Ġnet": 3266,
    "Ġterm": 3267,
    "æ¯Ĵ": 3268,
    "ä¹°": 3269,
    "é¼": 3270,
    "çŁ¥è¯Ĩ": 3271,
    "âĢĻre": 3272,
    "è¿Ľåħ¥": 3273,
    "æįŁ": 3274,
    "åĲĦç§į": 3275,
    "Ġrequire": 3276,
    "aching": 3277,
    "ä¼łç»Ł": 3278,
    "æł·çļĦ": 3279,
    "èģĶç½ĳ": 3280,
    "æĽ´å¤ļ": 3281,
    "ä»į": 3282,
    "ç¯": 3283,
    "éĩįçĤ¹": 3284,
    "Ġhaving": 3285,
    "ĠGerm": 3286,
    "è½¯": 3287,
    "äº¤éĢļ": 3288,
    "Ġways": 3289,
    "å¿ħé¡»": 3290,
    "Ġkey": 3291,
    "æĶ¶åħ¥": 3292,
    "Ġplants": 3293,
    "acy": 3294,
    "ä¹Łæĺ¯": 3295,
    "ipp": 3296,
    "ysis": 3297,
    "lement": 3298,
    "å¸ĮæľĽ": 3299,
    "ç´§": 3300,
    "ument": 3301,
    "è½®": 3302,
    "amm": 3303,
    "æ¯Ķè¾ĥ": 3304,
    "å½©": 3305,
    "åºŃ": 3306,
    "è¿°": 3307,
    "Ġcases": 3308,
    "ales": 3309,
    "æĮģç»Ń": 3310,
    "ilt": 3311,
    "æĬ¥åĳĬ": 3312,
    "ï¼Įå¦Ĥ": 3313,
    "åħ¸": 3314,
    "ER": 3315,
    "âĢĶâĢĶ": 3316,
    "ges": 3317,
    "ued": 3318,
    "çĶ·": 3319,
    "Ġgeneral": 3320,
    "ä»ĺ": 3321,
    "aring": 3322,
    "å³": 3323,
    "ĠJohn": 3324,
    "Ġcy": 3325,
    "çĶ³è¯·": 3326,
    "æī¾": 3327,
    "æŃĮ": 3328,
    "istic": 3329,
    "ç«ł": 3330,
    "æ¯į": 3331,
    "äº§çĶŁ": 3332,
    "åħ³ç³»": 3333,
    "Ġfull": 3334,
    "ï¼Įåı¯": 3335,
    "Ġteam": 3336,
    "ires": 3337,
    "èĹ": 3338,
    "æĿ¡ä»¶": 3339,
    "Ġtypes": 3340,
    "ĠWar": 3341,
    "sw": 3342,
    "iting": 3343,
    "An": 3344,
    "Ġsens": 3345,
    "æĸ°çļĦ": 3346,
    "Ġaccount": 3347,
    "å©": 3348,
    "å¥Ĺ": 3349,
    "Ġfund": 3350,
    "Ġconsider": 3351,
    "Ġbecame": 3352,
    "Ġeffects": 3353,
    "Ġrelations": 3354,
    "éļıçĿĢ": 3355,
    "ç»į": 3356,
    "Ġz": 3357,
    "è®°èĢħ": 3358,
    "èĮ¶": 3359,
    "Ġcr": 3360,
    "Ġsubject": 3361,
    "Ġstudies": 3362,
    "Ġprim": 3363,
    "åĲ¦": 3364,
    "ush": 3365,
    "ä¸ĬçļĦ": 3366,
    "for": 3367,
    "æ±ī": 3368,
    "Ġreason": 3369,
    "mm": 3370,
    "ĠEnglish": 3371,
    "è¿Ľä¸ĢæŃ¥": 3372,
    "eb": 3373,
    "//": 3374,
    "Ġknowledge": 3375,
    "Ġprotect": 3376,
    "ott": 3377,
    "ĠWorld": 3378,
    "Ġnorm": 3379,
    "Ġsymptoms": 3380,
    "erence": 3381,
    "Ġstep": 3382,
    "Ġmakes": 3383,
    "çī¹åĪ«": 3384,
    "Ġhouse": 3385,
    "ĠGo": 3386,
    "åģĩ": 3387,
    "ãĢĤâĢĿĊ": 3388,
    "Ġwhether": 3389,
    "æķĻå¸Ī": 3390,
    "äºĪ": 3391,
    "ung": 3392,
    "itor": 3393,
    "åıĤä¸İ": 3394,
    "by": 3395,
    "apt": 3396,
    "500": 3397,
    "åĽ°": 3398,
    "Ġprob": 3399,
    "Ġphysical": 3400,
    "Ġcity": 3401,
    "æŃ¦": 3402,
    "Ġrepresent": 3403,
    "é¥®": 3404,
    "Ġgoing": 3405,
    "Ġconcer": 3406,
    "åĽº": 3407,
    "å¥ĩ": 3408,
    "90": 3409,
    "ĠSome": 3410,
    "For": 3411,
    "Ġself": 3412,
    "çĸ¾": 3413,
    "aut": 3414,
    "Ġmind": 3415,
    "ley": 3416,
    "åĨ·": 3417,
    "Ġpolic": 3418,
    "Ġpatients": 3419,
    "Ġground": 3420,
    "ency": 3421,
    "chie": 3422,
    "ĠOne": 3423,
    "Ġfurther": 3424,
    "ready": 3425,
    "è§ĦåĪĴ": 3426,
    "Ġlower": 3427,
    "æ¶²": 3428,
    "æĪĲåĬŁ": 3429,
    "èĥľ": 3430,
    "Ġinflu": 3431,
    "ery": 3432,
    "Ġscience": 3433,
    ".com": 3434,
    "ç½ĳç«Ļ": 3435,
    "edi": 3436,
    "Ġrole": 3437,
    "å®ģ": 3438,
    "Ġchall": 3439,
    "ä¼ļè®®": 3440,
    "åŃĺåľ¨": 3441,
    "çĻ»": 3442,
    "unt": 3443,
    "ä¸įèĥ½": 3444,
    "åģľ": 3445,
    "Ġbig": 3446,
    "è®¯": 3447,
    "çīĽ": 3448,
    "çĸ«æĥħ": 3449,
    "å»ºç«ĭ": 3450,
    "çĿ£": 3451,
    "Ġquestion": 3452,
    "ification": 3453,
    "æ¯ķ": 3454,
    "ird": 3455,
    "éģĩ": 3456,
    "åħ¶ä¸Ń": 3457,
    "ae": 3458,
    "Ġsure": 3459,
    "æĿ¥çļĦ": 3460,
    "è§Ħæ¨¡": 3461,
    "rel": 3462,
    "Ġnut": 3463,
    "ĠGen": 3464,
    "ä¹ĭåĲİ": 3465,
    "è´µ": 3466,
    "åªĴ": 3467,
    "Ġeff": 3468,
    "35": 3469,
    "Ġparticip": 3470,
    "ĠWith": 3471,
    "Ġopt": 3472,
    "ĠIntern": 3473,
    "Ġstat": 3474,
    "mber": 3475,
    "Ġens": 3476,
    "://": 3477,
    "iol": 3478,
    "ann": 3479,
    "SA": 3480,
    "æ¯ĶèµĽ": 3481,
    "acc": 3482,
    "Ġemploy": 3483,
    "lo": 3484,
    "ç³»åĪĹ": 3485,
    "Ġgroups": 3486,
    "side": 3487,
    "Ġactivities": 3488,
    "Ġstory": 3489,
    "åľ°æĸ¹": 3490,
    "ï¼ŁĊ": 3491,
    "sych": 3492,
    "ibility": 3493,
    "Ġvalue": 3494,
    "èĨ": 3495,
    "Ġpred": 3496,
    "Ġtext": 3497,
    "æĪĳåĽ½": 3498,
    "cul": 3499,
    "urity": 3500,
    "augh": 3501,
    "atures": 3502,
    "ä¸ĵå®¶": 3503,
    "Ġdig": 3504,
    "ream": 3505,
    "ables": 3506,
    "Ġseen": 3507,
    "urch": 3508,
    "Ġbelow": 3509,
    "bon": 3510,
    "Ġclose": 3511,
    "çĶ¨äºİ": 3512,
    "ĠThat": 3513,
    "Ġindic": 3514,
    "Ġloss": 3515,
    "åĪ»": 3516,
    "ĠCar": 3517,
    "éĢĲ": 3518,
    "Ġrather": 3519,
    "åĬłå¼º": 3520,
    "äººæīį": 3521,
    "Ġtoward": 3522,
    "è¯ī": 3523,
    "Ġlive": 3524,
    "Ġactivity": 3525,
    "ĠMar": 3526,
    "Ġresources": 3527,
    "right": 3528,
    "Ġoffic": 3529,
    "èĥ½æºĲ": 3530,
    "etimes": 3531,
    "åħ¨éĿ¢": 3532,
    "ĠHealth": 3533,
    "éĩĳèŀį": 3534,
    "Ġalready": 3535,
    "çĽ®æłĩ": 3536,
    "ä¹Ŀ": 3537,
    "æīĺ": 3538,
    "ä½ľåĵģ": 3539,
    "èŃ": 3540,
    "Ġpotential": 3541,
    "Ġword": 3542,
    ".\"Ċ": 3543,
    "Ġrange": 3544,
    "oura": 3545,
    "Ch": 3546,
    "è¿İ": 3547,
    "Ġneg": 3548,
    "ï¼ģĊ": 3549,
    "ä½ĵç³»": 3550,
    "åħ³äºİ": 3551,
    "Ġgrowth": 3552,
    "æİ¢": 3553,
    "yn": 3554,
    "rams": 3555,
    "åºĨ": 3556,
    "èģĮä¸ļ": 3557,
    "Ġsite": 3558,
    "Ġmodel": 3559,
    "ands": 3560,
    "Ġproducts": 3561,
    "ĠCal": 3562,
    "è°¢": 3563,
    "Ġtradition": 3564,
    "æĸ¹æ¡Ī": 3565,
    "Ġreally": 3566,
    "Ġwind": 3567,
    "Ġdone": 3568,
    "ä»ĭç»į": 3569,
    "verage": 3570,
    "ites": 3571,
    "esc": 3572,
    "Ġwr": 3573,
    "amin": 3574,
    "çŁ¥éģĵ": 3575,
    "ublic": 3576,
    "Ġproduction": 3577,
    "Ġdeg": 3578,
    "åĮ»çĸĹ": 3579,
    "ä¸ĥ": 3580,
    "Ġlot": 3581,
    "uation": 3582,
    "äººä»¬": 3583,
    "put": 3584,
    "Ġur": 3585,
    "Ġeither": 3586,
    "ç¼º": 3587,
    "çĮ®": 3588,
    "Ġcollect": 3589,
    "ç¬¬ä¸ī": 3590,
    "Ġflu": 3591,
    "earch": 3592,
    "overed": 3593,
    "31": 3594,
    "Ġrecogn": 3595,
    "Ġevidence": 3596,
    "æĻļ": 3597,
    "ä¹ĭéĹ´": 3598,
    "Ġdeveloped": 3599,
    "ï¼Įåħ¶ä¸Ń": 3600,
    "Ġdiet": 3601,
    "iam": 3602,
    "Ġquality": 3603,
    "éĽ¨": 3604,
    "Ġphot": 3605,
    "éĹ»": 3606,
    "åĲĮæ¯Ķ": 3607,
    "Ġsun": 3608,
    "osis": 3609,
    "Ġarticle": 3610,
    "å¸®åĬ©": 3611,
    "å¹ħ": 3612,
    "Ġsingle": 3613,
    "ä»·åĢ¼": 3614,
    "èį£": 3615,
    "____": 3616,
    "ç»ĵåĲĪ": 3617,
    "ĠAm": 3618,
    "Ġfall": 3619,
    "ç»§ç»Ń": 3620,
    "Ġoil": 3621,
    "Ġnational": 3622,
    "æĪĲç«ĭ": 3623,
    "ï¼ĮæľĢ": 3624,
    "iple": 3625,
    "ï¼ĮéĤ£": 3626,
    "èŃ¦": 3627,
    "Ġfive": 3628,
    "æľīæķĪ": 3629,
    "ï¼Įåı¯ä»¥": 3630,
    "be": 3631,
    "Ġaccording": 3632,
    "ï¼ĮæīĢä»¥": 3633,
    "æĮ¥": 3634,
    "ĠDr": 3635,
    "çĶŁæĢģ": 3636,
    "ĠLe": 3637,
    "Ġreturn": 3638,
    "è¿½": 3639,
    "èĻ½çĦ¶": 3640,
    "ĠBy": 3641,
    "Ġonce": 3642,
    "é£Łåĵģ": 3643,
    "Ġevent": 3644,
    "æĮīçħ§": 3645,
    "Ġmedical": 3646,
    "Ġissues": 3647,
    "Ġbuilding": 3648,
    "Ġindust": 3649,
    "ches": 3650,
    "eter": 3651,
    "Ġachie": 3652,
    "ï¼Įä½¿": 3653,
    "å®ŀéĻħ": 3654,
    "éĻĪ": 3655,
    "Ġmembers": 3656,
    "ï¼Įåıª": 3657,
    "Al": 3658,
    "çĽĸ": 3659,
    "Ġresearchers": 3660,
    "ĠGe": 3661,
    "Ġmass": 3662,
    "ĠShe": 3663,
    "idered": 3664,
    "éĺ¶": 3665,
    "ĠTr": 3666,
    "éĨ": 3667,
    "ï¼Įå¤§": 3668,
    "ç»Ŀ": 3669,
    "å§Ķåĳĺ": 3670,
    "ivil": 3671,
    "Ġupon": 3672,
    "Ġdoct": 3673,
    "é¢Ĩå¯¼": 3674,
    "Ġbat": 3675,
    "æ¢°": 3676,
    "When": 3677,
    "val": 3678,
    "fact": 3679,
    "Ġmeet": 3680,
    "èĢĲ": 3681,
    "ival": 3682,
    "Ġrate": 3683,
    "Ġpaper": 3684,
    "Ġreduce": 3685,
    "ule": 3686,
    "Ġrelig": 3687,
    "Ġclimate": 3688,
    "ournal": 3689,
    "Ġdrug": 3690,
    "æŃ»": 3691,
    "Ġinit": 3692,
    "194": 3693,
    "ips": 3694,
    "ĠSoc": 3695,
    "Ġdom": 3696,
    "Ġsource": 3697,
    "Ġwhole": 3698,
    "Ġtaken": 3699,
    "éĴŁ": 3700,
    "Ġsurface": 3701,
    "ãĢĤä½Ĩ": 3702,
    "Ġquestions": 3703,
    "ĠNorth": 3704,
    "ĠAb": 3705,
    "å®Ī": 3706,
    "Ġnature": 3707,
    "æ¶¦": 3708,
    "ison": 3709,
    "ĠAss": 3710,
    "Ġfield": 3711,
    "rect": 3712,
    "æ²Ļ": 3713,
    "éĻĦ": 3714,
    "è®¡ç®Ĺ": 3715,
    "Ġdetail": 3716,
    "Ġann": 3717,
    "éº": 3718,
    "Ġabs": 3719,
    "çĶļ": 3720,
    "fer": 3721,
    "ibr": 3722,
    "Ġskills": 3723,
    "åĿĹ": 3724,
    "¤Ĳ": 3725,
    "Ġaddress": 3726,
    "çİ°ä»£": 3727,
    "Ġred": 3728,
    "æĽ²": 3729,
    "Ġhold": 3730,
    "å¯¼èĩ´": 3731,
    "æ¨¡å¼ı": 3732,
    "Ġthemselves": 3733,
    "IS": 3734,
    "åį±": 3735,
    "ç»ĥ": 3736,
    "Ġsent": 3737,
    "æıĲåĩº": 3738,
    "è¿ĺæĺ¯": 3739,
    "éĢı": 3740,
    "ĠAmerica": 3741,
    "ask": 3742,
    "rict": 3743,
    "èįī": 3744,
    "åĲ¯": 3745,
    "ety": 3746,
    "çŃ¾": 3747,
    "Ġfrequ": 3748,
    "Ġconcept": 3749,
    "Ġliving": 3750,
    "Ġcreated": 3751,
    "åĪĨåĪ«": 3752,
    "èĭ¥": 3753,
    "æ¤į": 3754,
    "ĠSouth": 3755,
    "roll": 3756,
    "Ġcut": 3757,
    "Ġconsidered": 3758,
    "Ġcannot": 3759,
    "è¡Įä¸º": 3760,
    "å·¦": 3761,
    "Ġpolitical": 3762,
    "ĠX": 3763,
    "leep": 3764,
    "åĨĮ": 3765,
    "Ġwide": 3766,
    "å¥¥": 3767,
    "ĠAust": 3768,
    "Ġtot": 3769,
    "Ġdest": 3770,
    "å¤«": 3771,
    "Ġcame": 3772,
    "enn": 3773,
    "ĠStud": 3774,
    "fficient": 3775,
    "Ġthought": 3776,
    "Ġobserv": 3777,
    "æī©": 3778,
    "ä»ª": 3779,
    "ï¼Įæ¯ı": 3780,
    "ä½³": 3781,
    "plic": 3782,
    "åŁ¹è®Ń": 3783,
    "ä¿ĥè¿Ľ": 3784,
    "è¿Ļä¸Ģ": 3785,
    "org": 3786,
    "å°Ħ": 3787,
    "èĵ": 3788,
    "ï¼Įå®ĥ": 3789,
    "ä¹ħ": 3790,
    "sp": 3791,
    "reme": 3792,
    "Ġintrodu": 3793,
    "ä¼¼": 3794,
    "è¯¢": 3795,
    "Ġfri": 3796,
    "çļĦåıĳå±ķ": 3797,
    "çĽ´æİ¥": 3798,
    "ĠMay": 3799,
    "ä»¥æĿ¥": 3800,
    "Ġver": 3801,
    "Ġwhite": 3802,
    "æĢ¥": 3803,
    "300": 3804,
    "å»¶": 3805,
    "mp": 3806,
    "æĭį": 3807,
    "ront": 3808,
    "åĬª": 3809,
    "Ġfail": 3810,
    "Ġsoil": 3811,
    "ĠRep": 3812,
    "æ³¨æĦı": 3813,
    "Ġincreased": 3814,
    "åıĸå¾Ĺ": 3815,
    "Ġlay": 3816,
    "éĢłæĪĲ": 3817,
    "ï¼Įå½ĵ": 3818,
    "Ġtell": 3819,
    "Ġsize": 3820,
    "Ġassociated": 3821,
    "æ¡¥": 3822,
    "èĮĥåĽ´": 3823,
    "è®¢": 3824,
    "åĵª": 3825,
    "illed": 3826,
    "reg": 3827,
    "å¨ģ": 3828,
    "ä¸ºäºĨ": 3829,
    "Ġmicro": 3830,
    "Ġrecomm": 3831,
    "ä¸½": 3832,
    "ĠMan": 3833,
    "è®¸å¤ļ": 3834,
    "æİ¨åĬ¨": 3835,
    "oon": 3836,
    "éĵ¶è¡Į": 3837,
    "èĦĳ": 3838,
    "ä»¥ä¸ĭ": 3839,
    "éĴĪ": 3840,
    "åħ±åĲĮ": 3841,
    "æĿ¥è¯´": 3842,
    "Ġunderstanding": 3843,
    "Ġweight": 3844,
    "æľŁéĹ´": 3845,
    "ober": 3846,
    "Ġsound": 3847,
    "è´«": 3848,
    "æĹ¶ä»£": 3849,
    "ï¼Įä¸ŃåĽ½": 3850,
    "æİ¨è¿Ľ": 3851,
    "ĠYork": 3852,
    "Ġpractice": 3853,
    "ï¼ĮæĽ´": 3854,
    "ney": 3855,
    "ĠSy": 3856,
    "Ġadult": 3857,
    "Ġweek": 3858,
    "çģµ": 3859,
    "utions": 3860,
    "Ġpay": 3861,
    "Ġpressure": 3862,
    "Ġactually": 3863,
    "Ġskin": 3864,
    "Ġhistor": 3865,
    "Ġitself": 3866,
    "çĶµå½±": 3867,
    "Ġanimals": 3868,
    "æİª": 3869,
    "å·Ŀ": 3870,
    "Ġmarket": 3871,
    "åºŁ": 3872,
    "ĠPr": 3873,
    "45": 3874,
    "åįĪ": 3875,
    "è¿ĲåĬ¨": 3876,
    "éĢĢ": 3877,
    "epend": 3878,
    "ç«¥": 3879,
    "ivity": 3880,
    "Ġopportun": 3881,
    "Ġsimple": 3882,
    "åı³": 3883,
    "åºĵ": 3884,
    "Ġstress": 3885,
    "æ°§": 3886,
    "çłĶåıĳ": 3887,
    "Ġarg": 3888,
    "Ġglobal": 3889,
    "ï¼Įä½Ĩæĺ¯": 3890,
    "ai": 3891,
    "çĳ": 3892,
    "çłģ": 3893,
    "Ġfamil": 3894,
    "Ġentire": 3895,
    "è®¿": 3896,
    "è·Ł": 3897,
    "ID": 3898,
    "Ġstudent": 3899,
    "Ġrequired": 3900,
    "Ġstates": 3901,
    "æĵį": 3902,
    "ĠEarth": 3903,
    "èĦ±": 3904,
    "artment": 3905,
    "å¹´æĿ¥": 3906,
    "Ġsal": 3907,
    "go": 3908,
    "Ġpublished": 3909,
    "Ġalmost": 3910,
    "é¡º": 3911,
    "195": 3912,
    "éĿ¢ç§¯": 3913,
    "Ġfat": 3914,
    "Ġrights": 3915,
    "sequ": 3916,
    "Ġcomplex": 3917,
    "è¯Ĭ": 3918,
    "ging": 3919,
    "Ġrelationship": 3920,
    "åİħ": 3921,
    "Ġrelated": 3922,
    "Ġeconomic": 3923,
    "Ġneeded": 3924,
    "æĿĤ": 3925,
    "Ġblack": 3926,
    "Ġeffective": 3927,
    "erve": 3928,
    "ä¿ĿæĮģ": 3929,
    "é¤Ĳ": 3930,
    "åŁºéĩĳ": 3931,
    "olic": 3932,
    "æ°¸": 3933,
    "oph": 3934,
    "Ġdoc": 3935,
    "æĳĦ": 3936,
    "Ġcondition": 3937,
    "Ġ=": 3938,
    "Ġquick": 3939,
    "ä»»ä½ķ": 3940,
    "ĠAct": 3941,
    "ened": 3942,
    "itud": 3943,
    "...": 3944,
    "Ġmaint": 3945,
    "aced": 3946,
    "aged": 3947,
    "åºĶè¯¥": 3948,
    "Ġmaterials": 3949,
    "çļĦå¤§": 3950,
    "é¥°": 3951,
    "Ġability": 3952,
    "ĠComp": 3953,
    "åĬªåĬĽ": 3954,
    "è¡ĮæĶ¿": 3955,
    "Ġprovides": 3956,
    "å¦Ĥä½ķ": 3957,
    "Ġspe": 3958,
    "ES": 3959,
    "apan": 3960,
    "Ġidea": 3961,
    "ä¸ĢèĪ¬": 3962,
    "éĶĻ": 3963,
    "hing": 3964,
    "Ġmor": 3965,
    "é½": 3966,
    "Ġfish": 3967,
    "ĠDep": 3968,
    "çĶŁçī©": 3969,
    "To": 3970,
    "Ġhtt": 3971,
    "Ġcomes": 3972,
    "åŁ¹åħ»": 3973,
    "rad": 3974,
    "åĤ¨": 3975,
    "ï¼Įä¸İ": 3976,
    "Ġmanagement": 3977,
    "Ġexerc": 3978,
    "ç»ıéªĮ": 3979,
    "Ġhalf": 3980,
    "çļĦæĹ¶åĢĻ": 3981,
    "å¾ĹåĪ°": 3982,
    "Ġparts": 3983,
    "oll": 3984,
    "å·¨": 3985,
    "Ġpurp": 3986,
    "acks": 3987,
    "gest": 3988,
    "Ġhealthy": 3989,
    "lying": 3990,
    "eds": 3991,
    "çĤİ": 3992,
    "è¿Ŀ": 3993,
    "è®¾æĸ½": 3994,
    "hib": 3995,
    "ï¼ĮåĲĮæĹ¶": 3996,
    "Ġservices": 3997,
    "éĵ¾": 3998,
    "ening": 3999,
    "ä¼ĺåĬ¿": 4000,
    "itary": 4001,
    "ump": 4002,
    "light": 4003,
    "åĽ¢éĺŁ": 4004,
    "Ġcat": 4005,
    "æ³ķå¾ĭ": 4006,
    "Ġmodern": 4007,
    "å²Ľ": 4008,
    "ä¿Ŀéļľ": 4009,
    "Ġpriv": 4010,
    "æĿ¾": 4011,
    "Ġexperien": 4012,
    "è°Ī": 4013,
    "Ġtook": 4014,
    "aging": 4015,
    "èĹı": 4016,
    "æķĪæŀľ": 4017,
    "Ġsuper": 4018,
    "Wh": 4019,
    "Ġengine": 4020,
    "Ġvers": 4021,
    "rown": 4022,
    "urs": 4023,
    "Ġavoid": 4024,
    "oses": 4025,
    "æ¾": 4026,
    "ï¼Įä½ł": 4027,
    "éĿł": 4028,
    "ç¬¦": 4029,
    "æī§è¡Į": 4030,
    "æĪĲæľ¬": 4031,
    "ĠGu": 4032,
    "æĶ»": 4033,
    "Ġclaim": 4034,
    "èµĦéĩĳ": 4035,
    "æĪĺçķ¥": 4036,
    "cient": 4037,
    "åĳ¢": 4038,
    "Ġport": 4039,
    "Ġmoney": 4040,
    "ç²ī": 4041,
    "Ġarch": 4042,
    "Ġansw": 4043,
    "æĶ¹éĿ©": 4044,
    "å¸Ń": 4045,
    "éĽ¶": 4046,
    "Ġnecessary": 4047,
    "åĨľä¸ļ": 4048,
    "Ġprote": 4049,
    "ript": 4050,
    "åĢŁ": 4051,
    "ply": 4052,
    "AR": 4053,
    "æ³Ľ": 4054,
    "èıľ": 4055,
    "ores": 4056,
    "è´¸": 4057,
    "utes": 4058,
    "ãĢĤèĢĮ": 4059,
    "mb": 4060,
    "åĺ": 4061,
    "Ġbegan": 4062,
    "Ġsuff": 4063,
    "éŃ": 4064,
    "ĠState": 4065,
    "ä¸ĢçĽ´": 4066,
    "vere": 4067,
    "ç´¯": 4068,
    "Ġever": 4069,
    "ows": 4070,
    "æĭ¿": 4071,
    "ä¸Ģèµ·": 4072,
    "Ġlink": 4073,
    "Ġassess": 4074,
    "chan": 4075,
    "è¡Ĺ": 4076,
    "uel": 4077,
    "Ġreact": 4078,
    "Ġparents": 4079,
    "You": 4080,
    "åį«çĶŁ": 4081,
    "éĴ±": 4082,
    "ãĢĭï¼Į": 4083,
    "å¤ı": 4084,
    "çĨŁ": 4085,
    "äºĭä¸ļ": 4086,
    "è¡¨çİ°": 4087,
    "ĠHist": 4088,
    "çĶļèĩ³": 4089,
    "åİŁåĽł": 4090,
    "Ġpath": 4091,
    "Ã©": 4092,
    "èģĶåĲĪ": 4093,
    "åĩıå°ĳ": 4094,
    "ï¼ĮåĽłä¸º": 4095,
    "Ġcoll": 4096,
    "Ġfactors": 4097,
    "Ġyet": 4098,
    "çİ°åľº": 4099,
    "Ġarr": 4100,
    "ç»ıè¿ĩ": 4101,
    "Ġmonths": 4102,
    "Ġconduct": 4103,
    "Ġbar": 4104,
    "ç«ŀäºī": 4105,
    "inter": 4106,
    "ĠHis": 4107,
    "Ġapproach": 4108,
    "irm": 4109,
    "ç©ºéĹ´": 4110,
    "Ġgreen": 4111,
    "Ġhours": 4112,
    "çİ©": 4113,
    "Ġcomputer": 4114,
    "åĬ±": 4115,
    "my": 4116,
    "Ġmedic": 4117,
    "èĥĮ": 4118,
    "ences": 4119,
    "æĹ¥æľ¬": 4120,
    "ä¸ĭéĻį": 4121,
    "åºĬ": 4122,
    "Ġchemical": 4123,
    "åĪļ": 4124,
    "Ġproduce": 4125,
    "åĿļæĮģ": 4126,
    "åĨ²": 4127,
    "æķĳ": 4128,
    "ume": 4129,
    "åı¶": 4130,
    "æĸ½å·¥": 4131,
    "ese": 4132,
    "AT": 4133,
    "Ġregion": 4134,
    "ensive": 4135,
    "Ġcop": 4136,
    "åĨ³å®ļ": 4137,
    "Ġmeasure": 4138,
    "äºĴèģĶç½ĳ": 4139,
    "ï¼Įä»ĸä»¬": 4140,
    "36": 4141,
    "ederal": 4142,
    "Ġgas": 4143,
    "Ġfire": 4144,
    "nces": 4145,
    "Ġpopular": 4146,
    "abit": 4147,
    "izing": 4148,
    "usion": 4149,
    "æľºæ¢°": 4150,
    "Ġsense": 4151,
    "ï¼īĊ": 4152,
    "191": 4153,
    "ï¼Įè¦ģ": 4154,
    "ĠCo": 4155,
    "Ġanalysis": 4156,
    "èģĺ": 4157,
    "Ġliter": 4158,
    "Ġge": 4159,
    "Ġrul": 4160,
    "ĠCont": 4161,
    "å¤®": 4162,
    "éĶ®": 4163,
    "Ġpattern": 4164,
    "çĸ¾çĹħ": 4165,
    "iction": 4166,
    "Ġprinc": 4167,
    "Ġthroughout": 4168,
    "hold": 4169,
    "ma": 4170,
    "è¯ļ": 4171,
    "ä¸°å¯Į": 4172,
    "çŁ¿": 4173,
    "Ġtherap": 4174,
    "empt": 4175,
    "Ġtar": 4176,
    "Ġstop": 4177,
    "äº¤æµģ": 4178,
    "Ġaction": 4179,
    "Ġemer": 4180,
    "rated": 4181,
    "ç»ĵæŀľ": 4182,
    "èĽ": 4183,
    "ä¸įä¼ļ": 4184,
    "Ġregard": 4185,
    "ï¼ĮçĶ±": 4186,
    "iddle": 4187,
    ";Ċ": 4188,
    "åıĳå±ķçļĦ": 4189,
    "193": 4190,
    "igure": 4191,
    "æķ£": 4192,
    "Ġsepar": 4193,
    "Ġjob": 4194,
    "æĢ§èĥ½": 4195,
    "abor": 4196,
    "Ġpersonal": 4197,
    "gar": 4198,
    "erous": 4199,
    "yl": 4200,
    "ĠDo": 4201,
    "æľĭ": 4202,
    "Ġrecent": 4203,
    "Ġcolor": 4204,
    "éģĹ": 4205,
    "):": 4206,
    "son": 4207,
    "å¡ĳ": 4208,
    "ç¨³å®ļ": 4209,
    "Ġsoft": 4210,
    "Ġincreasing": 4211,
    "æĪª": 4212,
    "uck": 4213,
    "Ġonline": 4214,
    "Ġsam": 4215,
    "ĠBritish": 4216,
    "Ġreading": 4217,
    "het": 4218,
    "Ġtaking": 4219,
    "-w": 4220,
    "æĢ§çļĦ": 4221,
    "âĢĿãĢĤĊ": 4222,
    "estern": 4223,
    "Ġdog": 4224,
    "Ġut": 4225,
    "ections": 4226,
    "Ġservice": 4227,
    "Ġtalk": 4228,
    "åĪ¶åº¦": 4229,
    "ising": 4230,
    "ĠJapan": 4231,
    "ä¹İ": 4232,
    "ä¸¤ä¸ª": 4233,
    "abet": 4234,
    "ä½įäºİ": 4235,
    "ĠCanad": 4236,
    "éģ¿": 4237,
    "è¿Ļç§į": 4238,
    "Ġprevious": 4239,
    "icles": 4240,
    "Ġindividuals": 4241,
    "pid": 4242,
    "å¸ģ": 4243,
    "Ġshows": 4244,
    "ccording": 4245,
    "Ġla": 4246,
    "ç¾İåħĥ": 4247,
    "äº¤æĺĵ": 4248,
    "Ġlonger": 4249,
    "ĠNe": 4250,
    "Ġbehavior": 4251,
    "ä¸Ģç§į": 4252,
    "æ±ł": 4253,
    "Ġfarm": 4254,
    "çĪ¶": 4255,
    "ĠAfter": 4256,
    "onse": 4257,
    "ç¬Ķ": 4258,
    "Ġstructure": 4259,
    "é¡¾": 4260,
    "Ġrepl": 4261,
    "bo": 4262,
    "åĬ³åĬ¨": 4263,
    "Ġcontent": 4264,
    "Ġinteract": 4265,
    "Ġheat": 4266,
    "åįıä¼ļ": 4267,
    "è·Ŀ": 4268,
    "IN": 4269,
    "rate": 4270,
    "è¿ĩç¨ĭä¸Ń": 4271,
    "éľ²": 4272,
    "èĸ": 4273,
    "åıĹåĪ°": 4274,
    "çĶ°": 4275,
    "äº®": 4276,
    "%ãĢĤ": 4277,
    "Ġsix": 4278,
    "Ġmeaning": 4279,
    "emic": 4280,
    "æĢİ": 4281,
    "Ġposition": 4282,
    "Ġbur": 4283,
    "åĪĺ": 4284,
    "å®ŀéªĮ": 4285,
    "Ġenvironmental": 4286,
    "åªĴä½ĵ": 4287,
    "è¾Ĩ": 4288,
    "åĪ¤": 4289,
    "Ġconc": 4290,
    "Ġdisord": 4291,
    "å°ļ": 4292,
    "yle": 4293,
    "åĳĺå·¥": 4294,
    "Ġindustry": 4295,
    "å®¶åºŃ": 4296,
    "éŁ³ä¹Ĳ": 4297,
    "Ġmatter": 4298,
    "æŀ¶": 4299,
    "Ġbuilt": 4300,
    "Ġtotal": 4301,
    "èĭ¦": 4302,
    "ĠResearch": 4303,
    "åħ³æ³¨": 4304,
    "-based": 4305,
    "ze": 4306,
    "Ġtraining": 4307,
    "Ġprovided": 4308,
    "çĶ²": 4309,
    "Ġfeed": 4310,
    "èª": 4311,
    "ster": 4312,
    "ulations": 4313,
    "Ġwriting": 4314,
    "ä¼ĺç§Ģ": 4315,
    "åĮºåŁŁ": 4316,
    "Ġthing": 4317,
    "Ġbring": 4318,
    "minist": 4319,
    "èĪŀ": 4320,
    "æ´Ĺ": 4321,
    "ene": 4322,
    ".g": 4323,
    "lt": 4324,
    "æ¶ī": 4325,
    "æł¸å¿ĥ": 4326,
    "Ġ|": 4327,
    "æ¹¾": 4328,
    "ï¼Įå¦Ĥæŀľ": 4329,
    "Ġtrue": 4330,
    "ĠJew": 4331,
    "Ġterms": 4332,
    "åıĺåĮĸ": 4333,
    "ç¡¬": 4334,
    "ãĢĤâĢľ": 4335,
    "ched": 4336,
    "Ġheav": 4337,
    "ĠInstit": 4338,
    "æĿ¥èĩª": 4339,
    "åħĪè¿Ľ": 4340,
    "ĠSchool": 4341,
    "ä¸Ģæ¬¡": 4342,
    "Ġcheck": 4343,
    "Ġsociety": 4344,
    "åłĤ": 4345,
    "ï¼ĮèĢĮä¸Ķ": 4346,
    "ricult": 4347,
    "Ġbreak": 4348,
    "vey": 4349,
    "ä¼ĳ": 4350,
    "ç§Ł": 4351,
    "anced": 4352,
    "lor": 4353,
    "ä½ĵèĤ²": 4354,
    "Ġinj": 4355,
    "Ġcompany": 4356,
    "èĢĥè¯ķ": 4357,
    "æĪĳä»¬çļĦ": 4358,
    "aff": 4359,
    "Ġsurv": 4360,
    "èĤī": 4361,
    "istance": 4362,
    "aries": 4363,
    "çİ¯ä¿Ŀ": 4364,
    "æīĭæľº": 4365,
    "Ġdeb": 4366,
    "Ġcontact": 4367,
    "lands": 4368,
    "ns": 4369,
    "åĬłå·¥": 4370,
    "ED": 4371,
    "Ġsex": 4372,
    "æ¯ķä¸ļ": 4373,
    "æŃ£åľ¨": 4374,
    "Ġcaused": 4375,
    "Ġdesigned": 4376,
    "reng": 4377,
    "aily": 4378,
    "fully": 4379,
    "å®¹æĺĵ": 4380,
    "éĺ¶æ®µ": 4381,
    "åıĬæĹ¶": 4382,
    "ç®±": 4383,
    "33": 4384,
    "Ġsleep": 4385,
    "Ġviol": 4386,
    "Ġbenefits": 4387,
    "ĠII": 4388,
    "çĽĽ": 4389,
    "ĠWhile": 4390,
    "Ġaccept": 4391,
    "æľĭåıĭ": 4392,
    "ĠPe": 4393,
    "inary": 4394,
    "é£İéĻ©": 4395,
    "é¡¶": 4396,
    "Ġclean": 4397,
    "åħ¬å¼Ģ": 4398,
    "ä¸¥éĩį": 4399,
    "Ġmusic": 4400,
    "çĽŁ": 4401,
    "å²Ĺ": 4402,
    "astic": 4403,
    "ä¿Ŀè¯ģ": 4404,
    "Ġlives": 4405,
    "Ġincludes": 4406,
    "æĽ´åĬł": 4407,
    "æŃ£å¼ı": 4408,
    "Ġrev": 4409,
    "Ġearth": 4410,
    "ropri": 4411,
    "ister": 4412,
    "å®Ĺ": 4413,
    "Ġetc": 4414,
    "çĬ¯": 4415,
    "Ġshown": 4416,
    "ĠSu": 4417,
    "Ġeasy": 4418,
    "åħ·ä½ĵ": 4419,
    "rought": 4420,
    "hood": 4421,
    "Ġtemperature": 4422,
    "æ¸Ĳ": 4423,
    "ï¼ĮæĹł": 4424,
    "Ġcontain": 4425,
    "åķĨä¸ļ": 4426,
    "èĢģå¸Ī": 4427,
    "åºĶå½ĵ": 4428,
    "iment": 4429,
    "Ġprograms": 4430,
    "æ³¨åĨĮ": 4431,
    "lex": 4432,
    "Ġcauses": 4433,
    "Ġce": 4434,
    "Ġlove": 4435,
    "è¿ĲèĲ¥": 4436,
    "Ġtravel": 4437,
    "Ġvariety": 4438,
    "Ġdiagn": 4439,
    "Ġvide": 4440,
    "Ġsat": 4441,
    "çĩĥ": 4442,
    "Ġpositive": 4443,
    "Ġrelative": 4444,
    "istics": 4445,
    "çļĦé«ĺ": 4446,
    "å½Ĵ": 4447,
    "çĸĳ": 4448,
    "Ġthreat": 4449,
    "ç½ª": 4450,
    "asc": 4451,
    "Ġsubst": 4452,
    "Ġmedia": 4453,
    "è§¦": 4454,
    "Ġsafe": 4455,
    "Ġmethods": 4456,
    "ronic": 4457,
    "è·µ": 4458,
    "imately": 4459,
    "itation": 4460,
    "ĠNo": 4461,
    "çľĭåĪ°": 4462,
    "Ġpoll": 4463,
    "æ³°": 4464,
    "çī¹èī²": 4465,
    "æ¢¦": 4466,
    "Ġschools": 4467,
    "duc": 4468,
    "Ġsimply": 4469,
    "éĻ¤äºĨ": 4470,
    "ä»ĸçļĦ": 4471,
    "Ġslow": 4472,
    "æİ¥åıĹ": 4473,
    "åİļ": 4474,
    "ners": 4475,
    "ades": 4476,
    "Ġmach": 4477,
    "atives": 4478,
    "Ġculture": 4479,
    "ucle": 4480,
    "æ±¡æŁĵ": 4481,
    "å®ľ": 4482,
    "Ġvari": 4483,
    "ON": 4484,
    "aving": 4485,
    "éĩĬ": 4486,
    "Ġled": 4487,
    "åħħåĪĨ": 4488,
    "Ġsometimes": 4489,
    "Ġspread": 4490,
    "Ġtarget": 4491,
    "rench": 4492,
    "éĿĻ": 4493,
    "Ġstandard": 4494,
    "Ġbelieve": 4495,
    "è§Ī": 4496,
    "æĪĲç»©": 4497,
    "Ġpage": 4498,
    "Ġgreater": 4499,
    "Ġaverage": 4500,
    "osition": 4501,
    "ä¸»é¢ĺ": 4502,
    "Ġeat": 4503,
    "Ġregular": 4504,
    "Ġcarbon": 4505,
    "rior": 4506,
    "Ġoriginal": 4507,
    "ĠSec": 4508,
    "amed": 4509,
    "ĠKing": 4510,
    "æĮĩå¯¼": 4511,
    "IC": 4512,
    "ius": 4513,
    "Ġfru": 4514,
    "Ġorigin": 4515,
    "Ġlif": 4516,
    "å°ģ": 4517,
    "Ġexc": 4518,
    "èĩªåĬ¨": 4519,
    "å°¤": 4520,
    "rast": 4521,
    "æĸĹ": 4522,
    "åĲī": 4523,
    "ï¼Įä»¥åıĬ": 4524,
    "çĽĺ": 4525,
    "cil": 4526,
    "Ġmovement": 4527,
    "umb": 4528,
    "ony": 4529,
    "Ġissue": 4530,
    "rand": 4531,
    "å°ıæĹ¶": 4532,
    "ufact": 4533,
    "Ġfem": 4534,
    "Ġuses": 4535,
    "new": 4536,
    "ights": 4537,
    "Ġscientists": 4538,
    "ä¼´": 4539,
    "uge": 4540,
    "æİªæĸ½": 4541,
    "Ġevents": 4542,
    "Ġwild": 4543,
    "ï¼ĮåĽłæŃ¤": 4544,
    "ender": 4545,
    "Ġdeep": 4546,
    "ĠPar": 4547,
    "Ġinvolved": 4548,
    "ĠAustral": 4549,
    "ç¤¼": 4550,
    "Ġemb": 4551,
    "Ġprec": 4552,
    "wh": 4553,
    "ãĢģâĢľ": 4554,
    "Ġste": 4555,
    "ington": 4556,
    "å½¢å¼ı": 4557,
    "Ġreported": 4558,
    "å¹¿æ³Ľ": 4559,
    "å§Ķåĳĺä¼ļ": 4560,
    "éĻĨ": 4561,
    "But": 4562,
    "æ´¾": 4563,
    "æħ¢": 4564,
    "-in": 4565,
    "Ġpsych": 4566,
    "Ġple": 4567,
    "ï¼Įåį³": 4568,
    "æĺ¯ä¸Ģä¸ª": 4569,
    "AN": 4570,
    "ĠScience": 4571,
    "æ£Ģæµĭ": 4572,
    "Ġwritten": 4573,
    "dom": 4574,
    "ervation": 4575,
    "aling": 4576,
    "ä¸įä»ħ": 4577,
    "ĠPres": 4578,
    "\".": 4579,
    "çº¸": 4580,
    "å¤ľ": 4581,
    "Ġbr": 4582,
    "èĻĳ": 4583,
    "Ġmechan": 4584,
    "Ġsources": 4585,
    "ban": 4586,
    "åĬŀåħ¬": 4587,
    "Ġdemon": 4588,
    "Ġidentify": 4589,
    "Ġencoura": 4590,
    "Ġdoing": 4591,
    "çĥĪ": 4592,
    "Ġpict": 4593,
    "å·¥èīº": 4594,
    "aches": 4595,
    "Ġsum": 4596,
    "Ġcompan": 4597,
    "éĻįä½İ": 4598,
    "Ġbacter": 4599,
    "é²ľ": 4600,
    "arily": 4601,
    "çŃĶ": 4602,
    "Ġhelps": 4603,
    "Ġrefer": 4604,
    "Ġfoods": 4605,
    "192": 4606,
    "æ»ĳ": 4607,
    "Ġdeveloping": 4608,
    "éķ¿æľŁ": 4609,
    "ãĢĢ": 4610,
    "Ġrespect": 4611,
    "ĠPer": 4612,
    "Ġshare": 4613,
    "Ġcamp": 4614,
    "eration": 4615,
    "Ġface": 4616,
    "é¹": 4617,
    "å¹´åº¦": 4618,
    "çģ¯": 4619,
    "ä¸Ŀ": 4620,
    "Ġforms": 4621,
    "åĪĽéĢł": 4622,
    "çī©æµģ": 4623,
    "åĽłç´ł": 4624,
    "å¸¦æĿ¥": 4625,
    "è®¨": 4626,
    "ĠChina": 4627,
    "ĠMin": 4628,
    "ĠEurope": 4629,
    "æ£ĢæŁ¥": 4630,
    "Ġtax": 4631,
    "Ġimage": 4632,
    "know": 4633,
    "Ġforest": 4634,
    "ï¼Įè¯¥": 4635,
    "ief": 4636,
    "rim": 4637,
    "Ġparticularly": 4638,
    "æŃ¤å¤ĸ": 4639,
    "Ġdamage": 4640,
    "ĠIndia": 4641,
    "Ġimplement": 4642,
    "Ġbasic": 4643,
    "ength": 4644,
    "OR": 4645,
    "è¿Ĳè¾ĵ": 4646,
    "æĺ¯åľ¨": 4647,
    "Ġlack": 4648,
    "è¿ĺæľī": 4649,
    "èµ·æĿ¥": 4650,
    "Ġstreng": 4651,
    "verse": 4652,
    "èµĦäº§": 4653,
    "Ġec": 4654,
    "ials": 4655,
    "Ġnormal": 4656,
    "çļĦæĸ°": 4657,
    "èĥ¶": 4658,
    "oor": 4659,
    "37": 4660,
    "æľĿ": 4661,
    "Ġpoor": 4662,
    "ana": 4663,
    "ï¼Įåħ¨": 4664,
    "å®£ä¼ł": 4665,
    "èº«ä½ĵ": 4666,
    "Ġresponse": 4667,
    "ha": 4668,
    "å³°": 4669,
    "è°ĥæķ´": 4670,
    "çĹĽ": 4671,
    "Ġoutside": 4672,
    "åħ¬åħ±": 4673,
    "lies": 4674,
    "Ġsqu": 4675,
    "ï¼ĮéĢļè¿ĩ": 4676,
    "Ġcompet": 4677,
    "Ġlog": 4678,
    "Ġensure": 4679,
    "è¯į": 4680,
    "æĹ¢": 4681,
    "æīįèĥ½": 4682,
    "åģļå¥½": 4683,
    "ĠApp": 4684,
    "Ġ/": 4685,
    "Ġlate": 4686,
    "Ġattempt": 4687,
    "åĪ¸": 4688,
    "osure": 4689,
    "è¿Ĳè¡Į": 4690,
    "Ġ--": 4691,
    "æķħäºĭ": 4692,
    "Ġharm": 4693,
    "ached": 4694,
    "Ġserious": 4695,
    "Ġforce": 4696,
    "Ġattention": 4697,
    "Ġgrowing": 4698,
    "èªī": 4699,
    "ops": 4700,
    "æ´ĭ": 4701,
    "isions": 4702,
    "Ġsust": 4703,
    "ä¹ĺ": 4704,
    "Ġremov": 4705,
    "Ġreview": 4706,
    "Ġcoun": 4707,
    "ĠEd": 4708,
    "Ġgenerally": 4709,
    "Ġbal": 4710,
    "åħ³éĶ®": 4711,
    "æīĵéĢł": 4712,
    "æĺİæĺ¾": 4713,
    "amb": 4714,
    "Ġwood": 4715,
    "åĩºäºĨ": 4716,
    "Ġcompon": 4717,
    "éĢĶ": 4718,
    "ãĢģé«ĺ": 4719,
    "Ġproduced": 4720,
    "Ġnetwork": 4721,
    "åįĸ": 4722,
    "oles": 4723,
    "ises": 4724,
    "ctions": 4725,
    "Ġextreme": 4726,
    "åıĳæĮ¥": 4727,
    "èµĦæł¼": 4728,
    "å®ĮåĸĦ": 4729,
    "èĲ½å®ŀ": 4730,
    "Ġvisit": 4731,
    "âĢ¢": 4732,
    "Ġcust": 4733,
    "Ġmess": 4734,
    "Ġinteg": 4735,
    "åĿĢ": 4736,
    "Ġideas": 4737,
    "Ġap": 4738,
    "ĠWill": 4739,
    "æķ°åŃĹ": 4740,
    "ĠAug": 4741,
    "ç¬¦åĲĪ": 4742,
    "uth": 4743,
    "38": 4744,
    "Ġcross": 4745,
    "oly": 4746,
    "Ġsafety": 4747,
    "elling": 4748,
    "åŁºåľ°": 4749,
    "Ġdraw": 4750,
    "Ġemot": 4751,
    "set": 4752,
    "Ġseries": 4753,
    "ribution": 4754,
    "Ġchalleng": 4755,
    "Ġaff": 4756,
    "Ġteachers": 4757,
    "sh": 4758,
    "è¯Ĺ": 4759,
    "erg": 4760,
    "ĠCenter": 4761,
    "éĩıçļĦ": 4762,
    "34": 4763,
    "Ġsou": 4764,
    "190": 4765,
    "Ġessential": 4766,
    "çİī": 4767,
    "åĲ¨": 4768,
    "è¯¾ç¨ĭ": 4769,
    "æĿ¥è¶Ĭ": 4770,
    "éĽ·": 4771,
    "Ġconsist": 4772,
    "åľ£": 4773,
    "ï¼Įæ¯Ķ": 4774,
    "ĠHar": 4775,
    "æ··": 4776,
    "Ġast": 4777,
    "ä¸»ä»»": 4778,
    "Ġveget": 4779,
    "èĶ": 4780,
    "erson": 4781,
    "è¶ĬæĿ¥è¶Ĭ": 4782,
    "Ġwebs": 4783,
    "åĪĨéĴŁ": 4784,
    "æĥł": 4785,
    "ĠJes": 4786,
    "Ġago": 4787,
    "Ġfa": 4788,
    "Ġprep": 4789,
    "irit": 4790,
    "Ġprobably": 4791,
    "Ġcorrect": 4792,
    "rie": 4793,
    "bor": 4794,
    "å¹ķ": 4795,
    "èĥŀ": 4796,
    "vention": 4797,
    "è¶£": 4798,
    "è§ĦèĮĥ": 4799,
    "Ġfeet": 4800,
    "Ġmother": 4801,
    "å¹¸": 4802,
    "Ġnumbers": 4803,
    "æĦıè§ģ": 4804,
    "imum": 4805,
    "ĠCount": 4806,
    "é«ĺçļĦ": 4807,
    "åħ¬éĩĮ": 4808,
    "osing": 4809,
    "æ»¡è¶³": 4810,
    "Ġsea": 4811,
    "Ġcontinue": 4812,
    "On": 4813,
    "Ġexpress": 4814,
    "Ġlat": 4815,
    "æ´ģ": 4816,
    "32": 4817,
    "IT": 4818,
    "ç¼©": 4819,
    "æĢĢ": 4820,
    "Ġox": 4821,
    "æĵįä½ľ": 4822,
    "Ġcommit": 4823,
    "åı¥": 4824,
    "ï¼Įæľ¬": 4825,
    "è°ĥæŁ¥": 4826,
    "Ġselect": 4827,
    "ĠPart": 4828,
    "Ġpatient": 4829,
    "Ġinternational": 4830,
    "æĿ¨": 4831,
    "ecause": 4832,
    "åĪ¶ä½ľ": 4833,
    "ls": 4834,
    "room": 4835,
    "ĠJan": 4836,
    "âĢĺ": 4837,
    "Ġir": 4838,
    "Ġattack": 4839,
    "æĿŁ": 4840,
    "haps": 4841,
    "ino": 4842,
    "ä¼°": 4843,
    "éĤ®": 4844,
    "ä»Ĭå¤©": 4845,
    "Ġdefin": 4846,
    "è¸": 4847,
    "AC": 4848,
    "ĠQu": 4849,
    "éļĶ": 4850,
    "Ġelectric": 4851,
    "Ġanimal": 4852,
    "AS": 4853,
    "ĠJu": 4854,
    "Ġincluded": 4855,
    "ided": 4856,
    "ĠInt": 4857,
    "æ±ĩ": 4858,
    "æľĢåĲİ": 4859,
    "Ġpolicy": 4860,
    "na": 4861,
    "Ġgetting": 4862,
    "ror": 4863,
    "åľĨ": 4864,
    "Ġcit": 4865,
    "raft": 4866,
    "ems": 4867,
    "Ġmanufact": 4868,
    "Ġdispl": 4869,
    "Ġindepend": 4870,
    "uary": 4871,
    "æľºä¼ļ": 4872,
    "Ġtherefore": 4873,
    "where": 4874,
    "Ġnight": 4875,
    "ming": 4876,
    "Ġaware": 4877,
    "çĶµè§Ĩ": 4878,
    "å¿«éĢŁ": 4879,
    "Ġtakes": 4880,
    "é½Ĳ": 4881,
    "Ġthus": 4882,
    "Ġcover": 4883,
    "cies": 4884,
    "ground": 4885,
    "ĠPre": 4886,
    "Ġdou": 4887,
    "æĸ¹åĲĳ": 4888,
    "èĨľ": 4889,
    "æĹłæ³ķ": 4890,
    "Ġdiv": 4891,
    "èĳ£": 4892,
    "Ġvirus": 4893,
    "overy": 4894,
    "èĤ¤": 4895,
    "å±ŀäºİ": 4896,
    "abetes": 4897,
    "Ġkids": 4898,
    "www": 4899,
    "fect": 4900,
    "Ġsomeone": 4901,
    "Ġinstead": 4902,
    "ĠMany": 4903,
    "å»ºè®®": 4904,
    "iot": 4905,
    "éª¨": 4906,
    "Ġlooking": 4907,
    "çĶŁåĳ½": 4908,
    "issions": 4909,
    "iforn": 4910,
    "ties": 4911,
    "ç»¿èī²": 4912,
    "çĽĳçĿ£": 4913,
    "é¼ĵ": 4914,
    "Ġconcent": 4915,
    "Ġleaders": 4916,
    "rew": 4917,
    "ç»ĦæĪĲ": 4918,
    "inks": 4919,
    "Ġdoesn": 4920,
    "çļĦéĩįè¦ģ": 4921,
    "75": 4922,
    "hel": 4923,
    "Ġeth": 4924,
    "å´": 4925,
    "æ¦Ĥ": 4926,
    "ï¼īãĢģ": 4927,
    "ĠBo": 4928,
    ".org": 4929,
    "48": 4930,
    "Ġvit": 4931,
    "éĢļçŁ¥": 4932,
    "Ġmagn": 4933,
    "å®½": 4934,
    "æĿ¯": 4935,
    "åĵĪ": 4936,
    "é±": 4937,
    "ancial": 4938,
    "è´´": 4939,
    "èıĮ": 4940,
    "æĤī": 4941,
    "cell": 4942,
    "ĠEduc": 4943,
    "ying": 4944,
    "éĽĦ": 4945,
    "Ġdaily": 4946,
    "Ġdang": 4947,
    "ä»»åĬ¡": 4948,
    "ography": 4949,
    "Ġhyd": 4950,
    "asons": 4951,
    "ä¸¾åĬŀ": 4952,
    "Ġprint": 4953,
    "Ġtraditional": 4954,
    "ä¸Ńå¤®": 4955,
    "æĢĿæĥ³": 4956,
    "ext": 4957,
    "çģ¾": 4958,
    "åĸľæ¬¢": 4959,
    "èĪ¹": 4960,
    "Ġcommunities": 4961,
    "çĲĨå¿µ": 4962,
    "Ġinstit": 4963,
    "Ġestim": 4964,
    "Ġquite": 4965,
    "ĠCons": 4966,
    "oes": 4967,
    "Ġeasily": 4968,
    "rs": 4969,
    "åİĭåĬĽ": 4970,
    "å¼ĢæĶ¾": 4971,
    "400": 4972,
    "Ġtown": 4973,
    "ĠAg": 4974,
    "Ġful": 4975,
    "itude": 4976,
    "Ġsecurity": 4977,
    "Ġestablished": 4978,
    "useum": 4979,
    "æ¡£": 4980,
    "ĠInstitute": 4981,
    "é±¼": 4982,
    "Ġwall": 4983,
    "ads": 4984,
    "Ġdetermine": 4985,
    "Ġbooks": 4986,
    "åĲĪåĲĮ": 4987,
    "ĠMore": 4988,
    "Ġpoints": 4989,
    "è´·": 4990,
    "å¹³æĸ¹": 4991,
    "ension": 4992,
    "ç¡®å®ļ": 4993,
    "ç¦ģ": 4994,
    "ĠFrench": 4995,
    "Ġdifference": 4996,
    "Ġadded": 4997,
    "Ġcompared": 4998,
    "ï¼Įéĥ½": 4999,
    "åĿĲ": 5000,
    "Ġspeed": 5001,
    "åĮĸåŃ¦": 5002,
    "å·¦åı³": 5003,
    "Ġthird": 5004,
    "Ġheld": 5005,
    "ille": 5006,
    "pe": 5007,
    "æ¶Īè´¹èĢħ": 5008,
    "åĴ¨": 5009,
    "æħ§": 5010,
    "è¿ª": 5011,
    "æ¯Ľ": 5012,
    "ĠÂ": 5013,
    "æľ«": 5014,
    "åĮĸçļĦ": 5015,
    "Ġstarted": 5016,
    "-h": 5017,
    "Ġtools": 5018,
    "Ġsolar": 5019,
    "Ġinvestig": 5020,
    "æı¡": 5021,
    "æĭŁ": 5022,
    "Ġappropri": 5023,
    "ä¸Ĭå¸Ĥ": 5024,
    "åĲĹ": 5025,
    "ç³ĸ": 5026,
    "Ġscientific": 5027,
    "ifornia": 5028,
    "Ġunique": 5029,
    "ĠAc": 5030,
    "çº·": 5031,
    "ï¼ĮåĬł": 5032,
    "ift": 5033,
    "Ġprimary": 5034,
    "æĸ°éĹ»": 5035,
    "Ġtree": 5036,
    "æ£®": 5037,
    "èĤ¡ä»½": 5038,
    "å®Įåħ¨": 5039,
    "å¡Ķ": 5040,
    "Ġthous": 5041,
    "è½¯ä»¶": 5042,
    "Ġbab": 5043,
    "Ġtheory": 5044,
    "orks": 5045,
    "Ġmilitary": 5046,
    "Ġcapt": 5047,
    "Ġi": 5048,
    "ï¼Įåħ¬åı¸": 5049,
    "ç©¿": 5050,
    "Ġtur": 5051,
    "Ġcivil": 5052,
    "ĠEl": 5053,
    "æī¶": 5054,
    "ä¸Ģæł·": 5055,
    "æĹĹ": 5056,
    "Ġimmedi": 5057,
    "ĠDepartment": 5058,
    "èľ": 5059,
    "æ¶¨": 5060,
    "ceed": 5061,
    "åĦ¿ç«¥": 5062,
    "Ġallows": 5063,
    "ounds": 5064,
    "Ġreve": 5065,
    "Ġwarm": 5066,
    "Ġlarger": 5067,
    "å©ļ": 5068,
    "Ġmental": 5069,
    "åĴ¨è¯¢": 5070,
    "çī©è´¨": 5071,
    "elt": 5072,
    "ç®Ģåįķ": 5073,
    "æķ´ä½ĵ": 5074,
    "Ġinside": 5075,
    "å¯»": 5076,
    "ĠRuss": 5077,
    "Ġreflect": 5078,
    "åĳĪ": 5079,
    "150": 5080,
    "Ġfront": 5081,
    "Ġperformance": 5082,
    "è§Ĩé¢ĳ": 5083,
    "è¿Ļæł·": 5084,
    "rig": 5085,
    "Ġnation": 5086,
    "Ġdiseases": 5087,
    "Ġfav": 5088,
    "ãĢĤä»ĸ": 5089,
    "Ġcompanies": 5090,
    "éĩįå¤§": 5091,
    "å®ŀè·µ": 5092,
    "65": 5093,
    "ĠYour": 5094,
    "èµĦæĸĻ": 5095,
    "æ´¥": 5096,
    "Ġachieve": 5097,
    "æĺ¯åĲ¦": 5098,
    "Ġquickly": 5099,
    "ĠEuropean": 5100,
    "æĬ¥åĲį": 5101,
    "ellow": 5102,
    "è´¡": 5103,
    "Ġdirectly": 5104,
    "åı¬": 5105,
    "æĪĲæŀľ": 5106,
    "åİ»å¹´": 5107,
    "Ġvacc": 5108,
    "Ġbit": 5109,
    "Ġeval": 5110,
    "ï¼Įå¥¹": 5111,
    "Ġmultiple": 5112,
    "undred": 5113,
    "Ġprogress": 5114,
    "ç§ĭ": 5115,
    "ĠMost": 5116,
    "çĴ": 5117,
    "æ¹¿": 5118,
    "è¿ĩåİ»": 5119,
    "ä¹ĭåīį": 5120,
    "Ġaltern": 5121,
    "ä¸ªæľĪ": 5122,
    "Ġoffer": 5123,
    "And": 5124,
    "ä½ĵéªĮ": 5125,
    "ĠIndian": 5126,
    "æĻ®éĢļ": 5127,
    "Ġdemonstr": 5128,
    "ĠGl": 5129,
    "Ġtrees": 5130,
    "æĸĩä»¶": 5131,
    "Ġsil": 5132,
    "æĮĳ": 5133,
    "ĠFran": 5134,
    "è¯º": 5135,
    "æķ´ä¸ª": 5136,
    "Ġfoot": 5137,
    "Ġfamilies": 5138,
    "çħ¤": 5139,
    "æ¶Ĥ": 5140,
    "Ġeye": 5141,
    "Ġnegative": 5142,
    "ancy": 5143,
    "Ġspeak": 5144,
    "lied": 5145,
    "ä¸įåı¯": 5146,
    "Ġdoctor": 5147,
    "hern": 5148,
    "Ġadditional": 5149,
    "ç§ĳçłĶ": 5150,
    "ĠArt": 5151,
    "ĠGerman": 5152,
    "Ġsold": 5153,
    "çī¹çĤ¹": 5154,
    "æİĮ": 5155,
    "ç»Łè®¡": 5156,
    "Ġtiss": 5157,
    "Ġactive": 5158,
    "Ġbirth": 5159,
    "æķĻæİĪ": 5160,
    "Ġseems": 5161,
    "è·¨": 5162,
    "Ġhumans": 5163,
    "æľºåħ³": 5164,
    "Ġdecre": 5165,
    "å®¿": 5166,
    "éĴĪå¯¹": 5167,
    "like": 5168,
    "ï¼ĮåĮħæĭ¬": 5169,
    "é¡µ": 5170,
    "Ġaud": 5171,
    "ç½²": 5172,
    "Ġhar": 5173,
    "Ġalthough": 5174,
    "Ġaspect": 5175,
    "æŃ¤æ¬¡": 5176,
    "Ġrout": 5177,
    "åıªæľī": 5178,
    "anks": 5179,
    "Ġdocument": 5180,
    "Ġbehind": 5181,
    "den": 5182,
    "39": 5183,
    "ĠCor": 5184,
    "çĥŁ": 5185,
    "Ġtend": 5186,
    "æĬĵ": 5187,
    "Ġtri": 5188,
    "çīĻ": 5189,
    "Ġhighly": 5190,
    "ridge": 5191,
    "çĺ": 5192,
    "æĪĳçļĦ": 5193,
    "rance": 5194,
    "ç¡®ä¿Ŀ": 5195,
    "å¾Ħ": 5196,
    "ç§ģ": 5197,
    "åĩºçļĦ": 5198,
    "gency": 5199,
    "One": 5200,
    "è¶ĭ": 5201,
    "é¦Ļæ¸¯": 5202,
    "thern": 5203,
    "æĶ¹åıĺ": 5204,
    "èī¯å¥½çļĦ": 5205,
    "Ġexercise": 5206,
    "éĽª": 5207,
    "èģĶç³»": 5208,
    "cean": 5209,
    "joy": 5210,
    "Ġinfection": 5211,
    "uries": 5212,
    "omet": 5213,
    "Ġwent": 5214,
    "ä¸Ńåįİ": 5215,
    "æĹ§": 5216,
    "æļĸ": 5217,
    "Ġinterp": 5218,
    "Ġanswer": 5219,
    "åľ³": 5220,
    "ĠCalifornia": 5221,
    "Ġgard": 5222,
    "iency": 5223,
    "çļĦäºĭ": 5224,
    "ç»Ĩèĥŀ": 5225,
    "ç©ºæ°Ķ": 5226,
    "èĲ¨": 5227,
    "Ġwalk": 5228,
    "He": 5229,
    "yond": 5230,
    "olar": 5231,
    "nov": 5232,
    "Ġsevere": 5233,
    "AP": 5234,
    "Ġtransport": 5235,
    "ç¼ĵ": 5236,
    "æ·±åľ³": 5237,
    "Ġextra": 5238,
    "pril": 5239,
    "åĲ§": 5240,
    "oming": 5241,
    "ç¨ĭåº¦": 5242,
    "æī¬": 5243,
    "leb": 5244,
    "iber": 5245,
    "aly": 5246,
    "Ġhor": 5247,
    "âĢĻve": 5248,
    "Ġdry": 5249,
    "rition": 5250,
    "55": 5251,
    "uman": 5252,
    "Ġcritical": 5253,
    "EN": 5254,
    "ĠInternational": 5255,
    "Ġhttp": 5256,
    "Ġproced": 5257,
    "æĿ¥çľĭ": 5258,
    "Ġsoon": 5259,
    "Ġelements": 5260,
    "æĦıè¯Ĩ": 5261,
    "Ġhabit": 5262,
    "çĦ¶åĲİ": 5263,
    "Ġfram": 5264,
    "ĠChristian": 5265,
    "Ġbeginning": 5266,
    "åĶ±": 5267,
    "æ¾³": 5268,
    "Ġhost": 5269,
    "formation": 5270,
    "æĿĢ": 5271,
    "term": 5272,
    "æŃ£å¸¸": 5273,
    "Ġacid": 5274,
    "ĠMarch": 5275,
    "éĽħ": 5276,
    "ĠSm": 5277,
    "iques": 5278,
    "ĠCO": 5279,
    "èĪªç©º": 5280,
    "Ġcentral": 5281,
    "ç½ļ": 5282,
    "Ġteaching": 5283,
    "å±ĭ": 5284,
    "iers": 5285,
    "rote": 5286,
    "Ġnucle": 5287,
    "ĠOct": 5288,
    "Ġbroad": 5289,
    "Ġdrink": 5290,
    "ulate": 5291,
    "Ġwhose": 5292,
    "Ġlabor": 5293,
    "ĠJune": 5294,
    "ä¼Ĭ": 5295,
    "Ġprior": 5296,
    "é²ģ": 5297,
    "éĺµ": 5298,
    "-g": 5299,
    "iter": 5300,
    "æĺ¯ä¸Ģç§į": 5301,
    "ç¯ĩ": 5302,
    "ĠWest": 5303,
    "çĲĨè®º": 5304,
    "æĭĵ": 5305,
    "So": 5306,
    "orthern": 5307,
    "Ġbase": 5308,
    "rogen": 5309,
    "ĠRec": 5310,
    "IV": 5311,
    "Ġleading": 5312,
    "Ġhot": 5313,
    "vant": 5314,
    "Ġsupply": 5315,
    "Ġvideo": 5316,
    "æ²Ł": 5317,
    "ĠChar": 5318,
    "ĠJesus": 5319,
    "ĠBar": 5320,
    "ĠAfrican": 5321,
    "Ġanaly": 5322,
    "Ġancient": 5323,
    "eks": 5324,
    "èĻļ": 5325,
    "å½ĵåľ°": 5326,
    "ï¼ĮåıĪ": 5327,
    "Ġnorth": 5328,
    "ï¼ĮçĶ¨": 5329,
    "ilos": 5330,
    "Ġsus": 5331,
    "ä¿ĿéĻ©": 5332,
    "inese": 5333,
    "è¯¯": 5334,
    "Ġthinking": 5335,
    "çĽ®çļĦ": 5336,
    "åĢį": 5337,
    "Ġtowards": 5338,
    "ĠAugust": 5339,
    "lier": 5340,
    "±ä¹Ĳ": 5341,
    "Ġelse": 5342,
    "coh": 5343,
    "ĠOther": 5344,
    "Ġstay": 5345,
    "Ġprotein": 5346,
    "çĬ¶æĢģ": 5347,
    "åĲİçļĦ": 5348,
    "Ġpurpose": 5349,
    "ims": 5350,
    "éŁ©": 5351,
    "Ġprotection": 5352,
    "ä¸¾è¡Į": 5353,
    "âĢĻll": 5354,
    "Ġlost": 5355,
    "Ġbad": 5356,
    "Ġlimited": 5357,
    "ĠAfrica": 5358,
    "å®īæİĴ": 5359,
    "Ġuseful": 5360,
    "è¡ĮåĬ¨": 5361,
    "éĩįè¦ģçļĦ": 5362,
    "ĠHer": 5363,
    "ç¨ĭåºı": 5364,
    "Ġvalues": 5365,
    "éĩĳå±ŀ": 5366,
    "Ġdecl": 5367,
    "ĠNot": 5368,
    "Ġexpect": 5369,
    "ĠOf": 5370,
    "çĪĨ": 5371,
    "æľīçļĦ": 5372,
    "ä¸ĸçºª": 5373,
    "Ġstri": 5374,
    "ĠChild": 5375,
    "æĻ¯åĮº": 5376,
    "Ġord": 5377,
    "Ġobt": 5378,
    "ï¼ĮåĲĮæ¯Ķ": 5379,
    "æ®Ĭ": 5380,
    "Ġdisp": 5381,
    "lation": 5382,
    "Ġcontribut": 5383,
    "ä¼Ł": 5384,
    "Ġcard": 5385,
    "ä¾ĽåºĶ": 5386,
    "Ġmount": 5387,
    "çĳŀ": 5388,
    "Ġclin": 5389,
    "ĠGree": 5390,
    "Ġsection": 5391,
    "ĠAlthough": 5392,
    "Ġsituation": 5393,
    "ils": 5394,
    "éĩİ": 5395,
    "ologies": 5396,
    "Ġcapital": 5397,
    "Ġminutes": 5398,
    "Ġaccur": 5399,
    "Ġcustom": 5400,
    "Ġx": 5401,
    "æģ¶": 5402,
    "Ġdark": 5403,
    "èµ¢": 5404,
    "cks": 5405,
    "Ġblock": 5406,
    "istry": 5407,
    "%ãĢĤĊ": 5408,
    "ï¼Įè¯·": 5409,
    "Ġcontains": 5410,
    "åĢº": 5411,
    "Ġlargest": 5412,
    "ĠSch": 5413,
    "ï¼ĮçĽ®åīį": 5414,
    "å¿ĥçĲĨ": 5415,
    "Ġnews": 5416,
    "ĠMon": 5417,
    "åĳ¼": 5418,
    "oring": 5419,
    "Ġimages": 5420,
    "Ġprivate": 5421,
    "isms": 5422,
    "Ġdecision": 5423,
    "ching": 5424,
    "èĢĥèĻĳ": 5425,
    "ĠIm": 5426,
    "Ġadminist": 5427,
    "Ġfeatures": 5428,
    "oke": 5429,
    "Ġbrought": 5430,
    "Ġmom": 5431,
    "Ġhundred": 5432,
    "Ġfight": 5433,
    "Ġdescribed": 5434,
    "åı«": 5435,
    "Ġgame": 5436,
    "æĺİç¡®": 5437,
    "iles": 5438,
    "ĠHistory": 5439,
    "hens": 5440,
    "âĢĿãĢģâĢľ": 5441,
    "att": 5442,
    "Ġcred": 5443,
    "ä¸įåĲĮçļĦ": 5444,
    "ev": 5445,
    "å¹¿å·ŀ": 5446,
    "ĠSept": 5447,
    "åĨ°": 5448,
    "å¼ķèµ·": 5449,
    "At": 5450,
    "çľŁæŃ£": 5451,
    "Ġcapac": 5452,
    "èĤ¥": 5453,
    "gn": 5454,
    "Ġstrateg": 5455,
    "æĦıä¹ī": 5456,
    "ĠDav": 5457,
    "èļ": 5458,
    "æĺł": 5459,
    "Ġsearch": 5460,
    "Ġfast": 5461,
    "sect": 5462,
    "Ġreceived": 5463,
    "lection": 5464,
    "Ġadults": 5465,
    "omb": 5466,
    "èĵĿ": 5467,
    "]Ċ": 5468,
    "Ġsymb": 5469,
    "Ġones": 5470,
    "ields": 5471,
    "Ġunc": 5472,
    "ç§ĺ": 5473,
    "Ġfinancial": 5474,
    "oud": 5475,
    "ĠTra": 5476,
    "æ·±åħ¥": 5477,
    "ashington": 5478,
    "mission": 5479,
    "èĩªèº«": 5480,
    "ï¼İ": 5481,
    "Ġjud": 5482,
    "åĪ¶å®ļ": 5483,
    "wise": 5484,
    "hest": 5485,
    "ĠMus": 5486,
    "äº¦": 5487,
    "è¿·": 5488,
    "Ġinfluence": 5489,
    "æ²ī": 5490,
    "åĩĿ": 5491,
    "èĽĭ": 5492,
    "ãĢĤæĪĳ": 5493,
    "EC": 5494,
    "ä»İäºĭ": 5495,
    "ription": 5496,
    "ãĢĤå½ĵ": 5497,
    "Ġremains": 5498,
    "eal": 5499,
    "Ġhands": 5500,
    "æ¸©åº¦": 5501,
    "Ġstra": 5502,
    "uk": 5503,
    "book": 5504,
    "ĠServ": 5505,
    "ibrary": 5506,
    "åħµ": 5507,
    "Ġagricult": 5508,
    "ĠJuly": 5509,
    "Ġgoal": 5510,
    "ç¬ĳ": 5511,
    "å°±ä¸ļ": 5512,
    "Ġenjoy": 5513,
    "come": 5514,
    "Ġpack": 5515,
    "ĠUs": 5516,
    "ä¼¦": 5517,
    "-y": 5518,
    "Ġsoftware": 5519,
    "fort": 5520,
    "Ġmill": 5521,
    "Ġquant": 5522,
    "OS": 5523,
    "Ġadop": 5524,
    "å°¤åħ¶": 5525,
    "å®«": 5526,
    "Ġsustain": 5527,
    "izations": 5528,
    "å¯¿": 5529,
    "Ġexact": 5530,
    "-st": 5531,
    "imin": 5532,
    "mon": 5533,
    "Ġreligious": 5534,
    "èĢĹ": 5535,
    "çļ®èĤ¤": 5536,
    "Ġshall": 5537,
    "æĮĩåĩº": 5538,
    "ä¸¥æł¼": 5539,
    "å¦Ī": 5540,
    "ĠPress": 5541,
    "arian": 5542,
    "Ġwrite": 5543,
    "åĬĽéĩı": 5544,
    "PA": 5545,
    "Ġrates": 5546,
    "ä¹¦è®°": 5547,
    "Ġlength": 5548,
    "å¥ĭ": 5549,
    "åĿı": 5550,
    "used": 5551,
    "edia": 5552,
    "æĢİä¹Ī": 5553,
    "pper": 5554,
    "ï¼Įä¹Łæĺ¯": 5555,
    "inct": 5556,
    "Ġ,": 5557,
    "è¦": 5558,
    "arr": 5559,
    "Ġapplication": 5560,
    "åĬŀæ³ķ": 5561,
    "Ġgot": 5562,
    "Ġcarry": 5563,
    "Ġagree": 5564,
    "equ": 5565,
    "rag": 5566,
    "Ġworkers": 5567,
    "Ġrequires": 5568,
    "Ġnearly": 5569,
    "æĬķåħ¥": 5570,
    "å®īè£ħ": 5571,
    "aid": 5572,
    "99": 5573,
    "çĵ¦": 5574,
    "è£ģ": 5575,
    "ä¾µ": 5576,
    "Ġang": 5577,
    "Ġseason": 5578,
    "ĠTw": 5579,
    "æĬ¥éģĵ": 5580,
    "Ġestablish": 5581,
    "aul": 5582,
    "Ġlaws": 5583,
    "-S": 5584,
    "Ġplaces": 5585,
    "udd": 5586,
    "éģ¿åħį": 5587,
    "ĠProg": 5588,
    "Ġlocated": 5589,
    "Ġsouth": 5590,
    "è¿Ľè¡ĮäºĨ": 5591,
    "ĠReg": 5592,
    "ĠRet": 5593,
    "Ġreach": 5594,
    "ĠFirst": 5595,
    "Ġbecomes": 5596,
    "ĠAnt": 5597,
    "estic": 5598,
    "ç¹": 5599,
    "ira": 5600,
    "Ġcool": 5601,
    "ĠRiver": 5602,
    "Ġlines": 5603,
    "see": 5604,
    "Ġdemand": 5605,
    "æľºåĪ¶": 5606,
    "ï¼Įä»İèĢĮ": 5607,
    "å¢ŀå¼º": 5608,
    "44": 5609,
    "Ġefforts": 5610,
    "Ġexcept": 5611,
    "Ġwa": 5612,
    "çº¯": 5613,
    "Ġbeaut": 5614,
    "å¢Ļ": 5615,
    "æļ´": 5616,
    "åĪ©æ¶¦": 5617,
    "vest": 5618,
    "çļĦéĹ®é¢ĺ": 5619,
    "åĪĽä¸ļ": 5620,
    "é¢Ħè®¡": 5621,
    "ç£¨": 5622,
    "co": 5623,
    "Ġdevices": 5624,
    "ï¼Įä¸Ń": 5625,
    "éĤ£ä¹Ī": 5626,
    "ç¹ģ": 5627,
    "itect": 5628,
    "itis": 5629,
    "odies": 5630,
    "åĨ¬": 5631,
    "ï¼ĮåĨį": 5632,
    "âĦ": 5633,
    "å¤ļä¸ª": 5634,
    "è´¯": 5635,
    "æµĻ": 5636,
    "å¹³åĿĩ": 5637,
    "Ġjo": 5638,
    "äººç±»": 5639,
    "ĠAssoci": 5640,
    "ï¼Įæĸ°": 5641,
    "Ġtests": 5642,
    "Ġweeks": 5643,
    "Ġfederal": 5644,
    "ĠMc": 5645,
    "éĺħ": 5646,
    "ĠHere": 5647,
    "å±±ä¸ľ": 5648,
    "ĠAmericans": 5649,
    "æĲŃ": 5650,
    "Ġimportance": 5651,
    "ç¤¾åĮº": 5652,
    "åĪº": 5653,
    "Ġegg": 5654,
    "Ġsn": 5655,
    "ĠChinese": 5656,
    "èĦĤ": 5657,
    "idents": 5658,
    "Ġrare": 5659,
    "ulated": 5660,
    "Ġremain": 5661,
    "æ½®": 5662,
    "é©¾": 5663,
    "Ġstru": 5664,
    "åĩºåı£": 5665,
    "è¦Ĩ": 5666,
    "ä¸ºä¸»": 5667,
    "æĪĲéķ¿": 5668,
    "æ²¿": 5669,
    "åı¦å¤ĸ": 5670,
    "ï¼Įå¹¶ä¸Ķ": 5671,
    "Ġvict": 5672,
    "éĺ»": 5673,
    "Ġmention": 5674,
    "ĠMy": 5675,
    "Ġfather": 5676,
    "è¿ħ": 5677,
    "rael": 5678,
    "Ġdead": 5679,
    "æ°ĳæĹı": 5680,
    "Ġprojects": 5681,
    "çļĦå·¥ä½ľ": 5682,
    "éĥ½æľī": 5683,
    "ype": 5684,
    "ĠCong": 5685,
    "éĢŁåº¦": 5686,
    "Ġimag": 5687,
    "æķ°éĩı": 5688,
    "alt": 5689,
    "Ġhimself": 5690,
    "ham": 5691,
    "ä¸įè¿ĩ": 5692,
    "atur": 5693,
    "Ġcosts": 5694,
    "éĿ¢å¯¹": 5695,
    "Ġtold": 5696,
    "'re": 5697,
    "Ġcoast": 5698,
    "ipment": 5699,
    "åŃ¦ç§ĳ": 5700,
    "åĭĩ": 5701,
    "å¹¿ä¸ľ": 5702,
    "Ġult": 5703,
    "Ġep": 5704,
    "Ġbacteria": 5705,
    "åįģåĪĨ": 5706,
    "entially": 5707,
    "imal": 5708,
    "ĠCity": 5709,
    "ĠSw": 5710,
    "ç§»åĬ¨": 5711,
    "cial": 5712,
    "å½»": 5713,
    "ĠApril": 5714,
    "Ġsurround": 5715,
    "ĠEngland": 5716,
    "cohol": 5717,
    "Ġmiles": 5718,
    "Ġleaves": 5719,
    "èĭ±åĽ½": 5720,
    "åĲĪçĲĨ": 5721,
    "Ġmole": 5722,
    "Ġcommunication": 5723,
    "åĩĨå¤ĩ": 5724,
    "èµĦæľ¬": 5725,
    "Ġwaste": 5726,
    "è°·": 5727,
    "95": 5728,
    "Ġcitiz": 5729,
    "Ġappropriate": 5730,
    "Ġsolution": 5731,
    "Ġrespond": 5732,
    "Ġsummer": 5733,
    "Ġbasis": 5734,
    "éļĲ": 5735,
    "Ġveh": 5736,
    "Ġsugar": 5737,
    "Ġsaw": 5738,
    "è´¢æĶ¿": 5739,
    "uous": 5740,
    "ãĢĤå¦Ĥæŀľ": 5741,
    "iece": 5742,
    "ä¸Ģä½ĵ": 5743,
    "èĴĻ": 5744,
    "æ½ľ": 5745,
    "ä¼ĺè´¨": 5746,
    "Ġfit": 5747,
    "Ġeating": 5748,
    "Ġpan": 5749,
    "Ġwebsite": 5750,
    "Ġrapid": 5751,
    "cles": 5752,
    "çĥ§": 5753,
    "åĶĲ": 5754,
    "Ġmemory": 5755,
    "è´¡çĮ®": 5756,
    "è¡£": 5757,
    "æĸĩæĺİ": 5758,
    "Ġtechniques": 5759,
    "ĠDay": 5760,
    ".)": 5761,
    "èĳ£äºĭ": 5762,
    "Ġproperty": 5763,
    "Ġdevice": 5764,
    "Ġcommand": 5765,
    "Ġdigital": 5766,
    "Ġborn": 5767,
    "Ġsites": 5768,
    "Ġtypically": 5769,
    "Ġprocesses": 5770,
    "æķĪçİĩ": 5771,
    "Ġeyes": 5772,
    "Ġcenter": 5773,
    "Ġfriends": 5774,
    "alled": 5775,
    "æµĵ": 5776,
    "resh": 5777,
    "éĩĩåıĸ": 5778,
    "è¯Ħä»·": 5779,
    "Ġtable": 5780,
    "Ġnothing": 5781,
    "ama": 5782,
    "izes": 5783,
    "Ġanything": 5784,
    "ĠGovern": 5785,
    "åĵģè´¨": 5786,
    "iar": 5787,
    "é¾Ħ": 5788,
    "å¾ª": 5789,
    "è¿ŀç»Ń": 5790,
    "éĵĿ": 5791,
    "æĩ": 5792,
    "ĠFrom": 5793,
    "-to": 5794,
    "uments": 5795,
    "ĠMe": 5796,
    "èĦļ": 5797,
    "å¤ļçļĦ": 5798,
    "II": 5799,
    "ï½": 5800,
    "èĤº": 5801,
    "ĠCanada": 5802,
    "Ġhope": 5803,
    "ï¼Įä¸»è¦ģ": 5804,
    "Ġcou": 5805,
    "Ġtesting": 5806,
    "Ġhous": 5807,
    "Ġapplications": 5808,
    "Ġmis": 5809,
    "ç¾¤ä¼Ĺ": 5810,
    "åĨľæĿĳ": 5811,
    "éģį": 5812,
    "è¿ĻéĩĮ": 5813,
    "çļĦæľĢ": 5814,
    "æģ¢": 5815,
    "cember": 5816,
    "åĲĦç±»": 5817,
    "åįĩçº§": 5818,
    "Ġforces": 5819,
    "ĠEducation": 5820,
    "Ġcreating": 5821,
    "uro": 5822,
    "Ġdied": 5823,
    "Ġlegal": 5824,
    "ä¼Ļ": 5825,
    "ondon": 5826,
    "Ġcultural": 5827,
    "éĽĨä¸Ń": 5828,
    "ç¼ĺ": 5829,
    "ovember": 5830,
    "Ġpractices": 5831,
    "ç¢³": 5832,
    "Ġgives": 5833,
    "è·ĳ": 5834,
    "Ex": 5835,
    "Ġresponsible": 5836,
    "ĠJournal": 5837,
    "åħ¨éĥ¨": 5838,
    "æ³¥": 5839,
    "Ġmonitor": 5840,
    "åľŁåľ°": 5841,
    "Ġeverything": 5842,
    "ĠPresident": 5843,
    "èħĲ": 5844,
    "Ġadj": 5845,
    "aught": 5846,
    "ç»ıçĲĨ": 5847,
    "Ġadapt": 5848,
    "æ¬§æ´²": 5849,
    "å¡ŀ": 5850,
    "åĬĽçļĦ": 5851,
    "ĠWashington": 5852,
    "æ¢ģ": 5853,
    "Ġder": 5854,
    "Ġdiabetes": 5855,
    "Ġconstruction": 5856,
    "ĠTechn": 5857,
    "éķľ": 5858,
    "78": 5859,
    "186": 5860,
    "åķĨåĵģ": 5861,
    "ç»Łä¸Ģ": 5862,
    "ipl": 5863,
    "Ġtit": 5864,
    "è´¥": 5865,
    "Ġcrop": 5866,
    "apter": 5867,
    "Ġteacher": 5868,
    "åĵ¥": 5869,
    "Ġking": 5870,
    "ixed": 5871,
    "åĲĮåŃ¦": 5872,
    "Ġspirit": 5873,
    "Ġbeyond": 5874,
    "è¯Ńè¨Ģ": 5875,
    "Ġfollowed": 5876,
    "These": 5877,
    "åħ¼": 5878,
    "æµª": 5879,
    "åºĦ": 5880,
    "ĠKe": 5881,
    "Ġtherapy": 5882,
    "Ġbenefit": 5883,
    "Ġanti": 5884,
    "çļĦæĥħåĨµ": 5885,
    "iples": 5886,
    "Ġpen": 5887,
    "ford": 5888,
    "600": 5889,
    "Ġobjects": 5890,
    "Ġson": 5891,
    "Ġolder": 5892,
    "PS": 5893,
    "æĻºæħ§": 5894,
    "åľĪ": 5895,
    "Ġinsp": 5896,
    "sec": 5897,
    "éľĩ": 5898,
    "ica": 5899,
    "Ġdepend": 5900,
    "Ġrecently": 5901,
    "AL": 5902,
    "Ġcommunic": 5903,
    "ĠWilliam": 5904,
    "head": 5905,
    "ï¼ĮæĢ»": 5906,
    "ç»´æĬ¤": 5907,
    "ET": 5908,
    "æĶ¯ä»ĺ": 5909,
    "bit": 5910,
    "Ġcolon": 5911,
    "Ġasked": 5912,
    "Ġadvant": 5913,
    "enge": 5914,
    "Ġreasons": 5915,
    "ãĢģæĸ°": 5916,
    "anish": 5917,
    "æ´Ľ": 5918,
    "æ©": 5919,
    "Ġconstit": 5920,
    "Ġweb": 5921,
    "ï¼īãĢĤ": 5922,
    "Ġmiddle": 5923,
    "Ġbul": 5924,
    "æģ©": 5925,
    "æĶ¹åĸĦ": 5926,
    "Ġfinal": 5927,
    "-term": 5928,
    "å¼±": 5929,
    "ĠPark": 5930,
    "ä¾§": 5931,
    "åĮ»åŃ¦": 5932,
    "ico": 5933,
    "Ġguid": 5934,
    "è´¸æĺĵ": 5935,
    "Ġconnect": 5936,
    "æĹ¶æľŁ": 5937,
    "çĶŁçļĦ": 5938,
    "Ġchoose": 5939,
    "å¸Ŀ": 5940,
    "Ġseek": 5941,
    "ãĢĤæĪĳä»¬": 5942,
    "æĬĺ": 5943,
    "éĹŃ": 5944,
    "Ġcam": 5945,
    "ĠInc": 5946,
    "By": 5947,
    "æ¬¢è¿İ": 5948,
    "Ġexamples": 5949,
    "åĬ¨åĬĽ": 5950,
    "Ġgradu": 5951,
    "Ġexpected": 5952,
    "å±ķç¤º": 5953,
    "ĠChurch": 5954,
    "ocol": 5955,
    "Ġmid": 5956,
    "mosp": 5957,
    "æľĪä»½": 5958,
    "ç»ķ": 5959,
    "Ġbott": 5960,
    "ä½łçļĦ": 5961,
    "åŃĶ": 5962,
    "Ġceleb": 5963,
    "omy": 5964,
    "ari": 5965,
    "Ġfuel": 5966,
    "Ġeconomy": 5967,
    "Ġcold": 5968,
    "46": 5969,
    "ãĢģå¤§": 5970,
    "åħ¬åı¸çļĦ": 5971,
    "å¹¶ä¸į": 5972,
    "Ġautom": 5973,
    "Ġcontroll": 5974,
    "Ġbreat": 5975,
    "Ġproviding": 5976,
    "æģ¢å¤į": 5977,
    "lin": 5978,
    "åįĬå¹´": 5979,
    "Ġice": 5980,
    "ellig": 5981,
    "å®¾": 5982,
    "ĠJanuary": 5983,
    "Ġfear": 5984,
    "Ġbehavi": 5985,
    "ĠIsrael": 5986,
    "ests": 5987,
    "ĠDis": 5988,
    "èĬĤèĥ½": 5989,
    "Ġten": 5990,
    "çļĩ": 5991,
    "åħ·å¤ĩ": 5992,
    "ĠFeb": 5993,
    "è§īå¾Ĺ": 5994,
    "180": 5995,
    "Ġconsequ": 5996,
    "ĠGreat": 5997,
    "ãĢĤåĲĮæĹ¶": 5998,
    "çĽ¸æ¯Ķ": 5999,
    "æĳ©": 6000,
    "çĶµè¯Ŀ": 6001,
    "ogen": 6002,
    "å«": 6003,
    "Ġsmaller": 6004,
    "ç¿»": 6005,
    "illing": 6006,
    "120": 6007,
    "ĠDevelop": 6008,
    "Ġcode": 6009,
    "ĠPol": 6010,
    "æľ¬æ¬¡": 6011,
    "åģı": 6012,
    "Ġdate": 6013,
    "åİŁåĪĻ": 6014,
    "åĢĴ": 6015,
    "Ġcra": 6016,
    "åĨħçļĦ": 6017,
    "Ġtrade": 6018,
    "Ġreceive": 6019,
    "ä¼į": 6020,
    "-A": 6021,
    "Ġorganization": 6022,
    "éģĵè·¯": 6023,
    "æ¢ħ": 6024,
    "strial": 6025,
    "åħ¬å¸ĥ": 6026,
    "Ġstandards": 6027,
    "Ġfile": 6028,
    "ĠSystem": 6029,
    "æ°§åĮĸ": 6030,
    "Ġopportunity": 6031,
    "ĠSeptember": 6032,
    "æ³¡": 6033,
    "æı´": 6034,
    "Ġund": 6035,
    "Ġscreen": 6036,
    "Ġinstru": 6037,
    "ought": 6038,
    "Ġaffected": 6039,
    "ãĢĤåĽłæŃ¤": 6040,
    "æ¶Īæģ¯": 6041,
    "çĦ¶èĢĮ": 6042,
    "æĬĢèĥ½": 6043,
    "Ġstage": 6044,
    "189": 6045,
    "ĠOctober": 6046,
    "With": 6047,
    "Pro": 6048,
    "ribute": 6049,
    "Ġrules": 6050,
    "Ġcompletely": 6051,
    "ĠVal": 6052,
    "ï¼Įèĩª": 6053,
    "Ġrain": 6054,
    "ä¸įå¾Ĺ": 6055,
    "Ġcru": 6056,
    "Ġscale": 6057,
    "Ġcurrently": 6058,
    "edom": 6059,
    "uit": 6060,
    "åĲ´": 6061,
    "aur": 6062,
    "èĤ¯": 6063,
    "off": 6064,
    "æ¼«": 6065,
    "ĠLear": 6066,
    "æĥĬ": 6067,
    "Ġlocation": 6068,
    "Ġcalcul": 6069,
    "Ġsett": 6070,
    "ĠIS": 6071,
    "Ġexposure": 6072,
    "ĠEven": 6073,
    "å·¥ä½ľçļĦ": 6074,
    "Ġplanet": 6075,
    "Ġpet": 6076,
    "Ġshape": 6077,
    "è¯¦": 6078,
    "Ġcontinued": 6079,
    "Ġgoes": 6080,
    "ogle": 6081,
    "Ġtrying": 6082,
    "While": 6083,
    "ĠTrans": 6084,
    "Ġformer": 6085,
    "roy": 6086,
    "ĠBi": 6087,
    "ara": 6088,
    "Ġeffort": 6089,
    "Ġalone": 6090,
    "Ġneigh": 6091,
    "å¼ĥ": 6092,
    "Ġbeg": 6093,
    "æĿ°": 6094,
    "Ġdifferences": 6095,
    "ĠSan": 6096,
    "Ġyourself": 6097,
    "Ġwrote": 6098,
    "Ġuser": 6099,
    "Ġwoman": 6100,
    "Ġapprox": 6101,
    "pro": 6102,
    "çī¹æ®Ĭ": 6103,
    "Ġdegree": 6104,
    "ï¼ĮæĬĬ": 6105,
    "ky": 6106,
    "Ġroom": 6107,
    "tery": 6108,
    "çİ»": 6109,
    "åĽ°éļ¾": 6110,
    "çĦ¦": 6111,
    "Ġsuccessful": 6112,
    "çĽ¸å¯¹": 6113,
    "Ġcollection": 6114,
    "æ¸¸å®¢": 6115,
    "ï¼Įé«ĺ": 6116,
    "Ġequipment": 6117,
    "åĪĳ": 6118,
    "ä¼ģä¸ļçļĦ": 6119,
    "-C": 6120,
    "ï¼ĮåĲĦ": 6121,
    "ï¼ĮæĪĸ": 6122,
    "back": 6123,
    "ç»ĵæĿŁ": 6124,
    "Ġwinter": 6125,
    "ĠCoun": 6126,
    "æĶ¿æ²»": 6127,
    "åįļå£«": 6128,
    "å¦ĤæŃ¤": 6129,
    "%çļĦ": 6130,
    "Ġbillion": 6131,
    "é©¶": 6132,
    "emy": 6133,
    "åıįåºĶ": 6134,
    "ĠArch": 6135,
    "ï¼Įå¤ļ": 6136,
    "rees": 6137,
    "-year": 6138,
    "med": 6139,
    "Ġbirds": 6140,
    "ĠRoman": 6141,
    "EM": 6142,
    "Ġwon": 6143,
    "ĠCommun": 6144,
    "è¾ĳ": 6145,
    "åĶ¯": 6146,
    "ocks": 6147,
    "Ġmember": 6148,
    "ingu": 6149,
    "æµĭè¯ķ": 6150,
    "Ġeveryone": 6151,
    "vert": 6152,
    "47": 6153,
    "ords": 6154,
    "Ġoccurs": 6155,
    "ãĢģä¸Ń": 6156,
    "ĠEast": 6157,
    "ãĢĭãĢģ": 6158,
    "men": 6159,
    "Ġteeth": 6160,
    "Ġteach": 6161,
    "ula": 6162,
    "ĠAccording": 6163,
    "lamm": 6164,
    "Ġmodels": 6165,
    "Ġearlier": 6166,
    "Ġleave": 6167,
    "Ġdrugs": 6168,
    "ĠOur": 6169,
    "åĪĬ": 6170,
    "åŃ£åº¦": 6171,
    "å¹¿å¤§": 6172,
    "è®¤è¯Ĩ": 6173,
    "Ġconflic": 6174,
    "ä¹Ļ": 6175,
    "Ġvia": 6176,
    "ĠRed": 6177,
    "ĠLaw": 6178,
    "è´¹çĶ¨": 6179,
    "Ġoccup": 6180,
    "Ġinteresting": 6181,
    "Ġrecommend": 6182,
    "æĲº": 6183,
    "åķĨåĬ¡": 6184,
    "water": 6185,
    "åħ¶å®ŀ": 6186,
    "ĠCounty": 6187,
    "ï¼Įè¢«": 6188,
    "è´Łè´£äºº": 6189,
    "ocr": 6190,
    "éĩįåºĨ": 6191,
    "ding": 6192,
    "çĶµæ±ł": 6193,
    "è¡¡": 6194,
    "Ġconstant": 6195,
    "airs": 6196,
    "Ġelectr": 6197,
    "æİ¨å¹¿": 6198,
    "Ph": 6199,
    "Ġpregn": 6200,
    "å²Ĺä½į": 6201,
    "è¾ħ": 6202,
    "åĺī": 6203,
    "Ġcommonly": 6204,
    "å¹²éĥ¨": 6205,
    "oday": 6206,
    "çŃ¹": 6207,
    "åľ°äº§": 6208,
    "å¹³æĸ¹ç±³": 6209,
    "Ġpoly": 6210,
    "uff": 6211,
    "UR": 6212,
    "Ġprofessional": 6213,
    "å¹¿åĳĬ": 6214,
    "AM": 6215,
    "85": 6216,
    "å±ı": 6217,
    "é¡¿": 6218,
    "urg": 6219,
    "Ġnamed": 6220,
    "Ġmiss": 6221,
    "Ġsch": 6222,
    "Ġrock": 6223,
    "ensity": 6224,
    "é¦ĸåħĪ": 6225,
    "åĩ¡": 6226,
    "Ġusers": 6227,
    "Ġsequ": 6228,
    "æģĴ": 6229,
    "è¡¨éĿ¢": 6230,
    "å¤§ä¼ļ": 6231,
    "ä¸»ä¹ī": 6232,
    "ä¿Ħ": 6233,
    "æĪªèĩ³": 6234,
    "Ġstrength": 6235,
    "Ġdeal": 6236,
    "æķ¬": 6237,
    "æľĢå¤§çļĦ": 6238,
    "Ġswe": 6239,
    "ä¸įå°ĳ": 6240,
    "Ġgenetic": 6241,
    "è´Ńä¹°": 6242,
    "Un": 6243,
    "ospital": 6244,
    "åĲ¸å¼ķ": 6245,
    "mitted": 6246,
    "hemat": 6247,
    "ĠHigh": 6248,
    "Ġpurch": 6249,
    "gypt": 6250,
    "aters": 6251,
    "çĽĳç®¡": 6252,
    "Ġmeasures": 6253,
    "çĴĥ": 6254,
    "å¦ĩ": 6255,
    "Ġhon": 6256,
    "----": 6257,
    "éĥĳ": 6258,
    "Ġmaintain": 6259,
    "Ġplaced": 6260,
    "Ġdiscovered": 6261,
    "Ġcourt": 6262,
    "ï¼Įç»ı": 6263,
    "ĠDecember": 6264,
    "Ġoverall": 6265,
    "ï¼Įåħ·æľī": 6266,
    "itable": 6267,
    "Ġallowed": 6268,
    "itch": 6269,
    "mar": 6270,
    "èŀįåĲĪ": 6271,
    "è±ª": 6272,
    "å±ħæ°ĳ": 6273,
    "Ġhyp": 6274,
    "Ġden": 6275,
    "çļĦè¯Ŀ": 6276,
    "Ġwond": 6277,
    "Ġformed": 6278,
    "Ġgir": 6279,
    "ĠSim": 6280,
    "Ġeight": 6281,
    "ĠNovember": 6282,
    "ĠThen": 6283,
    "Ġvisual": 6284,
    ".e": 6285,
    "more": 6286,
    "Ġreduced": 6287,
    "ĠLondon": 6288,
    "Ġperfect": 6289,
    "ĠMex": 6290,
    "è¯ģæĺİ": 6291,
    "åĪĨä¸º": 6292,
    "can": 6293,
    "Ġperhaps": 6294,
    "å¤ļç§į": 6295,
    "ĠVir": 6296,
    "æķı": 6297,
    "Ġfruit": 6298,
    "è¯´æĺİ": 6299,
    "è®¤çľŁ": 6300,
    "Ġchurch": 6301,
    "ï¼ĮæĪĲä¸º": 6302,
    "Ġmax": 6303,
    "amic": 6304,
    "çļĦå½±åĵį": 6305,
    "CC": 6306,
    "âĢ¦âĢ¦": 6307,
    "life": 6308,
    "irection": 6309,
    "Ġpredict": 6310,
    "Ġsteps": 6311,
    "ibly": 6312,
    "ç¤ºèĮĥ": 6313,
    "Ġrise": 6314,
    "Ġapplied": 6315,
    "åį·": 6316,
    "Ġweather": 6317,
    "ï¼Įèĥ½": 6318,
    "ä½įç½®": 6319,
    "æĮ¯": 6320,
    "ruary": 6321,
    "ĠSociety": 6322,
    "ä¼ļæľī": 6323,
    "Ġcateg": 6324,
    ")ï¼Į": 6325,
    "éĩįè§Ĩ": 6326,
    "load": 6327,
    "rec": 6328,
    "Ġrule": 6329,
    "ĠRead": 6330,
    "unch": 6331,
    "Ġhistorical": 6332,
    "åĽĽå·Ŀ": 6333,
    "çĥ¯": 6334,
    "IP": 6335,
    "éĿĴå¹´": 6336,
    "æĦŁæŁĵ": 6337,
    "Ġisn": 6338,
    "ĠBlack": 6339,
    "æ±Łèĭı": 6340,
    "orge": 6341,
    "è¯¸": 6342,
    "Ġpow": 6343,
    "çıł": 6344,
    "æĪĲåĳĺ": 6345,
    "æĦŁè§ī": 6346,
    "ä¾ĭå¦Ĥ": 6347,
    "æľºåĻ¨": 6348,
    "ST": 6349,
    "Ġexec": 6350,
    "çĽĲ": 6351,
    "Ġcommerc": 6352,
    "é£Łçī©": 6353,
    "reet": 6354,
    "Ġvirt": 6355,
    "çĲĨè§£": 6356,
    "ä¾Ŀæ³ķ": 6357,
    "æµĻæ±Ł": 6358,
    "çĻĮ": 6359,
    "æº¶": 6360,
    "ä¸¹": 6361,
    "è®¤è¯ģ": 6362,
    "Ġroad": 6363,
    "ä¸ĭçļĦ": 6364,
    "å¼¹": 6365,
    "ç§°ä¸º": 6366,
    "ä¸įè¦ģ": 6367,
    "åŃ¦æľ¯": 6368,
    "å¤§åŀĭ": 6369,
    "osy": 6370,
    ");": 6371,
    "Ġpowerful": 6372,
    "Ġenter": 6373,
    "Â°": 6374,
    "å°Ĩåľ¨": 6375,
    "Ġcoming": 6376,
    "Ġ:": 6377,
    "åħļåĳĺ": 6378,
    "ĠDuring": 6379,
    "éĢĴ": 6380,
    "Ġtrack": 6381,
    "DA": 6382,
    "äººåı£": 6383,
    "Ġrich": 6384,
    "Ġcontext": 6385,
    "odes": 6386,
    "188": 6387,
    "rieved": 6388,
    "éĵģè·¯": 6389,
    "phas": 6390,
    "Ġidentified": 6391,
    "Ġvill": 6392,
    "ãĢĤä»İ": 6393,
    "Ġmajority": 6394,
    "äº§åĵģçļĦ": 6395,
    "49": 6396,
    "aint": 6397,
    "ĠInst": 6398,
    "ï¼Įå®ŀçİ°": 6399,
    "iable": 6400,
    "Ġenh": 6401,
    "Ġfair": 6402,
    "oe": 6403,
    "ros": 6404,
    "ä¹Łæľī": 6405,
    "ĠPat": 6406,
    "Ġgave": 6407,
    "Ġsect": 6408,
    "CO": 6409,
    "Ġpresence": 6410,
    "å¹´è½»": 6411,
    "åıĮæĸ¹": 6412,
    "Ġacqu": 6413,
    "Ġdisplay": 6414,
    "åĿ¡": 6415,
    "æĸ¹ä¾¿": 6416,
    "Ġstatus": 6417,
    "Ġdidn": 6418,
    "æ¯«": 6419,
    "iful": 6420,
    "Ġshowed": 6421,
    "çªģçł´": 6422,
    "oration": 6423,
    "Ġtox": 6424,
    "å¡«": 6425,
    "Ġjoint": 6426,
    "å¢¨": 6427,
    "ees": 6428,
    "æľĹ": 6429,
    "Ġrelatively": 6430,
    "çİ»çĴĥ": 6431,
    "Ġtele": 6432,
    "Ġsymbol": 6433,
    "ï¼ĮçĶļèĩ³": 6434,
    "éĢĲæ¸Ĳ": 6435,
    "çĹħæ¯Ĵ": 6436,
    "çĽ¸ä¿¡": 6437,
    "åįıè®®": 6438,
    "-e": 6439,
    "Ġcook": 6440,
    "Ġnote": 6441,
    "Ġemp": 6442,
    "related": 6443,
    "Some": 6444,
    "Ġcry": 6445,
    "Ġtou": 6446,
    "äº¡": 6447,
    "Ġillness": 6448,
    "è®¡ç®Ĺæľº": 6449,
    "åĪĽä½ľ": 6450,
    "ç¯®": 6451,
    "ï½ŀ": 6452,
    "èĢ³": 6453,
    "ä¸ľè¥¿": 6454,
    "Ġactions": 6455,
    "ament": 6456,
    "è¯ģåĪ¸": 6457,
    "è¿Ļæł·çļĦ": 6458,
    "Ġincreases": 6459,
    "Ġassign": 6460,
    "que": 6461,
    "Ġunit": 6462,
    "ï¼Įè¿ĻäºĽ": 6463,
    "42": 6464,
    "aled": 6465,
    "Ġversion": 6466,
    "ĠAlso": 6467,
    "Ġcities": 6468,
    "Ġatmosp": 6469,
    "è¶ĭåĬ¿": 6470,
    "Ġfully": 6471,
    "ĠBecause": 6472,
    "encies": 6473,
    "ä¸Ģä¸ĭ": 6474,
    "æİĴåĲį": 6475,
    "äººå£«": 6476,
    "èĭĹ": 6477,
    "Ġgold": 6478,
    "Ġnutri": 6479,
    "ĠWater": 6480,
    "ĠDNA": 6481,
    "Ġelement": 6482,
    "åħĪçĶŁ": 6483,
    "ĠMod": 6484,
    "ĠHouse": 6485,
    "èĳĹåĲį": 6486,
    "rab": 6487,
    "Ġmob": 6488,
    "æľºåľº": 6489,
    "ĠProt": 6490,
    "å®ĩ": 6491,
    "Ġbelief": 6492,
    "ç¬¬åĽĽ": 6493,
    "åĬłåħ¥": 6494,
    "éĺ´": 6495,
    "Ġsitu": 6496,
    "éī": 6497,
    "Ġchoice": 6498,
    "æ±¡æ°´": 6499,
    "Ġrob": 6500,
    "Ġphilos": 6501,
    "Ġriver": 6502,
    "éī´": 6503,
    "èµŀ": 6504,
    "æĮĳæĪĺ": 6505,
    "Ġmoving": 6506,
    "æ®ĭ": 6507,
    "èħ¾": 6508,
    "æī¿æĭħ": 6509,
    "ĠGeneral": 6510,
    "é¢ľ": 6511,
    "Ġmouth": 6512,
    "Ġremember": 6513,
    "ĠNow": 6514,
    "é«ĺéĢŁ": 6515,
    "åĿĽ": 6516,
    "çĹĩçĬ¶": 6517,
    "ĠAustralia": 6518,
    "Ġantib": 6519,
    "è´Ŀ": 6520,
    "known": 6521,
    "oted": 6522,
    "Ad": 6523,
    "Ġillust": 6524,
    "ste": 6525,
    "enty": 6526,
    "iences": 6527,
    "ĠEm": 6528,
    "Ġasse": 6529,
    "Ġevolution": 6530,
    "iate": 6531,
    "âĦĥ": 6532,
    "è§Ĥä¼Ĺ": 6533,
    "Ġlimit": 6534,
    "ĠJust": 6535,
    "ä¸įåĪ°": 6536,
    "Ġmachine": 6537,
    "Ġappears": 6538,
    "resp": 6539,
    "Ġproperties": 6540,
    "Ġpiece": 6541,
    "æ³ī": 6542,
    "Ġworked": 6543,
    "Ġcapacity": 6544,
    "%ï¼Ľ": 6545,
    "Ġcompar": 6546,
    "Ġalcohol": 6547,
    "Ġpatterns": 6548,
    "ĠSince": 6549,
    "ĠFin": 6550,
    "ĠCour": 6551,
    "ãĢĭçļĦ": 6552,
    "ãģ": 6553,
    "\",": 6554,
    "Ġpeace": 6555,
    "éĢĤåĲĪ": 6556,
    "Ġmig": 6557,
    "Ġconstruct": 6558,
    "æļĤ": 6559,
    "Ġstrugg": 6560,
    "Ġnames": 6561,
    "å°Ĭ": 6562,
    "Ġmoment": 6563,
    "æİ¨åĩº": 6564,
    "ĠFl": 6565,
    "Ġworth": 6566,
    "æĹ¥å¸¸": 6567,
    "Ġsigns": 6568,
    "çŁ¥åĲį": 6569,
    "ï¼ĮçĦ¶åĲİ": 6570,
    "ï¼ĮéĤ£ä¹Ī": 6571,
    "è·Ŀç¦»": 6572,
    "åģ¿": 6573,
    "ä¸Ģå¹´": 6574,
    "Ġtransfer": 6575,
    "æ¯Ķä¾ĭ": 6576,
    "Ġmut": 6577,
    "Ġstories": 6578,
    "Ġimmune": 6579,
    "æ³ķéĻ¢": 6580,
    "aign": 6581,
    "ĠEgypt": 6582,
    "Ġ+": 6583,
    "äºĭä»¶": 6584,
    "rief": 6585,
    "åı¦ä¸Ģ": 6586,
    "inated": 6587,
    "Ġassist": 6588,
    "è½´": 6589,
    "èµı": 6590,
    "çªĹ": 6591,
    "åħ¬è·¯": 6592,
    "çĲĥéĺŁ": 6593,
    "Ġâ": 6594,
    "Ġvo": 6595,
    "å¿ĺ": 6596,
    "å¤Ħäºİ": 6597,
    "ĠGermany": 6598,
    "æĥ¯": 6599,
    "craft": 6600,
    "Ġchanged": 6601,
    "Ġefficient": 6602,
    "éº»": 6603,
    "åıĬåħ¶": 6604,
    "Ġarchitect": 6605,
    "ï¼ĮæıĲé«ĺ": 6606,
    "ï¼Įå¯¹äºİ": 6607,
    "Ġmission": 6608,
    "ç»ıåİĨ": 6609,
    "ãĢĤè¯¥": 6610,
    "ĠRo": 6611,
    "ĠAssociation": 6612,
    "ken": 6613,
    "æĮĤ": 6614,
    "éĤĢ": 6615,
    "rates": 6616,
    "ä¹±": 6617,
    "800": 6618,
    "Ar": 6619,
    "æĸ¹éĿ¢çļĦ": 6620,
    "æ¥ļ": 6621,
    "Ġrat": 6622,
    "è¿¹": 6623,
    "åĩŃ": 6624,
    "Ġforward": 6625,
    "Ġbaby": 6626,
    "çļĦå°ı": 6627,
    "åĳĬè¯ī": 6628,
    "é¥Ń": 6629,
    "force": 6630,
    "cious": 6631,
    "èģĮå·¥": 6632,
    "Ġoffers": 6633,
    "âĢĿ,": 6634,
    "Ġfresh": 6635,
    "ç«Ł": 6636,
    "Ġsurvey": 6637,
    "çŀ": 6638,
    "Ġball": 6639,
    "ĠCongress": 6640,
    "çĻ£": 6641,
    "Ġexpand": 6642,
    "èĥ¡": 6643,
    "ĠPhil": 6644,
    "omas": 6645,
    "Ġconvers": 6646,
    "æĽ¿": 6647,
    "åĢ¼å¾Ĺ": 6648,
    "åħ¬åĽŃ": 6649,
    "ä¹Į": 6650,
    "Ġbreast": 6651,
    "Ġanx": 6652,
    "Ġfunctions": 6653,
    "ĠMedic": 6654,
    "Ġeducational": 6655,
    "aste": 6656,
    "Ġgiving": 6657,
    "åĮĸå·¥": 6658,
    "æľīä¸Ģ": 6659,
    "pris": 6660,
    "ero": 6661,
    "eech": 6662,
    "çĤ¼": 6663,
    "à¤": 6664,
    "gery": 6665,
    "Ġwid": 6666,
    "ï¼Įå°±æĺ¯": 6667,
    "çīĽçļ®": 6668,
    "Ġacad": 6669,
    "ĠSur": 6670,
    "åŃĻ": 6671,
    "ĠAre": 6672,
    "ç²Ĵ": 6673,
    "è½¨": 6674,
    "ç¬¬åįģ": 6675,
    "Ġincor": 6676,
    "Ġexisting": 6677,
    "Ġinsect": 6678,
    "ç¥ĸ": 6679,
    "abilities": 6680,
    "ternal": 6681,
    "æİ¥è§¦": 6682,
    "ĠUse": 6683,
    "æ¦ľ": 6684,
    "èµµ": 6685,
    "ãĢĤçĽ®åīį": 6686,
    "asion": 6687,
    "ube": 6688,
    "éĨĴ": 6689,
    "ĠPeople": 6690,
    "è¦ĨçĽĸ": 6691,
    "æ¶īåıĬ": 6692,
    "Ġattract": 6693,
    "Ġequal": 6694,
    "ĠConf": 6695,
    "ĠCouncil": 6696,
    "rupt": 6697,
    "è¯ķéªĮ": 6698,
    "äº¿ç¾İåħĥ": 6699,
    "åĭ¤": 6700,
    "å¹¼": 6701,
    "Ġpp": 6702,
    "iny": 6703,
    "èįĲ": 6704,
    "Ġfemale": 6705,
    "rehens": 6706,
    "Ġfactor": 6707,
    "ç´¯è®¡": 6708,
    "yd": 6709,
    "Ġdat": 6710,
    "ĠEnvironment": 6711,
    "ĠCom": 6712,
    "è°ĵ": 6713,
    "Ġinstance": 6714,
    "Ġopportunities": 6715,
    "ĠAng": 6716,
    "Ġfindings": 6717,
    "å®£å¸ĥ": 6718,
    "Ġrunning": 6719,
    "Ġstaff": 6720,
    "åĲĦåľ°": 6721,
    "Ġtissue": 6722,
    "Ġcitizens": 6723,
    "ession": 6724,
    "che": 6725,
    "Ġchallenges": 6726,
    "è¿ĳå¹´æĿ¥": 6727,
    "uild": 6728,
    "uls": 6729,
    "Ġmuscle": 6730,
    "å·ŀå¸Ĥ": 6731,
    "çĶĺ": 6732,
    "iox": 6733,
    "Ġassum": 6734,
    "èĲ¥åħ»": 6735,
    "Ġregions": 6736,
    "åıªæĺ¯": 6737,
    "era": 6738,
    "atin": 6739,
    "èĢħçļĦ": 6740,
    "çĶµåĬĽ": 6741,
    "icip": 6742,
    "Ġdirection": 6743,
    "All": 6744,
    "Ġrepe": 6745,
    "å¾·åĽ½": 6746,
    "Ġthousands": 6747,
    "Ġdistance": 6748,
    "88": 6749,
    "ographic": 6750,
    "iring": 6751,
    "Ġforeign": 6752,
    "ĠTur": 6753,
    "Ġpicture": 6754,
    "åįĹçľģ": 6755,
    "Ġweak": 6756,
    "Ġprice": 6757,
    "Ġdetails": 6758,
    "æ´ª": 6759,
    "Ġwatch": 6760,
    "Ġing": 6761,
    "ï¼Įè¿Ļæĺ¯": 6762,
    "Ġexplain": 6763,
    "ĠProgram": 6764,
    "ä¸Ńå°ı": 6765,
    "Ġincome": 6766,
    "HE": 6767,
    "Ġchance": 6768,
    "Ġhuge": 6769,
    "Ġtask": 6770,
    "ãĢģä¸ŃåĽ½": 6771,
    "ä¸´åºĬ": 6772,
    "Ġcomponents": 6773,
    "ï¼Įä¼ļ": 6774,
    "æĪĲéĥ½": 6775,
    "ĠProf": 6776,
    "æĲľ": 6777,
    "åħ¬åĳĬ": 6778,
    "Ġlearned": 6779,
    "Ġinnov": 6780,
    "Ġdefined": 6781,
    "çīĽçļ®çĻ£": 6782,
    "å·¥åħ·": 6783,
    "Ġfriend": 6784,
    "Be": 6785,
    "Ġbox": 6786,
    "ĠUnion": 6787,
    "AD": 6788,
    "ç»ĻäºĪ": 6789,
    "æĿ¥æºĲ": 6790,
    "Ġevalu": 6791,
    "rick": 6792,
    "ald": 6793,
    "Ġfigure": 6794,
    "è´·æ¬¾": 6795,
    "Ġnative": 6796,
    "çļĦäº§åĵģ": 6797,
    "Ġfert": 6798,
    "Ġdetect": 6799,
    "Is": 6800,
    "185": 6801,
    "Ġbelieved": 6802,
    "è½¦è¾Ĩ": 6803,
    "Ġwrong": 6804,
    "ç®Ģç§°": 6805,
    "Ġbound": 6806,
    "ĠInternet": 6807,
    "Ġqual": 6808,
    "Ġdisorder": 6809,
    "éĢļå¸¸": 6810,
    "çļĦæĹ¶éĹ´": 6811,
    "oma": 6812,
    "ĠFebruary": 6813,
    "Ġemissions": 6814,
    "ï¼ĮçĶ±äºİ": 6815,
    "åĪ·": 6816,
    "ç¡ķ": 6817,
    "Ġoffice": 6818,
    "åĩºçīĪ": 6819,
    "Ġgarden": 6820,
    "ç±į": 6821,
    "ĠFrance": 6822,
    "lege": 6823,
    "æľĢé«ĺ": 6824,
    "ifically": 6825,
    "Ġjournal": 6826,
    "äººå·¥": 6827,
    "å¤ªéĺ³": 6828,
    "Ġbalance": 6829,
    "ä¸īä¸ª": 6830,
    "ĠSee": 6831,
    "Ġsuggests": 6832,
    "åĽ½åĬ¡": 6833,
    "æī©å¤§": 6834,
    "æĪĲäºĨ": 6835,
    "ä»ĸä»¬çļĦ": 6836,
    "Ġstar": 6837,
    "çĽ¸å½ĵ": 6838,
    "ĠJapanese": 6839,
    "66": 6840,
    "å¤§éĩı": 6841,
    "è°ģ": 6842,
    "åĩºæĿ¥": 6843,
    "ĠUN": 6844,
    "Ġreports": 6845,
    "ä¸ĩäºº": 6846,
    "Ġvision": 6847,
    "Ġstim": 6848,
    "ï¼Įä¸Ķ": 6849,
    "ĠRetrieved": 6850,
    "æİ¢ç´¢": 6851,
    "pective": 6852,
    "èİ«": 6853,
    "ĠSocial": 6854,
    "ĠTheir": 6855,
    "Ġresistance": 6856,
    "41": 6857,
    "é«ĺæł¡": 6858,
    "æĬ½": 6859,
    "ä¸»ç®¡": 6860,
    "Ġsac": 6861,
    "ĠJewish": 6862,
    "Ġeventually": 6863,
    "æį·": 6864,
    "æ¤įçī©": 6865,
    "Ġseparate": 6866,
    "Ġtruth": 6867,
    "ï¼ħ": 6868,
    "çİ°è±¡": 6869,
    "wards": 6870,
    "orage": 6871,
    "è®°å½ķ": 6872,
    "Ġconsumption": 6873,
    "ĠPublic": 6874,
    "å°±ä¼ļ": 6875,
    "Ġfamous": 6876,
    "hors": 6877,
    "Ġabsor": 6878,
    "èİ±": 6879,
    "ĠUK": 6880,
    "Ġtechnologies": 6881,
    "éĩįæĸ°": 6882,
    "ç¼´": 6883,
    "èĲ¥ä¸ļ": 6884,
    "ãĢĤå®ĥ": 6885,
    "Ġbank": 6886,
    "US": 6887,
    "isation": 6888,
    "43": 6889,
    "igen": 6890,
    "æĹ¨": 6891,
    "pped": 6892,
    "Ġdivid": 6893,
    "Ġbra": 6894,
    "ĠEach": 6895,
    "After": 6896,
    "Ġpassed": 6897,
    "Ġmap": 6898,
    "Ġeffic": 6899,
    "Ġexperim": 6900,
    "æľīæľº": 6901,
    "åı¬å¼Ģ": 6902,
    "ĠThus": 6903,
    "ä¼ı": 6904,
    "Ġaim": 6905,
    "zz": 6906,
    "ygen": 6907,
    "Ġapply": 6908,
    "ï¼Įåħ±": 6909,
    "ĠPal": 6910,
    "ä¼¯": 6911,
    "urance": 6912,
    "Ġoptions": 6913,
    "ĠWestern": 6914,
    "Ġseven": 6915,
    "Ġphen": 6916,
    "çļĦä¸»è¦ģ": 6917,
    "å®¶éķ¿": 6918,
    "èį¯çī©": 6919,
    "Ġstrategies": 6920,
    "Ġcarried": 6921,
    "èĬĤçĽ®": 6922,
    "ç´łè´¨": 6923,
    "åĨħéĥ¨": 6924,
    "Ġstyle": 6925,
    "nes": 6926,
    "ä¸ģ": 6927,
    "Ġorganizations": 6928,
    "å¤įæĿĤ": 6929,
    "change": 6930,
    "Ġdistribution": 6931,
    "Ġguide": 6932,
    "åľ¨çº¿": 6933,
    "01": 6934,
    "Ġplanning": 6935,
    "ĠChe": 6936,
    "æ·»": 6937,
    "Ġdestroy": 6938,
    "æĢķ": 6939,
    "é¢Ħéĺ²": 6940,
    "iant": 6941,
    "éĹ²": 6942,
    "ĠCur": 6943,
    "roup": 6944,
    "Ġimmediately": 6945,
    "eding": 6946,
    "Ġclassroom": 6947,
    "æ²»çĲĨ": 6948,
    "iance": 6949,
    "å¤§åĪ©": 6950,
    "Ġcontract": 6951,
    "Ġchallenge": 6952,
    "éĵľ": 6953,
    "ĠGreen": 6954,
    "Ġurban": 6955,
    "bre": 6956,
    "Ġdecades": 6957,
    "å§Ĩ": 6958,
    "Ġgrass": 6959,
    "ãĢĭï¼Ī": 6960,
    "æĪ´": 6961,
    "é¼ĵåĬ±": 6962,
    "Ġexhib": 6963,
    "ï¼īçļĦ": 6964,
    "å¤ļæķ°": 6965,
    "é¢ĨåħĪ": 6966,
    "Ġcollabor": 6967,
    "ĠMich": 6968,
    "ĠDon": 6969,
    "æĹ¥èµ·": 6970,
    "eces": 6971,
    "Ġcand": 6972,
    "Ġgoals": 6973,
    "Ġexcess": 6974,
    "éģµ": 6975,
    "æĽ¼": 6976,
    "Ġblue": 6977,
    "åĽ½åĬ¡éĻ¢": 6978,
    "antic": 6979,
    "187": 6980,
    "05": 6981,
    "omic": 6982,
    "æİĮæı¡": 6983,
    "ä¼ĺåĮĸ": 6984,
    "Ġvitamin": 6985,
    "ä¸ĭæĿ¥": 6986,
    "æĶ¹éĢł": 6987,
    "ãĢĳ": 6988,
    "æ¶µ": 6989,
    "Ġhighest": 6990,
    "Ġkid": 6991,
    "ï¼Įæ²¡æľī": 6992,
    "Ġnuclear": 6993,
    "Ġmal": 6994,
    "Ġfaith": 6995,
    "éģŃ": 6996,
    "Ġspring": 6997,
    "ingly": 6998,
    "ĠVol": 6999,
    "ãĢĲ": 7000,
    "Ġutil": 7001,
    "Ġgain": 7002,
    "Ġplans": 7003,
    "ãĢĭãĢģãĢĬ": 7004,
    "Ġmilk": 7005,
    "ï¼Įä¸Ĭ": 7006,
    "å¼Ł": 7007,
    "rome": 7008,
    "çĽ¸åºĶ": 7009,
    "çĶ¨çļĦ": 7010,
    "They": 7011,
    "ç´«": 7012,
    "Ġstructures": 7013,
    "aus": 7014,
    "ĠDavid": 7015,
    "Ġhappen": 7016,
    "Ġcommercial": 7017,
    "æ´ŀ": 7018,
    "Ġemphas": 7019,
    "house": 7020,
    "Ġhair": 7021,
    "Ġexperiences": 7022,
    "é«ĺåº¦": 7023,
    "Ġobserved": 7024,
    "Ġinstruct": 7025,
    ".C": 7026,
    "ĠMat": 7027,
    "å£ģ": 7028,
    "åıĳè¡¨": 7029,
    "Ġextremely": 7030,
    "çĭ¬ç«ĭ": 7031,
    "Ġapproximately": 7032,
    "Ġboard": 7033,
    "æī¹åĩĨ": 7034,
    "åĮ»çĶŁ": 7035,
    "ãĢĤåħ¶ä¸Ń": 7036,
    "ĠInter": 7037,
    "èĩªçĶ±": 7038,
    "Ġreference": 7039,
    "å¥¶": 7040,
    "Ġnutrition": 7041,
    "Ġfavor": 7042,
    "ĠWeb": 7043,
    "æīİ": 7044,
    "Ġcopy": 7045,
    "Ġmoved": 7046,
    "Ġplastic": 7047,
    "åĮħè£ħ": 7048,
    "Ġpick": 7049,
    "Ġiron": 7050,
    "åĲĦé¡¹": 7051,
    "è¯ģä¹¦": 7052,
    "åħļå§Ķ": 7053,
    "tee": 7054,
    "è¯Ħä¼°": 7055,
    "Ġexplore": 7056,
    "å§ĵ": 7057,
    "Ġtreated": 7058,
    "é¦ĸæ¬¡": 7059,
    "åĨłåĨĽ": 7060,
    "Ġdecisions": 7061,
    "æŃ£ç¡®": 7062,
    "Ġactual": 7063,
    "åĭĴ": 7064,
    "ä¸»åĬ¨": 7065,
    "ĠMor": 7066,
    "èº«ä»½": 7067,
    "uing": 7068,
    "èĲ¥éĶĢ": 7069,
    "é»ĺ": 7070,
    "ï¼Įäºİ": 7071,
    "Ġcontrast": 7072,
    "Ġpresident": 7073,
    "ĠLord": 7074,
    "ĠAut": 7075,
    "éĺŁä¼į": 7076,
    "ä¹ĭéĹ´çļĦ": 7077,
    "opy": 7078,
    "ä¸įè¶³": 7079,
    "å½¢è±¡": 7080,
    "Ġdyn": 7081,
    "åĬŀçĲĨ": 7082,
    "è¯ĳ": 7083,
    "Ġheavy": 7084,
    "Ġslight": 7085,
    "æİī": 7086,
    "key": 7087,
    "Ġpopulations": 7088,
    "-M": 7089,
    "ologist": 7090,
    "Ġhousehold": 7091,
    "Ġbodies": 7092,
    "æĬ¢": 7093,
    "Ġlegis": 7094,
    "ãĢĤæį®": 7095,
    "æ°ı": 7096,
    "Ġtopic": 7097,
    "Ġsexual": 7098,
    "çĻ»è®°": 7099,
    "Ġbecoming": 7100,
    "éº¦": 7101,
    "Ġfeature": 7102,
    "ï¼ĮåĪ°": 7103,
    "Ġiniti": 7104,
    "ĠNet": 7105,
    "**": 7106,
    "è¿ħéĢŁ": 7107,
    "æľĢç»Ī": 7108,
    "Ġdisorders": 7109,
    "wide": 7110,
    "Ġgene": 7111,
    "å¿Ĩ": 7112,
    "rest": 7113,
    "Ġmo": 7114,
    "æĺĮ": 7115,
    "Ġmale": 7116,
    "ĠOb": 7117,
    "Ġreality": 7118,
    "è¿Ķ": 7119,
    "Ġitems": 7120,
    "åľ°åĿĢ": 7121,
    "åħĪåĲİ": 7122,
    "Ġclinical": 7123,
    "Ġopin": 7124,
    "å²¸": 7125,
    "cular": 7126,
    "Ġmedicine": 7127,
    "ï¼ĮåºĶ": 7128,
    "Ġparty": 7129,
    "ï¼Įåįł": 7130,
    "Ġbone": 7131,
    "ĠPlan": 7132,
    "ä»įçĦ¶": 7133,
    "Ġtrust": 7134,
    "å¥³æĢ§": 7135,
    "ĠJames": 7136,
    "rant": 7137,
    "enth": 7138,
    "Ġsignificantly": 7139,
    "ĠDevelopment": 7140,
    "åįıè°ĥ": 7141,
    "Ġestimated": 7142,
    "ä¸ĭåįĪ": 7143,
    "char": 7144,
    "Ġglass": 7145,
    "åĪĨäº«": 7146,
    "Ġliqu": 7147,
    "order": 7148,
    "æĸĩç«ł": 7149,
    "Ġgeneration": 7150,
    "ï¼īãĢĤĊ": 7151,
    "Ġletter": 7152,
    "Ġdepression": 7153,
    "Ġsave": 7154,
    "Ġconnected": 7155,
    "é¸¡": 7156,
    "çļĦæĸ¹å¼ı": 7157,
    "çıį": 7158,
    "åĲ¯åĬ¨": 7159,
    "ï¼Įåį´": 7160,
    "æıı": 7161,
    "Ġaspects": 7162,
    "Ġign": 7163,
    "cast": 7164,
    "Ġalternative": 7165,
    "OT": 7166,
    "Ġmer": 7167,
    "è®Ńç»ĥ": 7168,
    "ç¥Ŀ": 7169,
    "Ġtransl": 7170,
    "ares": 7171,
    "ï¼ĮãĢĬ": 7172,
    "èĩªä¸»": 7173,
    "åĬ¨çī©": 7174,
    "ç±»åŀĭ": 7175,
    "éĥ½ä¼ļ": 7176,
    "EL": 7177,
    "ager": 7178,
    "Ġindustrial": 7179,
    "Ġclearly": 7180,
    "ĠRepublic": 7181,
    "Ġbed": 7182,
    "Ġpresented": 7183,
    "Ġrot": 7184,
    "éĻĲåĪ¶": 7185,
    "æİ¨èįĲ": 7186,
    "Ġmag": 7187,
    "unction": 7188,
    "Ġvary": 7189,
    "Ġresource": 7190,
    "Ġdesp": 7191,
    "Ġconducted": 7192,
    "ĠFound": 7193,
    "ä¼ļè®¡": 7194,
    "Ġdiscussion": 7195,
    "å¯Ĵ": 7196,
    "ç»ĺ": 7197,
    "çĬ¶åĨµ": 7198,
    "ĠNA": 7199,
    "bed": 7200,
    "Ġmetal": 7201,
    "é¢Ĺ": 7202,
    "ï¼Įå°ı": 7203,
    "Ġspect": 7204,
    "Ġeasier": 7205,
    "æĭĽçĶŁ": 7206,
    "Ġintroduced": 7207,
    "éĿ¢ä¸´": 7208,
    "ĠDes": 7209,
    "Ġfig": 7210,
    "ulf": 7211,
    "æ°¨": 7212,
    "Ġstream": 7213,
    "åĪĨåŃĲ": 7214,
    "lim": 7215,
    "Ġnotes": 7216,
    "éļĨ": 7217,
    "Ġnovel": 7218,
    "plications": 7219,
    "Ġhomes": 7220,
    "å§ĭç»Ī": 7221,
    "ii": 7222,
    "asks": 7223,
    "èĪĴ": 7224,
    "Ġsetting": 7225,
    "ĠMary": 7226,
    "Ġserve": 7227,
    "æĦĪ": 7228,
    "otes": 7229,
    "è´¢åĬ¡": 7230,
    "Sp": 7231,
    "ĠFood": 7232,
    "éĻ¶": 7233,
    "ĠRel": 7234,
    "iding": 7235,
    "å¾®ä¿¡": 7236,
    "clus": 7237,
    "Ġpartners": 7238,
    "ĠBra": 7239,
    "ux": 7240,
    "Ġoperations": 7241,
    "ĠAir": 7242,
    "çļĦåŁºç¡Ģ": 7243,
    "ãĥ": 7244,
    "Ġves": 7245,
    "Ġbran": 7246,
    "åıĳçĶµ": 7247,
    "âĢĿâĢľ": 7248,
    "porary": 7249,
    "ulum": 7250,
    "ĠSpanish": 7251,
    "èĢĮè¨Ģ": 7252,
    "Ġrequirements": 7253,
    "Ġfrequently": 7254,
    "tered": 7255,
    "ĠCollege": 7256,
    "ognitive": 7257,
    "ĠHuman": 7258,
    "Ġintellig": 7259,
    ".)Ċ": 7260,
    "Ġparticipants": 7261,
    "å¾Ĳ": 7262,
    "łéģĵ": 7263,
    "56": 7264,
    "Ġstore": 7265,
    "Ġgames": 7266,
    "ãĢĤåħ¬åı¸": 7267,
    "Ġfreedom": 7268,
    "æľĢå¤§": 7269,
    "å®ı": 7270,
    "Ġorganic": 7271,
    "èµĽåŃ£": 7272,
    "è¿ģ": 7273,
    "/or": 7274,
    "ï¼Įçİ°": 7275,
    "å¼ºçļĦ": 7276,
    "æĬµ": 7277,
    "elines": 7278,
    "ructure": 7279,
    "________": 7280,
    "Ġsand": 7281,
    "åĬŀåħ¬å®¤": 7282,
    "Ġstarting": 7283,
    "raw": 7284,
    "ĠSpec": 7285,
    "edic": 7286,
    "DP": 7287,
    "èį·": 7288,
    "åĲĮæľŁ": 7289,
    "ä¼łæĴŃ": 7290,
    "Ġnumerous": 7291,
    "ĠDec": 7292,
    "Ġcompl": 7293,
    "do": 7294,
    "åŃ¦ä¼ļ": 7295,
    "ophy": 7296,
    "Ġrecords": 7297,
    "è®¾ç«ĭ": 7298,
    "Ġfields": 7299,
    "Ġbuildings": 7300,
    "ãĢĤï¼Ī": 7301,
    "Ġthr": 7302,
    "ĠAv": 7303,
    "å¾½": 7304,
    "Ġappe": 7305,
    "ously": 7306,
    "Ġdoub": 7307,
    "ault": 7308,
    "è´¦": 7309,
    "Ġwidely": 7310,
    "éĿ¢çļĦ": 7311,
    "Ġcycle": 7312,
    "ĠLet": 7313,
    "äº«åıĹ": 7314,
    "æĻĵ": 7315,
    "æ³ķè§Ħ": 7316,
    "å¤©çĦ¶": 7317,
    "âĢĿ.": 7318,
    "Ġrelease": 7319,
    "Ġindependent": 7320,
    "èŀįèµĦ": 7321,
    "çĻ¾åĪĨ": 7322,
    "ä»ģ": 7323,
    "çľŁå®ŀ": 7324,
    "erved": 7325,
    "äº©": 7326,
    "è±Ĩ": 7327,
    "ios": 7328,
    "è®¾ç½®": 7329,
    "è¿ĽæŃ¥": 7330,
    "Ġremove": 7331,
    "Ġcombination": 7332,
    "ĠOver": 7333,
    "åŀĥ": 7334,
    "åķĨæłĩ": 7335,
    "Ġnoted": 7336,
    "ä¹ı": 7337,
    "Ġelectricity": 7338,
    "æĢ§åĴĮ": 7339,
    "èĥĥ": 7340,
    "lick": 7341,
    "Ġreleased": 7342,
    "åľ¾": 7343,
    "ĠMuseum": 7344,
    "åŃ¦ä½į": 7345,
    "Ġexpression": 7346,
    "ĠGreek": 7347,
    "ĠChildren": 7348,
    "åŀĥåľ¾": 7349,
    "Ġocean": 7350,
    "æĤ²": 7351,
    "å®ĭ": 7352,
    "ä¹Łä¸į": 7353,
    "Ġanyone": 7354,
    "éĢļä¿¡": 7355,
    "é£İæł¼": 7356,
    "ä¹łæĥ¯": 7357,
    "Ġesc": 7358,
    "ï¼Įè¿ĺæľī": 7359,
    "apers": 7360,
    "éĺ²æİ§": 7361,
    "Ġturned": 7362,
    "erate": 7363,
    "Ġviolence": 7364,
    "Ġlived": 7365,
    "Ġoutput": 7366,
    "ç»ıå¸¸": 7367,
    "Ġload": 7368,
    "åŁºäºİ": 7369,
    "å¹´ä»£": 7370,
    "Ġgod": 7371,
    "åĩłä¹İ": 7372,
    "Ġkilled": 7373,
    "è¿ĲçĶ¨": 7374,
    "Ġpolicies": 7375,
    "works": 7376,
    "Ġexperiment": 7377,
    "ĠRev": 7378,
    "æľīæīĢ": 7379,
    "æıĲä¾ĽäºĨ": 7380,
    "Ġlayer": 7381,
    "hetic": 7382,
    "olved": 7383,
    "ij": 7384,
    "ĠGovernment": 7385,
    "æĽ´å¤ļçļĦ": 7386,
    "Ġtim": 7387,
    "58": 7388,
    "åĬłå¿«": 7389,
    "ä¿Ĺ": 7390,
    "Ġrisks": 7391,
    "Ġagg": 7392,
    "ĠBudd": 7393,
    "Ġcausing": 7394,
    "ias": 7395,
    "Ġbattle": 7396,
    "æĸĳ": 7397,
    "amental": 7398,
    "imens": 7399,
    "Ġassessment": 7400,
    "éĢĤåºĶ": 7401,
    "Ġgraph": 7402,
    "Ġgets": 7403,
    "åģļåĪ°": 7404,
    "Ġhear": 7405,
    "å°ĳå¹´": 7406,
    "Ġtour": 7407,
    "å¹¸ç¦ı": 7408,
    "ologists": 7409,
    "Ġcampaign": 7410,
    "erences": 7411,
    "rans": 7412,
    "æĭĽèģĺ": 7413,
    "ãĢĤæľī": 7414,
    "Ġsample": 7415,
    "bal": 7416,
    "ilit": 7417,
    "icial": 7418,
    "Ġbottom": 7419,
    "CE": 7420,
    "Ġcreation": 7421,
    "çĲĥåĳĺ": 7422,
    "çĤī": 7423,
    "ta": 7424,
    "å·§": 7425,
    "Ġwin": 7426,
    "èĤ¡ä¸ľ": 7427,
    "Ġprefer": 7428,
    "Ġconv": 7429,
    "Ġliterature": 7430,
    "-up": 7431,
    "ä¸ĵåĪ©": 7432,
    "èĳ¡": 7433,
    "oting": 7434,
    "76": 7435,
    "Ġchanging": 7436,
    "æĭħä»»": 7437,
    "åĵªäºĽ": 7438,
    "Ġtrig": 7439,
    "Ġcovered": 7440,
    "ida": 7441,
    "Ġinterpret": 7442,
    "ä¸Ģå®¶": 7443,
    "æ³ķåĽ½": 7444,
    "Sh": 7445,
    "ressive": 7446,
    "è¿ĳæĹ¥": 7447,
    "çŃīçŃī": 7448,
    "Ġchronic": 7449,
    "æ¯ıä¸ª": 7450,
    "è¾ī": 7451,
    "Ġminor": 7452,
    "Ġhom": 7453,
    "Ġfilm": 7454,
    "Ġisland": 7455,
    "ĠOff": 7456,
    "æ·¡": 7457,
    "Ġresulting": 7458,
    "stitution": 7459,
    "è½¬åŀĭ": 7460,
    "Ġdrive": 7461,
    "Ġunivers": 7462,
    "Ġperformed": 7463,
    "ï¼ĮåĽł": 7464,
    "æ¯ıå¹´": 7465,
    "Ġoxygen": 7466,
    "anging": 7467,
    "Ġsumm": 7468,
    "çĮª": 7469,
    "ras": 7470,
    "Ġmessage": 7471,
    "çļĦæĬĢæľ¯": 7472,
    "æ¨ª": 7473,
    "éĶĭ": 7474,
    "olid": 7475,
    "èĦī": 7476,
    "Ġshap": 7477,
    "äººæ°ĳæĶ¿åºľ": 7478,
    "Ġcircum": 7479,
    "rog": 7480,
    "çĭ¬çī¹": 7481,
    "Ġconnection": 7482,
    "çī¹åĪ«æĺ¯": 7483,
    "ria": 7484,
    "raction": 7485,
    "å²©": 7486,
    "å¨±ä¹Ĳ": 7487,
    "éĩĮçļĦ": 7488,
    "ams": 7489,
    "-B": 7490,
    "Ġ#": 7491,
    "åĿ¦": 7492,
    "ĠGeorge": 7493,
    "Ġisol": 7494,
    "ped": 7495,
    "è¿½æ±Ĥ": 7496,
    "Ġwanted": 7497,
    "Ġtemperatures": 7498,
    "è¿ŀæİ¥": 7499,
    "è¾Ľ": 7500,
    "Ġrecommended": 7501,
    "ï¼ĮæĪĳåĽ½": 7502,
    "onic": 7503,
    "Ġphysic": 7504,
    "Ġwhom": 7505,
    "éĤ£äºĽ": 7506,
    "èĢĥçĶŁ": 7507,
    "Ġdangerous": 7508,
    "ãĢĤæŃ¤å¤ĸ": 7509,
    "Ġspeech": 7510,
    "ï¼Įä¸įä»ħ": 7511,
    "äººæ°ĳå¸ģ": 7512,
    "éħįåĲĪ": 7513,
    "tical": 7514,
    "Ġtechnique": 7515,
    "ĠUnder": 7516,
    "ä½ĵçİ°": 7517,
    "åĸ·": 7518,
    "Ġfinding": 7519,
    "New": 7520,
    "æĹ¶çļĦ": 7521,
    "äººä½ĵ": 7522,
    "çģŃ": 7523,
    "æ¯ıå¤©": 7524,
    "osystem": 7525,
    "atically": 7526,
    "Ġprinciples": 7527,
    "ãĢģæ°´": 7528,
    "ieces": 7529,
    "å¿ħè¦ģ": 7530,
    "éĩĩè´Ń": 7531,
    "Ġgender": 7532,
    "Ġannual": 7533,
    "å®ŀéªĮå®¤": 7534,
    "å®ŀåĬĽ": 7535,
    "Ġfeeling": 7536,
    "è¿Ļæĺ¯": 7537,
    "Ġreferred": 7538,
    "æ»¤": 7539,
    "å±¥": 7540,
    "roph": 7541,
    "ĠPaul": 7542,
    "othes": 7543,
    "Ġsem": 7544,
    "èī¯å¥½": 7545,
    "æł¡åĽŃ": 7546,
    "184": 7547,
    "Ġready": 7548,
    "ä»¬çļĦ": 7549,
    "Ġship": 7550,
    "essor": 7551,
    "Ġauthors": 7552,
    "ĠMark": 7553,
    "å¾ªçİ¯": 7554,
    "Ġbuy": 7555,
    "çİ°å®ŀ": 7556,
    "ä¹³": 7557,
    "æĸ°åŀĭ": 7558,
    "ander": 7559,
    "Ġrelationships": 7560,
    "Ġdrop": 7561,
    "å°½ç®¡": 7562,
    "Ġstorage": 7563,
    "Ġcore": 7564,
    "ï¼Įæł¹æį®": 7565,
    "æĽ¾ç»ı": 7566,
    "æ²ŁéĢļ": 7567,
    "rations": 7568,
    "Ġbeautiful": 7569,
    "æĴĳ": 7570,
    "Ġconfirm": 7571,
    "Ġvul": 7572,
    "Ġupper": 7573,
    "Ġencourage": 7574,
    "cers": 7575,
    "Ġinternal": 7576,
    "Ġcharacteristics": 7577,
    "ĠCath": 7578,
    "respond": 7579,
    "ä½ľèĢħ": 7580,
    "åħħæ»¡": 7581,
    "iveness": 7582,
    "atform": 7583,
    "Ġcollege": 7584,
    "Ġdegrees": 7585,
    "ocal": 7586,
    "ä¹ĭå¤ĸ": 7587,
    "å¼ºè°ĥ": 7588,
    "Ġmeeting": 7589,
    "BC": 7590,
    "Ġhappens": 7591,
    "ç»ª": 7592,
    "ĠOrgan": 7593,
    "ä¸Ĭåįĩ": 7594,
    "ãĢģå¸Ĥ": 7595,
    "ĠProject": 7596,
    "å°ĺ": 7597,
    "Ġgrant": 7598,
    "Ġdistinct": 7599,
    "çĪ¶æ¯į": 7600,
    "ago": 7601,
    "Ġterrit": 7602,
    "Ġroot": 7603,
    "Ġreprodu": 7604,
    "ï¼Įä¸įæĸŃ": 7605,
    "Ġalg": 7606,
    "æĻ¶": 7607,
    "ï¼Įå·²": 7608,
    "Ġcast": 7609,
    "è¡¨è¾¾": 7610,
    "å£®": 7611,
    "ï¼Įå°¤åħ¶": 7612,
    "Ġhelped": 7613,
    "Ġmeat": 7614,
    "ĠIsland": 7615,
    "Ġtrou": 7616,
    "Ġtooth": 7617,
    "Ġcris": 7618,
    "å»ºæĪĲ": 7619,
    "äºĭå®ŀ": 7620,
    "However": 7621,
    "rum": 7622,
    "Ġregarding": 7623,
    "Ġupd": 7624,
    "berg": 7625,
    "Ġprepar": 7626,
    "å¸ĤåľºçļĦ": 7627,
    "Ġcalc": 7628,
    "ç½Ĺæĸ¯": 7629,
    "å¼ºåº¦": 7630,
    "éĵº": 7631,
    "Ġexactly": 7632,
    "Ġdetermined": 7633,
    "æĮĩæłĩ": 7634,
    "Ġreducing": 7635,
    "ï¼ĮåĪĻ": 7636,
    "çº½": 7637,
    "é©±": 7638,
    "åħįè´¹": 7639,
    "ãĢĤä½Ĩæĺ¯": 7640,
    "Ġvessel": 7641,
    "Here": 7642,
    "ĠMount": 7643,
    "Ġinjury": 7644,
    "èĲĦ": 7645,
    "ä¸»æĮģ": 7646,
    "Ġreb": 7647,
    "ä¸Ģå®ļçļĦ": 7648,
    "lease": 7649,
    "Ġsolutions": 7650,
    "éĶħ": 7651,
    "çº¤": 7652,
    "Ġnor": 7653,
    "Ġburn": 7654,
    "å¤ļå¹´": 7655,
    "Ġfine": 7656,
    "Ġexcell": 7657,
    "çĽ´æĴŃ": 7658,
    "orial": 7659,
    "ä»¥åĲİ": 7660,
    "08": 7661,
    "Ġtrib": 7662,
    "Ġsav": 7663,
    "çŁ³æ²¹": 7664,
    "Ġbelong": 7665,
    "èĩ³ä»Ĭ": 7666,
    "ï¼ĮåĲİ": 7667,
    "èĸĦ": 7668,
    "è·³": 7669,
    "Ġunits": 7670,
    "Ġflood": 7671,
    "çĶµåĬ¨": 7672,
    "æłı": 7673,
    "ĠçļĦ": 7674,
    "ä»¤äºº": 7675,
    "77": 7676,
    "Ġunf": 7677,
    "och": 7678,
    "Ġreligion": 7679,
    "ishing": 7680,
    ".D": 7681,
    "-th": 7682,
    "ressed": 7683,
    "æĪ¿åľ°äº§": 7684,
    "Ġplease": 7685,
    "é©»": 7686,
    "è£Ĥ": 7687,
    "Ġcomprehens": 7688,
    "ĠSun": 7689,
    "æľīçĿĢ": 7690,
    "Ġnorthern": 7691,
    "ĠBel": 7692,
    "æ®ĸ": 7693,
    "æ³½": 7694,
    "64": 7695,
    "Ġgenes": 7696,
    "ieties": 7697,
    "Con": 7698,
    "Ġcounter": 7699,
    "åĳĪçİ°": 7700,
    "Ġanxiety": 7701,
    "Ġoption": 7702,
    "Ġpric": 7703,
    "æĿĨ": 7704,
    "Ġradio": 7705,
    "Ġyouth": 7706,
    "ortunately": 7707,
    "ĠTherefore": 7708,
    "å¼ķå¯¼": 7709,
    "Äģ": 7710,
    "ĠWork": 7711,
    "vision": 7712,
    "ãĢĤä¸Ģ": 7713,
    "ĠDem": 7714,
    "Ġmentioned": 7715,
    "Ġbackground": 7716,
    "æĹ¦": 7717,
    "æľĢä½³": 7718,
    "mark": 7719,
    "å¾Ĵ": 7720,
    "Cl": 7721,
    "Ġradiation": 7722,
    "åĮ»èį¯": 7723,
    "Ġdram": 7724,
    "Ġvolunt": 7725,
    "Ġinitial": 7726,
    "Ġconservation": 7727,
    "èĳ¡èĲĦ": 7728,
    "Ġround": 7729,
    "Ġmathemat": 7730,
    "leg": 7731,
    "ĠWhy": 7732,
    "ä¸ĩåĲ¨": 7733,
    "çĬ¯ç½ª": 7734,
    "æĭĶ": 7735,
    "ĠOnce": 7736,
    "za": 7737,
    "According": 7738,
    "ĠST": 7739,
    "é©¾é©¶": 7740,
    "bl": 7741,
    "åĴĮåĽ½": 7742,
    "åĲĮæł·": 7743,
    "tes": 7744,
    "æµ®": 7745,
    "Ġstatement": 7746,
    "Ġserved": 7747,
    "Ġpreviously": 7748,
    "å¤©æ´¥": 7749,
    "Ġproperly": 7750,
    "Ġmostly": 7751,
    "road": 7752,
    "umn": 7753,
    "åľ°ä½į": 7754,
    "åıĳè¡Į": 7755,
    "Ġvolume": 7756,
    "Ġsurgery": 7757,
    "ï¼Įå½¢æĪĲ": 7758,
    "çªģåĩº": 7759,
    "ĠFore": 7760,
    "éĺħè¯»": 7761,
    "Ġremoved": 7762,
    "ĠâĢ¦": 7763,
    "Ġinput": 7764,
    "Ġinvolves": 7765,
    "RE": 7766,
    "åĸĿ": 7767,
    "ãĢĤæīĢä»¥": 7768,
    "çķħ": 7769,
    "Ġemail": 7770,
    "Ġrace": 7771,
    "å®ħ": 7772,
    "Ġscen": 7773,
    "Ġheard": 7774,
    "...Ċ": 7775,
    "Ġreplace": 7776,
    "äººæķ°": 7777,
    "Ġinvolve": 7778,
    "Ġfailure": 7779,
    "åĪ©çĽĬ": 7780,
    "98": 7781,
    "åĲĪæł¼": 7782,
    "Ġtrend": 7783,
    "è¿Ľåı£": 7784,
    "Ġinterested": 7785,
    "Ġelimin": 7786,
    "è·Į": 7787,
    "å®ĺæĸ¹": 7788,
    "riage": 7789,
    "ategy": 7790,
    "æĿŃ": 7791,
    "ributed": 7792,
    "ĠTest": 7793,
    "Ġdescribe": 7794,
    "Ġinfections": 7795,
    "Ġpromote": 7796,
    "èĩ´åĬĽ": 7797,
    "Ġinflamm": 7798,
    "Ġcredit": 7799,
    "Ġclick": 7800,
    "åĩ¯": 7801,
    "Ġlinked": 7802,
    "ĠAsia": 7803,
    "riculum": 7804,
    "ï¼ĮåĲĮæ¯Ķå¢ŀéķ¿": 7805,
    "æľ¬ç§ĳ": 7806,
    "Ġtum": 7807,
    "Ġexperienced": 7808,
    "Ġadvanced": 7809,
    "ping": 7810,
    "Ġsolid": 7811,
    "oyal": 7812,
    "RO": 7813,
    "Res": 7814,
    "Ġleads": 7815,
    "-D": 7816,
    "Ġinh": 7817,
    "ï¼Įè¿Ļæł·": 7818,
    "æĹĭ": 7819,
    "inate": 7820,
    "éĶģ": 7821,
    "å¡ĳæĸĻ": 7822,
    "Ġtransform": 7823,
    "ules": 7824,
    "iverse": 7825,
    "èĦ¸": 7826,
    "å¸ĥå±Ģ": 7827,
    "ä¾Ŀæį®": 7828,
    "Ġmist": 7829,
    "Ġclasses": 7830,
    "Ġpal": 7831,
    "Ġobvious": 7832,
    "Ġeggs": 7833,
    "urt": 7834,
    "åħ¬ä¼Ĺ": 7835,
    "ä¹Łä¼ļ": 7836,
    "Ġthick": 7837,
    "éħįå¥Ĺ": 7838,
    "ception": 7839,
    "Ġlic": 7840,
    "Ġsquare": 7841,
    "èĤ¿": 7842,
    "æĥ³è¦ģ": 7843,
    "ç¢į": 7844,
    "arrow": 7845,
    "cript": 7846,
    "ä¿Ŀæ¸©": 7847,
    "Ġrelevant": 7848,
    "å¾Ģå¾Ģ": 7849,
    "ĠIts": 7850,
    "isher": 7851,
    "ä¸°å¯ĮçļĦ": 7852,
    "care": 7853,
    "äºĨä¸Ģä¸ª": 7854,
    "åĨįæ¬¡": 7855,
    "Ġstrategy": 7856,
    "èļĢ": 7857,
    "Ġcharge": 7858,
    "ĠGra": 7859,
    "ĠHen": 7860,
    "Ġarticles": 7861,
    "æµ·å¤ĸ": 7862,
    "Ġlandsc": 7863,
    "ï¼Įä¸¤": 7864,
    "ĠEv": 7865,
    "Ġmeant": 7866,
    "Ġadvantage": 7867,
    "ä¼ļä¸Ĭ": 7868,
    "å¤º": 7869,
    "Ġmanufacture": 7870,
    "çĵ·": 7871,
    "éĻķ": 7872,
    "kin": 7873,
    "ĠMal": 7874,
    "with": 7875,
    "æŃ¦æ±ī": 7876,
    "ancing": 7877,
    "Ġdri": 7878,
    "æĶ¶éĽĨ": 7879,
    "Ġdepending": 7880,
    "ĠPhys": 7881,
    "ags": 7882,
    "ĠTex": 7883,
    "250": 7884,
    "åŃķ": 7885,
    "Ġkept": 7886,
    "è·ĥ": 7887,
    "Ġreaction": 7888,
    "Ġexposed": 7889,
    "æīĢåľ¨": 7890,
    "Ġeffectively": 7891,
    "å¿ĹæĦ¿": 7892,
    "ï¼ĮèĢĮæĺ¯": 7893,
    "çłĶç©¶çĶŁ": 7894,
    "å±ķè§Ī": 7895,
    "rete": 7896,
    "Ġwest": 7897,
    "ears": 7898,
    "mal": 7899,
    "Why": 7900,
    "wood": 7901,
    "Ġsaying": 7902,
    "Ġlib": 7903,
    "68": 7904,
    "Ġfol": 7905,
    "ĠService": 7906,
    "Ġdie": 7907,
    "ĠSam": 7908,
    "æĸĩåŃ¦": 7909,
    "rian": 7910,
    "Ġdecided": 7911,
    "-n": 7912,
    "Ġexperts": 7913,
    "çļĦçĶŁæ´»": 7914,
    "ĠSen": 7915,
    "ï¼ĮèĻ½çĦ¶": 7916,
    "ĠMars": 7917,
    "ĠPort": 7918,
    "upp": 7919,
    "æ±¤": 7920,
    "uted": 7921,
    "ĠRober": 7922,
    "Ġexpert": 7923,
    "Ġpollution": 7924,
    "Ġsouthern": 7925,
    "Ġprepared": 7926,
    "itz": 7927,
    "èĤ¯å®ļ": 7928,
    "Ġdogs": 7929,
    "Many": 7930,
    "Go": 7931,
    "çĹħä¾ĭ": 7932,
    "å°ıç»Ħ": 7933,
    "57": 7934,
    "è¡Įä¸ļçļĦ": 7935,
    "æ»´": 7936,
    "äºĭæķħ": 7937,
    "rep": 7938,
    "Ġlung": 7939,
    "ĠHIV": 7940,
    "Ġclos": 7941,
    "Ġhelping": 7942,
    "Ġconflict": 7943,
    "Ġmotion": 7944,
    "åį°åº¦": 7945,
    "Ġinstall": 7946,
    "Ġimpl": 7947,
    "åŃ¦åİĨ": 7948,
    "met": 7949,
    "-related": 7950,
    "Ġpages": 7951,
    "Ġspent": 7952,
    "ä¸Ĭè¿°": 7953,
    "çļĦåĲĮæĹ¶": 7954,
    "ä¼Ĺå¤ļ": 7955,
    "Ġinstitutions": 7956,
    "å°¾": 7957,
    "åħĥç´ł": 7958,
    "ï¼Įå¸ĮæľĽ": 7959,
    "éĽķ": 7960,
    "-le": 7961,
    "èĤ¡ä»½æľīéĻĲåħ¬åı¸": 7962,
    "Ġfarmers": 7963,
    "Ġadjust": 7964,
    "Ġspot": 7965,
    "Ġincorpor": 7966,
    "iling": 7967,
    "ï¼Įç§¯æŀģ": 7968,
    "çĽĳæµĭ": 7969,
    "Ġprocessing": 7970,
    "è®ºæĸĩ": 7971,
    "æī£": 7972,
    "éĢĲæŃ¥": 7973,
    "çĿ¡": 7974,
    "Ġproposed": 7975,
    "Ġvegetables": 7976,
    "Ġofficial": 7977,
    "Ġmanage": 7978,
    "èĪį": 7979,
    "That": 7980,
    "é¥®é£Ł": 7981,
    "èĭ±è¯Ń": 7982,
    "uration": 7983,
    "vis": 7984,
    "ato": 7985,
    "âĢľä¸Ģ": 7986,
    "Although": 7987,
    "well": 7988,
    "åĶ¯ä¸Ģ": 7989,
    "Ġinvent": 7990,
    "ç½ĳä¸Ĭ": 7991,
    "Ġdiss": 7992,
    "æľ±": 7993,
    "Ġhour": 7994,
    "Ġcontinues": 7995,
    "Ġconcern": 7996,
    "aughter": 7997,
    "Ġpret": 7998,
    "-like": 7999,
    "place": 8000,
    "Ġkill": 8001,
    "Ġeast": 8002,
    "Ġsynt": 8003,
    "Ġsong": 8004,
    "Ġprofession": 8005,
    "Ġseeds": 8006,
    "å¼ºåĮĸ": 8007,
    "Ġjour": 8008,
    "Ġamounts": 8009,
    "ç£ģ": 8010,
    "Ġmel": 8011,
    "ifying": 8012,
    "Ġsignal": 8013,
    "åĽ´ç»ķ": 8014,
    "Ġsort": 8015,
    "Ġconcerns": 8016,
    "ĠAcad": 8017,
    "å¹´é¾Ħ": 8018,
    "Ġdiscover": 8019,
    "ç¾İæľ¯": 8020,
    "ĠMart": 8021,
    "ĠSub": 8022,
    "çļĦä¸Ģä¸ª": 8023,
    "æķ¢": 8024,
    "äººåľ¨": 8025,
    "çĶµèĦĳ": 8026,
    "åįģäºĮ": 8027,
    "åı°æ¹¾": 8028,
    "åįĹäº¬": 8029,
    "Ġcomfort": 8030,
    "ĠLa": 8031,
    "çŃīæĸ¹éĿ¢": 8032,
    "æ³µ": 8033,
    "Ġarm": 8034,
    "Ġseed": 8035,
    "Ġessay": 8036,
    "çŃīå¥ĸ": 8037,
    "Ġphase": 8038,
    "Ġacademic": 8039,
    "Ġaid": 8040,
    "ya": 8041,
    "AA": 8042,
    "Ġcere": 8043,
    "åħ¬çĽĬ": 8044,
    "Ġemotional": 8045,
    "Now": 8046,
    "alle": 8047,
    "çĽĪ": 8048,
    "éĻ¢æł¡": 8049,
    "ded": 8050,
    "è£ħå¤ĩ": 8051,
    "PP": 8052,
    "Ġcoal": 8053,
    "Ġoperation": 8054,
    "ĠStudents": 8055,
    "æįŁå¤±": 8056,
    "LE": 8057,
    "bi": 8058,
    "çİ¯èĬĤ": 8059,
    "....": 8060,
    "Ġconclud": 8061,
    "acing": 8062,
    "ãĢĤå¦Ĥ": 8063,
    "eline": 8064,
    "ĠMet": 8065,
    "ĠIr": 8066,
    "å¯º": 8067,
    "Ġowners": 8068,
    "é«ĺçŃī": 8069,
    "ĠInf": 8070,
    "ĠBas": 8071,
    "ç²ĺ": 8072,
    "Ġwaters": 8073,
    "Ġpieces": 8074,
    "Ġcorrespond": 8075,
    "éŀ": 8076,
    "ç¨¿": 8077,
    "ael": 8078,
    "Ġatmosphere": 8079,
    "å°Ŀ": 8080,
    "Ġphenomen": 8081,
    "ĠCivil": 8082,
    "Ġchemicals": 8083,
    "Ġreached": 8084,
    "Ġwealth": 8085,
    "å¥ī": 8086,
    "Ġsupported": 8087,
    "è¿Ŀæ³ķ": 8088,
    "acific": 8089,
    "ĠSer": 8090,
    "Ġvulner": 8091,
    "Ġlooks": 8092,
    "ï¼Įä¸ĭ": 8093,
    "standing": 8094,
    "ĠMexico": 8095,
    "çº¹": 8096,
    "ä¸ĬåįĪ": 8097,
    "Ġfinally": 8098,
    "èµĸ": 8099,
    "Pl": 8100,
    "Ġmanner": 8101,
    "Ġmainly": 8102,
    "Ġbrother": 8103,
    "ç¾Ĭ": 8104,
    "ä¸»ä½ĵ": 8105,
    "board": 8106,
    "akers": 8107,
    "çī¹å¾ģ": 8108,
    "èĬ¯": 8109,
    "çļĦä¼ģä¸ļ": 8110,
    "å¸¸è§ģ": 8111,
    "å®ŀè¡Į": 8112,
    "äºķ": 8113,
    "MS": 8114,
    "Our": 8115,
    "é«ĺçº§": 8116,
    "Ġpip": 8117,
    "ä¸ĢåĪĩ": 8118,
    "Ġforced": 8119,
    "Ġconcepts": 8120,
    "çļĦåľ°æĸ¹": 8121,
    "Ġidentity": 8122,
    "DC": 8123,
    "è¶³çĲĥ": 8124,
    "ĠLife": 8125,
    "ĠOld": 8126,
    "ĠCourt": 8127,
    "183": 8128,
    "ework": 8129,
    "Ġcompleted": 8130,
    "çľŁçļĦ": 8131,
    "ĠThomas": 8132,
    "ĠMac": 8133,
    "ï¼ĮéļıçĿĢ": 8134,
    "æĹ¥åīį": 8135,
    "åĪĢ": 8136,
    "é¡ºåĪ©": 8137,
    "ĠRich": 8138,
    "Ġsecret": 8139,
    "nic": 8140,
    "Ġremained": 8141,
    "Ġdefinition": 8142,
    "Ġhop": 8143,
    "åıįæĺł": 8144,
    "comes": 8145,
    "ãĢĤå¯¹": 8146,
    "çģ°": 8147,
    "Ġconsult": 8148,
    "ĠJews": 8149,
    "è£ħç½®": 8150,
    "ï¼Įç¡®ä¿Ŀ": 8151,
    "åĲĽ": 8152,
    "Ġnotice": 8153,
    "Ġdoll": 8154,
    "åİ¦": 8155,
    "Ġsustainable": 8156,
    "çĲĨæĥ³": 8157,
    "aker": 8158,
    "OC": 8159,
    "æī¾åĪ°": 8160,
    "part": 8161,
    "è¹": 8162,
    "èĩªæ²»": 8163,
    "oper": 8164,
    "rence": 8165,
    "ĠDi": 8166,
    "åİĤå®¶": 8167,
    "æļĹ": 8168,
    "è®¨è®º": 8169,
    "ormal": 8170,
    "rus": 8171,
    "Ġdatab": 8172,
    "ĠWell": 8173,
    "å®Įæķ´": 8174,
    "Ġnit": 8175,
    "ndrome": 8176,
    "è§£åĨ³æĸ¹æ¡Ī": 8177,
    "ä¿Ħç½Ĺæĸ¯": 8178,
    "Ġhorm": 8179,
    "å¿ĥçļĦ": 8180,
    "ä¸Ģä½į": 8181,
    "Ġintended": 8182,
    "çľģçº§": 8183,
    "Ġfluid": 8184,
    "rows": 8185,
    "Ġdiagnosis": 8186,
    "Ġbegins": 8187,
    "æľīäºĨ": 8188,
    "ä¼¸": 8189,
    "ĠRem": 8190,
    "ĠIsl": 8191,
    "é¢ģ": 8192,
    "æĬķæłĩ": 8193,
    "Ġwonder": 8194,
    "ĠWhite": 8195,
    "ãĢģä¸į": 8196,
    "roid": 8197,
    "Ġtaught": 8198,
    "Ġengineering": 8199,
    "Ġsusp": 8200,
    "æĭĽæłĩ": 8201,
    "Ġformation": 8202,
    "TS": 8203,
    "ĠMedicine": 8204,
    "ht": 8205,
    "Ġelectrical": 8206,
    "ä¸ļç»©": 8207,
    "ç¡ķå£«": 8208,
    "æĬĢæľ¯çļĦ": 8209,
    "äººçĶŁ": 8210,
    "ç²®": 8211,
    "ï¼Įä¿ĥè¿Ľ": 8212,
    "å¯¹è±¡": 8213,
    "åĪ¶åĵģ": 8214,
    "çĤŃ": 8215,
    "roke": 8216,
    "Ġlov": 8217,
    "Ġfoss": 8218,
    "èı²": 8219,
    "Ġlanguages": 8220,
    "Ġpun": 8221,
    "ĠBritain": 8222,
    "ï¼Įä»Ĭå¹´": 8223,
    "Ġcenturies": 8224,
    "rier": 8225,
    "æ¦Ĥå¿µ": 8226,
    "åŃ¦çĶŁçļĦ": 8227,
    "åħįçĸ«": 8228,
    "which": 8229,
    "Ġprocedure": 8230,
    "Ġmath": 8231,
    "09": 8232,
    "Ġfort": 8233,
    "Ġallowing": 8234,
    "ï¼ĮĊ": 8235,
    "Ġplatform": 8236,
    "Ġimproved": 8237,
    "astern": 8238,
    "è´«åĽ°": 8239,
    "160": 8240,
    "Ġsettle": 8241,
    "æĶ¯æĴĳ": 8242,
    "Ġyellow": 8243,
    "ĠBer": 8244,
    "Ġrecorded": 8245,
    "Ġprofessor": 8246,
    "ĠDirect": 8247,
    "æĭ¼": 8248,
    "èģĶçĽŁ": 8249,
    "æİĴæĶ¾": 8250,
    "âĢĿä¸º": 8251,
    "åıĺå¾Ĺ": 8252,
    "èķ": 8253,
    "Ġmorning": 8254,
    "ĠArab": 8255,
    "Ġcoord": 8256,
    "èĥĮæĻ¯": 8257,
    "Ġtechnical": 8258,
    "Ġcomment": 8259,
    "Ġcombined": 8260,
    "æĹ¥èĩ³": 8261,
    "ossible": 8262,
    "Ġwet": 8263,
    "ĠVirgin": 8264,
    "å¦Ĥä¸ĭ": 8265,
    "Ġdefic": 8266,
    "Ġauthority": 8267,
    "ĠCentral": 8268,
    "Ġmaster": 8269,
    "èĩªæĪĳ": 8270,
    "aturally": 8271,
    "Ġawareness": 8272,
    "ishes": 8273,
    "æīĭæ®µ": 8274,
    "Ġstation": 8275,
    "Ã¡": 8276,
    "Ġkinds": 8277,
    "Ġcollected": 8278,
    "Ġsufficient": 8279,
    "æ¯ķä¸ļçĶŁ": 8280,
    "atric": 8281,
    "Ġindicate": 8282,
    "ĠNews": 8283,
    "åı¯èĥ½ä¼ļ": 8284,
    "67": 8285,
    "HO": 8286,
    "Ġdro": 8287,
    "ï¼Įçİ°åľ¨": 8288,
    "Ġreduction": 8289,
    "Ġhospital": 8290,
    "ç¥ŀç»ı": 8291,
    "æľºçļĦ": 8292,
    "Ġban": 8293,
    "ĠHel": 8294,
    "Ġoffered": 8295,
    "èĻ«": 8296,
    "'ll": 8297,
    "Ġstorm": 8298,
    "èĤ¡ç¥¨": 8299,
    "Ġtoxic": 8300,
    "Ġshared": 8301,
    "omin": 8302,
    "Ġhit": 8303,
    "åįļçī©": 8304,
    "zing": 8305,
    "éĤ¦": 8306,
    "ĠNASA": 8307,
    "Ġgirls": 8308,
    "Ġfrequency": 8309,
    "æĭįæĳĦ": 8310,
    "è§Ĥå¯Ł": 8311,
    "æįĲ": 8312,
    "åĩĨç¡®": 8313,
    "Ġpurposes": 8314,
    "ä¸ºä»Ģä¹Ī": 8315,
    "Ġmotor": 8316,
    "çĶ³æĬ¥": 8317,
    "æĶ¯åĩº": 8318,
    "ä¸Ĭæ¶¨": 8319,
    "59": 8320,
    "å½±çīĩ": 8321,
    "å§Ķä¼ļ": 8322,
    "PC": 8323,
    "å°º": 8324,
    "enced": 8325,
    "ĠEvery": 8326,
    "çī©çĲĨ": 8327,
    "æĭľ": 8328,
    "crib": 8329,
    "oo": 8330,
    "Ġmotiv": 8331,
    "äºĮåįģ": 8332,
    "ounced": 8333,
    "çĽ¸åĲĮ": 8334,
    "ä»ĵ": 8335,
    "Ġfib": 8336,
    "ĠAtl": 8337,
    "uable": 8338,
    "çļĦå¿ĥ": 8339,
    "ä¸ĢçĤ¹": 8340,
    "Ġfacts": 8341,
    "Ġtrial": 8342,
    "ĠSpace": 8343,
    "Ġpractical": 8344,
    "æ¹ĸåĮĹ": 8345,
    "Ġlesson": 8346,
    "Ġhearing": 8347,
    "åħ´è¶£": 8348,
    "clusion": 8349,
    "ĠSal": 8350,
    "åĪĽå»º": 8351,
    "Ġnav": 8352,
    "ĠMedical": 8353,
    "Ġoccurred": 8354,
    "ĠKore": 8355,
    "Ġther": 8356,
    "Ġgrade": 8357,
    "Ġraised": 8358,
    "ä¸īå¹´": 8359,
    "espite": 8360,
    "å®ļçļĦ": 8361,
    "ache": 8362,
    "çĵ¶": 8363,
    "Ġparticles": 8364,
    "çĺ¤": 8365,
    "æłĩå¿Ĺ": 8366,
    "æĹħè¡Į": 8367,
    "ĠBay": 8368,
    "åĨ³èµĽ": 8369,
    "ĠFre": 8370,
    "osen": 8371,
    "olars": 8372,
    "Ġleader": 8373,
    "Ġflex": 8374,
    "-re": 8375,
    "Ġvoice": 8376,
    "åħ±äº«": 8377,
    "Ġfocused": 8378,
    "osite": 8379,
    "oking": 8380,
    "Ġlinks": 8381,
    "Ġecosystem": 8382,
    "è´¯å½»": 8383,
    "Ġbond": 8384,
    "From": 8385,
    "Ġdrinking": 8386,
    "ado": 8387,
    "ĠMiss": 8388,
    "ĠJer": 8389,
    "ĠBible": 8390,
    "Ġhttps": 8391,
    "Ġconver": 8392,
    "Ġarmy": 8393,
    "ĠTechnology": 8394,
    "è£ħé¥°": 8395,
    "èĻİ": 8396,
    "-sp": 8397,
    "Ġprimarily": 8398,
    "rapy": 8399,
    "æ¸łéģĵ": 8400,
    "å°¿": 8401,
    "æĪĲçĨŁ": 8402,
    "itors": 8403,
    "Ġbrief": 8404,
    "Ġresist": 8405,
    "èģĶèµĽ": 8406,
    "åĢ¾": 8407,
    "going": 8408,
    "ÃŃ": 8409,
    "æĻ¨": 8410,
    "æ¬²": 8411,
    "æ©¡": 8412,
    "Ġlargely": 8413,
    "è¿«": 8414,
    "åį±éĻ©": 8415,
    "ãĢĭãĢĬ": 8416,
    "Ġsituations": 8417,
    "åĪ©äºİ": 8418,
    "Ġrenew": 8419,
    "Ġappoint": 8420,
    "verty": 8421,
    "Ab": 8422,
    "Ġexistence": 8423,
    "ï¼Įæ¯Ķå¦Ĥ": 8424,
    "è²": 8425,
    "\"Ċ": 8426,
    "No": 8427,
    "Ġextent": 8428,
    "Ġmuscles": 8429,
    "lig": 8430,
    "ball": 8431,
    "Ġsurpris": 8432,
    "Ġthoughts": 8433,
    "èĤºçĤİ": 8434,
    "å¦»": 8435,
    "å°ĸ": 8436,
    "ä¼Ļä¼´": 8437,
    "Ġsamples": 8438,
    "Ġpoverty": 8439,
    "Ġåľ¨": 8440,
    "èĢĥæł¸": 8441,
    "æĻĭ": 8442,
    "çļĦä¸Ģç§į": 8443,
    "æ¼ı": 8444,
    "ä¸Ļ": 8445,
    "éĺ²æŃ¢": 8446,
    "åĽŃåĮº": 8447,
    "ensus": 8448,
    "Ġgar": 8449,
    "iated": 8450,
    "æĦıåĳ³": 8451,
    "å¯¸": 8452,
    "Ġcontribute": 8453,
    "Ġblog": 8454,
    "ĠEnergy": 8455,
    "ä»£çĲĨ": 8456,
    "ç¾İä¸½": 8457,
    "BA": 8458,
    "Ġuns": 8459,
    "ĠTexas": 8460,
    "Ġdespite": 8461,
    "Ġcertainly": 8462,
    "éĶĪ": 8463,
    "Ġsnow": 8464,
    "ï¼Įè¿Ļä¸ª": 8465,
    "æĸ°åĨł": 8466,
    "Ġliquid": 8467,
    "Ġideal": 8468,
    "oviet": 8469,
    "ĠBen": 8470,
    "ç§¦": 8471,
    "Ġresponsibility": 8472,
    "Most": 8473,
    "Ġbill": 8474,
    "otic": 8475,
    "èĽĭçĻ½": 8476,
    "è§Ĵèī²": 8477,
    "Ġflowers": 8478,
    "Ġconsequences": 8479,
    "æĦŁåıĹ": 8480,
    "ague": 8481,
    "Ġefficiency": 8482,
    "hips": 8483,
    "Ġtro": 8484,
    "Ġgrand": 8485,
    "ĠCommission": 8486,
    "zy": 8487,
    "Ġtreatments": 8488,
    "é¢Ħç®Ĺ": 8489,
    "åĽ½åĨħå¤ĸ": 8490,
    "Ġhighlight": 8491,
    "Ġstraight": 8492,
    "å¾Īå¤§": 8493,
    "ä»¿": 8494,
    "BS": 8495,
    "Ġrural": 8496,
    "rich": 8497,
    "'ve": 8498,
    "Ġagricultural": 8499,
    "è§Ĵåº¦": 8500,
    "æķĪçĽĬ": 8501,
    "Ġpersons": 8502,
    "Ġpark": 8503,
    "åħ±åĴĮåĽ½": 8504,
    "ĠLou": 8505,
    "Ġspecifically": 8506,
    "Ġpurs": 8507,
    "èĦı": 8508,
    "æľ¬èº«": 8509,
    "Ġperman": 8510,
    "ĠArmy": 8511,
    "ä¾ĿçĦ¶": 8512,
    "ä¼ļåĳĺ": 8513,
    "Ġexplains": 8514,
    "æĦŁåĪ°": 8515,
    "ç«¹": 8516,
    "ample": 8517,
    "Ġfelt": 8518,
    "ĠQue": 8519,
    "ä½ıæĪ¿": 8520,
    "tion": 8521,
    "Ġmix": 8522,
    "Ġjobs": 8523,
    "Ġcert": 8524,
    "çłĶç©¶éĻ¢": 8525,
    "inn": 8526,
    "unk": 8527,
    "Ġexplan": 8528,
    "Ġbud": 8529,
    "ĠMr": 8530,
    "ixt": 8531,
    "ãĢĤæľ¬": 8532,
    "æ°Ľ": 8533,
    "ulating": 8534,
    "Ġbright": 8535,
    "Ġpolice": 8536,
    "ĠRussian": 8537,
    "åģ¶": 8538,
    "acters": 8539,
    "ĠWind": 8540,
    "ç¦»åŃĲ": 8541,
    "ï¼ĮæŃ¤": 8542,
    "æĺ¯ä»Ģä¹Ī": 8543,
    "æĩĤ": 8544,
    "Ġexcellent": 8545,
    "çļĦæľįåĬ¡": 8546,
    "Ġwife": 8547,
    "ï¼ĮåĽ½å®¶": 8548,
    "æģĲ": 8549,
    "å»ī": 8550,
    "52": 8551,
    "Ġshowing": 8552,
    "ï¼Įä¸Ģä¸ª": 8553,
    "æĥħç»ª": 8554,
    "ĠDist": 8555,
    "å·¥èµĦ": 8556,
    "olute": 8557,
    "Ġshar": 8558,
    "Ġsector": 8559,
    "æ¬£": 8560,
    "Ġrevolution": 8561,
    "âĢĻm": 8562,
    "51": 8563,
    "åľ¨ä¸ŃåĽ½": 8564,
    "åĪºæ¿Ģ": 8565,
    "Ġemergency": 8566,
    "Ġcognitive": 8567,
    "è¿Ļä¹Ī": 8568,
    "è¡¨æ¼Ķ": 8569,
    "Ġimpacts": 8570,
    "Ġheight": 8571,
    "eters": 8572,
    "anges": 8573,
    "ĠÃ": 8574,
    "åĩłä¸ª": 8575,
    "å·¡": 8576,
    "çļĦå¥½": 8577,
    "ç»´ä¿®": 8578,
    "ĠHol": 8579,
    "ãĤ": 8580,
    "rolog": 8581,
    "Ġadvance": 8582,
    "ĠLatin": 8583,
    "ĠClass": 8584,
    "Ġkn": 8585,
    "æľīäºĽ": 8586,
    "ãĢĤçĶ±äºİ": 8587,
    "Ġsubjects": 8588,
    "Ġprotected": 8589,
    "Ġadvice": 8590,
    "utive": 8591,
    "Ġsin": 8592,
    "Ġcareer": 8593,
    "othing": 8594,
    "Ġplaying": 8595,
    "Ġsalt": 8596,
    "ãĢĤåħ¶": 8597,
    "éĻ·": 8598,
    "èµģ": 8599,
    "Ġotherwise": 8600,
    "Ġtrain": 8601,
    "ĠSecond": 8602,
    "çĲ´": 8603,
    "å¥ı": 8604,
    "ç§Łèµģ": 8605,
    "æĳĨ": 8606,
    "Ġfaster": 8607,
    "Ġquar": 8608,
    "Ġkm": 8609,
    "Ġneighbor": 8610,
    "Ġbiological": 8611,
    "Ġsuggested": 8612,
    "Ġrefers": 8613,
    "Ġbird": 8614,
    "Ġabuse": 8615,
    "èĩ´åĬĽäºİ": 8616,
    "æĽ´å¥½": 8617,
    "çº¿ä¸Ĭ": 8618,
    "æŁĶ": 8619,
    "oughly": 8620,
    "Ġlooked": 8621,
    "ï¼ĮéľĢè¦ģ": 8622,
    "IM": 8623,
    "Ġsend": 8624,
    "åīįçļĦ": 8625,
    "å®īå¾½": 8626,
    "ses": 8627,
    "Ġvital": 8628,
    "éŁ©åĽ½": 8629,
    "ested": 8630,
    "å¤ļå°ĳ": 8631,
    "éļ¾ä»¥": 8632,
    "åįĵ": 8633,
    "ING": 8634,
    "Ġmere": 8635,
    "Ġletters": 8636,
    "Ġfundamental": 8637,
    "ï¼ĮåĲĳ": 8638,
    "è¿Ī": 8639,
    "æ¡ĥ": 8640,
    "Ġreturned": 8641,
    "Ġnations": 8642,
    "ä½İäºİ": 8643,
    "pen": 8644,
    "Ġdetailed": 8645,
    "æĮĩæķ°": 8646,
    "inent": 8647,
    "Ġvaccine": 8648,
    "Ġgovernments": 8649,
    "äº§æĿĥ": 8650,
    "110": 8651,
    "å¿«ä¹Ĳ": 8652,
    "asure": 8653,
    "å½ĵæĹ¶": 8654,
    "åħ¨ä½ĵ": 8655,
    "ï¼Įç»Ļ": 8656,
    "ĠAD": 8657,
    "æĸ°æĬĢæľ¯": 8658,
    "ä¿¡çĶ¨": 8659,
    "è¾ĸ": 8660,
    "Ġliver": 8661,
    "ĠFurther": 8662,
    "Ġsounds": 8663,
    "èĤĿ": 8664,
    "van": 8665,
    "Ġflat": 8666,
    "Ġstars": 8667,
    "åĵģç§į": 8668,
    "Ġgreatest": 8669,
    "æŃ»äº¡": 8670,
    "æ°Ķä½ĵ": 8671,
    "Ġhabitat": 8672,
    "äºĭé¡¹": 8673,
    "èĢ¶": 8674,
    "æľĢè¿ĳ": 8675,
    "ä¸ĵé¡¹": 8676,
    "ç®¡éģĵ": 8677,
    "Ġincreasingly": 8678,
    "æĿľ": 8679,
    "æ¡Īä»¶": 8680,
    "Ġvast": 8681,
    "Ġstone": 8682,
    "Ġclaims": 8683,
    "Ġdomestic": 8684,
    "é¢ĨåŁŁçļĦ": 8685,
    "Ġstem": 8686,
    "è²Į": 8687,
    "æł¹æľ¬": 8688,
    "æ§": 8689,
    "Ġnutrients": 8690,
    "ĠFoundation": 8691,
    "Ġtasks": 8692,
    "æĢ»ç»ıçĲĨ": 8693,
    "ville": 8694,
    "igenous": 8695,
    "è§£éĩĬ": 8696,
    "åĪĨå¸ĥ": 8697,
    "åħ¬å®ī": 8698,
    "Ġsurrounding": 8699,
    "700": 8700,
    "çļĦä½ľçĶ¨": 8701,
    "åŁĥ": 8702,
    "ĠSou": 8703,
    "æ²³åĮĹ": 8704,
    "Ġsche": 8705,
    "Ġroll": 8706,
    "Ġmort": 8707,
    "æĬ¤çĲĨ": 8708,
    "Ġkeeping": 8709,
    "what": 8710,
    "Ġrand": 8711,
    "ĠDise": 8712,
    "ç¾İçļĦ": 8713,
    "Ġspend": 8714,
    "Ġoperating": 8715,
    "Ġonto": 8716,
    "ĠÎ": 8717,
    "oral": 8718,
    "ï¼Įä½ľä¸º": 8719,
    "åıĤèĢĥ": 8720,
    "CS": 8721,
    "Ġwel": 8722,
    "å·¥åİĤ": 8723,
    "enses": 8724,
    "Ġnerv": 8725,
    "DF": 8726,
    "æŁ±": 8727,
    "Ġmaximum": 8728,
    "ĠMass": 8729,
    "ĠCle": 8730,
    "06": 8731,
    "éĤĢè¯·": 8732,
    "Ġhappened": 8733,
    "Ġdivided": 8734,
    "Ġfirm": 8735,
    "Ġtypical": 8736,
    "åĲ«æľī": 8737,
    "stood": 8738,
    "Ġimmig": 8739,
    "iced": 8740,
    "ĠElect": 8741,
    "resents": 8742,
    "ml": 8743,
    "Ġplayed": 8744,
    "Ġmeasured": 8745,
    "Ġpros": 8746,
    "æķ´åĲĪ": 8747,
    "Ġhundreds": 8748,
    "Ġfamiliar": 8749,
    "åľºæīĢ": 8750,
    "Ġperspective": 8751,
    "Ġmetab": 8752,
    "ĠBook": 8753,
    "ails": 8754,
    "éĥ¨ç½²": 8755,
    "Ġproport": 8756,
    "å±ķå¼Ģ": 8757,
    "Ġapparent": 8758,
    "Ġpotentially": 8759,
    "Ġmonitoring": 8760,
    "/s": 8761,
    "Ġslightly": 8762,
    "Ġaffects": 8763,
    "ĠInformation": 8764,
    "ãĢģæľī": 8765,
    "-H": 8766,
    "Ġpul": 8767,
    "ĠImp": 8768,
    "è°±": 8769,
    "å¿Ļ": 8770,
    "osa": 8771,
    "é¸Ł": 8772,
    "Ġsyn": 8773,
    "Ġapproaches": 8774,
    "èĴ¸": 8775,
    "ç»ıåħ¸": 8776,
    "Ġrandom": 8777,
    "å®¤åĨħ": 8778,
    "äºļæ´²": 8779,
    "Ġhyper": 8780,
    "è¯¦ç»Ĩ": 8781,
    "è®¸åı¯": 8782,
    "æĬĳ": 8783,
    "ION": 8784,
    "53": 8785,
    "Ġinterests": 8786,
    "ometimes": 8787,
    "åĲĦä¸ª": 8788,
    "åĩºçĶŁ": 8789,
    "Ġlik": 8790,
    "å²ģçļĦ": 8791,
    "active": 8792,
    "äººçī©": 8793,
    "èĤĮ": 8794,
    "rastructure": 8795,
    "Ġrecognized": 8796,
    "Ġcontrolled": 8797,
    "Ġaren": 8798,
    "ï¼Įä¸ī": 8799,
    "æķ°æį®æĺ¾ç¤º": 8800,
    "éĿ¢åĲĳ": 8801,
    "ĠToday": 8802,
    "Ġsen": 8803,
    "ĠMont": 8804,
    "ĠTwo": 8805,
    "èĶ¬": 8806,
    "èĥİ": 8807,
    "eck": 8808,
    "Ġinstrument": 8809,
    "Ġfif": 8810,
    "-P": 8811,
    "BN": 8812,
    "çļĦçĥŃ": 8813,
    "Ġprison": 8814,
    "è°Ĳ": 8815,
    "Ġcomponent": 8816,
    "åĬĽåº¦": 8817,
    "Ġvalid": 8818,
    "Ġspl": 8819,
    "Ġvent": 8820,
    "Ġhelpful": 8821,
    "-F": 8822,
    "Ġneut": 8823,
    "Ġexplained": 8824,
    "çĻ¾åĪĨçĤ¹": 8825,
    "å£°æĺİ": 8826,
    "Ġdepth": 8827,
    "ï¿": 8828,
    "Ġmoist": 8829,
    "ĠPacific": 8830,
    "ĠMil": 8831,
    "Ġfollows": 8832,
    "Ġsatis": 8833,
    "éĶ¦": 8834,
    "Ġminimum": 8835,
    "Ġtrad": 8836,
    "Ġcharacters": 8837,
    "Ġastron": 8838,
    "åį±å®³": 8839,
    "éĥ½åľ¨": 8840,
    "ipped": 8841,
    "Ġconsists": 8842,
    "itage": 8843,
    "Te": 8844,
    "ãĢĤä¸º": 8845,
    "ĠSoviet": 8846,
    "Ġvehicle": 8847,
    "Ġofficials": 8848,
    "nel": 8849,
    "field": 8850,
    "Ġappeared": 8851,
    "Ġthin": 8852,
    "ĠCatholic": 8853,
    "çĶŁæ´»ä¸Ń": 8854,
    "Ġreform": 8855,
    "Ġknew": 8856,
    "Ġdisapp": 8857,
    "Ġcrisis": 8858,
    "ç§Ĵ": 8859,
    "ĠGoogle": 8860,
    "âĢĿçŃī": 8861,
    "Ġstudied": 8862,
    "Ġspiritual": 8863,
    "Ġcrops": 8864,
    "Ġages": 8865,
    "èŀº": 8866,
    "Ġexternal": 8867,
    "æĺĨ": 8868,
    "97": 8869,
    "Ġdouble": 8870,
    "that": 8871,
    "cest": 8872,
    "Ġpray": 8873,
    "Ġlose": 8874,
    "ĠEconom": 8875,
    "å¤§å¹ħ": 8876,
    "Ġbow": 8877,
    "çĽ¸äºĴ": 8878,
    "åįļçī©é¦Ĩ": 8879,
    "iled": 8880,
    "éĽĨä½ĵ": 8881,
    "åĮħåĲ«": 8882,
    "eria": 8883,
    "Ġchann": 8884,
    "Ġattacks": 8885,
    "è®©äºº": 8886,
    "çĻ½çĻľé£İçļĦ": 8887,
    "ĠDel": 8888,
    "åºĶæĢ¥": 8889,
    "900": 8890,
    "ä¸ĵä¸ļçļĦ": 8891,
    "li": 8892,
    "Ġdirector": 8893,
    "çī¢": 8894,
    "å½ķåıĸ": 8895,
    "ĠDef": 8896,
    "ND": 8897,
    "ĠBoth": 8898,
    "ä»Ļ": 8899,
    "atever": 8900,
    "101": 8901,
    "Ġkil": 8902,
    "Ġfacilities": 8903,
    "ĠStand": 8904,
    "Ġfiles": 8905,
    "åĨľæ°ĳ": 8906,
    "ĠTreat": 8907,
    "aks": 8908,
    "uke": 8909,
    "Ġtopics": 8910,
    "Ġoral": 8911,
    "Ġprices": 8912,
    "Ġaccurate": 8913,
    "ĠSte": 8914,
    "ĠRights": 8915,
    "ĠFlor": 8916,
    "Ġinstruction": 8917,
    "Ġsubstant": 8918,
    "Ġfle": 8919,
    "Ġcontinuous": 8920,
    "Ġgoods": 8921,
    "çīĪæĿĥ": 8922,
    "éģĩåĪ°": 8923,
    "åľ¨äºİ": 8924,
    "åıĳçĹħ": 8925,
    "Ġsubstance": 8926,
    "itness": 8927,
    "Ġtitle": 8928,
    "Ġclim": 8929,
    "ĠJose": 8930,
    "ĠGroup": 8931,
    "Ġsed": 8932,
    "Ġå¹´": 8933,
    "æĺ¯çĶ±": 8934,
    "ï¼Įå¾Ī": 8935,
    "ellect": 8936,
    "Ġportion": 8937,
    "Ġdepends": 8938,
    "07": 8939,
    "ç³»ç»ŁçļĦ": 8940,
    "iest": 8941,
    "GB": 8942,
    "Ġcouple": 8943,
    "çĶŁéķ¿": 8944,
    "æ¸ħæ´ģ": 8945,
    "Ġrepresents": 8946,
    "åıªèĥ½": 8947,
    "54": 8948,
    "-R": 8949,
    "ĠMiddle": 8950,
    "ĠRussia": 8951,
    "ĠLearning": 8952,
    "Ġpaint": 8953,
    "Ġinvestment": 8954,
    "Ġcontaining": 8955,
    "æ£ĭ": 8956,
    "ä¸ªçĻ¾åĪĨçĤ¹": 8957,
    "Ġchief": 8958,
    "ava": 8959,
    "Ġwestern": 8960,
    "ĠMicro": 8961,
    "isp": 8962,
    "ĠLake": 8963,
    "Ġrapidly": 8964,
    "Ġperiods": 8965,
    "ï¼Įå¾Īå¤ļ": 8966,
    "æ¶Īéĺ²": 8967,
    "å·¥ä½ľäººåĳĺ": 8968,
    "æĢ»ä½ĵ": 8969,
    "å¹¿åľº": 8970,
    "å¿ł": 8971,
    "Ġallerg": 8972,
    "CT": 8973,
    "åĽ½å¤ĸ": 8974,
    "ificial": 8975,
    "hi": 8976,
    "ĠSmith": 8977,
    "Ġtried": 8978,
    "Ġimmun": 8979,
    "Ġrecy": 8980,
    "ĠRef": 8981,
    "èĩ³å°ĳ": 8982,
    "Ġconvent": 8983,
    "èĤł": 8984,
    "ompl": 8985,
    "Ġwalls": 8986,
    "éĥģ": 8987,
    "æħĪ": 8988,
    "alse": 8989,
    "æ¼Ķåĳĺ": 8990,
    "Ġhaz": 8991,
    "More": 8992,
    "æŀĦæĪĲ": 8993,
    "Ġclosely": 8994,
    "æīĭæľ¯": 8995,
    "chers": 8996,
    "ĠWomen": 8997,
    "ãĢģçĶµ": 8998,
    "olf": 8999,
    "umber": 9000,
    "Ġfing": 9001,
    "æĦıåĳ³çĿĢ": 9002,
    "å®ļä½į": 9003,
    "Ġstated": 9004,
    "Ġcrucial": 9005,
    "åŁºç¡Ģè®¾æĸ½": 9006,
    "63": 9007,
    "æī¶è´«": 9008,
    "åĽ¾ä¹¦": 9009,
    "Ġnaturally": 9010,
    "Ġtested": 9011,
    "Ġdiscovery": 9012,
    "Ġconcerned": 9013,
    "Ġvisible": 9014,
    "ï¼Įå¼Ģ": 9015,
    "å¢ŀéĢŁ": 9016,
    "æĿ¥åĪ°": 9017,
    "æķĻèĤ²éĥ¨": 9018,
    "Ġemployees": 9019,
    "è®¤å®ļ": 9020,
    "ye": 9021,
    "Ġsuffering": 9022,
    "æµģç¨ĭ": 9023,
    "å®¡æŁ¥": 9024,
    "My": 9025,
    "-se": 9026,
    "Ġcircumst": 9027,
    "ä¼ļåľ¨": 9028,
    "èµ¶": 9029,
    "æĢĿèĢĥ": 9030,
    "racy": 9031,
    "Ġconcentration": 9032,
    "ĠNor": 9033,
    "Ġcontem": 9034,
    "ç¬¬äºĶ": 9035,
    "Ġfeelings": 9036,
    "ĠOut": 9037,
    "åģļåĩº": 9038,
    "Ġselected": 9039,
    "äºĭæĥħ": 9040,
    "å½¼": 9041,
    "ĠFederal": 9042,
    "osc": 9043,
    "band": 9044,
    "åĬłå¤§": 9045,
    "RI": 9046,
    "Gen": 9047,
    "ĠWild": 9048,
    "æľŁå¾ħ": 9049,
    "ä¹ĥ": 9050,
    "æºª": 9051,
    "Ġarms": 9052,
    "ĠLibrary": 9053,
    "Ġrein": 9054,
    "æĢģåº¦": 9055,
    "king": 9056,
    "áĥ": 9057,
    "Ġresidents": 9058,
    "Ġnarrow": 9059,
    "Ġmoral": 9060,
    "ĠCarol": 9061,
    "ĠAp": 9062,
    "æĪĲå°±": 9063,
    "æ£ĢéªĮ": 9064,
    "ä¸ĵéĹ¨": 9065,
    "Ġelev": 9066,
    "ĠLand": 9067,
    "ĠHistor": 9068,
    "çĶŁç´ł": 9069,
    "åĪĨç±»": 9070,
    ")ãĢģ": 9071,
    "ĠCharles": 9072,
    "Ġtips": 9073,
    "Ġmedications": 9074,
    "éĢĨ": 9075,
    "Ġsubsequ": 9076,
    "Ġmovements": 9077,
    "å®ĥçļĦ": 9078,
    "Ġoutcomes": 9079,
    "æŃ£æĺ¯": 9080,
    "umin": 9081,
    "å¼ķåıĳ": 9082,
    "è°ĭ": 9083,
    "ä½ľä¸ļ": 9084,
    "Ġpaid": 9085,
    "Ġdeliver": 9086,
    "Ġcurriculum": 9087,
    "Ġalt": 9088,
    "èī²çļĦ": 9089,
    "roc": 9090,
    "å¼ķè¿Ľ": 9091,
    "çĶľ": 9092,
    "ĠFranc": 9093,
    "åı¯éĿł": 9094,
    "åĩłå¹´": 9095,
    "west": 9096,
    "Ġfloor": 9097,
    "ï¼ĮæĪĸèĢħ": 9098,
    "éĻķè¥¿": 9099,
    "Ġsmart": 9100,
    "æİĺ": 9101,
    "æī°": 9102,
    "istan": 9103,
    "rating": 9104,
    "name": 9105,
    "éĽ¶åĶ®": 9106,
    "ä¸»åĬŀ": 9107,
    "ĠUp": 9108,
    "ĠPost": 9109,
    "ĠControl": 9110,
    "æī«": 9111,
    "å¸Ĥæ°ĳ": 9112,
    "ĠSupp": 9113,
    "å¸¦åĬ¨": 9114,
    "Ġgrown": 9115,
    "åĪ«äºº": 9116,
    "Ġharvest": 9117,
    "Ġproteins": 9118,
    "Ġdiscussed": 9119,
    "ãĢĤæł¹æį®": 9120,
    "icks": 9121,
    "ç§įæ¤į": 9122,
    "åįİä¸º": 9123,
    "Dr": 9124,
    "celer": 9125,
    "ï¼Įå¤§å®¶": 9126,
    "æŀĦå»º": 9127,
    "Ġdocuments": 9128,
    "ï¼Įçľĭ": 9129,
    "Ġrail": 9130,
    "è®ºåĿĽ": 9131,
    "Ġviews": 9132,
    "æĦŁè°¢": 9133,
    "Ġleaving": 9134,
    "åŃĺåĤ¨": 9135,
    "åİŁæĸĻ": 9136,
    "ä¸ĬåįĬå¹´": 9137,
    "é¡¹çĽ®çļĦ": 9138,
    "ĠData": 9139,
    "åĩī": 9140,
    "ĠJud": 9141,
    "ï¼Įä¸ºäºĨ": 9142,
    "la": 9143,
    "alian": 9144,
    "åŃĲçļĦ": 9145,
    "æĸ°èĥ½æºĲ": 9146,
    "âĢĿåĴĮ": 9147,
    "lers": 9148,
    "åĲ«éĩı": 9149,
    "æĮĸ": 9150,
    "è¥¿å®ī": 9151,
    "inding": 9152,
    "Ġjustice": 9153,
    "Ġdistingu": 9154,
    "ï¼Įè¿Ľä¸ĢæŃ¥": 9155,
    "å°Ĩäºİ": 9156,
    "Ġfunding": 9157,
    "ĠNature": 9158,
    "é«ĺç«¯": 9159,
    "èī¾": 9160,
    "æİĪæĿĥ": 9161,
    "ĠHenry": 9162,
    "Another": 9163,
    "èĳ£äºĭéķ¿": 9164,
    "Ġroots": 9165,
    "ĠFam": 9166,
    "Ġmedium": 9167,
    "ĠEmp": 9168,
    "ï¿½": 9169,
    "åĵ²": 9170,
    "ascular": 9171,
    "Ġargument": 9172,
    "ä¹¡æĿĳ": 9173,
    "Ġod": 9174,
    "éŃĶ": 9175,
    "Ġsides": 9176,
    "ĠConstitution": 9177,
    "å±ķçİ°": 9178,
    "Ġdiscrim": 9179,
    "gment": 9180,
    "ĠPsych": 9181,
    "ç¦»å¼Ģ": 9182,
    "Ġcardi": 9183,
    "Ġju": 9184,
    "Ġdiam": 9185,
    "æĺ¾èĳĹ": 9186,
    "Ġaccompl": 9187,
    "ĠUsing": 9188,
    "140": 9189,
    "Ġparties": 9190,
    "çłĶç©¶æīĢ": 9191,
    "Ġphone": 9192,
    "ĠRobert": 9193,
    "Ind": 9194,
    "æĪĲåĪĨ": 9195,
    "Ġinterview": 9196,
    "ä¿¡å¿ĥ": 9197,
    "çī©èģĶç½ĳ": 9198,
    "åĪĽæĦı": 9199,
    "å¤§èµĽ": 9200,
    "è¯ļä¿¡": 9201,
    "åīĳ": 9202,
    "rust": 9203,
    "æĺ¯æĮĩ": 9204,
    "ĠAnother": 9205,
    "é»İ": 9206,
    "çļĦä¸į": 9207,
    "Do": 9208,
    "Ġprocedures": 9209,
    "åĲ¸æĶ¶": 9210,
    "Ġadding": 9211,
    "ulin": 9212,
    "Ġstret": 9213,
    "ĠWil": 9214,
    "Ġsets": 9215,
    "Ġadvoc": 9216,
    "gal": 9217,
    "å¦Ļ": 9218,
    "äº§éĩı": 9219,
    "obe": 9220,
    "æ·±åº¦": 9221,
    "ï¼Įå¯¼èĩ´": 9222,
    "Ġmarine": 9223,
    "èĢģå¹´": 9224,
    "ï¼Įæīį": 9225,
    "æıĴ": 9226,
    "ĠColumb": 9227,
    "âĳ": 9228,
    "Ġweap": 9229,
    "ĠInstead": 9230,
    "åł¡": 9231,
    "æ³¨éĩį": 9232,
    "abil": 9233,
    "Ġdiversity": 9234,
    "ĠEnvironmental": 9235,
    "Ġpictures": 9236,
    "Ġobtained": 9237,
    "ĠSea": 9238,
    "ĠMem": 9239,
    "Ġlatest": 9240,
    "è®¤åı¯": 9241,
    "è¡¥åħħ": 9242,
    "130": 9243,
    "Ġfertil": 9244,
    "çī§": 9245,
    "ä¸ĢåĲį": 9246,
    "æĬ±": 9247,
    "Ġhunt": 9248,
    "æµ·æ´ĭ": 9249,
    "gl": 9250,
    "Ġfruits": 9251,
    "æĳĦå½±": 9252,
    "Ġdu": 9253,
    "ĠSuch": 9254,
    "dden": 9255,
    "Ġhorse": 9256,
    "ãĢģæĹł": 9257,
    "åŁºå±Ĥ": 9258,
    "ny": 9259,
    "Ġrecovery": 9260,
    "Ġmillions": 9261,
    "æĽ´æĸ°": 9262,
    "èĸª": 9263,
    "Ġinternet": 9264,
    "å¹´åºķ": 9265,
    "ĠMake": 9266,
    "æ»¡æĦı": 9267,
    "osm": 9268,
    "Ġtalking": 9269,
    "Ġpil": 9270,
    "ĠDisc": 9271,
    "æĸĩåŃĹ": 9272,
    "ooth": 9273,
    "72": 9274,
    "å°ıåŃ¦": 9275,
    "ini": 9276,
    "eer": 9277,
    "Ġvaluable": 9278,
    "During": 9279,
    "ç¡ħ": 9280,
    "ĠLike": 9281,
    "Ġlaun": 9282,
    "Ġexpensive": 9283,
    "Ġdial": 9284,
    "æľīäºº": 9285,
    "ï¼Įè¿Ļç§į": 9286,
    "æ¢¯": 9287,
    "Ġrecognize": 9288,
    "çĸĨ": 9289,
    "ario": 9290,
    "Ġingred": 9291,
    "Ġcolors": 9292,
    "èį¯åĵģ": 9293,
    "Ġconscious": 9294,
    "ï¼ĮåĴĮ": 9295,
    "åĬ²": 9296,
    "Ġexchange": 9297,
    "lar": 9298,
    "anguage": 9299,
    "03": 9300,
    "Ġregularly": 9301,
    "96": 9302,
    "Ġparam": 9303,
    "Ġband": 9304,
    "æĭĵå±ķ": 9305,
    "comp": 9306,
    "ç¢İ": 9307,
    "ota": 9308,
    "bing": 9309,
    "ada": 9310,
    "Ġdepos": 9311,
    "åĴĮç¤¾ä¼ļ": 9312,
    "Other": 9313,
    "Ġcorpor": 9314,
    "181": 9315,
    "Ġpig": 9316,
    "æĢ»ç»ĵ": 9317,
    "æıĲåīį": 9318,
    "acebook": 9319,
    "Ġvillage": 9320,
    "ĠPers": 9321,
    "Ġaccomp": 9322,
    "ï¼Įäºº": 9323,
    "è¡ĮçļĦ": 9324,
    "æ°¢": 9325,
    "Ġcapable": 9326,
    "æĸ°å¢ŀ": 9327,
    "Ġoriginally": 9328,
    "åĽŀæĶ¶": 9329,
    "åħ¨çľģ": 9330,
    "ä»ªå¼ı": 9331,
    "athy": 9332,
    "Ġdeaths": 9333,
    "ĠKen": 9334,
    "å¤©çļĦ": 9335,
    "Ġlessons": 9336,
    "Ġprevention": 9337,
    "å¿½": 9338,
    "Ġtouch": 9339,
    "ï¼ĮåĬłå¼º": 9340,
    "ocratic": 9341,
    "Ġmyth": 9342,
    "åĳ¨è¾¹": 9343,
    "Ġregional": 9344,
    "åĽºå®ļ": 9345,
    "è¡¨æĺİ": 9346,
    "uses": 9347,
    "aria": 9348,
    "Ġopinion": 9349,
    "Ġimpossible": 9350,
    "ä¼¼ä¹İ": 9351,
    "çİĽ": 9352,
    "ĠNav": 9353,
    "ï¼Įæİ¨åĬ¨": 9354,
    "Ġprinciple": 9355,
    "ĠTor": 9356,
    "çĩ¥": 9357,
    "ä¸»ç®¡éĥ¨éĹ¨": 9358,
    "Sc": 9359,
    "è§Ħå®ļçļĦ": 9360,
    "çĹħæĥħ": 9361,
    "Ġprecise": 9362,
    "ĠCompany": 9363,
    "Ġintroduction": 9364,
    "å¯¿åĳ½": 9365,
    "Ġnan": 9366,
    "Ġpregnancy": 9367,
    "ĠEngine": 9368,
    "Ġchapter": 9369,
    "ä¸ŃåŃ¦": 9370,
    "åĲįåįķ": 9371,
    "æİ§èĤ¡": 9372,
    "asive": 9373,
    "éĺĶ": 9374,
    "Ġdecrease": 9375,
    "äººå·¥æĻºèĥ½": 9376,
    "Ġbusinesses": 9377,
    "App": 9378,
    "èī°": 9379,
    "æ¶ĤæĸĻ": 9380,
    "rants": 9381,
    "attle": 9382,
    "éħ¯": 9383,
    "oster": 9384,
    "edu": 9385,
    "-sh": 9386,
    "Ġraise": 9387,
    "Ġformal": 9388,
    "Ġagriculture": 9389,
    "Ġdream": 9390,
    "ï¼Įèĥ½å¤Ł": 9391,
    "æĹ¶åĪ»": 9392,
    "Ġleadership": 9393,
    "éĤ»": 9394,
    "ä¹Łåľ¨": 9395,
    "Ġhouses": 9396,
    "è§ĦåĪĻ": 9397,
    "add": 9398,
    "Ġapart": 9399,
    "ĠStudies": 9400,
    "ï¼Įéķ¿": 9401,
    "reland": 9402,
    "ĠManagement": 9403,
    "Ġsudden": 9404,
    "Ġclosed": 9405,
    "liam": 9406,
    "Ġdriving": 9407,
    "tenance": 9408,
    "Ġcalls": 9409,
    "ç»ĦåĲĪ": 9410,
    "-day": 9411,
    "Ġdut": 9412,
    "ĠPower": 9413,
    "çļĦæ°´": 9414,
    "agues": 9415,
    ".;": 9416,
    "ä¼ĺåħĪ": 9417,
    "olve": 9418,
    "fall": 9419,
    "Ġinches": 9420,
    "åľ°çĲĥ": 9421,
    "ä½©": 9422,
    "Ġrecip": 9423,
    "mbly": 9424,
    "02": 9425,
    "æĿ¡ä¾ĭ": 9426,
    "ï¼ĮæľĢç»Ī": 9427,
    "Ġrecon": 9428,
    "Ġmuseum": 9429,
    "Ġinfrastructure": 9430,
    "Ġfrag": 9431,
    "æĹłè®º": 9432,
    "æĤ¬": 9433,
    "ä¿¡æģ¯åĮĸ": 9434,
    "hma": 9435,
    "Ġdescribes": 9436,
    "ĠTem": 9437,
    "æĶ¾åľ¨": 9438,
    "åŁ¹èĤ²": 9439,
    "Ġflight": 9440,
    "çĪ¸": 9441,
    "ä¼ĳéĹ²": 9442,
    "Ġrid": 9443,
    "uilding": 9444,
    "Ġsecure": 9445,
    "ä¼ĺæĥł": 9446,
    "Ġera": 9447,
    "Ġappearance": 9448,
    "ĠScient": 9449,
    "ĠRome": 9450,
    "ï¼ĮåºĶå½ĵ": 9451,
    "åľ°çĤ¹": 9452,
    "åĲĪéĩĳ": 9453,
    "Ġcomputers": 9454,
    "Ġancest": 9455,
    "ç¡«": 9456,
    "exp": 9457,
    "æľŁçļĦ": 9458,
    "Ġwire": 9459,
    "inations": 9460,
    "182": 9461,
    "Ġsatell": 9462,
    "å¿§": 9463,
    "hemical": 9464,
    "æ²ĥ": 9465,
    "ibilities": 9466,
    "De": 9467,
    "Ġtow": 9468,
    "Ġ<": 9469,
    "Ġextract": 9470,
    "å¤©æ°Ķ": 9471,
    "Ġmoon": 9472,
    "Ġnormally": 9473,
    "Ġintelligence": 9474,
    "Ġbones": 9475,
    "çİ°æľī": 9476,
    "Ġphr": 9477,
    "Ġpure": 9478,
    "ä¸ĢæĿ¡": 9479,
    "Ġrestrict": 9480,
    "èĥº": 9481,
    "æ´»æĢ§": 9482,
    "ĠOffice": 9483,
    "Ġincl": 9484,
    "Ġgun": 9485,
    "Ġapprec": 9486,
    "å¤ļæ¬¡": 9487,
    "Ġantibiot": 9488,
    "æĺ¨": 9489,
    "Ġintake": 9490,
    "Ġsuffer": 9491,
    "Ġunlike": 9492,
    "Ġpump": 9493,
    "bert": 9494,
    "èħĶ": 9495,
    "Ġmit": 9496,
    "Ġinterf": 9497,
    "Ġcreative": 9498,
    "inet": 9499,
    "iology": 9500,
    "Ġdigest": 9501,
    "çī©çļĦ": 9502,
    "tage": 9503,
    "OL": 9504,
    "Us": 9505,
    "ĠSaf": 9506,
    "ä½¿åĳ½": 9507,
    "ĠReview": 9508,
    "å½ĵåīį": 9509,
    "mas": 9510,
    "Re": 9511,
    "åįµ": 9512,
    "åĩĢåĮĸ": 9513,
    "olester": 9514,
    "Ġaccepted": 9515,
    "æĺ¯ä¸į": 9516,
    "othe": 9517,
    "æ¸ħæ¥ļ": 9518,
    "åįģå¹´": 9519,
    "anda": 9520,
    "Ġinfected": 9521,
    "reed": 9522,
    "anta": 9523,
    "Ġsick": 9524,
    "Ġopened": 9525,
    "ï¼Įç¾İåĽ½": 9526,
    "ctic": 9527,
    "Ġprepare": 9528,
    "ĠCommit": 9529,
    "ĠCanadian": 9530,
    "Ġbrown": 9531,
    "ĠSum": 9532,
    "Ġpossibly": 9533,
    "æµģéĩı": 9534,
    "Ġlibrary": 9535,
    "ston": 9536,
    "ï¼ĮéĻ¤äºĨ": 9537,
    "See": 9538,
    "çłĤ": 9539,
    "ä¸Ģè·¯": 9540,
    "Ġplate": 9541,
    "Ġble": 9542,
    "çļĨ": 9543,
    "ä¸Ńåįİäººæ°ĳ": 9544,
    "ä¸»å¸Ń": 9545,
    "agers": 9546,
    "çļĦäºĭæĥħ": 9547,
    "Ġinflammation": 9548,
    "ĠHam": 9549,
    "Ġwindow": 9550,
    "åŁİéķĩ": 9551,
    "Ġunderstood": 9552,
    "ç±»ä¼¼": 9553,
    "Ġpoet": 9554,
    "Ġneuro": 9555,
    "lements": 9556,
    "èµĽäºĭ": 9557,
    "itter": 9558,
    "æĶ¶çĽĬ": 9559,
    "å·¥ç¨ĭå¸Ī": 9560,
    "ĠPC": 9561,
    "äºĴåĬ¨": 9562,
    "win": 9563,
    "Ġcandid": 9564,
    "Ġadministration": 9565,
    "Ġcloud": 9566,
    "plicated": 9567,
    "Ġabsolute": 9568,
    "æ»¨": 9569,
    "mat": 9570,
    "Ġsoldiers": 9571,
    "Ġpossibility": 9572,
    "ĠVirginia": 9573,
    "æĹģ": 9574,
    "ĠGood": 9575,
    "æ£®æŀĹ": 9576,
    "åº¦çļĦ": 9577,
    "86": 9578,
    "Ġlifest": 9579,
    "è¾ŀ": 9580,
    "Ġmamm": 9581,
    "Ġdoctors": 9582,
    "ĠMo": 9583,
    "å¯¹å¤ĸ": 9584,
    "è¿Ļæ¬¡": 9585,
    "ä½ľåĩº": 9586,
    "ï¼Įä¸ĢèĪ¬": 9587,
    "ç¼Ŀ": 9588,
    "æµ¦": 9589,
    "ĠLouis": 9590,
    "ä¸Ģèĩ´": 9591,
    "Ġstock": 9592,
    "Ġadopted": 9593,
    "ç¬¬ä¸Ģæ¬¡": 9594,
    "ä¸¤ç§į": 9595,
    "vironments": 9596,
    "Ġaw": 9597,
    "Ġstored": 9598,
    "ĠBro": 9599,
    "alysis": 9600,
    "Ġscholars": 9601,
    "ç¼ºä¹ı": 9602,
    "En": 9603,
    "Ġcomprehensive": 9604,
    "åĽ½æľī": 9605,
    "Ġenhance": 9606,
    "çĵľ": 9607,
    "ifies": 9608,
    "Ġwear": 9609,
    "èĿ": 9610,
    "æıĲäº¤": 9611,
    "Ġproducing": 9612,
    "ĠOx": 9613,
    "Ġsensitive": 9614,
    "å¸¦é¢Ĩ": 9615,
    "ĠTer": 9616,
    "ï¼Įæīįèĥ½": 9617,
    "ä»ªåĻ¨": 9618,
    "Ġformat": 9619,
    "Ġentirely": 9620,
    "å¸¦æĿ¥çļĦ": 9621,
    "Ġnetworks": 9622,
    "ä¸Ńåįİäººæ°ĳåħ±åĴĮåĽ½": 9623,
    "itt": 9624,
    "Ġshel": 9625,
    "Ġwww": 9626,
    "Ġpref": 9627,
    "Ġguidelines": 9628,
    "prise": 9629,
    "SS": 9630,
    "Ġagencies": 9631,
    "åĮºçļĦ": 9632,
    "æĪ¿å±ĭ": 9633,
    "osph": 9634,
    "ditionally": 9635,
    "-old": 9636,
    "Ġsan": 9637,
    "åŁºåĽł": 9638,
    "ĠDiv": 9639,
    "ä¹ĭä¸Ń": 9640,
    "ffee": 9641,
    "Ġlatter": 9642,
    "olesterol": 9643,
    "Ġrevealed": 9644,
    "Ġpretty": 9645,
    "Ġlands": 9646,
    "Ġ.Ċ": 9647,
    "itan": 9648,
    "Ġfacilit": 9649,
    "Ġdust": 9650,
    "ĠLabor": 9651,
    "çºªå¿µ": 9652,
    "å§Ĳ": 9653,
    "å¤§éĥ¨åĪĨ": 9654,
    "ãĢĤåĽłä¸º": 9655,
    "ĠAtt": 9656,
    "liament": 9657,
    "ä¿¡åı·": 9658,
    "esity": 9659,
    "åľ°çļĦ": 9660,
    "åı¥è¯Ŀ": 9661,
    "oto": 9662,
    "Ġspeaking": 9663,
    "-L": 9664,
    "Ġlisted": 9665,
    "å¾ĹåĪ°äºĨ": 9666,
    "å°Ĩä¼ļ": 9667,
    "cling": 9668,
    "Ġpossess": 9669,
    "ican": 9670,
    "Ġsyndrome": 9671,
    "çļĦåīį": 9672,
    "nam": 9673,
    "Ġwildlife": 9674,
    "åĭŁ": 9675,
    "rem": 9676,
    "åĨĴ": 9677,
    "èĭ¹": 9678,
    "Ġsuc": 9679,
    "ĠKnow": 9680,
    "æĻ®éģį": 9681,
    "æĬķèµĦèĢħ": 9682,
    "omach": 9683,
    "Ġpush": 9684,
    "Ġaccounts": 9685,
    "Ġassistance": 9686,
    "ĠBet": 9687,
    "æ©¡èĥ¶": 9688,
    "ï¼Įæĭ¥æľī": 9689,
    "èµ¢å¾Ĺ": 9690,
    "Ġvehicles": 9691,
    "éĢļè®¯": 9692,
    "Ġframework": 9693,
    "Ġuniverse": 9694,
    "-T": 9695,
    "Ġmarriage": 9696,
    "Ġadequ": 9697,
    "ĠNations": 9698,
    "-sc": 9699,
    "Ġtraffic": 9700,
    "Ġtal": 9701,
    "rors": 9702,
    "Ġsecondary": 9703,
    "ä¸įåĨį": 9704,
    "asp": 9705,
    "Ġlabel": 9706,
    "ĠFlorida": 9707,
    "çĪ¶äº²": 9708,
    "Ġworse": 9709,
    "Ġmedication": 9710,
    "Ġmassive": 9711,
    "ĠIreland": 9712,
    "æĶ¶è´Ń": 9713,
    "æ²Ī": 9714,
    "pping": 9715,
    "Ġtroops": 9716,
    "ä½ĽæķĻ": 9717,
    "éļıåĲİ": 9718,
    "Ġwors": 9719,
    "åħģ": 9720,
    "å·¥åķĨ": 9721,
    "Ġdecline": 9722,
    "ï¼ĮåİŁ": 9723,
    "å®¶çļĦ": 9724,
    "èµł": 9725,
    "ï¼Įåıªæľī": 9726,
    "éħįç½®": 9727,
    "èĴĤ": 9728,
    "ĠAlex": 9729,
    "è¾½": 9730,
    "Ġextensive": 9731,
    "å¤Ħç½ļ": 9732,
    "Ġgenerate": 9733,
    "Ġforests": 9734,
    "Ġslowly": 9735,
    "Ġindeed": 9736,
    "çļĦæĸ¹æ³ķ": 9737,
    "ç¡®è®¤": 9738,
    "ua": 9739,
    "Ġworldwide": 9740,
    "æ¢¦æĥ³": 9741,
    "04": 9742,
    "ĠLeg": 9743,
    "Ġfell": 9744,
    "Ġtwice": 9745,
    "Ġfigures": 9746,
    "imer": 9747,
    "Ġimproving": 9748,
    "çļĦéľĢæ±Ĥ": 9749,
    "Ġprotocol": 9750,
    "çł´åĿı": 9751,
    "çĶµåķĨ": 9752,
    "ki": 9753,
    "Ġperce": 9754,
    "under": 9755,
    "éĺ³åħī": 9756,
    ".|Ċ": 9757,
    "æµĭéĩı": 9758,
    "IL": 9759,
    "ä¸ĬäºĨ": 9760,
    "time": 9761,
    "èħ¹": 9762,
    "å±¥è¡Į": 9763,
    "Ġintellect": 9764,
    "ĠAnn": 9765,
    "ä¸Ģå®ļè¦ģ": 9766,
    "Ġdiverse": 9767,
    "Ġtoler": 9768,
    "æģĭ": 9769,
    "ãĢĤéĢļè¿ĩ": 9770,
    "ĠId": 9771,
    "èĭ¹æŀľ": 9772,
    "è½¬åıĺ": 9773,
    "æ²³åįĹ": 9774,
    "Ġtail": 9775,
    "Ġconsid": 9776,
    "æ··åĲĪ": 9777,
    "ctive": 9778,
    "ĠMa": 9779,
    "éģĵå¾·": 9780,
    "Ġgather": 9781,
    "Ġwarming": 9782,
    "æ¹ĸåįĹ": 9783,
    "Ġtiny": 9784,
    "é«ĺæķĪ": 9785,
    "ypes": 9786,
    "ita": 9787,
    "å°ıçļĦ": 9788,
    "ĠGold": 9789,
    "Ġdatabase": 9790,
    "çīµ": 9791,
    "stream": 9792,
    "èĥĨ": 9793,
    "åķĬ": 9794,
    "ãĢĬåħ³äºİ": 9795,
    "organ": 9796,
    "ioxide": 9797,
    "Ġachieved": 9798,
    "åĨ³çŃĸ": 9799,
    "Ġmobile": 9800,
    "Ġfill": 9801,
    "ä¸Ģæµģ": 9802,
    "ï¼Įåħ¨åĽ½": 9803,
    "Ġexpressed": 9804,
    "ĠProv": 9805,
    "å¹»": 9806,
    "Ġath": 9807,
    "éĿ¢è¯ķ": 9808,
    "icon": 9809,
    "Ġacts": 9810,
    "Ġ*": 9811,
    "çħ§çīĩ": 9812,
    "Ġsky": 9813,
    "Ġmanaged": 9814,
    "Ġelectronic": 9815,
    "æĽ´å¥½çļĦ": 9816,
    "ãĢĤãĢĬ": 9817,
    "ka": 9818,
    "Ġlandscape": 9819,
    "çĥ¦": 9820,
    "-cent": 9821,
    "ĠBur": 9822,
    "åĩĢåĪ©æ¶¦": 9823,
    "Ġunless": 9824,
    "Ġchain": 9825,
    "è¾ĥå¤§": 9826,
    "Ġshell": 9827,
    "èħĲèļĢ": 9828,
    "acts": 9829,
    "Ġchart": 9830,
    "è¯±": 9831,
    "é½¿": 9832,
    "teries": 9833,
    "%ä»¥ä¸Ĭ": 9834,
    "Ġinject": 9835,
    "Ġimper": 9836,
    "cules": 9837,
    "Ġtun": 9838,
    "å¤ļåħĥ": 9839,
    "Ġrepeated": 9840,
    "åī©": 9841,
    "åºŁæ°´": 9842,
    "äºĮæĺ¯": 9843,
    "ä¸Ģä»£": 9844,
    "Ġreject": 9845,
    "èį£èªī": 9846,
    "Ġstick": 9847,
    "èĩªè¡Į": 9848,
    "çº¤ç»´": 9849,
    "erals": 9850,
    "éĩĳé¢Ŀ": 9851,
    "çļĦæĥħåĨµä¸ĭ": 9852,
    "åĩ½": 9853,
    "Ġsurvival": 9854,
    "Ġfly": 9855,
    "Ġexperiments": 9856,
    "ĠFe": 9857,
    "æĬ«": 9858,
    "ãĢĤå¯¹äºİ": 9859,
    "alax": 9860,
    "Ġwave": 9861,
    "ç»´çĶŁç´ł": 9862,
    "Ġanswers": 9863,
    "ãĢĭä¸Ń": 9864,
    "MP": 9865,
    "ä½ĵçļĦ": 9866,
    "Ġindex": 9867,
    "Ġstarts": 9868,
    "Ġnurs": 9869,
    "ï¼Įå¿ħé¡»": 9870,
    "Ġinjuries": 9871,
    "éĺĢ": 9872,
    "Ġtransmission": 9873,
    "æľĢæĸ°": 9874,
    "æµģåĬ¨": 9875,
    "åħĦ": 9876,
    "idden": 9877,
    "ansion": 9878,
    "èĶ¬èıľ": 9879,
    "Ġcircumstances": 9880,
    "ola": 9881,
    "Ġreaders": 9882,
    "éĻ¢éķ¿": 9883,
    "ãĢĤæŃ¤": 9884,
    "ona": 9885,
    "Ġmanufacturing": 9886,
    "Ġagreement": 9887,
    "çļĦè¦ģæ±Ĥ": 9888,
    "Ġrub": 9889,
    "é¢Ħæµĭ": 9890,
    "Ġdedic": 9891,
    "abric": 9892,
    "Ġcreates": 9893,
    "ï¼Įå¹¶åľ¨": 9894,
    "æĢª": 9895,
    "åı¯æĮģç»Ń": 9896,
    "oned": 9897,
    "ĠAustralian": 9898,
    "æīĢè°ĵ": 9899,
    "-time": 9900,
    "Ġengage": 9901,
    "Ã¼": 9902,
    "rine": 9903,
    "hist": 9904,
    "åıĸæ¶Ī": 9905,
    "ãĢĤè¿ĻäºĽ": 9906,
    "Ġsurf": 9907,
    "èĤĥ": 9908,
    "çºµ": 9909,
    "æĭĨ": 9910,
    "Ġerror": 9911,
    "ï¼Įè¿ĺæĺ¯": 9912,
    "èµĭ": 9913,
    "Ġfailed": 9914,
    "å¾Īå¤§çļĦ": 9915,
    "ĠGlobal": 9916,
    "orter": 9917,
    "orrow": 9918,
    "Ġsurvive": 9919,
    "luding": 9920,
    "ett": 9921,
    "ena": 9922,
    "ç¡®è¯Ĭ": 9923,
    "Ġaqu": 9924,
    "merican": 9925,
    "Ġstruggle": 9926,
    "å¹¼åĦ¿": 9927,
    "anged": 9928,
    "ĠCamb": 9929,
    "Ġremote": 9930,
    "Ġequival": 9931,
    "å´ĩ": 9932,
    "osal": 9933,
    "ç»Īäºİ": 9934,
    "Ġbudget": 9935,
    "é«ĺè´¨éĩı": 9936,
    "IA": 9937,
    ".A": 9938,
    "Ġstages": 9939,
    "Ġsell": 9940,
    "Ġfilled": 9941,
    "Ġabund": 9942,
    "ĠYet": 9943,
    "zen": 9944,
    "Ġprem": 9945,
    "Ġmountain": 9946,
    "Ġafford": 9947,
    "åĪ¶éĢłä¸ļ": 9948,
    "ropical": 9949,
    "Ġminim": 9950,
    "ãĢĭçŃī": 9951,
    "ĠLab": 9952,
    "erent": 9953,
    "Ġroutine": 9954,
    "æ¯Ķå¦Ĥ": 9955,
    "pat": 9956,
    "ocracy": 9957,
    "Ġcalcium": 9958,
    "Ġremaining": 9959,
    "ĠCommon": 9960,
    "Ġproduces": 9961,
    "ä¹īåĬ¡": 9962,
    "å±ĳ": 9963,
    "Ġwaves": 9964,
    "Ġinsurance": 9965,
    "éĩĩè®¿": 9966,
    "èĤ¡æĿĥ": 9967,
    "Ġplays": 9968,
    "Ġgall": 9969,
    "Ġenvironments": 9970,
    "éĿĴå²Ľ": 9971,
    "Ġdoubt": 9972,
    "è¿Ł": 9973,
    "Ġfossil": 9974,
    "æĿŃå·ŀ": 9975,
    "åĲįä¸º": 9976,
    "å·¨å¤§": 9977,
    "orith": 9978,
    "Ġdecade": 9979,
    "Ġinsects": 9980,
    "è¯ĬæĸŃ": 9981,
    "çĲĨäºĭ": 9982,
    "åŃ¦èĢħ": 9983,
    "ĠBC": 9984,
    "Ġsentence": 9985,
    "åĲĦå¤§": 9986,
    "Ġsupplement": 9987,
    "Ġimplementation": 9988,
    "ĠPeter": 9989,
    "abits": 9990,
    "æ·»åĬł": 9991,
    "çĸ«æĥħéĺ²æİ§": 9992,
    "cel": 9993,
    "Ġsuitable": 9994,
    "Ġbehaviour": 9995,
    "èĩªåĬ¨åĮĸ": 9996,
    "å·®å¼Ĥ": 9997,
    "Ġedge": 9998,
    "éĨĩ": 9999,
    "Ġconstitution": 10000,
    "Ġbroken": 10001,
    "å±±è¥¿": 10002,
    "æ¼Ķåĩº": 10003,
    "Ġsweet": 10004,
    "Ġharmful": 10005,
    "çĸı": 10006,
    "Ġdental": 10007,
    "Ġchoices": 10008,
    "ç¦ıå»º": 10009,
    "Ġhappy": 10010,
    "ĠLong": 10011,
    "åĲĦçº§": 10012,
    "Ġfoundation": 10013,
    "æķ¦": 10014,
    "åħļçļĦ": 10015,
    "Ġgrad": 10016,
    "ĠThose": 10017,
    "ĠTHE": 10018,
    "å½°": 10019,
    "å¤§å¤ļæķ°": 10020,
    "ç½©": 10021,
    "æ·±åĪ»": 10022,
    "Ġhealthcare": 10023,
    "ĠIN": 10024,
    "ĠExpl": 10025,
    "ï¼Įåīį": 10026,
    "éĽĨæĪĲ": 10027,
    "è¸ı": 10028,
    "ä½ıå®ħ": 10029,
    "gent": 10030,
    "apping": 10031,
    "å¯»æī¾": 10032,
    "Ã³": 10033,
    "Ġnarr": 10034,
    "åľºæĻ¯": 10035,
    "åĨ»": 10036,
    "å¼ķé¢Ĩ": 10037,
    "ĠExp": 10038,
    "Ġaircraft": 10039,
    "åĬŀåŃ¦": 10040,
    "sey": 10041,
    "Ġmur": 10042,
    "å±Ĥæ¬¡": 10043,
    "äºĭåĬ¡": 10044,
    "ãĢĤè¦ģ": 10045,
    "62": 10046,
    "iform": 10047,
    "æ±Łè¥¿": 10048,
    "å½¹": 10049,
    "inder": 10050,
    "Ġsteel": 10051,
    "æĪĲç«ĭäºİ": 10052,
    "åĪĩå®ŀ": 10053,
    "Ġcorn": 10054,
    "igation": 10055,
    "arant": 10056,
    "ï¼Įä¾¿": 10057,
    "éĺ²æ²»": 10058,
    "âĢľä¸ī": 10059,
    "ĠAbout": 10060,
    "Ġmarked": 10061,
    "Ġinner": 10062,
    "Ġtruly": 10063,
    "Ġextended": 10064,
    "éķ¿çļĦ": 10065,
    "è·¯çº¿": 10066,
    "æ±¡æ°´å¤ĦçĲĨ": 10067,
    "170": 10068,
    "éĵ¸": 10069,
    "IR": 10070,
    "å®ĥä»¬": 10071,
    "ä½¿çĶ¨çļĦ": 10072,
    "Ġsports": 10073,
    "Ġobtain": 10074,
    "Ġaf": 10075,
    "struct": 10076,
    "éĢĤçĶ¨äºİ": 10077,
    "åĩ¤": 10078,
    "ĠBre": 10079,
    "Ġselection": 10080,
    "eper": 10081,
    "Ġrefuge": 10082,
    "å¥¹çļĦ": 10083,
    "é¢ľèī²": 10084,
    "æĻ¯è§Ĥ": 10085,
    "æ¯įäº²": 10086,
    "Ġlaboratory": 10087,
    "ĠDan": 10088,
    "åĽ½å®¶çº§": 10089,
    "å¯¼æ¼Ķ": 10090,
    "no": 10091,
    "Ġgenerated": 10092,
    "åŁİä¹¡": 10093,
    "ä¸įèī¯": 10094,
    "Ġunknown": 10095,
    "Ġ>": 10096,
    "æĽ´æĺ¯": 10097,
    "åħ¨å¸Ĥ": 10098,
    "Ġcourses": 10099,
    "åį°åĪ·": 10100,
    "ĠJoseph": 10101,
    "çļĦä¸ĵä¸ļ": 10102,
    "Ġfixed": 10103,
    "ĠMad": 10104,
    "èĥ½éĩı": 10105,
    "Ġcars": 10106,
    "éĻµ": 10107,
    "æĲľç´¢": 10108,
    "icians": 10109,
    "Ġderived": 10110,
    "ML": 10111,
    "-of": 10112,
    "Ġseeing": 10113,
    "ç¢ĳ": 10114,
    "Ġcultiv": 10115,
    "çļĦä¸Ń": 10116,
    "ey": 10117,
    "Ġconsistent": 10118,
    "ĠBrown": 10119,
    "ĠÐ": 10120,
    "Ġdistrict": 10121,
    "ï¼ĮæĹ¢": 10122,
    "Ġgreatly": 10123,
    "han": 10124,
    "Ġamb": 10125,
    "Ġsight": 10126,
    "ï¼ĮçĽ´": 10127,
    "Ġcatch": 10128,
    "Ġwish": 10129,
    "ĠUSA": 10130,
    "ivery": 10131,
    "è¥¿éĥ¨": 10132,
    "Ġtells": 10133,
    ".ht": 10134,
    "åıªè¦ģ": 10135,
    "å¦Īå¦Ī": 10136,
    "Ġships": 10137,
    "è¡¥è´´": 10138,
    "Ġpull": 10139,
    "é£ŀæľº": 10140,
    "æķ°åŃ¦": 10141,
    "Ġacceler": 10142,
    "Ġnewsp": 10143,
    "èĩŃ": 10144,
    "å®¡æł¸": 10145,
    "å¤§æķ°æį®": 10146,
    "ymph": 10147,
    "Ġwants": 10148,
    "Ġdioxide": 10149,
    "åħ¶å®ĥ": 10150,
    "ĠOnly": 10151,
    "æ°¸è¿ľ": 10152,
    "Ġaudience": 10153,
    "ĠItaly": 10154,
    "èĩªæ²»åĮº": 10155,
    "Ġmulti": 10156,
    "æĤ¨çļĦ": 10157,
    "ĠAny": 10158,
    "æīĢå¾Ĺ": 10159,
    "åĽĽä¸ª": 10160,
    "å¹³è¡¡": 10161,
    "Ġdiscipl": 10162,
    "itative": 10163,
    "Ġdin": 10164,
    "ĠRad": 10165,
    "åıĳåĬ¨": 10166,
    "å£³": 10167,
    "çĮ«": 10168,
    ".âĢĻ": 10169,
    "Ġbeneficial": 10170,
    "ints": 10171,
    "Ġlocations": 10172,
    "ï¼Įä¸įè¿ĩ": 10173,
    "ãĢĤä»¥": 10174,
    "Ġthor": 10175,
    "èı©": 10176,
    "Ġsignals": 10177,
    "kins": 10178,
    "ĠISBN": 10179,
    "sts": 10180,
    "ç½ĳåıĭ": 10181,
    "Ġdecide": 10182,
    "ĠProfessor": 10183,
    "âĢľThe": 10184,
    "Ġtransition": 10185,
    "Ġagency": 10186,
    "ĠIll": 10187,
    "ãĢĤçĦ¶èĢĮ": 10188,
    "Ġyounger": 10189,
    "Ġprofessionals": 10190,
    "åĴĮè°Ĳ": 10191,
    "Ġdifficulty": 10192,
    "æ¸¡": 10193,
    "å¯Ħ": 10194,
    "burg": 10195,
    "ï¼īåĴĮ": 10196,
    "æ·ĺ": 10197,
    "normal": 10198,
    "IG": 10199,
    "Ġorganized": 10200,
    "çĨŁæĤī": 10201,
    "æ¸Ĺ": 10202,
    "Ġlots": 10203,
    "æĿĳæ°ĳ": 10204,
    "ä¼¤å®³": 10205,
    "æıŃ": 10206,
    "inking": 10207,
    "Ġdomin": 10208,
    "åıĤèµĽ": 10209,
    "Bl": 10210,
    "ĠOF": 10211,
    "ĠHall": 10212,
    "äºĪä»¥": 10213,
    "Ġimmediate": 10214,
    "Ġconsumers": 10215,
    "ĠSouthern": 10216,
    "é«ĺä¸Ń": 10217,
    "çºł": 10218,
    "ĠVict": 10219,
    "ä½łä»¬": 10220,
    "Ġindicates": 10221,
    "Ġdesire": 10222,
    "æĿĥåĪ©": 10223,
    "åĨ²åĩ»": 10224,
    "ä¸Ĭå¹´": 10225,
    "Ġenable": 10226,
    "Ġbear": 10227,
    "Ġbattery": 10228,
    "Ġauthorities": 10229,
    "æĦıå¤§åĪ©": 10230,
    "Ġï¼Į": 10231,
    "æī¿åĮħ": 10232,
    "éĥ¨ä»¶": 10233,
    "ĠAcademy": 10234,
    "ï¼ĮæĮīçħ§": 10235,
    "Ġdaughter": 10236,
    "Ġrepresented": 10237,
    "Ġdensity": 10238,
    "é¼»": 10239,
    "è®°å¿Ĩ": 10240,
    "çłĸ": 10241,
    "Ġstomach": 10242,
    "Ġopening": 10243,
    "ĠThrough": 10244,
    "ups": 10245,
    "Ġprincip": 10246,
    "èī²å½©": 10247,
    "Ġleaf": 10248,
    "çºº": 10249,
    "Ġpermanent": 10250,
    "Ġfewer": 10251,
    "Ġdescription": 10252,
    "äº§ä¸ļéĵ¾": 10253,
    "Ġmaintenance": 10254,
    "Ġhus": 10255,
    "äºı": 10256,
    "çĦĬ": 10257,
    "æĦ¿æĦı": 10258,
    "79": 10259,
    "Ġunp": 10260,
    "Ġsharing": 10261,
    "69": 10262,
    "Ġvote": 10263,
    "ï¼Įçī¹åĪ«æĺ¯": 10264,
    "ä¿Ŀåģ¥": 10265,
    "ĠSk": 10266,
    "ï¼Įåıªè¦ģ": 10267,
    "point": 10268,
    "inction": 10269,
    "Stud": 10270,
    "Ġfalse": 10271,
    "åĳ¼åĲ¸": 10272,
    "éĹ®é¢ĺçļĦ": 10273,
    "èµĦè´¨": 10274,
    "åľ°çĲĨ": 10275,
    "ä»¥ä¸ĭç®Ģç§°": 10276,
    "bran": 10277,
    "Read": 10278,
    "Ġsubs": 10279,
    "Ġphotograph": 10280,
    "Ġmechanism": 10281,
    "Ġjourney": 10282,
    "æ·±åĮĸ": 10283,
    "å®ļæľŁ": 10284,
    "æıĲéĨĴ": 10285,
    "Ġstanding": 10286,
    "è¸ª": 10287,
    "æĭĴ": 10288,
    "Ġcolleagues": 10289,
    "ĠCommittee": 10290,
    "åįģä¸ī": 10291,
    "ä¼ļçļĦ": 10292,
    "æĥħåĨµä¸ĭ": 10293,
    "ĠJe": 10294,
    "Ġcritic": 10295,
    "Ġtraum": 10296,
    "Ġfunds": 10297,
    "é»Ħéĩĳ": 10298,
    "è¡°": 10299,
    "ogue": 10300,
    "Ġinstitution": 10301,
    "éĢĥ": 10302,
    "ä¸Ģä¸ªäºº": 10303,
    "-the": 10304,
    "Ġstudying": 10305,
    "Ġskill": 10306,
    "è¡Ģç®¡": 10307,
    "lets": 10308,
    "Ġsolve": 10309,
    "ï¼Įäººä»¬": 10310,
    "è¡Ĺéģĵ": 10311,
    "Ġgrav": 10312,
    "ĠParis": 10313,
    "ĠHome": 10314,
    "ä¸ĸçķĮä¸Ĭ": 10315,
    "Ġsupplies": 10316,
    "Ġparalle": 10317,
    "åĲĮæĦı": 10318,
    "Ġopposite": 10319,
    "Ġcomposition": 10320,
    "éĥ½ä¸į": 10321,
    "è´µå·ŀ": 10322,
    "ĠDesign": 10323,
    "å¥ĳ": 10324,
    "é¤Ĳé¥®": 10325,
    "Ġelectron": 10326,
    "Ġdestroyed": 10327,
    "CP": 10328,
    "æĭ¨": 10329,
    "Ġdoor": 10330,
    "ĠCare": 10331,
    "Ġsuccessfully": 10332,
    "ï¼ĮæıĲåįĩ": 10333,
    "æ¨¡åŀĭ": 10334,
    "ĠCancer": 10335,
    "ï¼Įå°¤åħ¶æĺ¯": 10336,
    "æĳĺ": 10337,
    "EP": 10338,
    "åĩŃåĢŁ": 10339,
    "å½±è§Ĩ": 10340,
    "ä¿±ä¹Ĳ": 10341,
    "ä½Ĩæĺ¯": 10342,
    "phone": 10343,
    "ĠReport": 10344,
    "ĠMag": 10345,
    "esis": 10346,
    "Ġ...": 10347,
    "wo": 10348,
    "Ġchildhood": 10349,
    "ä¿±ä¹Ĳéĥ¨": 10350,
    "âĢĻd": 10351,
    "gra": 10352,
    "åĴĮåħ¶ä»ĸ": 10353,
    "åıĸå¾ĹäºĨ": 10354,
    "Ġfasc": 10355,
    "åºĶå¯¹": 10356,
    "icago": 10357,
    "ca": 10358,
    "Ġshut": 10359,
    "ĠCult": 10360,
    "éĻĦè¿ĳ": 10361,
    "æĹ¶å°ļ": 10362,
    "Ġzone": 10363,
    "éĿ©åĳ½": 10364,
    "ĠSl": 10365,
    "åįıåĬ©": 10366,
    "elled": 10367,
    ".n": 10368,
    "åľ°ä¸ĭ": 10369,
    "åľºæ¯ĶèµĽ": 10370,
    "ãĢĤä¸İ": 10371,
    "Ġunable": 10372,
    "ï¼ĳ": 10373,
    "éļľç¢į": 10374,
    "cription": 10375,
    "Ġroof": 10376,
    "Ġcarefully": 10377,
    "éĶĢéĩı": 10378,
    "Se": 10379,
    "Ġax": 10380,
    "ï¼ĮæĹłè®º": 10381,
    "çŃ¾è®¢": 10382,
    "çģĮ": 10383,
    "æĲ¬": 10384,
    "å½ĵçĦ¶": 10385,
    "æľºåĻ¨äºº": 10386,
    "inity": 10387,
    "èĢĢ": 10388,
    "Ġsod": 10389,
    "çİ©å®¶": 10390,
    "Ġattend": 10391,
    "ä¸Ģæ®µ": 10392,
    "isters": 10393,
    "-be": 10394,
    "iration": 10395,
    "ashion": 10396,
    "ĠNorthern": 10397,
    "ï¼ĮåħħåĪĨ": 10398,
    "Int": 10399,
    "ç¥¥": 10400,
    "%)": 10401,
    "Ġsupports": 10402,
    "ĠTime": 10403,
    "ĠSpain": 10404,
    "word": 10405,
    "nect": 10406,
    "ipping": 10407,
    "Ġresponses": 10408,
    "ç§ī": 10409,
    "antly": 10410,
    "Ġfounded": 10411,
    "ĠCamp": 10412,
    "çº·çº·": 10413,
    "aser": 10414,
    "Ġethnic": 10415,
    "ãĢģçĶŁäº§": 10416,
    "Ġoptim": 10417,
    "abul": 10418,
    "Ġacids": 10419,
    "å¦Ĥä»Ĭ": 10420,
    "stone": 10421,
    "clop": 10422,
    "cher": 10423,
    "ä¹Ķ": 10424,
    "çĽ¸åħ³çļĦ": 10425,
    "Can": 10426,
    "Ġflav": 10427,
    "ĠIP": 10428,
    "Since": 10429,
    "Ġcloser": 10430,
    "Ġcircuit": 10431,
    "ç¼ĸåĪ¶": 10432,
    "ifications": 10433,
    "Ġsimpl": 10434,
    "ĠĊ": 10435,
    "å½¢åĬ¿": 10436,
    "å¼Ĺ": 10437,
    "å¼¥": 10438,
    "UN": 10439,
    "Ġpowers": 10440,
    "ĠStat": 10441,
    "åį«æĺŁ": 10442,
    "æ°ĳå®¿": 10443,
    "heast": 10444,
    "åľ°åĮºçļĦ": 10445,
    "åĲįåŃĹ": 10446,
    "åį¢": 10447,
    "åĲįç§°": 10448,
    "izer": 10449,
    "Ġscript": 10450,
    "Ġoutl": 10451,
    "ä»ĸäºº": 10452,
    "lder": 10453,
    "flow": 10454,
    "éĽ¾": 10455,
    "åıĤè§Ĥ": 10456,
    "åĢ¡": 10457,
    "zil": 10458,
    "æĥľ": 10459,
    "å¤įåĲĪ": 10460,
    "stein": 10461,
    "ĠRob": 10462,
    "è¯ķçĤ¹": 10463,
    "âĢĻ,": 10464,
    "Ġshift": 10465,
    "rd": 10466,
    "Ġinteraction": 10467,
    "çŃīçº§": 10468,
    "çĪ±æĥħ": 10469,
    "Ġneck": 10470,
    "Ġaccum": 10471,
    "ĠDisease": 10472,
    "Ġthousand": 10473,
    "Ġmolecules": 10474,
    "çĭĤ": 10475,
    "Cont": 10476,
    "uzz": 10477,
    "Figure": 10478,
    "Ġreplaced": 10479,
    "Ġlimits": 10480,
    "Ġgone": 10481,
    "ĠStreet": 10482,
    "æ°ĶåĢĻ": 10483,
    "Ġcholesterol": 10484,
    "ctor": 10485,
    "Ġourselves": 10486,
    "Ġemotions": 10487,
    "èĮĥåĽ´åĨħ": 10488,
    "çº¿è·¯": 10489,
    "Ġreader": 10490,
    "Ġfiber": 10491,
    "æĸ°åĮº": 10492,
    "åľ¨ä¸Ģèµ·": 10493,
    "fortunately": 10494,
    "Ġpurchase": 10495,
    "éĶ»": 10496,
    "Ġremark": 10497,
    "ĠCap": 10498,
    "èµĦè®¯": 10499,
    "è¯ĨåĪ«": 10500,
    "-E": 10501,
    "Ġvessels": 10502,
    "Ġultimately": 10503,
    "Ġstands": 10504,
    "Ġwalking": 10505,
    "LA": 10506,
    "èµĶ": 10507,
    "riting": 10508,
    "Ġboost": 10509,
    "ï¼Įç»ıè¿ĩ": 10510,
    "ï¼Įå·²ç»ı": 10511,
    "è½¬åĮĸ": 10512,
    "äººåĬĽ": 10513,
    "ora": 10514,
    "Ġintervention": 10515,
    "è½¨éģĵ": 10516,
    "azing": 10517,
    "cont": 10518,
    "å«Į": 10519,
    "ä¸¤å¹´": 10520,
    "å£¤": 10521,
    "ï¼Įæ°´": 10522,
    "ĠBr": 10523,
    "Ġarrived": 10524,
    "ĠSol": 10525,
    "èĢģäºº": 10526,
    "æķĮ": 10527,
    "ĠPan": 10528,
    "æŀĿ": 10529,
    "ĠGet": 10530,
    "çļĦè®¾è®¡": 10531,
    "Ã¶": 10532,
    "ÃĹ": 10533,
    "ĠStudy": 10534,
    "ums": 10535,
    "VID": 10536,
    "Ġserver": 10537,
    "Ġcultures": 10538,
    "å£°éŁ³": 10539,
    "å¹¿ä¸ľçľģ": 10540,
    "Ġlisten": 10541,
    "Ġknows": 10542,
    "ĠPub": 10543,
    "ĠBul": 10544,
    "gans": 10545,
    "61": 10546,
    "Ġcarb": 10547,
    "èį£èİ·": 10548,
    "è¿İæĿ¥": 10549,
    "Ġdedicated": 10550,
    "Ġbiggest": 10551,
    "é«ĺæ¸©": 10552,
    "é¥±": 10553,
[...]
