{
    "Ā": 0,
    "ā": 1,
    "Ă": 2,
    "ă": 3,
    "Ą": 4,
    "ą": 5,
    "Ć": 6,
    "ć": 7,
    "Ĉ": 8,
    "ĉ": 9,
    "Ċ": 10,
    "ċ": 11,
    "Č": 12,
    "č": 13,
    "Ď": 14,
    "ď": 15,
    "Đ": 16,
    "đ": 17,
    "Ē": 18,
    "ē": 19,
    "Ĕ": 20,
    "ĕ": 21,
    "Ė": 22,
    "ė": 23,
    "Ę": 24,
    "ę": 25,
    "Ě": 26,
    "ě": 27,
    "Ĝ": 28,
    "ĝ": 29,
    "Ğ": 30,
    "ğ": 31,
    "Ġ": 32,
    "!": 33,
    "\"": 34,
    "#": 35,
    "$": 36,
    "%": 37,
    "&": 38,
    "'": 39,
    "(": 40,
    ")": 41,
    "*": 42,
    "+": 43,
    ",": 44,
    "-": 45,
    ".": 46,
    "/": 47,
    "0": 48,
    "1": 49,
    "2": 50,
    "3": 51,
    "4": 52,
    "5": 53,
    "6": 54,
    "7": 55,
    "8": 56,
    "9": 57,
    ":": 58,
    ";": 59,
    "<": 60,
    "=": 61,
    ">": 62,
    "?": 63,
    "@": 64,
    "A": 65,
    "B": 66,
    "C": 67,
    "D": 68,
    "E": 69,
    "F": 70,
    "G": 71,
    "H": 72,
    "I": 73,
    "J": 74,
    "K": 75,
    "L": 76,
    "M": 77,
    "N": 78,
    "O": 79,
    "P": 80,
    "Q": 81,
    "R": 82,
    "S": 83,
    "T": 84,
    "U": 85,
    "V": 86,
    "W": 87,
    "X": 88,
    "Y": 89,
    "Z": 90,
    "[": 91,
    "\\": 92,
    "]": 93,
    "^": 94,
    "_": 95,
    "`": 96,
    "a": 97,
    "b": 98,
    "c": 99,
    "d": 100,
    "e": 101,
    "f": 102,
    "g": 103,
    "h": 104,
    "i": 105,
    "j": 106,
    "k": 107,
    "l": 108,
    "m": 109,
    "n": 110,
    "o": 111,
    "p": 112,
    "q": 113,
    "r": 114,
    "s": 115,
    "t": 116,
    "u": 117,
    "v": 118,
    "w": 119,
    "x": 120,
    "y": 121,
    "z": 122,
    "{": 123,
    "|": 124,
    "}": 125,
    "~": 126,
    "ġ": 127,
    "Ģ": 128,
    "ģ": 129,
    "Ĥ": 130,
    "ĥ": 131,
    "Ħ": 132,
    "ħ": 133,
    "Ĩ": 134,
    "ĩ": 135,
    "Ī": 136,
    "ī": 137,
    "Ĭ": 138,
    "ĭ": 139,
    "Į": 140,
    "į": 141,
    "İ": 142,
    "ı": 143,
    "Ĳ": 144,
    "ĳ": 145,
    "Ĵ": 146,
    "ĵ": 147,
    "Ķ": 148,
    "ķ": 149,
    "ĸ": 150,
    "Ĺ": 151,
    "ĺ": 152,
    "Ļ": 153,
    "ļ": 154,
    "Ľ": 155,
    "ľ": 156,
    "Ŀ": 157,
    "ŀ": 158,
    "Ł": 159,
    "ł": 160,
    "¡": 161,
    "¢": 162,
    "£": 163,
    "¤": 164,
    "¥": 165,
    "¦": 166,
    "§": 167,
    "¨": 168,
    "©": 169,
    "ª": 170,
    "«": 171,
    "¬": 172,
    "Ń": 173,
    "®": 174,
    "¯": 175,
    "°": 176,
    "±": 177,
    "²": 178,
    "³": 179,
    "´": 180,
    "µ": 181,
    "¶": 182,
    "·": 183,
    "¸": 184,
    "¹": 185,
    "º": 186,
    "»": 187,
    "¼": 188,
    "½": 189,
    "¾": 190,
    "¿": 191,
    "À": 192,
    "Á": 193,
    "Â": 194,
    "Ã": 195,
    "Ä": 196,
    "Å": 197,
    "Æ": 198,
    "Ç": 199,
    "È": 200,
    "É": 201,
    "Ê": 202,
    "Ë": 203,
    "Ì": 204,
    "Í": 205,
    "Î": 206,
    "Ï": 207,
    "Ð": 208,
    "Ñ": 209,
    "Ò": 210,
    "Ó": 211,
    "Ô": 212,
    "Õ": 213,
    "Ö": 214,
    "×": 215,
    "Ø": 216,
    "Ù": 217,
    "Ú": 218,
    "Û": 219,
    "Ü": 220,
    "Ý": 221,
    "Þ": 222,
    "ß": 223,
    "à": 224,
    "á": 225,
    "â": 226,
    "ã": 227,
    "ä": 228,
    "å": 229,
    "æ": 230,
    "ç": 231,
    "è": 232,
    "é": 233,
    "ê": 234,
    "ë": 235,
    "ì": 236,
    "í": 237,
    "î": 238,
    "ï": 239,
    "ð": 240,
    "ñ": 241,
    "ò": 242,
    "ó": 243,
    "ô": 244,
    "õ": 245,
    "ö": 246,
    "÷": 247,
    "ø": 248,
    "ù": 249,
    "ú": 250,
    "û": 251,
    "ü": 252,
    "ý": 253,
    "þ": 254,
    "ÿ": 255,
    "Ġt": 256,
    "Ġa": 257,
    "he": 258,
    "in": 259,
    "re": 260,
    "Ġthe": 261,
    "ä¸": 262,
    "on": 263,
    "ï¼": 264,
    "er": 265,
    "Ġo": 266,
    "at": 267,
    "Ġs": 268,
    "ï¼Į": 269,
    "en": 270,
    "Ġc": 271,
    "ãĢ": 272,
    "Ġw": 273,
    "es": 274,
    "is": 275,
    "nd": 276,
    "it": 277,
    "or": 278,
    "Ġp": 279,
    "al": 280,
    "çļ": 281,
    "çļĦ": 282,
    "ed": 283,
    "an": 284,
    "Ġb": 285,
    "Ġof": 286,
    "Ġf": 287,
    "ing": 288,
    "Ġin": 289,
    "äº": 290,
    "ar": 291,
    "ou": 292,
    "Ġm": 293,
    "Ġand": 294,
    "Ġto": 295,
    "ic": 296,
    "Ġd": 297,
    "ion": 298,
    "æľ": 299,
    "âĢ": 300,
    "åı": 301,
    "ãĢĤ": 302,
    "le": 303,
    "åħ": 304,
    "ro": 305,
    "as": 306,
    "ä»": 307,
    "Ġh": 308,
    "Ġth": 309,
    "ent": 310,
    "å¤": 311,
    "ct": 312,
    "ãĢģ": 313,
    "å®": 314,
    "Ġe": 315,
    "il": 316,
    "åĪ": 317,
    "Ġre": 318,
    "om": 319,
    "ve": 320,
    "Ġl": 321,
    "è¿": 322,
    "åľ": 323,
    "st": 324,
    "Ġn": 325,
    "ä½": 326,
    "çĶ": 327,
    "åĲ": 328,
    ".Ċ": 329,
    "åĬ": 330,
    "ly": 331,
    "Ġbe": 332,
    "Ġis": 333,
    "æĺ": 334,
    "ç»": 335,
    "ĠT": 336,
    "se": 337,
    "åĽ": 338,
    "ol": 339,
    "Ġg": 340,
    "æĪ": 341,
    "ation": 342,
    "å¹": 343,
    "im": 344,
    "æĸ": 345,
    "id": 346,
    "et": 347,
    "ut": 348,
    "ce": 349,
    "ot": 350,
    "ur": 351,
    "ch": 352,
    "ra": 353,
    "ow": 354,
    "ĠA": 355,
    "ä¼": 356,
    "æĹ": 357,
    "ä¹": 358,
    "Ġfor": 359,
    "è®": 360,
    "ig": 361,
    "ä¸Ģ": 362,
    "ĠS": 363,
    "Ġthat": 364,
    "Ġon": 365,
    "Ġu": 366,
    "åį": 367,
    "åŃ": 368,
    "Ġst": 369,
    "ver": 370,
    "è¯": 371,
    "å°": 372,
    "ĠC": 373,
    "ĠI": 374,
    "ir": 375,
    "Ġy": 376,
    "æĺ¯": 377,
    "ãĢĤĊ": 378,
    "åľ¨": 379,
    "å·": 380,
    "ul": 381,
    "å¸": 382,
    "ay": 383,
    "æĿ": 384,
    "am": 385,
    "æľī": 386,
    "el": 387,
    "éĩ": 388,
    "Ġas": 389,
    "ith": 390,
    "ad": 391,
    "åĮ": 392,
    "åº": 393,
    "her": 394,
    "Ġpro": 395,
    "Ġare": 396,
    "äºº": 397,
    "Ġcon": 398,
    "ä¸Ń": 399,
    "Ġan": 400,
    "âĢľ": 401,
    "å¼": 402,
    "Ġwith": 403,
    "âĢĿ": 404,
    "æī": 405,
    "if": 406,
    "Ġwh": 407,
    "è¡": 408,
    "éĢ": 409,
    "Ġit": 410,
    "Ġor": 411,
    "Ġyou": 412,
    "Ġal": 413,
    "ter": 414,
    "ĠM": 415,
    "åĴ": 416,
    "åĨ": 417,
    "Ġ(": 418,
    "od": 419,
    "èĢ": 420,
    "çĽ": 421,
    "ä¸º": 422,
    "åĩ": 423,
    "ä¸į": 424,
    "ĠThe": 425,
    "æĬ": 426,
    "æķ": 427,
    "åĴĮ": 428,
    "å±": 429,
    "20": 430,
    "äºĨ": 431,
    "ĠP": 432,
    "å¯": 433,
    "ment": 434,
    "å¾": 435,
    "ge": 436,
    "æł": 437,
    "th": 438,
    "ä¸ļ": 439,
    "è´": 440,
    "å¤§": 441,
    "åĽ½": 442,
    "å¹´": 443,
    "ist": 444,
    "ĥ½": 445,
    "ç§": 446,
    "op": 447,
    "ate": 448,
    "ers": 449,
    "Ġde": 450,
    "èµ": 451,
    "è§": 452,
    "Ġhe": 453,
    "ies": 454,
    "ĠB": 455,
    "ill": 456,
    "ess": 457,
    "us": 458,
    "ab": 459,
    "âĢĻ": 460,
    "Ġex": 461,
    "éĻ": 462,
    "çİ": 463,
    "Ġwe": 464,
    "ect": 465,
    "æ°": 466,
    "ore": 467,
    "Ġsu": 468,
    "çī": 469,
    "Ġcom": 470,
    "ity": 471,
    "æĶ": 472,
    "æĢ": 473,
    "est": 474,
    "çĶŁ": 475,
    "ä»¥": 476,
    "åŃ¦": 477,
    "Ġha": 478,
    "ĠH": 479,
    "ive": 480,
    "res": 481,
    "ac": 482,
    "um": 483,
    "rom": 484,
    "ld": 485,
    "os": 486,
    "ke": 487,
    "Ġv": 488,
    "em": 489,
    "åıĳ": 490,
    "Ġby": 491,
    "ant": 492,
    "çº": 493,
    "iv": 494,
    "ain": 495,
    "qu": 496,
    "ĠW": 497,
    "åİ": 498,
    "nt": 499,
    "Ġat": 500,
    "pp": 501,
    "ĠD": 502,
    "å¥": 503,
    "å½": 504,
    "èĩ": 505,
    "å¿": 506,
    "çŃ": 507,
    "Ġwas": 508,
    "ĠE": 509,
    "igh": 510,
    "ä¸Ĭ": 511,
    "çĶ¨": 512,
    "ä¿": 513,
    "æŃ": 514,
    "Ġcan": 515,
    "çĲ": 516,
    "ä¼ļ": 517,
    "éĹ": 518,
    "ud": 519,
    "Ġfrom": 520,
    "and": 521,
    "oc": 522,
    "åĳ": 523,
    "æ³": 524,
    "ĠR": 525,
    "Ġch": 526,
    "Ġr": 527,
    "ort": 528,
    "å·¥": 529,
    "éĿ": 530,
    "æİ": 531,
    "æµ": 532,
    "Ġne": 533,
    "ĠF": 534,
    "¦ģ": 535,
    "ä¸ª": 536,
    "èĥ½": 537,
    "æĹ¶": 538,
    "ial": 539,
    "Ġse": 540,
    "è¡Į": 541,
    "ä½ľ": 542,
    "è¦ģ": 543,
    "æĪĲ": 544,
    "ure": 545,
    "åĵ": 546,
    "un": 547,
    "Ġnot": 548,
    "ĠG": 549,
    "ĠN": 550,
    "art": 551,
    "Ġle": 552,
    "ical": 553,
    "åħ¬": 554,
    "æŀ": 555,
    "Ġhave": 556,
    "äºİ": 557,
    "åŁ": 558,
    "é¢": 559,
    "ri": 560,
    "æ¯": 561,
    "è¿Ļ": 562,
    "ĠL": 563,
    "og": 564,
    "è¾": 565,
    "Ġsh": 566,
    "æĪĳ": 567,
    "è½": 568,
    "æ²": 569,
    "åĪ°": 570,
    "å¯¹": 571,
    "å®¶": 572,
    "Ġen": 573,
    "åľ°": 574,
    "æĿ¥": 575,
    "æĭ": 576,
    "Ġsp": 577,
    "åĩº": 578,
    "Ġthis": 579,
    "äº§": 580,
    "åı¯": 581,
    "åī": 582,
    "æ±": 583,
    "ight": 584,
    "ich": 585,
    "pt": 586,
    "æĮ": 587,
    "rou": 588,
    "Ġab": 589,
    "éĺ": 590,
    "red": 591,
    "é«": 592,
    "Ġwor": 593,
    "çĲĨ": 594,
    "âĢĻs": 595,
    "all": 596,
    "é«ĺ": 597,
    "çľ": 598,
    "The": 599,
    "gh": 600,
    "ould": 601,
    "ther": 602,
    "our": 603,
    "ions": 604,
    "19": 605,
    "ost": 606,
    "ç«": 607,
    "ome": 608,
    "çŃī": 609,
    "åĪĨ": 610,
    "å¤ļ": 611,
    "æĸ°": 612,
    "æ¸": 613,
    "ust": 614,
    "å¸Ĥ": 615,
    "Ġim": 616,
    "ated": 617,
    "ine": 618,
    "ç®": 619,
    "ard": 620,
    "æĥ": 621,
    "åħ¨": 622,
    "ä»¬": 623,
    "per": 624,
    "ell": 625,
    "out": 626,
    "Ġus": 627,
    "ç½": 628,
    "åĬ¨": 629,
    "ag": 630,
    "è¿Ľ": 631,
    "æĸ¹": 632,
    "ä¾": 633,
    "Ġtheir": 634,
    "èĤ": 635,
    "Ġpl": 636,
    "ç»ı": 637,
    "åĮĸ": 638,
    "ĠO": 639,
    "ff": 640,
    "act": 641,
    "æ´": 642,
    "ide": 643,
    "ä¸İ": 644,
    "éķ": 645,
    "Ġint": 646,
    "201": 647,
    "æĦ": 648,
    "ans": 649,
    "æĹ¥": 650,
    "ast": 651,
    "pl": 652,
    "00": 653,
    "ear": 654,
    "èĩª": 655,
    "å»": 656,
    "ĠJ": 657,
    "è¿ĩ": 658,
    "çİ°": 659,
    "åĲĪ": 660,
    "æ¬": 661,
    "éĥ": 662,
    "du": 663,
    "ä½ĵ": 664,
    "åĵģ": 665,
    "Ġwhich": 666,
    "ak": 667,
    "Ġk": 668,
    "æľº": 669,
    "ous": 670,
    "åĬĽ": 671,
    "age": 672,
    "ç¨": 673,
    "ä¸ĭ": 674,
    "Ġwhe": 675,
    "Ġyour": 676,
    "Ġthey": 677,
    "å®ŀ": 678,
    "åĲĮ": 679,
    "ec": 680,
    "ĠU": 681,
    "iz": 682,
    "ia": 683,
    "æľĪ": 684,
    "Ġall": 685,
    "åĲİ": 686,
    "é¡": 687,
    "ï¼ļ": 688,
    "å¼Ģ": 689,
    "æı": 690,
    "ĠIn": 691,
    "ä¹Ł": 692,
    "å±ķ": 693,
    "Ġcont": 694,
    "ood": 695,
    "Ġdis": 696,
    "ib": 697,
    "Ġad": 698,
    "ult": 699,
    "Ġwill": 700,
    "ru": 701,
    "Ġinc": 702,
    "cc": 703,
    "ä»ĸ": 704,
    "end": 705,
    "è®¾": 706,
    "Ġmore": 707,
    "éĥ¨": 708,
    "ong": 709,
    "éģ": 710,
    "ap": 711,
    "ï¼ī": 712,
    "å»º": 713,
    "ip": 714,
    "Ġcomp": 715,
    "ï¼Ī": 716,
    "ew": 717,
    "vel": 718,
    "Ġhas": 719,
    "éĿ¢": 720,
    "å®ļ": 721,
    "çĶµ": 722,
    "æľ¬": 723,
    "æĽ": 724,
    "åıĬ": 725,
    "ations": 726,
    "å¢": 727,
    "å¦": 728,
    "èģ": 729,
    "éĽ": 730,
    "Ġres": 731,
    "æĢ§": 732,
    "ä¸»": 733,
    "ere": 734,
    "åĬ¡": 735,
    "åħ¶": 736,
    "so": 737,
    "æ³ķ": 738,
    "orm": 739,
    "Ġdo": 740,
    "ary": 741,
    "é£": 742,
    "ä¹ĭ": 743,
    "åģ": 744,
    "éķ¿": 745,
    "ater": 746,
    "åĬł": 747,
    "å°±": 748,
    "ç¤": 749,
    "ç¬": 750,
    "èī": 751,
    "ĠTh": 752,
    "èµĦ": 753,
    "are": 754,
    "ild": 755,
    "ence": 756,
    "Ġbut": 757,
    "éĩį": 758,
    "Ġother": 759,
    "ĠâĢľ": 760,
    "è·": 761,
    "éĢļ": 762,
    "æį": 763,
    "åº¦": 764,
    "Ġcl": 765,
    "ual": 766,
    "Ġman": 767,
    "è¶": 768,
    "æĻ": 769,
    "Ġwere": 770,
    "èĢħ": 771,
    "åħ³": 772,
    "èĢĮ": 773,
    "able": 774,
    "å¿ĥ": 775,
    "çĻ": 776,
    "ks": 777,
    "çĤ": 778,
    "åı¸": 779,
    "çŁ": 780,
    "æ°´": 781,
    "ry": 782,
    "åĮº": 783,
    "åľº": 784,
    "åīį": 785,
    "æıĲ": 786,
    "ep": 787,
    "å¾Ĺ": 788,
    "ind": 789,
    "Ġone": 790,
    "ance": 791,
    "Ġper": 792,
    "ç¾": 793,
    "åĨħ": 794,
    "ach": 795,
    "Ġalso": 796,
    "å°Ĩ": 797,
    "åĪ¶": 798,
    "'s": 799,
    "åĿ": 800,
    "æīĢ": 801,
    "Ġimp": 802,
    "éĩı": 803,
    "Ġme": 804,
    "reat": 805,
    "ents": 806,
    "ose": 807,
    "çł": 808,
    "è°": 809,
    "Ġte": 810,
    "ake": 811,
    "æĬĢ": 812,
    "ass": 813,
    "åħ¬åı¸": 814,
    "ign": 815,
    "ç®¡": 816,
    "åŃĲ": 817,
    "æ¶": 818,
    "å¥½": 819,
    "av": 820,
    "åºĶ": 821,
    "ress": 822,
    "ase": 823,
    "çĽ®": 824,
    "ĠâĢ": 825,
    "Ġj": 826,
    "æķĻ": 827,
    "æĸĩ": 828,
    "çī©": 829,
    "au": 830,
    "ç³": 831,
    "ç©": 832,
    "ition": 833,
    "ber": 834,
    "Ġar": 835,
    "Ġso": 836,
    "æľĢ": 837,
    "Ġpart": 838,
    "äºĭ": 839,
    "ime": 840,
    "ice": 841,
    "Ġun": 842,
    "è®¡": 843,
    "ä½į": 844,
    "éĹ´": 845,
    "ction": 846,
    "Ġout": 847,
    "å¦Ĥ": 848,
    "very": 849,
    "ç¨ĭ": 850,
    "ä¿Ŀ": 851,
    "ok": 852,
    "ord": 853,
    "æľ¯": 854,
    "ish": 855,
    "Ġapp": 856,
    "one": 857,
    "èĬ": 858,
    "ace": 859,
    "ory": 860,
    "Ġev": 861,
    "åĳĺ": 862,
    "å°ı": 863,
    "Ġabout": 864,
    "èĲ": 865,
    "ire": 866,
    "ens": 867,
    "éļ": 868,
    "æ¯Ķ": 869,
    "éĥ½": 870,
    "Ġwho": 871,
    "10": 872,
    "Ġhis": 873,
    "çĿ": 874,
    "ame": 875,
    "çĸ": 876,
    "ï¼Ľ": 877,
    "æľŁ": 878,
    "ount": 879,
    "åĢ": 880,
    "åħ¥": 881,
    "ack": 882,
    "200": 883,
    "çĽ¸": 884,
    "Ġstud": 885,
    "å§": 886,
    "ĠSt": 887,
    "å¤ĸ": 888,
    "Ġinf": 889,
    "ç±": 890,
    "Ġpe": 891,
    "ç¬¬": 892,
    "å¹¶": 893,
    "å¤©": 894,
    "Ġcomm": 895,
    "éĩĳ": 896,
    "ub": 897,
    "ĠK": 898,
    "éħ": 899,
    "Ġthem": 900,
    "æŁ": 901,
    "ç³»": 902,
    "ç§ĳ": 903,
    "ue": 904,
    "ç§į": 905,
    "Ġsy": 906,
    "Ġsc": 907,
    "ite": 908,
    "çķ": 909,
    "ors": 910,
    "ree": 911,
    "ike": 912,
    "ound": 913,
    "åĲį": 914,
    "æķ°": 915,
    "ang": 916,
    "ces": 917,
    "ä¿¡": 918,
    "now": 919,
    "ãĢĭ": 920,
    "ĠIt": 921,
    "çĹ": 922,
    "ãĢĬ": 923,
    "è¡¨": 924,
    "Ġ\"": 925,
    "éľ": 926,
    "Ġup": 927,
    "åħĥ": 928,
    "low": 929,
    "æĥħ": 930,
    "olog": 931,
    "éĶ": 932,
    "åĽł": 933,
    "ĠCh": 934,
    "Ġbec": 935,
    "ie": 936,
    "ç½ĳ": 937,
    "å¹³": 938,
    "æĽ´": 939,
    "æģ": 940,
    "Ġpre": 941,
    "ile": 942,
    "ä¼ģ": 943,
    "Ġmay": 944,
    "Ġthan": 945,
    "çĤ¹": 946,
    "å®ī": 947,
    "ian": 948,
    "ric": 949,
    "ä¸ī": 950,
    "çĥ": 951,
    "çĦ": 952,
    "è½¦": 953,
    "Ġqu": 954,
    "ä¸ŃåĽ½": 955,
    "å½ĵ": 956,
    "ä»İ": 957,
    "Ġsome": 958,
    "iff": 959,
    "åıĳå±ķ": 960,
    "æĪĳä»¬": 961,
    "Ġbeen": 962,
    "Ġyear": 963,
    "ople": 964,
    "ail": 965,
    "ays": 966,
    "è¯´": 967,
    "ä¸ĵ": 968,
    "ç¾İ": 969,
    "Ġrec": 970,
    "ç¡": 971,
    "éĵ": 972,
    "æ¬¡": 973,
    "Ġthere": 974,
    "Ġwhen": 975,
    "nder": 976,
    "æ´»": 977,
    "å·¥ä½ľ": 978,
    "æ°ĳ": 979,
    "åĪ©": 980,
    "Ġits": 981,
    "ates": 982,
    "ings": 983,
    "mer": 984,
    "ough": 985,
    "è´¨": 986,
    "åŁº": 987,
    "ä¼ģä¸ļ": 988,
    "éģĵ": 989,
    "ĠV": 990,
    "Ġag": 991,
    "ç´": 992,
    "è¿ĺ": 993,
    "Ġgo": 994,
    "æĶ¿": 995,
    "vers": 996,
    "å¼ı": 997,
    "ä½¿": 998,
    "Ġinto": 999,
    "æĦı": 1000,
    "çī¹": 1001,
    "Ġtime": 1002,
    "æĺİ": 1003,
    "Ġtra": 1004,
    "ph": 1005,
    "é¡¹": 1006,
    "æŃ¤": 1007,
    "èĭ": 1008,
    "rit": 1009,
    "Ġwork": 1010,
    "ren": 1011,
    "åķ": 1012,
    "te": 1013,
    "Ġhad": 1014,
    "Ġthese": 1015,
    "rough": 1016,
    "æľį": 1017,
    "æį®": 1018,
    "ĠThis": 1019,
    "åĲĦ": 1020,
    "æĪĸ": 1021,
    "ons": 1022,
    "ally": 1023,
    "éĻ¢": 1024,
    "Ġover": 1025,
    "Ġind": 1026,
    "æłĩ": 1027,
    "é¦": 1028,
    "èĪ": 1029,
    "è§Ħ": 1030,
    "ä»£": 1031,
    "erv": 1032,
    "Ġpeople": 1033,
    "ond": 1034,
    "ç²": 1035,
    "ä¸Ģä¸ª": 1036,
    "lud": 1037,
    "çĿĢ": 1038,
    "18": 1039,
    "ove": 1040,
    "Ġhow": 1041,
    "ms": 1042,
    "Ġdiff": 1043,
    "æĹł": 1044,
    "tern": 1045,
    "ll": 1046,
    "æ¡": 1047,
    "å¢ŀ": 1048,
    "çĦ¶": 1049,
    "ause": 1050,
    "we": 1051,
    "ç¥": 1052,
    "å¸¸": 1053,
    "Ġour": 1054,
    "ä½Ĩ": 1055,
    "æ·": 1056,
    "Ġro": 1057,
    "Ġcons": 1058,
    "ä¸ĩ": 1059,
    "ts": 1060,
    "çłĶ": 1061,
    "Ġra": 1062,
    "Ġcol": 1063,
    "Ġtr": 1064,
    "Ġact": 1065,
    "Ġbet": 1066,
    "ific": 1067,
    "èµ·": 1068,
    "Ġuse": 1069,
    "Ġmost": 1070,
    "å¾Ī": 1071,
    "irst": 1072,
    "æº": 1073,
    "Ġsa": 1074,
    "Ġknow": 1075,
    "ys": 1076,
    "åŀ": 1077,
    "åĪĽ": 1078,
    "ĠY": 1079,
    "ook": 1080,
    "alth": 1081,
    "Ġdes": 1082,
    "lic": 1083,
    "éĩĮ": 1084,
    "å£": 1085,
    "ning": 1086,
    "é£İ": 1087,
    "ject": 1088,
    "Ĥ£": 1089,
    "Ġunder": 1090,
    "Ġlike": 1091,
    "æŀľ": 1092,
    "row": 1093,
    "ious": 1094,
    "ities": 1095,
    "ments": 1096,
    "lect": 1097,
    "Ġwould": 1098,
    "æŃ£": 1099,
    "æĬĢæľ¯": 1100,
    "éĴ": 1101,
    "èį": 1102,
    "èĥ": 1103,
    "åķĨ": 1104,
    "Ġbl": 1105,
    "çĶ±": 1106,
    "æĬ¥": 1107,
    "æĮģ": 1108,
    "è¢": 1109,
    ").": 1110,
    "ä»¶": 1111,
    "å¼º": 1112,
    "Ġtw": 1113,
    "Ġacc": 1114,
    "ç¼": 1115,
    "stem": 1116,
    "å¤Ħ": 1117,
    "ob": 1118,
    "Ġnew": 1119,
    "åı¯ä»¥": 1120,
    "Ġneed": 1121,
    "Ġrel": 1122,
    "ç»Ł": 1123,
    "velop": 1124,
    "éĢł": 1125,
    "Ġsuch": 1126,
    "ient": 1127,
    "è¿Ĳ": 1128,
    "les": 1129,
    "äº¤": 1130,
    "ational": 1131,
    "æł¡": 1132,
    "Ġif": 1133,
    "å·²": 1134,
    "Ġrep": 1135,
    "ffect": 1136,
    "Ġany": 1137,
    "çº§": 1138,
    "éĽĨ": 1139,
    "è·¯": 1140,
    "äºĽ": 1141,
    "Ġhel": 1142,
    "æ±Ĥ": 1143,
    "hed": 1144,
    "èĩ³": 1145,
    "Ġinclud": 1146,
    "è§£": 1147,
    "ç»Ħ": 1148,
    "æĶ¶": 1149,
    "Ġchild": 1150,
    "æµ·": 1151,
    "åħ·": 1152,
    "ular": 1153,
    "ative": 1154,
    "Ġgen": 1155,
    "ple": 1156,
    "éľĢ": 1157,
    "ç»ĵ": 1158,
    "Ġonly": 1159,
    "åįķ": 1160,
    "Ġhelp": 1161,
    "Ġno": 1162,
    "Ġprov": 1163,
    "cess": 1164,
    "çģ": 1165,
    "Ġph": 1166,
    "Ġpr": 1167,
    "Ġwhat": 1168,
    "ç«ĭ": 1169,
    "ä»»": 1170,
    "),": 1171,
    "èĤ²": 1172,
    "è¥": 1173,
    "äºĮ": 1174,
    "ced": 1175,
    "æīĭ": 1176,
    "æİ¥": 1177,
    "å¯¼": 1178,
    "ool": 1179,
    "è¾¾": 1180,
    "æµģ": 1181,
    "Ġfirst": 1182,
    "yp": 1183,
    "çº¿": 1184,
    "æĢ»": 1185,
    "çľĭ": 1186,
    "éĹ¨": 1187,
    "æľįåĬ¡": 1188,
    "Ġmany": 1189,
    "Ġthrough": 1190,
    "ï¼Įåľ¨": 1191,
    "ov": 1192,
    "è¥¿": 1193,
    "Ġused": 1194,
    "ating": 1195,
    "ne": 1196,
    "åŁİ": 1197,
    "é¢ĺ": 1198,
    "éª": 1199,
    "Ġprodu": 1200,
    "Ġoff": 1201,
    "è¢«": 1202,
    "ĠUn": 1203,
    "ä¼ł": 1204,
    "uc": 1205,
    "åŀĭ": 1206,
    "ç¤º": 1207,
    "iet": 1208,
    "çĲĥ": 1209,
    "erm": 1210,
    "Ġam": 1211,
    "æ°Ķ": 1212,
    "oss": 1213,
    "Ġem": 1214,
    "fter": 1215,
    "âĢĶ": 1216,
    "Ġdevelop": 1217,
    "èģĶ": 1218,
    "ise": 1219,
    "int": 1220,
    "åĲĳ": 1221,
    "12": 1222,
    "åıĹ": 1223,
    "Ġspec": 1224,
    "çľģ": 1225,
    "Ġreg": 1226,
    "round": 1227,
    "Ġpo": 1228,
    "é©": 1229,
    "æ»": 1230,
    "å½±": 1231,
    "ath": 1232,
    "ink": 1233,
    "çĪ": 1234,
    "å¹¿": 1235,
    "Ġfe": 1236,
    "æł¼": 1237,
    "å¸Ī": 1238,
    "rib": 1239,
    "Ġac": 1240,
    "ä¸ľ": 1241,
    "ful": 1242,
    "uring": 1243,
    "åįĹ": 1244,
    "çĹħ": 1245,
    "ark": 1246,
    "åİŁ": 1247,
    "æ¸¸": 1248,
    "hen": 1249,
    "ics": 1250,
    "Ġexp": 1251,
    "Ġtwo": 1252,
    "æºĲ": 1253,
    "èº": 1254,
    "èĲ¥": 1255,
    "è£": 1256,
    "ä¾Ľ": 1257,
    "ç®¡çĲĨ": 1258,
    "çİ¯": 1259,
    "iss": 1260,
    "Ġsystem": 1261,
    "èī²": 1262,
    "èİ": 1263,
    "å¤ĩ": 1264,
    "åĮ»": 1265,
    "ility": 1266,
    "ç¤¾": 1267,
    "eth": 1268,
    "old": 1269,
    "ied": 1270,
    "oth": 1271,
    "åĸ": 1272,
    "Ġob": 1273,
    "è¿Ľè¡Į": 1274,
    "åħ±": 1275,
    "åİ»": 1276,
    "ä½ł": 1277,
    "èĮ": 1278,
    "çŁ¥": 1279,
    "Ġatt": 1280,
    "åĽ¢": 1281,
    "äº§åĵģ": 1282,
    "Ġdiffere": 1283,
    "Ġdec": 1284,
    "æĦŁ": 1285,
    "ert": 1286,
    "15": 1287,
    "æķĪ": 1288,
    "ower": 1289,
    "ife": 1290,
    "ä¸¤": 1291,
    "èĦ": 1292,
    "åįģ": 1293,
    "èº«": 1294,
    "å±±": 1295,
    "ĠHe": 1296,
    "rop": 1297,
    "ible": 1298,
    "Ġ-": 1299,
    "Ġass": 1300,
    "åģļ": 1301,
    "æĸĻ": 1302,
    "æł·": 1303,
    "ĠâĢĵ": 1304,
    "ten": 1305,
    "ä»·": 1306,
    "ç±»": 1307,
    "als": 1308,
    "ç¦": 1309,
    "Ġsur": 1310,
    "è¯ģ": 1311,
    "åĮĹ": 1312,
    "åı°": 1313,
    "ased": 1314,
    "Ġshould": 1315,
    "åĻ": 1316,
    "ange": 1317,
    "In": 1318,
    "aw": 1319,
    "Ġsupp": 1320,
    "Ġadd": 1321,
    "ng": 1322,
    "ä¸ĸ": 1323,
    "æĬķ": 1324,
    "arch": 1325,
    "fore": 1326,
    "åıĺ": 1327,
    "èĢĥ": 1328,
    "Ġwell": 1329,
    "sel": 1330,
    "ram": 1331,
    "éĹ®": 1332,
    "æ²»": 1333,
    "ures": 1334,
    "æ£": 1335,
    "ä¼ĺ": 1336,
    "ween": 1337,
    "Ġyears": 1338,
    "æİ¨": 1339,
    "ï¼Įè¿Ļ": 1340,
    "ract": 1341,
    "é¢Ĩ": 1342,
    "åħĪ": 1343,
    "Ġrem": 1344,
    "ble": 1345,
    "own": 1346,
    "gan": 1347,
    "åĩĨ": 1348,
    "ade": 1349,
    "èµĽ": 1350,
    "Ġinv": 1351,
    "?Ċ": 1352,
    "Ġco": 1353,
    "å²": 1354,
    "Ġwater": 1355,
    "åĽ½å®¶": 1356,
    "æ²¡": 1357,
    "Ġfl": 1358,
    "ä¹¦": 1359,
    "èĬĤ": 1360,
    "åĻ¨": 1361,
    "cy": 1362,
    ":Ċ": 1363,
    "å½¢": 1364,
    "è®¤": 1365,
    "Ġcould": 1366,
    "æģ¯": 1367,
    "Ġhealth": 1368,
    "è®©": 1369,
    "Ġsub": 1370,
    "åı£": 1371,
    "æĪ·": 1372,
    "æĸ½": 1373,
    "Ġbetween": 1374,
    "è°ĥ": 1375,
    "åĬŀ": 1376,
    "æĶ¹": 1377,
    "ï¼Įä½Ĩ": 1378,
    "ily": 1379,
    "hes": 1380,
    "land": 1381,
    "ution": 1382,
    "Ġsm": 1383,
    "wn": 1384,
    "å¸ĥ": 1385,
    "å®Į": 1386,
    "ä¹Ī": 1387,
    "ï¼Įå¹¶": 1388,
    "æ¯ı": 1389,
    "å·±": 1390,
    "çĻ½": 1391,
    "è´¹": 1392,
    "its": 1393,
    "Ġhigh": 1394,
    "éĢī": 1395,
    "Ġwhere": 1396,
    "æĥ³": 1397,
    "å°ĳ": 1398,
    "æ®": 1399,
    "åĶ": 1400,
    "å¸Ĥåľº": 1401,
    "Ġpers": 1402,
    "Ġpres": 1403,
    "ick": 1404,
    "éĻħ": 1405,
    "uch": 1406,
    "Ġher": 1407,
    "çĽ´": 1408,
    "å¸¦": 1409,
    "Ġear": 1410,
    "éĺŁ": 1411,
    "åĪ«": 1412,
    "Ġmake": 1413,
    "ç©¶": 1414,
    "åıĸ": 1415,
    "ss": 1416,
    "Ġget": 1417,
    "Ġinter": 1418,
    "ever": 1419,
    "form": 1420,
    "Ġbu": 1421,
    "é»": 1422,
    "ident": 1423,
    "è¾ĥ": 1424,
    "11": 1425,
    "30": 1426,
    "æ¼": 1427,
    "ants": 1428,
    "å®¢": 1429,
    "èĩªå·±": 1430,
    "ology": 1431,
    "ting": 1432,
    "çķĮ": 1433,
    "ited": 1434,
    "ivers": 1435,
    "Ġtrans": 1436,
    "Ġrese": 1437,
    "åıĤ": 1438,
    "Ġmed": 1439,
    "æĶ¯": 1440,
    "Ġimport": 1441,
    "ä»Ĭ": 1442,
    "xt": 1443,
    "chool": 1444,
    "Ġpol": 1445,
    "Ġdisc": 1446,
    "æĶ¾": 1447,
    "Ġform": 1448,
    "chn": 1449,
    "ists": 1450,
    "ç©º": 1451,
    "çĥŃ": 1452,
    "ç²¾": 1453,
    "åıª": 1454,
    "è®°": 1455,
    "æĿ¡": 1456,
    "ines": 1457,
    "éĻĲ": 1458,
    "æŀĦ": 1459,
    "ron": 1460,
    "ural": 1461,
    "âĢĻt": 1462,
    "åįİ": 1463,
    "æĮĩ": 1464,
    "è¯¥": 1465,
    "ience": 1466,
    "Ġmod": 1467,
    "ï¼Įä¸į": 1468,
    "Ġinst": 1469,
    "æ³¨": 1470,
    "Ġexam": 1471,
    "æķ´": 1472,
    "Ġfound": 1473,
    "è¿ĳ": 1474,
    "åĽĽ": 1475,
    "ft": 1476,
    "meric": 1477,
    "è§Ĩ": 1478,
    "Ġnum": 1479,
    "ins": 1480,
    "gy": 1481,
    "Ġlong": 1482,
    "æ¨": 1483,
    "è§Ĥ": 1484,
    "éĺ²": 1485,
    "oy": 1486,
    "Ġhum": 1487,
    "ict": 1488,
    "ism": 1489,
    "Ġlear": 1490,
    "éĤ£": 1491,
    "Ġeven": 1492,
    "ually": 1493,
    "å±Ģ": 1494,
    "é¡¹çĽ®": 1495,
    "Ġthen": 1496,
    "ata": 1497,
    "Ġbecause": 1498,
    "æ¶Ī": 1499,
    "åħī": 1500,
    "éĿŀ": 1501,
    "âĢĿĊ": 1502,
    "å»ºè®¾": 1503,
    "æ·±": 1504,
    "æŃ¥": 1505,
    "Ġafter": 1506,
    "èĢģ": 1507,
    "Ġinform": 1508,
    "åĮħ": 1509,
    "Ġvery": 1510,
    "ef": 1511,
    "çłĶç©¶": 1512,
    "Ġworld": 1513,
    "Ġcent": 1514,
    "ness": 1515,
    "çħ": 1516,
    "hat": 1517,
    "äº¿": 1518,
    "Ġlar": 1519,
    "Ġway": 1520,
    "Ġjust": 1521,
    "å¢ĥ": 1522,
    "Ġdifferent": 1523,
    "16": 1524,
    "Ġeffect": 1525,
    "urn": 1526,
    "ature": 1527,
    "other": 1528,
    "èĻ": 1529,
    "Ġcount": 1530,
    ")Ċ": 1531,
    "éªĮ": 1532,
    "Ġexper": 1533,
    "æĤ": 1534,
    "cept": 1535,
    "Ġed": 1536,
    "è¯ķ": 1537,
    "ç«Ļ": 1538,
    "ç¡®": 1539,
    "Ġsim": 1540,
    "åĽŀ": 1541,
    "Ġincre": 1542,
    "ä¹Ĳ": 1543,
    "ç»Ļ": 1544,
    "aking": 1545,
    "è£ħ": 1546,
    "å¤į": 1547,
    "çĬ": 1548,
    "Ġdet": 1549,
    "ç»Ń": 1550,
    "vent": 1551,
    "å·ŀ": 1552,
    "Ġsoc": 1553,
    "ä½¿çĶ¨": 1554,
    "Ġsee": 1555,
    "æķĻèĤ²": 1556,
    "æīį": 1557,
    "å®¹": 1558,
    "17": 1559,
    "æµİ": 1560,
    "çİĩ": 1561,
    "åĬŁ": 1562,
    "Ġfol": 1563,
    "æĪĺ": 1564,
    "ically": 1565,
    "Ġtyp": 1566,
    "ä½İ": 1567,
    "éĢŁ": 1568,
    "æĸ¯": 1569,
    "Ġcar": 1570,
    "éĢļè¿ĩ": 1571,
    "Ġref": 1572,
    "Ġcall": 1573,
    "ork": 1574,
    "Ġthose": 1575,
    "Ġpub": 1576,
    "ives": 1577,
    "çĶŁäº§": 1578,
    "æĹ¶éĹ´": 1579,
    "get": 1580,
    "æ¢": 1581,
    "å§Ķ": 1582,
    "Ġke": 1583,
    "ĠAmeric": 1584,
    "ck": 1585,
    "æ¹": 1586,
    "å®ĥ": 1587,
    "Ġgener": 1588,
    "Ġext": 1589,
    "åı·": 1590,
    "omm": 1591,
    "Ġresp": 1592,
    "éŁ": 1593,
    "ps": 1594,
    "åĨ³": 1595,
    "Ġevery": 1596,
    "è½¬": 1597,
    "æ²¡æľī": 1598,
    "Ġsaid": 1599,
    "tle": 1600,
    "é£Ł": 1601,
    "Ġsign": 1602,
    "ï¼Ł": 1603,
    "ues": 1604,
    "æīĵ": 1605,
    "åĬ©": 1606,
    "arm": 1607,
    "Ġsec": 1608,
    "ï¼Įä»¥": 1609,
    "cer": 1610,
    "Ġfact": 1611,
    "iew": 1612,
    "con": 1613,
    "åĳĬ": 1614,
    "Ġbeing": 1615,
    "èģĮ": 1616,
    "æıĲä¾Ľ": 1617,
    "æĿĲ": 1618,
    "æĬ¤": 1619,
    "ases": 1620,
    "50": 1621,
    "ruct": 1622,
    "Ġprog": 1623,
    "æľª": 1624,
    "Ġloc": 1625,
    "Ġart": 1626,
    "æĿĥ": 1627,
    "é¥": 1628,
    "led": 1629,
    "Ġvar": 1630,
    "æĺĵ": 1631,
    "199": 1632,
    "ï¼ĮèĢĮ": 1633,
    "åįĩ": 1634,
    "Ġmy": 1635,
    "èİ·": 1636,
    "è±": 1637,
    "Ġlife": 1638,
    "å¿«": 1639,
    "Ġpartic": 1640,
    "Ġpat": 1641,
    "Ġset": 1642,
    "Ġchildren": 1643,
    "Ġfam": 1644,
    "ç§¯": 1645,
    "Ġca": 1646,
    "Ġdef": 1647,
    "..": 1648,
    "Ġresult": 1649,
    "Ġcommun": 1650,
    "vern": 1651,
    "Ġgra": 1652,
    "ds": 1653,
    "Ġeach": 1654,
    "æ¨¡": 1655,
    "Ġdist": 1656,
    "iron": 1657,
    "çľŁ": 1658,
    "Th": 1659,
    "è¶ħ": 1660,
    "Ġprocess": 1661,
    "ĠAl": 1662,
    "é¦ĸ": 1663,
    "å¼ķ": 1664,
    "æŁ¥": 1665,
    "çº¦": 1666,
    "çĸĹ": 1667,
    "ç§°": 1668,
    "ï¼Įä¹Ł": 1669,
    "Ġshe": 1670,
    "ç¥ŀ": 1671,
    "Ġimportant": 1672,
    "ather": 1673,
    "Ġmuch": 1674,
    "ĠPro": 1675,
    "ä¸ĵä¸ļ": 1676,
    "Ġown": 1677,
    "ody": 1678,
    "Ġinformation": 1679,
    "å·¥ç¨ĭ": 1680,
    "åĪĴ": 1681,
    "Ġduring": 1682,
    "Ġtechn": 1683,
    "è´£": 1684,
    "ages": 1685,
    "ward": 1686,
    "Ġdep": 1687,
    "æ¸ħ": 1688,
    "æİ§": 1689,
    "ç´ł": 1690,
    "ved": 1691,
    "io": 1692,
    "Ġrequ": 1693,
    "Ġcre": 1694,
    "Ġent": 1695,
    "ç»ıæµİ": 1696,
    "é¢Ħ": 1697,
    "Ġmon": 1698,
    "ä»ĸä»¬": 1699,
    "æł¹": 1700,
    "ĠWe": 1701,
    "å¤´": 1702,
    "Ġlead": 1703,
    "åŃ¦çĶŁ": 1704,
    "Ġright": 1705,
    "cent": 1706,
    "Ġfollow": 1707,
    "è®®": 1708,
    "imes": 1709,
    "ized": 1710,
    "Ġaut": 1711,
    "ç±³": 1712,
    "202": 1713,
    "åĨľ": 1714,
    "14": 1715,
    "éĹ®é¢ĺ": 1716,
    "Ġread": 1717,
    "éĩĩ": 1718,
    "ĠThey": 1719,
    "åĢ¼": 1720,
    "ĠAs": 1721,
    "ection": 1722,
    "ices": 1723,
    "Ġsame": 1724,
    "è®¾è®¡": 1725,
    "è¡Įä¸ļ": 1726,
    "Ġlevel": 1727,
    "__": 1728,
    "æ¡Ī": 1729,
    "æĢģ": 1730,
    "ĠAr": 1731,
    "åĵį": 1732,
    "ä¸»è¦ģ": 1733,
    "hip": 1734,
    "gg": 1735,
    "Ġmade": 1736,
    "Ġgrow": 1737,
    "ç¤¾ä¼ļ": 1738,
    "any": 1739,
    "ĠRe": 1740,
    "Ġperson": 1741,
    "ï¼Įæĺ¯": 1742,
    "ä¿¡æģ¯": 1743,
    "Ġdoes": 1744,
    "èĤ¡": 1745,
    "è¯Ĩ": 1746,
    "è¶Ĭ": 1747,
    "åŁŁ": 1748,
    "è¯·": 1749,
    "Ġsk": 1750,
    "æĺ¾": 1751,
    "äºĶ": 1752,
    "ç³»ç»Ł": 1753,
    "Ġstudents": 1754,
    "Ġgood": 1755,
    "å¾·": 1756,
    "å®īåħ¨": 1757,
    "Ġmin": 1758,
    "è§ģ": 1759,
    "Ġend": 1760,
    "Ġins": 1761,
    "Ġback": 1762,
    "è®º": 1763,
    "ĠAn": 1764,
    "åĳ¨": 1765,
    "Ġfind": 1766,
    "ted": 1767,
    "çı": 1768,
    "ĠIf": 1769,
    "åİĨ": 1770,
    "èīº": 1771,
    "Ġstudy": 1772,
    "å§ĭ": 1773,
    "ize": 1774,
    "æŀģ": 1775,
    "Ġdata": 1776,
    "ale": 1777,
    "Ġpop": 1778,
    "èĮĥ": 1779,
    "Ġcur": 1780,
    "Ġfood": 1781,
    "æĹħ": 1782,
    "æ±Ł": 1783,
    "ĠFor": 1784,
    "Ġstr": 1785,
    "å£«": 1786,
    "ars": 1787,
    "Ġav": 1788,
    "und": 1789,
    "Ġproble": 1790,
    "Ġschool": 1791,
    "éĶĢ": 1792,
    "åĨµ": 1793,
    "Ġhist": 1794,
    "å¡": 1795,
    "Ġboth": 1796,
    "ä¹ł": 1797,
    "Ġbefore": 1798,
    "Ġche": 1799,
    "åħ»": 1800,
    "èĬ±": 1801,
    "è¯Ħ": 1802,
    "iversity": 1803,
    "åĨį": 1804,
    "ince": 1805,
    "æĪ¿": 1806,
    "viron": 1807,
    "inal": 1808,
    "ax": 1809,
    "âĢĿï¼Į": 1810,
    "Ġshow": 1811,
    "äº¬": 1812,
    "çīĩ": 1813,
    "é©¬": 1814,
    "éľĢè¦ģ": 1815,
    "Ġcomple": 1816,
    "æĴ": 1817,
    "ä¼Ĺ": 1818,
    "èŀ": 1819,
    ".,": 1820,
    "Ġagain": 1821,
    "åĽŃ": 1822,
    "æĸĩåĮĸ": 1823,
    "Ġgrou": 1824,
    "çĪ±": 1825,
    "æĻ¯": 1826,
    "Ġexpl": 1827,
    "Ġusing": 1828,
    "imate": 1829,
    "Ġsmall": 1830,
    "ty": 1831,
    "æ¸©": 1832,
    "åĪĻ": 1833,
    "æ´»åĬ¨": 1834,
    "ĠNew": 1835,
    "ĠCon": 1836,
    "orn": 1837,
    "irect": 1838,
    "oh": 1839,
    "èĩ´": 1840,
    "Ġdi": 1841,
    "åįı": 1842,
    "äº§ä¸ļ": 1843,
    "ral": 1844,
    "der": 1845,
    "æİĴ": 1846,
    "the": 1847,
    "è¶³": 1848,
    "æµĭ": 1849,
    "Ġcell": 1850,
    "çĶŁæ´»": 1851,
    "å°±æĺ¯": 1852,
    "ially": 1853,
    "æĸŃ": 1854,
    "Ġmain": 1855,
    "read": 1856,
    "13": 1857,
    "Ġbo": 1858,
    "ined": 1859,
    "Ġtreat": 1860,
    "omen": 1861,
    "nce": 1862,
    "ç»´": 1863,
    "iel": 1864,
    "åĲĮæĹ¶": 1865,
    "Ġoften": 1866,
    "ished": 1867,
    "äººåĳĺ": 1868,
    "åģ¥": 1869,
    "Ġprot": 1870,
    "åĪĹ": 1871,
    "ĠHow": 1872,
    "éĻį": 1873,
    "éħį": 1874,
    "Ġgl": 1875,
    "ä¾ĭ": 1876,
    "ä½ķ": 1877,
    "stand": 1878,
    "ran": 1879,
    "ä¸ĸçķĮ": 1880,
    "åŃĺ": 1881,
    "Ġtest": 1882,
    "ä¸Ķ": 1883,
    "ality": 1884,
    "æ£Ģ": 1885,
    "ute": 1886,
    "Ġstate": 1887,
    "ivid": 1888,
    "Ġpower": 1889,
    "Ġwhile": 1890,
    "Ġhim": 1891,
    "Ġsol": 1892,
    "ix": 1893,
    "åĽ½éĻħ": 1894,
    "ien": 1895,
    "Ġtake": 1896,
    "åİĭ": 1897,
    "rol": 1898,
    "æĪĲä¸º": 1899,
    "Ġposs": 1900,
    "Ġdise": 1901,
    "100": 1902,
    "Ġnow": 1903,
    "Ġless": 1904,
    "æĬĬ": 1905,
    "ury": 1906,
    "Ġday": 1907,
    "æĸ¹éĿ¢": 1908,
    "éĻ¤": 1909,
    "æĳ": 1910,
    "ergy": 1911,
    "çĽ¸åħ³": 1912,
    "å°Ķ": 1913,
    "éļ¾": 1914,
    "çĭ": 1915,
    "Ġvis": 1916,
    "Ġlit": 1917,
    "åºĹ": 1918,
    "ä¸Ńå¿ĥ": 1919,
    "å¥³": 1920,
    "åºľ": 1921,
    "Ġris": 1922,
    "ï¼ģ": 1923,
    "å¤§åŃ¦": 1924,
    "åħļ": 1925,
    "ulation": 1926,
    "ĠInd": 1927,
    "Ġorgan": 1928,
    "çª": 1929,
    "çħ§": 1930,
    "akes": 1931,
    "Ġprovid": 1932,
    "Ġsupport": 1933,
    "èĳ": 1934,
    "Ġhuman": 1935,
    "å¿ħ": 1936,
    "Ġmem": 1937,
    "Ġserv": 1938,
    "Ġchar": 1939,
    "åıį": 1940,
    "cl": 1941,
    "ï¼Įåħ¶": 1942,
    "vironment": 1943,
    "Ġval": 1944,
    "äºļ": 1945,
    "ex": 1946,
    "åİ¿": 1947,
    ").Ċ": 1948,
    "çĽĳ": 1949,
    "å½±åĵį": 1950,
    "ier": 1951,
    "iving": 1952,
    "air": 1953,
    "éĩįè¦ģ": 1954,
    "æ¼Ķ": 1955,
    "çīĮ": 1956,
    "Ġocc": 1957,
    "ered": 1958,
    "Ġfun": 1959,
    "Ġresearch": 1960,
    "éļı": 1961,
    "æĻº": 1962,
    "éħĴ": 1963,
    "èħ": 1964,
    "Ġnumber": 1965,
    "åŃĹ": 1966,
    "dition": 1967,
    "ï¼Įä¸Ģ": 1968,
    "Ġdown": 1969,
    "ç»ĩ": 1970,
    "ĠSp": 1971,
    "iety": 1972,
    "åıĪ": 1973,
    "åĬ¿": 1974,
    "ock": 1975,
    "Ġaround": 1976,
    "Ġbody": 1977,
    "uss": 1978,
    "Ġthree": 1979,
    "Ġactiv": 1980,
    "Ġbel": 1981,
    "ves": 1982,
    "ters": 1983,
    "èį¯": 1984,
    "Ġser": 1985,
    "ï¼Įä¸º": 1986,
    "çİ¯å¢ĥ": 1987,
    "Ġclass": 1988,
    "Ġland": 1989,
    "com": 1990,
    "up": 1991,
    "||": 1992,
    "ä»½": 1993,
    "æ®µ": 1994,
    "Ġdesign": 1995,
    "Ġlook": 1996,
    "çŁ³": 1997,
    "Ġmust": 1998,
    "Ġhand": 1999,
    "æĬķèµĦ": 2000,
    "self": 2001,
    "000": 2002,
    "è¦ģæ±Ĥ": 2003,
    "èŀį": 2004,
    "ital": 2005,
    "Ġdid": 2006,
    "åĿĩ": 2007,
    "Ġgovern": 2008,
    "ĠSc": 2009,
    "Ġgreat": 2010,
    "ĠBut": 2011,
    "å¹²": 2012,
    "ï¼Įæľī": 2013,
    "ven": 2014,
    "iqu": 2015,
    "ï¼ĮæĪĳ": 2016,
    "ç¦»": 2017,
    "æ»¡": 2018,
    "ah": 2019,
    "é¾": 2020,
    "Ġplan": 2021,
    "çĬ¶": 2022,
    "åº·": 2023,
    "Ġest": 2024,
    "Ġcontin": 2025,
    "Ġredu": 2026,
    "hers": 2027,
    "ium": 2028,
    "æħ": 2029,
    "å¼ł": 2030,
    "eg": 2031,
    "éĢĤ": 2032,
    "âĢĿçļĦ": 2033,
    "åĩł": 2034,
    "Ġstart": 2035,
    "ç®Ĺ": 2036,
    "è¯Ŀ": 2037,
    "Ġcommon": 2038,
    "å±ŀ": 2039,
    "ave": 2040,
    "aj": 2041,
    "ains": 2042,
    "åħ·æľī": 2043,
    "æĿĳ": 2044,
    "Ġelect": 2045,
    "ving": 2046,
    "ee": 2047,
    "åį³": 2048,
    "èı": 2049,
    "Ġexample": 2050,
    "rent": 2051,
    "åĦ": 2052,
    "å¢ŀéķ¿": 2053,
    "æļ": 2054,
    "Ġcour": 2055,
    "æĤ£": 2056,
    "ä»ħ": 2057,
    "25": 2058,
    "Ġlarge": 2059,
    "å¥ĸ": 2060,
    "æĺŁ": 2061,
    "Ġconf": 2062,
    "å·²ç»ı": 2063,
    "day": 2064,
    "åĭ": 2065,
    "åŃ¦æł¡": 2066,
    "çĻ¾": 2067,
    "acter": 2068,
    ",âĢĿ": 2069,
    "ared": 2070,
    "gen": 2071,
    "ç¬¬ä¸Ģ": 2072,
    "éŁ³": 2073,
    "This": 2074,
    "ouse": 2075,
    "ger": 2076,
    "åĶ®": 2077,
    "åı¯èĥ½": 2078,
    "âĢĵ": 2079,
    "way": 2080,
    "itions": 2081,
    "ä¾Ŀ": 2082,
    "æĢĿ": 2083,
    "Ġcle": 2084,
    "å®¤": 2085,
    "ross": 2086,
    "Ġcare": 2087,
    "æĶ¿åºľ": 2088,
    "ĠYou": 2089,
    "åĳ½": 2090,
    "è´Ł": 2091,
    "æ²¹": 2092,
    "Ġthough": 2093,
    "æĥħåĨµ": 2094,
    "åħĭ": 2095,
    "ring": 2096,
    "-b": 2097,
    "åĽ¾": 2098,
    "-s": 2099,
    "ĠIs": 2100,
    "ç½®": 2101,
    "æķ°æį®": 2102,
    "èĥ½åĬĽ": 2103,
    "çļĦä¸Ģ": 2104,
    "ä¹ī": 2105,
    "ional": 2106,
    "åĨĽ": 2107,
    "ä¾¿": 2108,
    "åŁİå¸Ĥ": 2109,
    "Ġreport": 2110,
    "Ġincluding": 2111,
    "ç§ĳæĬĢ": 2112,
    "å¥¹": 2113,
    "Ġcor": 2114,
    "æī¿": 2115,
    "çĽĬ": 2116,
    "Ġbuild": 2117,
    "è¿ŀ": 2118,
    "çĽ®åīį": 2119,
    "éĺ³": 2120,
    "å¦Ĥæŀľ": 2121,
    "Ġret": 2122,
    "Ġop": 2123,
    "åĽłä¸º": 2124,
    "éĽĨåĽ¢": 2125,
    "Ġsom": 2126,
    "è®¸": 2127,
    "reen": 2128,
    "ç¢": 2129,
    "æł¸": 2130,
    "èĭ±": 2131,
    "Ġcalled": 2132,
    "Ġallow": 2133,
    "éĤ": 2134,
    "Ġconst": 2135,
    "ull": 2136,
    "ä½ľä¸º": 2137,
    "çļĦäºº": 2138,
    "ãĢĤåľ¨": 2139,
    "æ¬¾": 2140,
    "è®¾å¤ĩ": 2141,
    "Ġpublic": 2142,
    "Ġknown": 2143,
    "åįķä½į": 2144,
    "Ġeduc": 2145,
    "èĲ½": 2146,
    "rain": 2147,
    "ash": 2148,
    "æĮī": 2149,
    "ç»Ĩ": 2150,
    "çİĭ": 2151,
    "ĠAnd": 2152,
    "åĦ¿": 2153,
    "ä¸¥": 2154,
    "æĿ¿": 2155,
    "å¤ª": 2156,
    "æ±½": 2157,
    "Ġwrit": 2158,
    "Ġstill": 2159,
    "ination": 2160,
    "åŁ¹": 2161,
    "Ġmet": 2162,
    "åĽ´": 2163,
    "åĪĽæĸ°": 2164,
    "ï¼Įå¯¹": 2165,
    "çĮ": 2166,
    "ĠâĢĺ": 2167,
    "ä»Ģ": 2168,
    "ä¸¾": 2169,
    "å¨": 2170,
    "esp": 2171,
    "æľĽ": 2172,
    "els": 2173,
    "ĠThere": 2174,
    "éĿĴ": 2175,
    "Ġthink": 2176,
    "Ġadv": 2177,
    "çŃĳ": 2178,
    "æľīéĻĲ": 2179,
    "æŀĹ": 2180,
    "Ġbeh": 2181,
    "iver": 2182,
    "è±¡": 2183,
    "æĭī": 2184,
    "åŃ£": 2185,
    "å±Ĥ": 2186,
    "ids": 2187,
    "ç»Ħç»ĩ": 2188,
    "iven": 2189,
    "Ġdr": 2190,
    "osed": 2191,
    "inc": 2192,
    "ä½ı": 2193,
    "åĩı": 2194,
    "erest": 2195,
    "outh": 2196,
    "ä¿®": 2197,
    "oms": 2198,
    "Ġsocial": 2199,
    "Ġgu": 2200,
    "Ġequ": 2201,
    "Ġunderstand": 2202,
    "lish": 2203,
    "éĵģ": 2204,
    "Ġfew": 2205,
    "Ġide": 2206,
    "ired": 2207,
    "oci": 2208,
    "aterial": 2209,
    "ected": 2210,
    "æĲ": 2211,
    "tt": 2212,
    ".\"": 2213,
    "itive": 2214,
    "è¯Ń": 2215,
    "åħħ": 2216,
    "çŃĸ": 2217,
    "æ²³": 2218,
    "Ġmight": 2219,
    "Ġquest": 2220,
    "éĻ©": 2221,
    "ived": 2222,
    "Ġappro": 2223,
    "ior": 2224,
    "Ġmat": 2225,
    "iod": 2226,
    "Ġpract": 2227,
    "äºĴ": 2228,
    "èµ°": 2229,
    "ential": 2230,
    "åĲĪä½ľ": 2231,
    "bers": 2232,
    "å¤§çļĦ": 2233,
    "ividual": 2234,
    "Ġeas": 2235,
    "å¤ĦçĲĨ": 2236,
    "ĠWh": 2237,
    "ĠEng": 2238,
    "40": 2239,
    "ization": 2240,
    "Ġ&": 2241,
    "ense": 2242,
    "Ġplace": 2243,
    "å¥½çļĦ": 2244,
    "conom": 2245,
    "de": 2246,
    "me": 2247,
    "Ġwithout": 2248,
    "ä»Ģä¹Ī": 2249,
    "ources": 2250,
    "eral": 2251,
    "è´¨éĩı": 2252,
    "ries": 2253,
    "Ġdirect": 2254,
    "Ġchang": 2255,
    "æł¹æį®": 2256,
    "Ġiss": 2257,
    "åľŁ": 2258,
    "åĥ": 2259,
    "ĠThese": 2260,
    "Ġphys": 2261,
    "å¾Ģ": 2262,
    "åĸĦ": 2263,
    "Ġtem": 2264,
    "åĢĻ": 2265,
    "å®ŀçİ°": 2266,
    "è¡¨ç¤º": 2267,
    "Ġenvironment": 2268,
    "Ġchange": 2269,
    "raph": 2270,
    "Ġstand": 2271,
    "å»ºçŃĳ": 2272,
    "ner": 2273,
    "ĠUniversity": 2274,
    "Ġcaus": 2275,
    "åı²": 2276,
    "åħ¨åĽ½": 2277,
    "åĪĩ": 2278,
    "ians": 2279,
    "man": 2280,
    "ĠDe": 2281,
    "Ġdem": 2282,
    "æłĩåĩĨ": 2283,
    "Ġwant": 2284,
    "èĪª": 2285,
    "less": 2286,
    "å¿µ": 2287,
    "Ġwithin": 2288,
    "rist": 2289,
    "ä¸ŃçļĦ": 2290,
    "ason": 2291,
    "ering": 2292,
    "ertain": 2293,
    "ä¸įåĲĮ": 2294,
    "ç»Ī": 2295,
    "çº¢": 2296,
    "ï¼ĮæĪĳä»¬": 2297,
    "äº¿åħĥ": 2298,
    "Ġlaw": 2299,
    "å¤±": 2300,
    "è´¢": 2301,
    "æī¹": 2302,
    "ording": 2303,
    "è¿Ļä¸ª": 2304,
    "å¤Ł": 2305,
    "oun": 2306,
    "Ġident": 2307,
    "line": 2308,
    "æĻ®": 2309,
    "Ġproduct": 2310,
    "æĭ¬": 2311,
    "Ġbre": 2312,
    "Ġpresent": 2313,
    "orth": 2314,
    "Ġdisease": 2315,
    "eng": 2316,
    "çĸ«": 2317,
    "ration": 2318,
    "Ġmus": 2319,
    "âĢ¦": 2320,
    "å½ķ": 2321,
    "Ġdon": 2322,
    "alk": 2323,
    "åħį": 2324,
    "Ġenergy": 2325,
    "çļ®": 2326,
    "ä»¥åıĬ": 2327,
    "ffic": 2328,
    "ethod": 2329,
    "ä»¥ä¸Ĭ": 2330,
    "Ġsym": 2331,
    "äººæ°ĳ": 2332,
    "ability": 2333,
    "Ġindividual": 2334,
    "Ġanother": 2335,
    "ental": 2336,
    "åºĶçĶ¨": 2337,
    "Ġlearn": 2338,
    "24": 2339,
    "çıŃ": 2340,
    "å£°": 2341,
    "è´Ń": 2342,
    "éĥ¨åĪĨ": 2343,
    "èī¯": 2344,
    "å¯Į": 2345,
    "äºī": 2346,
    "Ġdevelopment": 2347,
    "Ġpur": 2348,
    "Ġcap": 2349,
    "illion": 2350,
    "åıĮ": 2351,
    "--": 2352,
    "Ġmaterial": 2353,
    "Ġrest": 2354,
    "èµĦæºĲ": 2355,
    "iness": 2356,
    "Ġplay": 2357,
    "è¨": 2358,
    "å¼Ģå§ĭ": 2359,
    "Ġben": 2360,
    "ĠAmerican": 2361,
    "ton": 2362,
    "Ġimpro": 2363,
    "Ġsl": 2364,
    "Ġsit": 2365,
    "Ġdesc": 2366,
    "ets": 2367,
    "ption": 2368,
    "è¨Ģ": 2369,
    "Ġpot": 2370,
    "Ġprof": 2371,
    "ris": 2372,
    "å¾®": 2373,
    "åĮħæĭ¬": 2374,
    "Ġbelie": 2375,
    "åĲ«": 2376,
    "ccess": 2377,
    "åħ¶ä»ĸ": 2378,
    "åŃ¦ä¹ł": 2379,
    "Ġpos": 2380,
    "It": 2381,
    "åĪĿ": 2382,
    "Ġhome": 2383,
    "agn": 2384,
    "ik": 2385,
    "Ġve": 2386,
    "Ġinterest": 2387,
    "åį«": 2388,
    "Ġwomen": 2389,
    "az": 2390,
    "éĴ¢": 2391,
    "to": 2392,
    "arent": 2393,
    "Ġproject": 2394,
    "Ġinclude": 2395,
    "æĸ¹å¼ı": 2396,
    "æĺ¯ä¸Ģ": 2397,
    "ajor": 2398,
    "ats": 2399,
    "Ġpass": 2400,
    "Ġet": 2401,
    "Ġpain": 2402,
    "çĶ»": 2403,
    "åĥı": 2404,
    "Ġrisk": 2405,
    "ug": 2406,
    "æĭĽ": 2407,
    "ified": 2408,
    "bs": 2409,
    "åĿļ": 2410,
    "åıĭ": 2411,
    "æıĲé«ĺ": 2412,
    "ĠAd": 2413,
    "Ġbas": 2414,
    "rodu": 2415,
    "198": 2416,
    "Ġbest": 2417,
    "Ġlight": 2418,
    "Ġarea": 2419,
    "å±ħ": 2420,
    "ological": 2421,
    "ify": 2422,
    "ield": 2423,
    "åı¤": 2424,
    "å¯Ĩ": 2425,
    "ç¾İåĽ½": 2426,
    "Ġimm": 2427,
    "å®¡": 2428,
    "Ġcult": 2429,
    "Ġant": 2430,
    "è¿ľ": 2431,
    "erc": 2432,
    "ĠSh": 2433,
    "ained": 2434,
    "æľīéĻĲåħ¬åı¸": 2435,
    "Ġeng": 2436,
    "çģ«": 2437,
    "äººçļĦ": 2438,
    "lished": 2439,
    "è¯¾": 2440,
    "é»Ħ": 2441,
    "Ġair": 2442,
    "å¾Īå¤ļ": 2443,
    "åİĤ": 2444,
    "angu": 2445,
    "Ġagainst": 2446,
    "ĠPh": 2447,
    "è¡Ģ": 2448,
    "Ġwar": 2449,
    "å¾ĭ": 2450,
    "ï¼Įä»ĸ": 2451,
    "Ġpar": 2452,
    "60": 2453,
    "éĥ¨éĹ¨": 2454,
    "Ġearly": 2455,
    "ead": 2456,
    "çīĪ": 2457,
    "gin": 2458,
    "æ²»çĸĹ": 2459,
    "arc": 2460,
    "åįł": 2461,
    "Ġfamily": 2462,
    "Ġold": 2463,
    "Ġgovernment": 2464,
    "ãĢĤè¿Ļ": 2465,
    "æĹħæ¸¸": 2466,
    "ways": 2467,
    "æ¥": 2468,
    "åħ´": 2469,
    "Ġproper": 2470,
    "ern": 2471,
    "åįĬ": 2472,
    "ision": 2473,
    "atural": 2474,
    "Ġleg": 2475,
    "ç§ĳåŃ¦": 2476,
    "ç»ľ": 2477,
    "rap": 2478,
    "ank": 2479,
    "æĿĲæĸĻ": 2480,
    "ently": 2481,
    "Ġopp": 2482,
    "æķħ": 2483,
    "Ġcontrol": 2484,
    "'t": 2485,
    "å¿Ĺ": 2486,
    "Ġlow": 2487,
    "ç¾¤": 2488,
    "Ġmil": 2489,
    "åįļ": 2490,
    "cing": 2491,
    "Ġbecome": 2492,
    "ç¦ı": 2493,
    "atic": 2494,
    "Ġeconom": 2495,
    "Ġbetter": 2496,
    "ĠHowever": 2497,
    "ç®Ģ": 2498,
    "ission": 2499,
    "æ±½è½¦": 2500,
    "hor": 2501,
    "Ġsaf": 2502,
    "ining": 2503,
    "ories": 2504,
    "æīĢä»¥": 2505,
    "Ġmove": 2506,
    "Ġsever": 2507,
    "ĠCan": 2508,
    "åľ°åĮº": 2509,
    "Ġpoint": 2510,
    "idence": 2511,
    "Ġtoo": 2512,
    "Ġorder": 2513,
    ".âĢĿĊ": 2514,
    "Ġsecond": 2515,
    "Ġprogram": 2516,
    "é¾Ļ": 2517,
    "åŃ©": 2518,
    "Ġmark": 2519,
    "eed": 2520,
    "éĵ¶": 2521,
    "Ġele": 2522,
    "Ġhistory": 2523,
    "ï¼Įè¿ĺ": 2524,
    "è¾ĵ": 2525,
    "ĠZ": 2526,
    "å·¥ä¸ļ": 2527,
    "Ġmethod": 2528,
    "ãĢĤâĢĿ": 2529,
    "Ġtop": 2530,
    "Ġmeans": 2531,
    "Ġkeep": 2532,
    "Ġanal": 2533,
    "éĿŀå¸¸": 2534,
    "22": 2535,
    "Ġlast": 2536,
    "Ġanim": 2537,
    "oid": 2538,
    "å·´": 2539,
    "-f": 2540,
    "çºª": 2541,
    "å¹³åı°": 2542,
    "ĠEx": 2543,
    "Ġunt": 2544,
    "å¼Ģåıĳ": 2545,
    "Ġprovide": 2546,
    "Ġdev": 2547,
    "Ġblood": 2548,
    "Â·": 2549,
    "ware": 2550,
    "Ġtre": 2551,
    "Ġmeas": 2552,
    "use": 2553,
    "ider": 2554,
    "æĭ©": 2555,
    "Ġhere": 2556,
    "é¢Ŀ": 2557,
    "åł": 2558,
    "Ġfore": 2559,
    "ource": 2560,
    "amp": 2561,
    "ina": 2562,
    "here": 2563,
    "Ġreal": 2564,
    "ä¸ļåĬ¡": 2565,
    "ä½Ļ": 2566,
    "ills": 2567,
    "çĶ³": 2568,
    "ĠCol": 2569,
    "åŁºç¡": 2570,
    "omp": 2571,
    "åŁºç¡Ģ": 2572,
    "Ġmajor": 2573,
    "ï¼Įä»İ": 2574,
    "ĠCl": 2575,
    "åģ¥åº·": 2576,
    "è§Ħå®ļ": 2577,
    "æĹ©": 2578,
    "Ġorig": 2579,
    "åĮĹäº¬": 2580,
    "Ġmar": 2581,
    "Ġparticular": 2582,
    "ention": 2583,
    "Ġgroup": 2584,
    "æī§": 2585,
    "äºĳ": 2586,
    "ples": 2587,
    "è§Ĵ": 2588,
    "Ġpossible": 2589,
    "è¿ĩç¨ĭ": 2590,
    "åĪ°äºĨ": 2591,
    "ĠâĢĶ": 2592,
    "Ġter": 2593,
    "lu": 2594,
    "è¾¹": 2595,
    "Ġavail": 2596,
    "Ġoper": 2597,
    "Ġcause": 2598,
    "ards": 2599,
    "Ġsay": 2600,
    "åĩºçİ°": 2601,
    "åį°": 2602,
    "ĠWhen": 2603,
    "ote": 2604,
    "çļĦæĺ¯": 2605,
    "ĠUnited": 2606,
    "ret": 2607,
    "pect": 2608,
    "Ġnear": 2609,
    "å®³": 2610,
    "Ġscient": 2611,
    "Ġoccur": 2612,
    "Ġfin": 2613,
    "icle": 2614,
    "21": 2615,
    "ograph": 2616,
    "Ġlearning": 2617,
    "Ġhapp": 2618,
    "æĪı": 2619,
    "Ġaddition": 2620,
    "Ġpercent": 2621,
    "Ġcurrent": 2622,
    "è§ī": 2623,
    ".S": 2624,
    "ĠComm": 2625,
    "è½»": 2626,
    "Ġobject": 2627,
    "Ġable": 2628,
    "ĠRes": 2629,
    "ç½Ĺ": 2630,
    "åºķ": 2631,
    "Ġperform": 2632,
    "ç½ĳç»ľ": 2633,
    "æ¹ĸ": 2634,
    "ients": 2635,
    "Ġseveral": 2636,
    "Ġsince": 2637,
    "Ġfeel": 2638,
    "é¢ĨåŁŁ": 2639,
    "é¡»": 2640,
    "view": 2641,
    "ĠSe": 2642,
    "23": 2643,
    "Ġprom": 2644,
    "%ï¼Į": 2645,
    "-p": 2646,
    "æĴŃ": 2647,
    "Ġhig": 2648,
    "èģļ": 2649,
    "ames": 2650,
    "Ġspecies": 2651,
    "Ġperiod": 2652,
    "ĠChrist": 2653,
    "ator": 2654,
    "æĤ£èĢħ": 2655,
    "Ġopen": 2656,
    "åī¯": 2657,
    "Ġthings": 2658,
    "Ġbenef": 2659,
    "Ġinvol": 2660,
    "ï¼ļâĢľ": 2661,
    "åº§": 2662,
    "å®ĮæĪĲ": 2663,
    "ĠGod": 2664,
    "Ġfre": 2665,
    "æŁĵ": 2666,
    "though": 2667,
    "å¹´çļĦ": 2668,
    "Ġplant": 2669,
    ".âĢĿ": 2670,
    "è®²": 2671,
    "Ġ[": 2672,
    "èİ·å¾Ĺ": 2673,
    "urop": 2674,
    "æŃ¢": 2675,
    "éĢīæĭ©": 2676,
    "å¤§å®¶": 2677,
    "éķĩ": 2678,
    "ä»ĭ": 2679,
    "è®Ń": 2680,
    "æĭħ": 2681,
    "Ġbus": 2682,
    "What": 2683,
    "ç»¼": 2684,
    "åĽ½åĨħ": 2685,
    "åĲ¸": 2686,
    "Ġel": 2687,
    "cle": 2688,
    "Ġothers": 2689,
    "ĠPl": 2690,
    "è¡¥": 2691,
    "æ¿": 2692,
    "Ġtreatment": 2693,
    "Ġmen": 2694,
    "è¯»": 2695,
    "ä¸ĩåħĥ": 2696,
    "Ġsays": 2697,
    "sc": 2698,
    "Ġaffect": 2699,
    "åĽłæŃ¤": 2700,
    "åīĤ": 2701,
    "ogn": 2702,
    "Ġlim": 2703,
    "Ġmean": 2704,
    "|Ċ": 2705,
    "Ġname": 2706,
    "Ġcells": 2707,
    "Ġcountry": 2708,
    "åĵģçīĮ": 2709,
    "ç»§": 2710,
    "Ġareas": 2711,
    "çĵ": 2712,
    "Ġprop": 2713,
    "åŃ¦éĻ¢": 2714,
    "rid": 2715,
    "ĠTo": 2716,
    "Ġaccess": 2717,
    "Ġbased": 2718,
    "Ġnon": 2719,
    "å®£": 2720,
    "Ġstruct": 2721,
    "èĥ½å¤Ł": 2722,
    "ĠAt": 2723,
    "Ġcal": 2724,
    "ended": 2725,
    "Ġwee": 2726,
    "ploy": 2727,
    "ä½ľçĶ¨": 2728,
    "-d": 2729,
    "Ġamong": 2730,
    "åī§": 2731,
    "æ±¡": 2732,
    "Ġfour": 2733,
    "åĨħå®¹": 2734,
    "åıĳçĶŁ": 2735,
    "èĩªå·±çļĦ": 2736,
    "-c": 2737,
    "28": 2738,
    "osp": 2739,
    "å¸Į": 2740,
    "ĠQ": 2741,
    "Ġcond": 2742,
    "Ġcertain": 2743,
    "Ġrun": 2744,
    "åħ¨çĲĥ": 2745,
    "ç«ŀ": 2746,
    "ç¨³": 2747,
    "Ġfollowing": 2748,
    "æĭ¥": 2749,
    "elf": 2750,
    "éĢģ": 2751,
    "Ġtimes": 2752,
    "Ġlangu": 2753,
    "hy": 2754,
    "sy": 2755,
    "çĭ¬": 2756,
    "æ¬¢": 2757,
    "Ġconn": 2758,
    "ling": 2759,
    "ï¼ĽĊ": 2760,
    "Ġcase": 2761,
    "Ġsuccess": 2762,
    "Ġlater": 2763,
    "Ġavailable": 2764,
    "of": 2765,
    "ably": 2766,
    "å®Ŀ": 2767,
    "åıĳçİ°": 2768,
    "Ġlo": 2769,
    "åį´": 2770,
    "work": 2771,
    "Ġfac": 2772,
    "ocus": 2773,
    "ä¸ĢäºĽ": 2774,
    "Ġlocal": 2775,
    "par": 2776,
    "çľ¼": 2777,
    "ole": 2778,
    "ised": 2779,
    "è®¡åĪĴ": 2780,
    "ĠEn": 2781,
    "ä¸´": 2782,
    "æĹ¶åĢĻ": 2783,
    "æĵ": 2784,
    "Ġfar": 2785,
    ",\"": 2786,
    "We": 2787,
    "Ġsignific": 2788,
    "æ½": 2789,
    "çķ¥": 2790,
    "é²": 2791,
    "une": 2792,
    "å°½": 2793,
    "çł´": 2794,
    "urther": 2795,
    "ots": 2796,
    "Ġrece": 2797,
    "çº³": 2798,
    "Ġhard": 2799,
    "Ġbro": 2800,
    "ilar": 2801,
    "Ġprevent": 2802,
    "Ġpost": 2803,
    "ĠStates": 2804,
    "åĨĻ": 2805,
    "äºĨè§£": 2806,
    "ething": 2807,
    "æĿİ": 2808,
    "stit": 2809,
    "Ġbir": 2810,
    "çªģ": 2811,
    "Ġage": 2812,
    "æ¿Ģ": 2813,
    "urope": 2814,
    "çİ°åľ¨": 2815,
    "26": 2816,
    "ç¼ĸ": 2817,
    "ç»ıèĲ¥": 2818,
    "Ġcome": 2819,
    "ç»¿": 2820,
    "ww": 2821,
    "Ġlittle": 2822,
    "èĪ¬": 2823,
    "å¯¹äºİ": 2824,
    "æ¶Īè´¹": 2825,
    "Ġview": 2826,
    "Ġpolit": 2827,
    "Ġmonth": 2828,
    "æīĢæľī": 2829,
    "ç«¯": 2830,
    "Ġlist": 2831,
    "ĠOr": 2832,
    "é¦Ļ": 2833,
    "ľé£İ": 2834,
    "çĶ±äºİ": 2835,
    "ends": 2836,
    "Ġhead": 2837,
    "çĻ½çĻ": 2838,
    "!Ċ": 2839,
    "27": 2840,
    "Ġintern": 2841,
    "Ġess": 2842,
    "ones": 2843,
    "çĻ½çĻľé£İ": 2844,
    "åĳ³": 2845,
    "Ġpress": 2846,
    "çķĻ": 2847,
    "æľºæŀĦ": 2848,
    "Ġlab": 2849,
    "ï¼ĮâĢľ": 2850,
    "å¼Ģå±ķ": 2851,
    "äº«": 2852,
    "ç¨İ": 2853,
    "Ġdel": 2854,
    "Ġcost": 2855,
    "Ġuntil": 2856,
    "åı¦": 2857,
    "éľĢæ±Ĥ": 2858,
    "è®¤ä¸º": 2859,
    "ication": 2860,
    "åħŃ": 2861,
    "197": 2862,
    "Ġlet": 2863,
    "Ġcreat": 2864,
    "Ġfree": 2865,
    "Ġput": 2866,
    "If": 2867,
    "æ¸¯": 2868,
    "Ġproblem": 2869,
    "çĶ¨æĪ·": 2870,
    "åĸľ": 2871,
    "ĠCent": 2872,
    "ä¹¡": 2873,
    "å¢ŀåĬł": 2874,
    "Ġtype": 2875,
    "Ġlevels": 2876,
    "ression": 2877,
    "æĺ¥": 2878,
    "èĭı": 2879,
    "Ġproblems": 2880,
    "-m": 2881,
    "æ¬§": 2882,
    "éħĴåºĹ": 2883,
    "Ġmult": 2884,
    "Ġflow": 2885,
    "ï¼ļĊ": 2886,
    "åŃ©åŃĲ": 2887,
    "ither": 2888,
    "Ġbi": 2889,
    "æıĲåįĩ": 2890,
    "ĠNational": 2891,
    "resent": 2892,
    "ged": 2893,
    "Ġassoci": 2894,
    "åĤ": 2895,
    "Ġshort": 2896,
    "ç¬¬äºĮ": 2897,
    "Ġamount": 2898,
    "ï¼Įå°±": 2899,
    "ç»¼åĲĪ": 2900,
    "å®ĺ": 2901,
    "ately": 2902,
    "ope": 2903,
    "ggest": 2904,
    "Ġsw": 2905,
    "åĬŁèĥ½": 2906,
    "over": 2907,
    "ç»©": 2908,
    "ohn": 2909,
    "Ġnatural": 2910,
    "por": 2911,
    "éĿ©": 2912,
    "ä¸ªäºº": 2913,
    "éĺ¿": 2914,
    "éļľ": 2915,
    "äº²": 2916,
    "åįĥ": 2917,
    "icult": 2918,
    "ances": 2919,
    "aper": 2920,
    "Ġcomput": 2921,
    "ä¸ĢæŃ¥": 2922,
    "olution": 2923,
    "Ġturn": 2924,
    "æľīåħ³": 2925,
    "Ġsomething": 2926,
    "æĽ¾": 2927,
    "æĸ¹æ³ķ": 2928,
    "ç¥¨": 2929,
    "ortun": 2930,
    "æ¤": 2931,
    "Ġgiven": 2932,
    "ä¸įæĺ¯": 2933,
    "not": 2934,
    "å¸®": 2935,
    "è´§": 2936,
    "æ¦": 2937,
    "80": 2938,
    "è¾¾åĪ°": 2939,
    "Ġdue": 2940,
    "é¦Ĩ": 2941,
    "orts": 2942,
    "çĨ": 2943,
    "ledge": 2944,
    "ĠEurope": 2945,
    "Ġmaking": 2946,
    "Ġindust": 2947,
    "ĠMed": 2948,
    "Ġcho": 2949,
    "ĠAf": 2950,
    "aken": 2951,
    "Ġimpact": 2952,
    "Ġheart": 2953,
    "ä¸Ĭæµ·": 2954,
    "Ġseem": 2955,
    "Ġdeterm": 2956,
    "ym": 2957,
    "Ġyoung": 2958,
    "ä¿ĥ": 2959,
    "oks": 2960,
    "æŀĲ": 2961,
    "è½½": 2962,
    "ï¼Įè®©": 2963,
    "é¢ĳ": 2964,
    "æŁĲ": 2965,
    "Ġsuggest": 2966,
    "Ġfunction": 2967,
    "Ġinvest": 2968,
    "Ġfocus": 2969,
    "åį¡": 2970,
    "ä¸°": 2971,
    "æİ§åĪ¶": 2972,
    "å®¢æĪ·": 2973,
    "Ġey": 2974,
    "uture": 2975,
    "çĶµåŃĲ": 2976,
    "Ġrad": 2977,
    "Ġcourse": 2978,
    "ĠTe": 2979,
    "ĠBe": 2980,
    "ä¸Ģå®ļ": 2981,
    "æĶ¯æĮģ": 2982,
    "Ġdra": 2983,
    "Ġdays": 2984,
    "Ġbehav": 2985,
    "æľªæĿ¥": 2986,
    "aster": 2987,
    "å²ģ": 2988,
    "icro": 2989,
    "Ġfil": 2990,
    "Ġbook": 2991,
    "Ġalong": 2992,
    "èīºæľ¯": 2993,
    "ç²¾ç¥ŀ": 2994,
    "Ġeducation": 2995,
    "Ġcomb": 2996,
    "éĥ½æĺ¯": 2997,
    "ured": 2998,
    "SA": 2999,
    "æĻºèĥ½": 3000,
    "æĪĸèĢħ": 3001,
    "Ġcentury": 3002,
    "è´Łè´£": 3003,
    "atory": 3004,
    "ä»Ĭå¹´": 3005,
    "é£ŀ": 3006,
    "æį¢": 3007,
    "ont": 3008,
    "æĤ¨": 3009,
    "app": 3010,
    "ned": 3011,
    "ï¼īï¼Į": 3012,
    "æ´²": 3013,
    "Ġlikely": 3014,
    "ides": 3015,
    "åıĳå¸ĥ": 3016,
    "Ġclear": 3017,
    "å¾ħ": 3018,
    "Ġalways": 3019,
    "Ġsing": 3020,
    "åĬ³": 3021,
    "ĠOn": 3022,
    "æ³¢": 3023,
    "Ġvol": 3024,
    "çĹĩ": 3025,
    "åĩĢ": 3026,
    "vious": 3027,
    "æĭ¥æľī": 3028,
    "St": 3029,
    "orld": 3030,
    "As": 3031,
    "ç»ĵæŀĦ": 3032,
    "æľ¨": 3033,
    "Ġappear": 3034,
    "ç§¯æŀģ": 3035,
    "ried": 3036,
    "çŁŃ": 3037,
    "ler": 3038,
    "Ġcir": 3039,
    "æ°´å¹³": 3040,
    "Ġdeath": 3041,
    "ored": 3042,
    "etic": 3043,
    "æķĻåŃ¦": 3044,
    "aps": 3045,
    "Ġcharacter": 3046,
    "29": 3047,
    "æİĪ": 3048,
    "åĨł": 3049,
    "åħ°": 3050,
    "Ġpopulation": 3051,
    "obal": 3052,
    "Ġsignificant": 3053,
    "è¿ĻäºĽ": 3054,
    "Ġusually": 3055,
    "ï¼Įå°Ĩ": 3056,
    "ptoms": 3057,
    "Ġincrease": 3058,
    "æĶ¿çŃĸ": 3059,
    "Ġdam": 3060,
    "ç§»": 3061,
    "Ġvir": 3062,
    "ä½Ľ": 3063,
    "Ġ$": 3064,
    "ember": 3065,
    "hem": 3066,
    "____": 3067,
    "æĬĹ": 3068,
    "Ġcancer": 3069,
    "éĶĢåĶ®": 3070,
    "Ġcommunity": 3071,
    "ç¿": 3072,
    "ecially": 3073,
    "åºı": 3074,
    "Ġsystems": 3075,
    "âĢĿãĢĤ": 3076,
    "Ġexist": 3077,
    "Ġrele": 3078,
    "Ġ.": 3079,
    "Ġill": 3080,
    "ending": 3081,
    "åĮ»éĻ¢": 3082,
    "be": 3083,
    "aim": 3084,
    "anc": 3085,
    "ĠAll": 3086,
    "Ġpast": 3087,
    "ĠBrit": 3088,
    "ively": 3089,
    "isc": 3090,
    "è¶ħè¿ĩ": 3091,
    "åĲĥ": 3092,
    "ray": 3093,
    "rate": 3094,
    "ä¸įæĸŃ": 3095,
    "Ġabove": 3096,
    "pr": 3097,
    "nal": 3098,
    "mit": 3099,
    "agement": 3100,
    "Ġspace": 3101,
    "åĪ¶éĢł": 3102,
    "NA": 3103,
    "ä¹ĭä¸Ģ": 3104,
    "Ġneeds": 3105,
    "Ġdifficult": 3106,
    "Ġdescrib": 3107,
    "Ġgive": 3108,
    "ape": 3109,
    "Ġline": 3110,
    "Ġtemper": 3111,
    "face": 3112,
    "Ġspecific": 3113,
    "Ġauthor": 3114,
    "Ġconditions": 3115,
    "Ġwhy": 3116,
    "ä¿ĿæĬ¤": 3117,
    "ä»£è¡¨": 3118,
    "Ġmillion": 3119,
    "Ġcreate": 3120,
    "é»ĳ": 3121,
    "åĩ»": 3122,
    "åĪ©çĶ¨": 3123,
    "Ġestab": 3124,
    "äº¤éĢļ": 3125,
    "ours": 3126,
    "asing": 3127,
    "yd": 3128,
    "å®ŀæĸ½": 3129,
    "Ġobs": 3130,
    "idd": 3131,
    "Ġtoday": 3132,
    "Ġgre": 3133,
    "èĴ": 3134,
    "éħ¸": 3135,
    "There": 3136,
    "Ġenc": 3137,
    "Ġwords": 3138,
    "Ġresults": 3139,
    "Ġnext": 3140,
    "Ġask": 3141,
    "Ġapplic": 3142,
    "Ġspecial": 3143,
    "èĻ½": 3144,
    "åİĨåı²": 3145,
    "Ġtechnology": 3146,
    "Ġchanges": 3147,
    "How": 3148,
    "å·®": 3149,
    "rug": 3150,
    "å¾ģ": 3151,
    "Ġnever": 3152,
    "especially": 3153,
    "ane": 3154,
    "Ġcrit": 3155,
    "éĩĩçĶ¨": 3156,
    "Ġdiscuss": 3157,
    "tain": 3158,
    "aves": 3159,
    "å¼Ĥ": 3160,
    "å°¼": 3161,
    "Ġparent": 3162,
    "most": 3163,
    "selves": 3164,
    "ilities": 3165,
    "Ġbegin": 3166,
    "aring": 3167,
    "af": 3168,
    "èĩªçĦ¶": 3169,
    "Ġrecord": 3170,
    "Ġnecess": 3171,
    "ç´¢": 3172,
    "Ġlanguage": 3173,
    "Ġer": 3174,
    "åĲ¬": 3175,
    "Ġstrong": 3176,
    "ĠSo": 3177,
    "ĠWhat": 3178,
    "Ġexperience": 3179,
    "ä¼¤": 3180,
    "let": 3181,
    "è´£ä»»": 3182,
    "ators": 3183,
    "æ¯Ķè¾ĥ": 3184,
    "æ¯Ĵ": 3185,
    "å±Ĭ": 3186,
    "Ġtry": 3187,
    "oint": 3188,
    "Ġcomplete": 3189,
    "âĢĻre": 3190,
    "ĠGerm": 3191,
    "åıĤåĬł": 3192,
    "Ġacross": 3193,
    "åŁºæľ¬": 3194,
    "gether": 3195,
    "Ġtogether": 3196,
    "ĠEar": 3197,
    "Ġfuture": 3198,
    "rim": 3199,
    "-l": 3200,
    "æĺ¾ç¤º": 3201,
    "æįŁ": 3202,
    "Ġmov": 3203,
    "Ġur": 3204,
    "Ġleft": 3205,
    "ç§Ģ": 3206,
    "Ġaway": 3207,
    "70": 3208,
    "æĶ¶åħ¥": 3209,
    "Ġteac": 3210,
    "Ġprofess": 3211,
    "Ġhigher": 3212,
    "Ġvarious": 3213,
    "ç£": 3214,
    "åĲĦç§į": 3215,
    "iation": 3216,
    "åĪĨæŀĲ": 3217,
    "Ġconsum": 3218,
    "æł·çļĦ": 3219,
    "Ġleast": 3220,
    "ribut": 3221,
    "Ġworks": 3222,
    "Ġnet": 3223,
    "ä»¤": 3224,
    "atch": 3225,
    "ä»·æł¼": 3226,
    "ä¹°": 3227,
    "ique": 3228,
    "å½¢æĪĲ": 3229,
    "Ġkind": 3230,
    "Ġresearc": 3231,
    "Ġrespons": 3232,
    "äºĨä¸Ģ": 3233,
    "Ġsimilar": 3234,
    "Ġcountries": 3235,
    "ruction": 3236,
    "çĩ": 3237,
    "omes": 3238,
    "å¿ħé¡»": 3239,
    "196": 3240,
    "æĽ´å¤ļ": 3241,
    "Ġtru": 3242,
    "èĳĹ": 3243,
    "min": 3244,
    "Ġterm": 3245,
    "ĠAfric": 3246,
    "Ġhaving": 3247,
    "ä»į": 3248,
    "Ġenough": 3249,
    "é¼": 3250,
    "alf": 3251,
    "Ġmot": 3252,
    "ĠWar": 3253,
    "æłĳ": 3254,
    "thing": 3255,
    "oman": 3256,
    "ode": 3257,
    "ç´§": 3258,
    "æĦ¿": 3259,
    "Ġside": 3260,
    "ç½ĳç«Ļ": 3261,
    "mber": 3262,
    "å½©": 3263,
    "è§£åĨ³": 3264,
    "å¯Ł": 3265,
    "ales": 3266,
    "åª": 3267,
    "æĿ¡ä»¶": 3268,
    "Ġhowever": 3269,
    "Ġbusiness": 3270,
    "è¿Ľåħ¥": 3271,
    "æ¸¸æĪı": 3272,
    "istic": 3273,
    "ument": 3274,
    "aces": 3275,
    "ĠJohn": 3276,
    "äº§çĶŁ": 3277,
    "Ġcy": 3278,
    "Ġcases": 3279,
    "Ġbrain": 3280,
    "ilt": 3281,
    "Ġgr": 3282,
    "ç«ł": 3283,
    "å¸ĮæľĽ": 3284,
    "ï¼Įå¦Ĥ": 3285,
    "ĠGo": 3286,
    "for": 3287,
    "åĨ·": 3288,
    "Ġ'": 3289,
    "Ġbecame": 3290,
    "å¥ĩ": 3291,
    "ä¼łç»Ł": 3292,
    "éļıçĿĢ": 3293,
    "æĮģç»Ń": 3294,
    "Ġprim": 3295,
    "æī¾": 3296,
    "Ġchem": 3297,
    "è½®": 3298,
    "Ġimprove": 3299,
    "ox": 3300,
    "ä»ĺ": 3301,
    "Ġespecially": 3302,
    "ï¼ŁĊ": 3303,
    "ued": 3304,
    "è½¯": 3305,
    "oot": 3306,
    "Ġworking": 3307,
    "Ġrequire": 3308,
    "Ġrelations": 3309,
    "çŁ¥è¯Ĩ": 3310,
    "åĲ¦": 3311,
    "Ġtool": 3312,
    "Ġnorm": 3313,
    "ung": 3314,
    "é¥®": 3315,
    "duct": 3316,
    "Ġplants": 3317,
    "oney": 3318,
    "ï¼Įåı¯": 3319,
    "Ġevidence": 3320,
    "ley": 3321,
    "An": 3322,
    "æ¥¼": 3323,
    "èģĶç½ĳ": 3324,
    "è¿Ľä¸ĢæŃ¥": 3325,
    "Ġeffects": 3326,
    "ires": 3327,
    "ä¹Łæĺ¯": 3328,
    "port": 3329,
    "æŃĮ": 3330,
    "åºŃ": 3331,
    "-t": 3332,
    "ãĢĤâĢĿĊ": 3333,
    "Ġcolle": 3334,
    "ĠEnglish": 3335,
    "åĽº": 3336,
    "é£Łåĵģ": 3337,
    "Ġways": 3338,
    "æĹı": 3339,
    "ä¸ĬçļĦ": 3340,
    "Ġcity": 3341,
    "Ġfull": 3342,
    "è¿°": 3343,
    "Ġgeneral": 3344,
    "amm": 3345,
    "Ġfund": 3346,
    "å¥Ĺ": 3347,
    "90": 3348,
    "Ġstudies": 3349,
    "åħ¸": 3350,
    "Ġphysical": 3351,
    "Ġstep": 3352,
    "ç»į": 3353,
    "è´µ": 3354,
    "æ¯ĶèµĽ": 3355,
    "erence": 3356,
    "åħ¶ä¸Ń": 3357,
    "ipp": 3358,
    "Ġconsider": 3359,
    "æĪĳåĽ½": 3360,
    "Ġkey": 3361,
    "ĠBl": 3362,
    "åħ«": 3363,
    "é¸": 3364,
    "Ġsymptoms": 3365,
    "Ġknowledge": 3366,
    "lement": 3367,
    "Ġgoing": 3368,
    "ĠLe": 3369,
    "æķĻå¸Ī": 3370,
    "mm": 3371,
    "sw": 3372,
    "èŃ": 3373,
    "Ġlower": 3374,
    "ä¸įèĥ½": 3375,
    "èĮ¶": 3376,
    "çī¹åĪ«": 3377,
    "éĩįçĤ¹": 3378,
    "æĬ¥åĳĬ": 3379,
    "unt": 3380,
    "Ġprotect": 3381,
    "Ġz": 3382,
    "çĸ«æĥħ": 3383,
    "ysis": 3384,
    "æ¯į": 3385,
    "cul": 3386,
    "åıĤä¸İ": 3387,
    "æĸ°çļĦ": 3388,
    "ç¯": 3389,
    "Ġmind": 3390,
    "ready": 3391,
    "ĠIntern": 3392,
    "iting": 3393,
    "ĠUS": 3394,
    "åħ³ç³»": 3395,
    "ges": 3396,
    "çĶ·": 3397,
    "æ±ī": 3398,
    "500": 3399,
    "Ġemploy": 3400,
    "chie": 3401,
    "äººæīį": 3402,
    "è®°èĢħ": 3403,
    "Ġstory": 3404,
    "Ġneg": 3405,
    "ency": 3406,
    "ĠSoc": 3407,
    "å³": 3408,
    "Ġsubject": 3409,
    "èĨ": 3410,
    "aching": 3411,
    "äºĪ": 3412,
    "Ġtypes": 3413,
    "itor": 3414,
    "hing": 3415,
    "ann": 3416,
    "Ġfurther": 3417,
    "æ¶²": 3418,
    "ĠMar": 3419,
    "aut": 3420,
    "Ġmakes": 3421,
    "æŃ¦": 3422,
    "acy": 3423,
    "çĶ³è¯·": 3424,
    "edi": 3425,
    "Ġsens": 3426,
    "ĠSome": 3427,
    "Ġinflu": 3428,
    "è§ĦåĪĴ": 3429,
    "çĿ£": 3430,
    "Ġground": 3431,
    "Ġgrowth": 3432,
    "Ġeff": 3433,
    "ery": 3434,
    "Ġloss": 3435,
    "åŃĺåľ¨": 3436,
    "Ġself": 3437,
    "For": 3438,
    "ĠAust": 3439,
    "ae": 3440,
    "éĩĳèŀį": 3441,
    "sych": 3442,
    "åĲĮæ¯Ķ": 3443,
    "åģľ": 3444,
    "ï¼ģĊ": 3445,
    "çĶ¨äºİ": 3446,
    "Ġwhether": 3447,
    "Ġstat": 3448,
    "èĥľ": 3449,
    "//": 3450,
    "Ġbig": 3451,
    "è§Ħæ¨¡": 3452,
    "rel": 3453,
    "åºĨ": 3454,
    "ĠWith": 3455,
    "Ġrole": 3456,
    "Ġrepresent": 3457,
    "ĠOne": 3458,
    "ird": 3459,
    "Ġreason": 3460,
    "èŃ¦": 3461,
    "åģĩ": 3462,
    "çĸ¾": 3463,
    "æĿ¥çļĦ": 3464,
    "æĪĲåĬŁ": 3465,
    "åĪ»": 3466,
    "ä¹ĭåĲİ": 3467,
    "èĥ½æºĲ": 3468,
    "Ġens": 3469,
    "åªĴ": 3470,
    "Ġdiet": 3471,
    "åĽ°": 3472,
    "èĹ": 3473,
    "ä¸ĵå®¶": 3474,
    "yn": 3475,
    "Ġpatients": 3476,
    "çĻ»": 3477,
    "æīĺ": 3478,
    "Ġsure": 3479,
    "Ġrather": 3480,
    "å»ºç«ĭ": 3481,
    ".com": 3482,
    "Ġclose": 3483,
    "apt": 3484,
    "çīĽ": 3485,
    "ER": 3486,
    "Ġprob": 3487,
    "rated": 3488,
    "Ġsun": 3489,
    "Ġparticip": 3490,
    "ĠWorld": 3491,
    "è¯ī": 3492,
    "æ¯ķ": 3493,
    "Ġquestion": 3494,
    "Ġbelow": 3495,
    "âĢĶâĢĶ": 3496,
    "è®¯": 3497,
    "Ġlive": 3498,
    "Ġteam": 3499,
    "ification": 3500,
    "éĢĲ": 3501,
    "Ġopt": 3502,
    "ĠBy": 3503,
    "Ġcontain": 3504,
    "ĠCar": 3505,
    "Ġclimate": 3506,
    "æĻļ": 3507,
    "çĽ®æłĩ": 3508,
    "åĬłå¼º": 3509,
    "side": 3510,
    "Ġalready": 3511,
    "æ¶¦": 3512,
    "ĠGen": 3513,
    "ibility": 3514,
    "ival": 3515,
    "ç³»åĪĹ": 3516,
    "Ġdig": 3517,
    "å¹ħ": 3518,
    "amin": 3519,
    "urity": 3520,
    "äººä»¬": 3521,
    "right": 3522,
    "éģĩ": 3523,
    "Ġpolic": 3524,
    "esc": 3525,
    "Ġhouse": 3526,
    "augh": 3527,
    "åħ³äºİ": 3528,
    "æİ¢": 3529,
    "ĠCal": 3530,
    "Ġchall": 3531,
    "Ġwr": 3532,
    "Ġgroups": 3533,
    "ream": 3534,
    "çŁ¥éģĵ": 3535,
    "å©": 3536,
    "by": 3537,
    "Ġaccount": 3538,
    "ateg": 3539,
    "Ġtoward": 3540,
    "Ġactivities": 3541,
    "://": 3542,
    "ĠGe": 3543,
    "å®ģ": 3544,
    "Ch": 3545,
    "Ġconcer": 3546,
    "Ġseen": 3547,
    "Ġoffic": 3548,
    "éĹ»": 3549,
    "åľ°æĸ¹": 3550,
    "Ġeither": 3551,
    "Ġdone": 3552,
    "å®ŀéĻħ": 3553,
    "Ġbuilding": 3554,
    "éĴŁ": 3555,
    "ä¹ĭéĹ´": 3556,
    "ints": 3557,
    ",Ċ": 3558,
    "35": 3559,
    "ites": 3560,
    "atures": 3561,
    "è¿İ": 3562,
    "ï¼ĮéĤ£": 3563,
    "ĠThat": 3564,
    "ands": 3565,
    "Ġresources": 3566,
    "Ġpred": 3567,
    "ï¼Įå¤§": 3568,
    "oura": 3569,
    "ä»·åĢ¼": 3570,
    "èĦĳ": 3571,
    "ç¼º": 3572,
    "æĽ²": 3573,
    "ï¼ĮæľĢ": 3574,
    "åħ¨éĿ¢": 3575,
    "èģĮä¸ļ": 3576,
    "Ġreally": 3577,
    "Ġpolitical": 3578,
    "Ġmembers": 3579,
    "Ġtradition": 3580,
    "lo": 3581,
    "è°¢": 3582,
    "etimes": 3583,
    "Ġonce": 3584,
    "Ġlot": 3585,
    "èĻ½çĦ¶": 3586,
    "çŃ¾": 3587,
    "ç»§ç»Ń": 3588,
    "åį±": 3589,
    "ĠNorth": 3590,
    "ä»ĭç»į": 3591,
    "Ġsingle": 3592,
    "Ġscience": 3593,
    "ï¼ĮæīĢä»¥": 3594,
    "å¥¥": 3595,
    "Ġdeveloped": 3596,
    "overed": 3597,
    "Ġphot": 3598,
    "ä¼ļè®®": 3599,
    "urch": 3600,
    "ĠHealth": 3601,
    "ches": 3602,
    "ĠDr": 3603,
    "æĪĲç«ĭ": 3604,
    "ä½ĵç³»": 3605,
    "Ġdeg": 3606,
    "æĸ¹æ¡Ī": 3607,
    "æĮīçħ§": 3608,
    "roll": 3609,
    "çĽĸ": 3610,
    "iol": 3611,
    "Ġarticle": 3612,
    "acc": 3613,
    "Ġproducts": 3614,
    "¤Ĳ": 3615,
    "eb": 3616,
    "Ġactivity": 3617,
    "ç»Ŀ": 3618,
    "ables": 3619,
    "ï¼Įåı¯ä»¥": 3620,
    "Ġword": 3621,
    "Ġmass": 3622,
    "Ġpotential": 3623,
    "åĿĹ": 3624,
    "Ġindic": 3625,
    "éĺ¶": 3626,
    "Ġrange": 3627,
    "Ġfall": 3628,
    "èį£": 3629,
    "leep": 3630,
    "æľīæķĪ": 3631,
    "ott": 3632,
    "iam": 3633,
    "ç»ĵåĲĪ": 3634,
    "Ġissues": 3635,
    "Ġmodel": 3636,
    "æ¡¥": 3637,
    "ä¸ĥ": 3638,
    "ï¼Įåħ¶ä¸Ń": 3639,
    "ï¼Įä½¿": 3640,
    "Ġnut": 3641,
    "ä¹Ŀ": 3642,
    "Ġdom": 3643,
    "å®Ī": 3644,
    "rams": 3645,
    "Ġmedical": 3646,
    "31": 3647,
    "æĮ¥": 3648,
    "Ġdoct": 3649,
    "Ġtaken": 3650,
    "éĻĦ": 3651,
    "Ġevent": 3652,
    "val": 3653,
    "å¸®åĬ©": 3654,
    "åĪĨåĪ«": 3655,
    "çĮ®": 3656,
    "ney": 3657,
    "Ġaccording": 3658,
    "ips": 3659,
    "ĠShe": 3660,
    "Ġcollect": 3661,
    "çĽ´æİ¥": 3662,
    "åĨĮ": 3663,
    "earch": 3664,
    "éĨ": 3665,
    "Ġproduction": 3666,
    "Ġfield": 3667,
    "ĠAm": 3668,
    "Ġreduce": 3669,
    "Ġachie": 3670,
    "verage": 3671,
    "Ġreturn": 3672,
    "Ġfive": 3673,
    "Ġdrug": 3674,
    "ãĢĤä½Ĩ": 3675,
    "è¿½": 3676,
    "191": 3677,
    "Ġann": 3678,
    "Ġrelig": 3679,
    "Ġfrequ": 3680,
    ".\"Ċ": 3681,
    "çĶŁæĢģ": 3682,
    "ournal": 3683,
    "Ġnational": 3684,
    "Ġwhole": 3685,
    "Ġquality": 3686,
    "éĢłæĪĲ": 3687,
    "Ġmeet": 3688,
    "è¡Įä¸º": 3689,
    "ison": 3690,
    "æŃ»": 3691,
    "When": 3692,
    "ĠAb": 3693,
    "Ġsent": 3694,
    "é¢Ĩå¯¼": 3695,
    "ä»ª": 3696,
    "å»¶": 3697,
    "ety": 3698,
    "Ġvalue": 3699,
    "Ġrecogn": 3700,
    "ĠX": 3701,
    "çłĶåıĳ": 3702,
    "Ġabs": 3703,
    "ule": 3704,
    "å°Ħ": 3705,
    "ç¬¬ä¸ī": 3706,
    "Ġbat": 3707,
    "å¯¼èĩ´": 3708,
    "Al": 3709,
    "idered": 3710,
    "ä»¥ä¸ĭ": 3711,
    "Ġthemselves": 3712,
    "Ġresearchers": 3713,
    "å§Ķåĳĺ": 3714,
    "Ġweight": 3715,
    "Ġsite": 3716,
    "Ġred": 3717,
    "æ°§": 3718,
    "Ġrate": 3719,
    "ĠMay": 3720,
    "éº": 3721,
    "Ġpaper": 3722,
    "Ġfail": 3723,
    "æĿ¥è¯´": 3724,
    "300": 3725,
    "è®¡ç®Ĺ": 3726,
    "Ġcame": 3727,
    "ĠMan": 3728,
    "ĠDep": 3729,
    "iple": 3730,
    "ĠYork": 3731,
    "apan": 3732,
    "Ġdest": 3733,
    "ï¼Įåıª": 3734,
    "sp": 3735,
    "Ġsitu": 3736,
    "Ġhistor": 3737,
    "Ġdetail": 3738,
    "ĠTr": 3739,
    "æ¤į": 3740,
    "è¿ĺæĺ¯": 3741,
    "è¿ĲåĬ¨": 3742,
    "Ġsource": 3743,
    "å¤«": 3744,
    "osis": 3745,
    "çĶļ": 3746,
    "fact": 3747,
    "Ġconcept": 3748,
    "itud": 3749,
    "æıĲåĩº": 3750,
    "ID": 3751,
    "ç»ĥ": 3752,
    "Ġwhite": 3753,
    "åĵª": 3754,
    "Ġliving": 3755,
    "ä¼¼": 3756,
    "org": 3757,
    "ï¼Įå®ĥ": 3758,
    "è¡ĮæĶ¿": 3759,
    "å·¦": 3760,
    "Ġnature": 3761,
    "Ġinit": 3762,
    "Ġtext": 3763,
    "Ġcirc": 3764,
    "æ³¨æĦı": 3765,
    "Ġskin": 3766,
    "Ġsurface": 3767,
    "Ġintrodu": 3768,
    "ä½ľåĵģ": 3769,
    "bon": 3770,
    "ï¼Įä½Ĩæĺ¯": 3771,
    "ä¸ºäºĨ": 3772,
    "æ¢°": 3773,
    "ĠAss": 3774,
    "ä¹ħ": 3775,
    "Ġaddress": 3776,
    "Ġupon": 3777,
    "èĮĥåĽ´": 3778,
    "ober": 3779,
    "Ġhold": 3780,
    "Ġpay": 3781,
    "éĢı": 3782,
    "ï¼Įå½ĵ": 3783,
    "åĲ¯": 3784,
    "çŁ¿": 3785,
    "194": 3786,
    "çļĦåıĳå±ķ": 3787,
    "Ġwide": 3788,
    "Ġthought": 3789,
    "Ġcreated": 3790,
    "mp": 3791,
    "Ġcannot": 3792,
    "onst": 3793,
    "rict": 3794,
    "eter": 3795,
    "éĴĪ": 3796,
    "ï¼Įæ¯ı": 3797,
    "plic": 3798,
    "æľŁéĹ´": 3799,
    "reme": 3800,
    "çİ°ä»£": 3801,
    "Ġquestions": 3802,
    "Ġoil": 3803,
    "è¿Ļä¸Ģ": 3804,
    "fficient": 3805,
    "rect": 3806,
    "Ġconsidered": 3807,
    "éĻĪ": 3808,
    "åºŁ": 3809,
    "åįĪ": 3810,
    "put": 3811,
    "go": 3812,
    "Ġblack": 3813,
    "çĳ": 3814,
    "åıĸå¾Ĺ": 3815,
    "ront": 3816,
    "ä¿ĿæĮģ": 3817,
    "Ġclaim": 3818,
    "ublic": 3819,
    "åı³": 3820,
    "enn": 3821,
    "ĠAct": 3822,
    "é¤Ĳ": 3823,
    "å¹´æĿ¥": 3824,
    "Ġitself": 3825,
    "éĽ¨": 3826,
    "ä¸ĢèĪ¬": 3827,
    "Ġweek": 3828,
    "ivity": 3829,
    "æİ¨åĬ¨": 3830,
    "åħ±åĲĮ": 3831,
    "æİ¨è¿Ľ": 3832,
    "reg": 3833,
    "ĠSouth": 3834,
    "Ġstates": 3835,
    "æ¨¡å¼ı": 3836,
    "hib": 3837,
    "Ġdog": 3838,
    "ĠComp": 3839,
    "ä¿ĥè¿Ľ": 3840,
    "è®¢": 3841,
    "Ġflu": 3842,
    "Ġtell": 3843,
    "artment": 3844,
    "45": 3845,
    "Ġpublished": 3846,
    "Ġmedia": 3847,
    "Ġsound": 3848,
    "æĹ¶ä»£": 3849,
    "ä»¥æĿ¥": 3850,
    "Ġglobal": 3851,
    "æĢ¥": 3852,
    "itary": 3853,
    "æĳĦ": 3854,
    "é½": 3855,
    "Ġobserv": 3856,
    "ï¼ĮæĽ´": 3857,
    "Ġ=": 3858,
    "Ġdoc": 3859,
    "éĢĢ": 3860,
    "èĵ": 3861,
    "Ġfat": 3862,
    "å¨ģ": 3863,
    "Ġlay": 3864,
    "Ġver": 3865,
    "ivil": 3866,
    "æī©": 3867,
    "åĳ¢": 3868,
    "åĮ»çĸĹ": 3869,
    "è¯¢": 3870,
    "åİħ": 3871,
    "fer": 3872,
    "Ġrecomm": 3873,
    "ging": 3874,
    "é¥°": 3875,
    "ump": 3876,
    "ä½³": 3877,
    "193": 3878,
    "illed": 3879,
    "Ġactually": 3880,
    "ç«¥": 3881,
    "ä¸ĭéĻį": 3882,
    "æİª": 3883,
    "åºĵ": 3884,
    "èįī": 3885,
    "è®¸å¤ļ": 3886,
    "æ°¸": 3887,
    "Ġrelationship": 3888,
    "Ġincreased": 3889,
    "ï¼Įä¸ŃåĽ½": 3890,
    "èĭ¥": 3891,
    "ask": 3892,
    "Ġskills": 3893,
    "èĢĲ": 3894,
    "ĠRep": 3895,
    "ä»»ä½ķ": 3896,
    "Ġwind": 3897,
    "Ġassociated": 3898,
    "Ġneeded": 3899,
    "Ġmodern": 3900,
    "Ġanimals": 3901,
    "Ġopportun": 3902,
    "éĿł": 3903,
    "åĬª": 3904,
    "åºĶè¯¥": 3905,
    "ĠAmerica": 3906,
    "éĿ¢ç§¯": 3907,
    "æķĪæŀľ": 3908,
    "aged": 3909,
    "çģµ": 3910,
    "Ġalmost": 3911,
    "ened": 3912,
    "Ġfamil": 3913,
    "å·Ŀ": 3914,
    "éĵ¶è¡Į": 3915,
    "æ´Ĺ": 3916,
    "Ġfish": 3917,
    "ĠStud": 3918,
    "è¡Ĺ": 3919,
    "lying": 3920,
    "aced": 3921,
    "ï¼īĊ": 3922,
    "Ġtot": 3923,
    "Ġmicro": 3924,
    "æĿĤ": 3925,
    "èµĦéĩĳ": 3926,
    "Ġadult": 3927,
    "è¾Ĩ": 3928,
    "Ġeconomic": 3929,
    "Ġcomplex": 3930,
    "Ġport": 3931,
    "ä¿Ŀéļľ": 3932,
    "Ġrights": 3933,
    "æĵį": 3934,
    "Ġrequired": 3935,
    "Ġcut": 3936,
    "Ġpressure": 3937,
    "çļĦå¤§": 3938,
    "æī§è¡Į": 3939,
    "å¸Ń": 3940,
    "utions": 3941,
    "è·Ł": 3942,
    "ĠGu": 3943,
    "éĵ¾": 3944,
    "å·¨": 3945,
    "ä¸ĢçĽ´": 3946,
    "ä¸½": 3947,
    "çļĦæĹ¶åĢĻ": 3948,
    "Ġprote": 3949,
    "æĭį": 3950,
    "åĤ¨": 3951,
    "åĽ¢éĺŁ": 3952,
    "het": 3953,
    "ï¼ĮåĲĮæĹ¶": 3954,
    "light": 3955,
    "Ġentire": 3956,
    "Ġidea": 3957,
    "Ġtook": 3958,
    "Ġsuper": 3959,
    "è°Ī": 3960,
    "Ġgreen": 3961,
    "Ġvers": 3962,
    "è´¸": 3963,
    "ĠHist": 3964,
    "åŁºéĩĳ": 3965,
    "ä¼ĺåĬ¿": 3966,
    "å¦Ĥä½ķ": 3967,
    "ĠEarth": 3968,
    "urs": 3969,
    "oll": 3970,
    "ystem": 3971,
    "Ġspe": 3972,
    "Ġhealthy": 3973,
    "Wh": 3974,
    "Ġquick": 3975,
    "çłģ": 3976,
    "sequ": 3977,
    "epend": 3978,
    "ĠCanad": 3979,
    "èĦ±": 3980,
    "ĠJapan": 3981,
    "åĬ±": 3982,
    "å¡ĳ": 3983,
    "åŁ¹åħ»": 3984,
    "è®¿": 3985,
    "Ã©": 3986,
    "Ġsal": 3987,
    "ai": 3988,
    "Ġprovides": 3989,
    "Ġsex": 3990,
    "åĨľä¸ļ": 3991,
    "Ġhalf": 3992,
    "Ġarch": 3993,
    "Ġavoid": 3994,
    "my": 3995,
    "Ġsize": 3996,
    "Ġever": 3997,
    "rown": 3998,
    "ĠHis": 3999,
    "cient": 4000,
    "Ġtherap": 4001,
    "Ġparts": 4002,
    "ï¼Įä¸İ": 4003,
    "é¡º": 4004,
    "éĶĻ": 4005,
    "åĩıå°ĳ": 4006,
    "vere": 4007,
    "):": 4008,
    "çĶµå½±": 4009,
    "Ġmarket": 4010,
    "è¿Ŀ": 4011,
    "Ġpractice": 4012,
    "ä¸Ģèµ·": 4013,
    "Ġability": 4014,
    "æĭ¿": 4015,
    "mb": 4016,
    "Ġsimple": 4017,
    "èĥĮ": 4018,
    "Ġmusic": 4019,
    "çİ©": 4020,
    "åĬªåĬĽ": 4021,
    "ç©ºéĹ´": 4022,
    "çĶŁçī©": 4023,
    "Ġmor": 4024,
    "æĶ¹éĿ©": 4025,
    "Ġhtt": 4026,
    "oses": 4027,
    "ï¼Įä½ł": 4028,
    "Ġcomes": 4029,
    "usion": 4030,
    "To": 4031,
    "oon": 4032,
    "Ġsoft": 4033,
    "ç¨³å®ļ": 4034,
    "æ²Ļ": 4035,
    "ush": 4036,
    "Ġarg": 4037,
    "å¾ĹåĪ°": 4038,
    "gest": 4039,
    "Ġstress": 4040,
    "rad": 4041,
    "å¤ı": 4042,
    "Ġstudent": 4043,
    "åı¶": 4044,
    "Ġsoil": 4045,
    "Ġrelated": 4046,
    "Ġexerc": 4047,
    "Ġbegan": 4048,
    "Ġexperien": 4049,
    "Ġregion": 4050,
    "Ġfri": 4051,
    "195": 4052,
    "Ġcondition": 4053,
    "æĪĺçķ¥": 4054,
    "utes": 4055,
    "eds": 4056,
    "Ġmaterials": 4057,
    "æĪĲæľ¬": 4058,
    "ï¼ĮåĽłä¸º": 4059,
    "ĠBritish": 4060,
    "è¡¨çİ°": 4061,
    "Ġunderstanding": 4062,
    "çĤİ": 4063,
    "oes": 4064,
    "ç¬¦": 4065,
    "Ġmonths": 4066,
    "Ġeffective": 4067,
    "uck": 4068,
    "è®¾æĸ½": 4069,
    "You": 4070,
    "åĪļ": 4071,
    "Ġmedic": 4072,
    "éĽ¶": 4073,
    "Ġcr": 4074,
    ";Ċ": 4075,
    "ening": 4076,
    "æ¾": 4077,
    "äºĭä¸ļ": 4078,
    "ä¸įä¼ļ": 4079,
    "ply": 4080,
    "ĠAustral": 4081,
    "ï¼Įä»ĸä»¬": 4082,
    "IS": 4083,
    "...": 4084,
    "Ġmoney": 4085,
    "Ġpriv": 4086,
    "ĠCo": 4087,
    "abit": 4088,
    "Ġservices": 4089,
    "Ġlink": 4090,
    "Ġreact": 4091,
    "ç´¯": 4092,
    "åºĬ": 4093,
    "Ġthroughout": 4094,
    "Ġsense": 4095,
    "éĶ®": 4096,
    "èģĺ": 4097,
    "çĶļèĩ³": 4098,
    "åĬłå·¥": 4099,
    "acks": 4100,
    "Ġsepar": 4101,
    "Ġnecessary": 4102,
    "ç»ıè¿ĩ": 4103,
    "uel": 4104,
    "Ġengine": 4105,
    "æľĭ": 4106,
    "åİŁåĽł": 4107,
    "ç»ĵæŀľ": 4108,
    "ç²ī": 4109,
    "åĨ²": 4110,
    "Ġpurp": 4111,
    "æķĳ": 4112,
    "æĶ»": 4113,
    "ES": 4114,
    "ï¼Įè¦ģ": 4115,
    "åĺ": 4116,
    "ãĢĤèĢĮ": 4117,
    "ows": 4118,
    "ĠNe": 4119,
    "ĠPr": 4120,
    "ç§Ł": 4121,
    "æ³Ľ": 4122,
    "åĨ³å®ļ": 4123,
    "aging": 4124,
    "Ġrul": 4125,
    "Ġparents": 4126,
    "èģĶåĲĪ": 4127,
    "Ġarr": 4128,
    "æīĭæľº": 4129,
    "Ġsuff": 4130,
    "ä¸°å¯Į": 4131,
    "èıľ": 4132,
    "%ãĢĤ": 4133,
    "Ġchemical": 4134,
    "ç¬Ķ": 4135,
    "Ġregard": 4136,
    "åĢŁ": 4137,
    "åĿļæĮģ": 4138,
    "çİ°åľº": 4139,
    "Ġcomputer": 4140,
    "æĿ¾": 4141,
    "åĳĺå·¥": 4142,
    "éŃ": 4143,
    "æ³ķå¾ĭ": 4144,
    "Ġpath": 4145,
    "Ġstructure": 4146,
    "Ġpersonal": 4147,
    "ç¾İåħĥ": 4148,
    "æĢ§èĥ½": 4149,
    "ĠState": 4150,
    "åŁ¹è®Ń": 4151,
    "ze": 4152,
    "olic": 4153,
    "ãĢĭï¼Į": 4154,
    "empt": 4155,
    "Ġtaking": 4156,
    "Ġemer": 4157,
    "æĪª": 4158,
    "erve": 4159,
    "åį«çĶŁ": 4160,
    "Ġansw": 4161,
    "ç»ıéªĮ": 4162,
    "izing": 4163,
    "ences": 4164,
    "æĢİ": 4165,
    "inter": 4166,
    "Ġyet": 4167,
    "Ġsix": 4168,
    "Ġproduce": 4169,
    "ç«ŀäºī": 4170,
    "Ġcat": 4171,
    "çĸ¾çĹħ": 4172,
    "Ġheat": 4173,
    "erous": 4174,
    "Ġcoll": 4175,
    "oph": 4176,
    "irm": 4177,
    "åĪ¤": 4178,
    "36": 4179,
    "æĢ§çļĦ": 4180,
    "Ġlonger": 4181,
    "Ġpopular": 4182,
    "Ġinteract": 4183,
    "éģ¿": 4184,
    "éľ²": 4185,
    "æķ£": 4186,
    "åĪ¶åº¦": 4187,
    "å®ŀéªĮ": 4188,
    "Ġprinc": 4189,
    "è¿ĩç¨ĭä¸Ń": 4190,
    "ores": 4191,
    "Ġfactors": 4192,
    "é¡¾": 4193,
    "Ġstop": 4194,
    "äº¤æĺĵ": 4195,
    "Ġapproach": 4196,
    "ä¹İ": 4197,
    "adem": 4198,
    "Ġsubst": 4199,
    "Ġut": 4200,
    "é¡¶": 4201,
    "éŁ³ä¹Ĳ": 4202,
    "äº¤æµģ": 4203,
    "Ġge": 4204,
    "son": 4205,
    "abet": 4206,
    "Ġrecent": 4207,
    "Ġfire": 4208,
    "âĢĿãĢĤĊ": 4209,
    "çĶ°": 4210,
    "ä½įäºİ": 4211,
    "ĠPe": 4212,
    "Ġliter": 4213,
    "Ġjob": 4214,
    "åıĳå±ķçļĦ": 4215,
    "chan": 4216,
    "èĹı": 4217,
    "è¯Ĭ": 4218,
    "ä¸Ģç§į": 4219,
    "çĨŁ": 4220,
    "ĠAfter": 4221,
    "äºĴèģĶç½ĳ": 4222,
    "çĽĺ": 4223,
    "ensive": 4224,
    "è¿Ļç§į": 4225,
    "è¯ļ": 4226,
    "åıĹåĪ°": 4227,
    "estern": 4228,
    "Ġfig": 4229,
    "ese": 4230,
    "order": 4231,
    "iddle": 4232,
    "èĢĥè¯ķ": 4233,
    "å°ļ": 4234,
    "ript": 4235,
    "-w": 4236,
    "Ġcop": 4237,
    "å²Ĺ": 4238,
    "ç¡¬": 4239,
    "ections": 4240,
    "ccording": 4241,
    "åĪ¸": 4242,
    "ising": 4243,
    "ä¸¤ä¸ª": 4244,
    "Ġprevious": 4245,
    "ister": 4246,
    "éģĹ": 4247,
    "ä¿Ŀè¯ģ": 4248,
    "Ġshows": 4249,
    "æ±ł": 4250,
    "Ġhours": 4251,
    "ene": 4252,
    "ched": 4253,
    "Ġtalk": 4254,
    "ï¼Įå¦Ĥæŀľ": 4255,
    "å¤®": 4256,
    "å²Ľ": 4257,
    "èĸ": 4258,
    "Ġrepl": 4259,
    "Ġgas": 4260,
    "Ġbuilt": 4261,
    "hold": 4262,
    "Ġincreasing": 4263,
    "Ġconduct": 4264,
    "Ġheav": 4265,
    "æĪĳä»¬çļĦ": 4266,
    "ï¼ĮçĶ±": 4267,
    "Ġfarm": 4268,
    "Ġpattern": 4269,
    "Ġmanagement": 4270,
    "yl": 4271,
    "Ġsafe": 4272,
    "Ġaction": 4273,
    "ronic": 4274,
    "Ġtraining": 4275,
    "Ġanalysis": 4276,
    "èĽ": 4277,
    "æĸ½å·¥": 4278,
    "ĠII": 4279,
    "ãĢĤâĢľ": 4280,
    "Ġla": 4281,
    "è´«": 4282,
    "abor": 4283,
    "ä¸Ģæ¬¡": 4284,
    "æĪĲç»©": 4285,
    "ĠCont": 4286,
    "ï¼ĮèĢĮä¸Ķ": 4287,
    "éĴ±": 4288,
    "ä¼ĳ": 4289,
    "Ġmatter": 4290,
    "ume": 4291,
    "ĠInstit": 4292,
    "Ġsurv": 4293,
    "Ġterms": 4294,
    "ä¸¥éĩį": 4295,
    "æ¶ī": 4296,
    "è·Ŀ": 4297,
    "Ġoriginal": 4298,
    "æľºæ¢°": 4299,
    "Ġindividuals": 4300,
    "éĺ¶æ®µ": 4301,
    "åıĬæĹ¶": 4302,
    "reng": 4303,
    "æ¸Ĳ": 4304,
    "iction": 4305,
    "è¿ĲèĲ¥": 4306,
    "Ġschools": 4307,
    "Ġsleep": 4308,
    "æľĭåıĭ": 4309,
    "ibr": 4310,
    "Ġbehavior": 4311,
    "Ġonline": 4312,
    "æĹ¥æľ¬": 4313,
    "èª": 4314,
    "Ġtravel": 4315,
    "Ġbar": 4316,
    "Ġenvironmental": 4317,
    "çĽĽ": 4318,
    "lor": 4319,
    "Ġce": 4320,
    "Ġassess": 4321,
    "Ġprovided": 4322,
    "åįıä¼ļ": 4323,
    "vey": 4324,
    "ederal": 4325,
    "Ġcolor": 4326,
    "åħ³æ³¨": 4327,
    "amb": 4328,
    "ony": 4329,
    "ster": 4330,
    "Ġbur": 4331,
    "ulations": 4332,
    "èĢģå¸Ī": 4333,
    "æ»ĳ": 4334,
    "æĿ¥èĩª": 4335,
    "åªĴä½ĵ": 4336,
    "hood": 4337,
    "Ġaccept": 4338,
    "lands": 4339,
    "åıĺåĮĸ": 4340,
    "ucle": 4341,
    "Ġtrue": 4342,
    "èĪŀ": 4343,
    "Ġservice": 4344,
    "Ġetc": 4345,
    "çļĦé«ĺ": 4346,
    "çĽŁ": 4347,
    "nces": 4348,
    "èĭ¦": 4349,
    "å¸ģ": 4350,
    "æŀ¶": 4351,
    "æĽ´åĬł": 4352,
    "å®¹æĺĵ": 4353,
    "ma": 4354,
    "lex": 4355,
    "\".": 4356,
    "Ġcaused": 4357,
    "aily": 4358,
    "fully": 4359,
    "Ġearth": 4360,
    "å®¶åºŃ": 4361,
    "åħ·ä½ĵ": 4362,
    "rought": 4363,
    "pid": 4364,
    "Ġconc": 4365,
    "éĽ·": 4366,
    "ä½ĵèĤ²": 4367,
    "33": 4368,
    "inary": 4369,
    "lt": 4370,
    "Ġtemperature": 4371,
    "ĠJew": 4372,
    "æŃ£åľ¨": 4373,
    "Ġrev": 4374,
    "Ġreading": 4375,
    "çĬ¯": 4376,
    "ä»ĸçļĦ": 4377,
    "äº®": 4378,
    "èĩªåĬ¨": 4379,
    "Ġinj": 4380,
    "åħĪè¿Ľ": 4381,
    "Ġculture": 4382,
    "AR": 4383,
    "-based": 4384,
    "Ġwriting": 4385,
    "è·µ": 4386,
    "Ġindustry": 4387,
    "ä¼ĺç§Ģ": 4388,
    "Ġthing": 4389,
    "ĠResearch": 4390,
    "Ġlove": 4391,
    "æ³¨åĨĮ": 4392,
    "æł¸å¿ĥ": 4393,
    "Ġmeasure": 4394,
    "rench": 4395,
    "åłĤ": 4396,
    "æ´¾": 4397,
    "Ġeat": 4398,
    "Ġbring": 4399,
    "Ġcontact": 4400,
    "éĻĨ": 4401,
    "Ġthreat": 4402,
    "Ġmeaning": 4403,
    "Ġsam": 4404,
    "Ġlif": 4405,
    "Ġcompany": 4406,
    "çĶ²": 4407,
    "minist": 4408,
    "Ġbreak": 4409,
    "æŃ£å¼ı": 4410,
    "åĪĺ": 4411,
    "Ġpositive": 4412,
    "Ġviol": 4413,
    "åħ¬åħ±": 4414,
    "åľ£": 4415,
    "ender": 4416,
    "çģ¾": 4417,
    "åĮºåŁŁ": 4418,
    "yle": 4419,
    "Ġtar": 4420,
    "èĤī": 4421,
    "Ġposition": 4422,
    "Ġshown": 4423,
    "icles": 4424,
    "å°¤": 4425,
    "eration": 4426,
    ".g": 4427,
    "Ġdeep": 4428,
    "å®ľ": 4429,
    "Ġdesigned": 4430,
    "Ġdeb": 4431,
    "Ġcontent": 4432,
    "ĠNo": 4433,
    "AT": 4434,
    "Ġremain": 4435,
    "asc": 4436,
    "Ġslow": 4437,
    "é£İéĻ©": 4438,
    "åħ¬å¼Ģ": 4439,
    "aff": 4440,
    "Ġdiagn": 4441,
    "Ġled": 4442,
    "ĠWhile": 4443,
    "ç½ª": 4444,
    "ĠSu": 4445,
    "ç®±": 4446,
    "å½¢å¼ı": 4447,
    "ĠKing": 4448,
    "anced": 4449,
    "Ġsimply": 4450,
    "Ġprograms": 4451,
    "Ġtotal": 4452,
    "Ġrelative": 4453,
    "ï¼ĮæĹł": 4454,
    "çĥĪ": 4455,
    "å½Ĵ": 4456,
    "åİļ": 4457,
    "Ġlives": 4458,
    "Ġscientists": 4459,
    "gar": 4460,
    "çĸĳ": 4461,
    "è§¦": 4462,
    "çī¹èī²": 4463,
    "aving": 4464,
    "çľĭåĪ°": 4465,
    "Ġcheck": 4466,
    "eal": 4467,
    "çİ¯ä¿Ŀ": 4468,
    "ãĢģâĢľ": 4469,
    "Ġincludes": 4470,
    "atives": 4471,
    "çĪ¶": 4472,
    "Ġbelieve": 4473,
    "éĻ¤äºĨ": 4474,
    "å°ıæĹ¶": 4475,
    "dom": 4476,
    "æ¯ķä¸ļ": 4477,
    "Ġinteg": 4478,
    "Ġsometimes": 4479,
    "amed": 4480,
    "ĠPres": 4481,
    "æİ¥åıĹ": 4482,
    "imately": 4483,
    "Ġcauses": 4484,
    "åĲī": 4485,
    "Ġsociety": 4486,
    "æ£ĢæŁ¥": 4487,
    "Ġeasy": 4488,
    "Ġspread": 4489,
    "istance": 4490,
    "Ġreported": 4491,
    "ĠSchool": 4492,
    "åĽłç´ł": 4493,
    "æĸĹ": 4494,
    "Ġsat": 4495,
    "åħħåĪĨ": 4496,
    "è§Ī": 4497,
    "ana": 4498,
    "Ġexperim": 4499,
    "çĩĥ": 4500,
    "Ġbenefits": 4501,
    "æĺ¯åľ¨": 4502,
    "æĮĩå¯¼": 4503,
    "ns": 4504,
    "192": 4505,
    "ĠMin": 4506,
    "Ġnetwork": 4507,
    "Ġpsych": 4508,
    "Ġnormal": 4509,
    "ï¼Įåħ¨": 4510,
    "Ġmethods": 4511,
    "æĺ¯ä¸Ģä¸ª": 4512,
    "ä¸»é¢ĺ": 4513,
    "umb": 4514,
    "IN": 4515,
    "duc": 4516,
    "ï¼Įä»¥åıĬ": 4517,
    "åĬŀåħ¬": 4518,
    "Ġpoll": 4519,
    "å®Ĺ": 4520,
    "itation": 4521,
    "onse": 4522,
    "Ġcompan": 4523,
    "æľĿ": 4524,
    "æ±¡æŁĵ": 4525,
    "Ġfru": 4526,
    "å¤ľ": 4527,
    "ricult": 4528,
    "ius": 4529,
    "éĩĬ": 4530,
    "aches": 4531,
    "Ġpage": 4532,
    "æ´ĭ": 4533,
    "Ġissue": 4534,
    "åķĨä¸ļ": 4535,
    "rior": 4536,
    "Ġstreng": 4537,
    "æ¢¦": 4538,
    "ropri": 4539,
    "æİªæĸ½": 4540,
    "Ġstandard": 4541,
    "uge": 4542,
    "new": 4543,
    "Ġgreater": 4544,
    "å¸¦æĿ¥": 4545,
    "Ġple": 4546,
    "Ġvariety": 4547,
    "Ġimage": 4548,
    "ä¸įä»ħ": 4549,
    "Ġ/": 4550,
    "é²ľ": 4551,
    "èµ·æĿ¥": 4552,
    "Ġtax": 4553,
    "éĿĻ": 4554,
    "ades": 4555,
    "Ġwild": 4556,
    "ĠPer": 4557,
    "é¹": 4558,
    "rand": 4559,
    "éķ¿æľŁ": 4560,
    "æĹ¢": 4561,
    "åĿĢ": 4562,
    "åĬ³åĬ¨": 4563,
    "wh": 4564,
    "èĻĳ": 4565,
    "è¯Ĺ": 4566,
    "ĠSec": 4567,
    "Ġsources": 4568,
    "Ġfem": 4569,
    "Ġregular": 4570,
    "osition": 4571,
    "Ġmach": 4572,
    "éĻįä½İ": 4573,
    "çŃĶ": 4574,
    "æ³°": 4575,
    "åħ¬éĩĮ": 4576,
    "ä»Ĭå¤©": 4577,
    "Ġhelps": 4578,
    "Ġorigin": 4579,
    "åģļå¥½": 4580,
    "Ġsafety": 4581,
    "Ġemb": 4582,
    "æ£Ģæµĭ": 4583,
    "arily": 4584,
    "Ġaverage": 4585,
    "Ġpict": 4586,
    "èĲ½å®ŀ": 4587,
    "istics": 4588,
    "Ġrespect": 4589,
    "ä¼´": 4590,
    "åĲ¨": 4591,
    "aries": 4592,
    "Ġshare": 4593,
    "è®¨": 4594,
    "æĺİæĺ¾": 4595,
    "Ġfeed": 4596,
    "è¿Ĳè¾ĵ": 4597,
    "Ġmovement": 4598,
    "è¿ĺæľī": 4599,
    "oor": 4600,
    "ï¼ĮåĽłæŃ¤": 4601,
    "Ġsqu": 4602,
    "Ġclean": 4603,
    "37": 4604,
    "è¿ª": 4605,
    "åĪĨéĴŁ": 4606,
    "Ġvide": 4607,
    "å·¥èīº": 4608,
    "ï¼Įåį³": 4609,
    "è¿Ĳè¡Į": 4610,
    "know": 4611,
    "Ġforms": 4612,
    "å°ģ": 4613,
    "lies": 4614,
    "Ġparticularly": 4615,
    "Ġevents": 4616,
    "ners": 4617,
    "imum": 4618,
    "Ġuses": 4619,
    "ĠPar": 4620,
    "è°ĥæķ´": 4621,
    "IC": 4622,
    "ON": 4623,
    "Ġextreme": 4624,
    "çİī": 4625,
    "astic": 4626,
    "Ġsum": 4627,
    "å¹´åº¦": 4628,
    "cil": 4629,
    "å®£ä¼ł": 4630,
    "çģ¯": 4631,
    "æħ¢": 4632,
    "ãĢĢ": 4633,
    "rast": 4634,
    "But": 4635,
    "Ġprec": 4636,
    "æŃ¤å¤ĸ": 4637,
    "Ġjo": 4638,
    "verse": 4639,
    "ED": 4640,
    "å¹¿æ³Ľ": 4641,
    "èĥŀ": 4642,
    "Ġexc": 4643,
    "Ġinvolved": 4644,
    "ï¼ĮéĢļè¿ĩ": 4645,
    "Ġdamage": 4646,
    "ribution": 4647,
    "ength": 4648,
    "Ġvisit": 4649,
    "Ġnight": 4650,
    "Ġlate": 4651,
    "Ġinternational": 4652,
    "elling": 4653,
    "åħ³éĶ®": 4654,
    "Ġwritten": 4655,
    "Ġlack": 4656,
    "ä¹ĺ": 4657,
    "Ġidentify": 4658,
    "Ġdraw": 4659,
    "æķħäºĭ": 4660,
    "æīįèĥ½": 4661,
    "å³°": 4662,
    "Ġattempt": 4663,
    "erg": 4664,
    "ï¼Įæ¯Ķ": 4665,
    "ops": 4666,
    "ief": 4667,
    "ufact": 4668,
    "-in": 4669,
    "èĤ¤": 4670,
    "190": 4671,
    "itude": 4672,
    "ï¼Įè¯¥": 4673,
    "Ġreview": 4674,
    "Ġharm": 4675,
    "èµĦæł¼": 4676,
    "ĠJu": 4677,
    "æĸ°éĹ»": 4678,
    "éĩıçļĦ": 4679,
    "åĪĽéĢł": 4680,
    "å§Ķåĳĺä¼ļ": 4681,
    "Ġlog": 4682,
    "erson": 4683,
    "çĹĽ": 4684,
    "rie": 4685,
    "Ġdoing": 4686,
    "èĪ¹": 4687,
    "Ġencoura": 4688,
    "Ġemot": 4689,
    "Ġkids": 4690,
    "Ġface": 4691,
    "bo": 4692,
    "Ġir": 4693,
    "åºĶå½ĵ": 4694,
    "Ġbasic": 4695,
    "Ġaff": 4696,
    "è¯į": 4697,
    "ç¼©": 4698,
    "ĠJes": 4699,
    "å¼ĢæĶ¾": 4700,
    "ãĢģé«ĺ": 4701,
    "Ġmaintain": 4702,
    "oly": 4703,
    "Ġseries": 4704,
    "ĠScience": 4705,
    "ban": 4706,
    "Ġserious": 4707,
    "èµĦäº§": 4708,
    "Ġbr": 4709,
    "èªī": 4710,
    "uth": 4711,
    "é½Ĳ": 4712,
    "æ¹¾": 4713,
    "ĠWill": 4714,
    "ials": 4715,
    "Ġcamp": 4716,
    "ĠPart": 4717,
    "è§ĦèĮĥ": 4718,
    "34": 4719,
    "èĨľ": 4720,
    "å¹³æĸ¹": 4721,
    "èĥ¶": 4722,
    "å®ĮåĸĦ": 4723,
    "Ġvit": 4724,
    "Ġoutside": 4725,
    "Ġelectric": 4726,
    "ĠHar": 4727,
    "ĠCount": 4728,
    "âĢ¢": 4729,
    "Ġforce": 4730,
    "ĠEd": 4731,
    "Ġsea": 4732,
    "Ġmental": 4733,
    "Ġgrowing": 4734,
    "Ġvari": 4735,
    "Ġimplement": 4736,
    "Ġlat": 4737,
    "è¶ĬæĿ¥": 4738,
    "Ġdeal": 4739,
    "Ġattention": 4740,
    "åĩºäºĨ": 4741,
    "Ġfoods": 4742,
    "èº«ä½ĵ": 4743,
    "Ġdou": 4744,
    "ĠMe": 4745,
    "æ»¡è¶³": 4746,
    "Ġbacter": 4747,
    "Ġrefer": 4748,
    "ervation": 4749,
    "å¹ķ": 4750,
    "Ġcust": 4751,
    "ĠJan": 4752,
    "é«ĺçļĦ": 4753,
    "åİĭåĬĽ": 4754,
    "åıĳæĮ¥": 4755,
    "è¶ĬæĿ¥è¶Ĭ": 4756,
    "ĠChina": 4757,
    "Ġensure": 4758,
    "æķ°åŃĹ": 4759,
    "ĠApp": 4760,
    "Ġcommit": 4761,
    "æīĵéĢł": 4762,
    "Ġmechan": 4763,
    "æħ§": 4764,
    "æ··": 4765,
    "ï¼Įåħ¬åı¸": 4766,
    "Ġcontinue": 4767,
    "åŁºåľ°": 4768,
    "ĠBo": 4769,
    "na": 4770,
    "ls": 4771,
    "ming": 4772,
    "ĠAc": 4773,
    "å®½": 4774,
    "Ġforest": 4775,
    "Ġprobably": 4776,
    "38": 4777,
    "ç¤¼": 4778,
    "æľºåħ³": 4779,
    "rial": 4780,
    "Ġhyd": 4781,
    "Ġgenerally": 4782,
    "uary": 4783,
    "å¿«éĢŁ": 4784,
    "ties": 4785,
    "Ġtarget": 4786,
    "Ġdeveloping": 4787,
    "å»ºè®®": 4788,
    "oring": 4789,
    "Ġconsist": 4790,
    "Ġfeet": 4791,
    "Ġste": 4792,
    "Ġspir": 4793,
    "æĢĢ": 4794,
    "AN": 4795,
    "Ġfa": 4796,
    "ached": 4797,
    "âĢĺ": 4798,
    "ided": 4799,
    "vention": 4800,
    "IT": 4801,
    "æ¹¿": 4802,
    "Ġwebs": 4803,
    "Ġpoor": 4804,
    "æľºä¼ļ": 4805,
    "On": 4806,
    "Ġap": 4807,
    "Ġexpress": 4808,
    "ĠRuss": 4809,
    "Ġessential": 4810,
    "ä¸»ä»»": 4811,
    "abetes": 4812,
    "Ġproduced": 4813,
    "Ġgetting": 4814,
    "ç¬¦åĲĪ": 4815,
    "ises": 4816,
    "Ġmother": 4817,
    "æ´ģ": 4818,
    "ĠFrench": 4819,
    "Ġmess": 4820,
    "Ġdefin": 4821,
    "Ġtheory": 4822,
    "Ġox": 4823,
    "ĠDepartment": 4824,
    "çĶŁåĳ½": 4825,
    "ç»¿èī²": 4826,
    "ĠMore": 4827,
    "Ġsust": 4828,
    "éļĶ": 4829,
    "Ġprep": 4830,
    "overy": 4831,
    "æĵįä½ľ": 4832,
    "å®¿": 4833,
    "ille": 4834,
    "Ġdemonst": 4835,
    "è¶£": 4836,
    "ĠChristian": 4837,
    "æĤī": 4838,
    "é¼ĵ": 4839,
    "Ġsolar": 4840,
    "Ġideas": 4841,
    "åĮĸåŃ¦": 4842,
    "è´¡": 4843,
    "Ġcoun": 4844,
    "ĠQu": 4845,
    "Ġec": 4846,
    "Ġconcent": 4847,
    "ift": 4848,
    "çº¸": 4849,
    "Ġcarbon": 4850,
    "æ¡£": 4851,
    "Ġremov": 4852,
    "Ġdang": 4853,
    "èĶ": 4854,
    "Ġcross": 4855,
    "Ġbirth": 4856,
    "è§Ĩé¢ĳ": 4857,
    "Ġlooking": 4858,
    "Ġtakes": 4859,
    "Ġful": 4860,
    "æĹłæ³ķ": 4861,
    "ground": 4862,
    "çļĦéĩįè¦ģ": 4863,
    "éĢļçŁ¥": 4864,
    "Ġtree": 4865,
    "åĵĪ": 4866,
    "75": 4867,
    "Ġinstead": 4868,
    "Ġdaily": 4869,
    "ĠCenter": 4870,
    "osing": 4871,
    "æĥł": 4872,
    "è°ĥæŁ¥": 4873,
    "cies": 4874,
    "isions": 4875,
    "Ġhumans": 4876,
    "Ġleaders": 4877,
    "Ġdiv": 4878,
    "Ġcompon": 4879,
    "éĵĿ": 4880,
    "è¸": 4881,
    "ä¼°": 4882,
    "inks": 4883,
    "é±": 4884,
    "ç½ļ": 4885,
    "ĠInstitute": 4886,
    "Ġcompet": 4887,
    "ï¼īãĢģ": 4888,
    "è´´": 4889,
    "issions": 4890,
    "åįĸ": 4891,
    "Ġscientific": 4892,
    "ĠDo": 4893,
    "Ġselect": 4894,
    "ĠCor": 4895,
    "æĿŁ": 4896,
    "æ±ĩ": 4897,
    "ï¼Įæľ¬": 4898,
    "çī©æµģ": 4899,
    "éĢĶ": 4900,
    "Ġtown": 4901,
    "32": 4902,
    "Ġago": 4903,
    "oles": 4904,
    "ä¸¾åĬŀ": 4905,
    "ä¸Ŀ": 4906,
    "æ¦Ĥ": 4907,
    "èĳ£": 4908,
    "çĽĳçĿ£": 4909,
    "åĲĹ": 4910,
    "hel": 4911,
    "ĠFran": 4912,
    "asons": 4913,
    "çĲĨå¿µ": 4914,
    "é±¼": 4915,
    "Ġwood": 4916,
    "åľĨ": 4917,
    "useum": 4918,
    "Ġbab": 4919,
    "éĤ®": 4920,
    "çĶµè§Ĩ": 4921,
    "å±ŀäºİ": 4922,
    "iforn": 4923,
    "elt": 4924,
    "ecause": 4925,
    "Ġmilitary": 4926,
    "è¯¾ç¨ĭ": 4927,
    "æĦıè§ģ": 4928,
    "åĸľæ¬¢": 4929,
    "ads": 4930,
    "Ġestablished": 4931,
    "çĴ": 4932,
    "Ġpatient": 4933,
    "set": 4934,
    "Ġsomeone": 4935,
    "ï¼Įéĥ½": 4936,
    "æĭŁ": 4937,
    "Ġnumbers": 4938,
    "ĠEuropean": 4939,
    "Ġnegative": 4940,
    "çīĻ": 4941,
    "Ġindepend": 4942,
    "Ġdoesn": 4943,
    "Ġchalleng": 4944,
    "ctions": 4945,
    "åĪ¶ä½ľ": 4946,
    "ä»»åĬ¡": 4947,
    "Ġspeed": 4948,
    "osure": 4949,
    "æľĢåĲİ": 4950,
    "Ġvirus": 4951,
    "ĠMany": 4952,
    "è¯º": 4953,
    "ĠGerman": 4954,
    "ha": 4955,
    "ä¸Ĭå¸Ĥ": 4956,
    "haps": 4957,
    "Ġwarm": 4958,
    "ï¼Įå¥¹": 4959,
    "å·¦åı³": 4960,
    "ç»ĦæĪĲ": 4961,
    "Ġprimary": 4962,
    "æĸ¹åĲĳ": 4963,
    "fect": 4964,
    "Ġincluded": 4965,
    "Ġeye": 4966,
    "Ġbal": 4967,
    "Ġaware": 4968,
    "æľ«": 4969,
    "gency": 4970,
    "åĿĲ": 4971,
    "åĮĸçļĦ": 4972,
    "ights": 4973,
    "Ġthus": 4974,
    "Ġcompared": 4975,
    "And": 4976,
    "Ġaud": 4977,
    "Ġcit": 4978,
    "å¹¸": 4979,
    "ï¼ĮåĬł": 4980,
    "åı¥": 4981,
    "ãĢĤä»ĸ": 4982,
    "ems": 4983,
    "uk": 4984,
    "ĠInt": 4985,
    "éĽĦ": 4986,
    "éª¨": 4987,
    "å¡Ķ": 4988,
    "Ġanimal": 4989,
    "ography": 4990,
    "400": 4991,
    "48": 4992,
    "ĠMarch": 4993,
    "ĠJesus": 4994,
    "Ġtherefore": 4995,
    "Ġresponse": 4996,
    "Ġ--": 4997,
    "Ġwall": 4998,
    "å´": 4999,
    "ç³ĸ": 5000,
    "æ£®": 5001,
    "âĢĻve": 5002,
    "raft": 5003,
    "Ġpolicy": 5004,
    "Ġsecurity": 5005,
    "Ġmanufact": 5006,
    "çĺ": 5007,
    "Ġfront": 5008,
    "æĢĿæĥ³": 5009,
    "hern": 5010,
    "å¾Ħ": 5011,
    "Ġquite": 5012,
    "ĠMus": 5013,
    "æķĻæİĪ": 5014,
    "Ġperformance": 5015,
    "Ġteachers": 5016,
    "Ġthird": 5017,
    "æķ´ä¸ª": 5018,
    "where": 5019,
    "pril": 5020,
    "Ġstarted": 5021,
    "ç¡®å®ļ": 5022,
    "ĠInternational": 5023,
    "ç§ģ": 5024,
    "æĮĳ": 5025,
    "æ¶Īè´¹èĢħ": 5026,
    "åİ»å¹´": 5027,
    "çº·": 5028,
    "ension": 5029,
    "Ġdifference": 5030,
    "Ġattack": 5031,
    "æĿ¯": 5032,
    "åĩºçļĦ": 5033,
    "ifornia": 5034,
    "Ġheld": 5035,
    "AC": 5036,
    "ino": 5037,
    "ĠCons": 5038,
    "cell": 5039,
    "Ġinvestig": 5040,
    "orks": 5041,
    "Ġmagn": 5042,
    "æĺ¯åĲ¦": 5043,
    "æı¡": 5044,
    "Ġcover": 5045,
    "ext": 5046,
    "Ġcorrect": 5047,
    "æĬ¥åĲį": 5048,
    "åĳĪ": 5049,
    "ĠArt": 5050,
    "Ġtrees": 5051,
    "iot": 5052,
    "Ġast": 5053,
    "Ġinstit": 5054,
    "ä¹ĭåīį": 5055,
    "Ġeasily": 5056,
    "æ´¥": 5057,
    "alu": 5058,
    "èµĦæĸĻ": 5059,
    "æ¯Ľ": 5060,
    "ilos": 5061,
    "Ġdetermine": 5062,
    "å¯»": 5063,
    "ï¼ĮåĲĮæ¯Ķ": 5064,
    "ĠEduc": 5065,
    "Ġ|": 5066,
    "ç©¿": 5067,
    "Ġreve": 5068,
    "ancy": 5069,
    "å®Įåħ¨": 5070,
    "Ġveget": 5071,
    "-h": 5072,
    "æĹĹ": 5073,
    "OR": 5074,
    "è¿Ļæł·": 5075,
    "Ġimmedi": 5076,
    "è½¯ä»¶": 5077,
    "One": 5078,
    "ĠIndia": 5079,
    "ãĢĤæĪĳ": 5080,
    "Ġdoctor": 5081,
    "sh": 5082,
    "Ġtraditional": 5083,
    "æĿ¨": 5084,
    "Ġtur": 5085,
    "ç¦ģ": 5086,
    "ĠEl": 5087,
    "room": 5088,
    "ying": 5089,
    "ĠOct": 5090,
    "ä¸Ńå¤®": 5091,
    "gn": 5092,
    "Ġfav": 5093,
    "åĦ¿ç«¥": 5094,
    "150": 5095,
    "Ġcompanies": 5096,
    "Ġcommunities": 5097,
    "æĻ®éĢļ": 5098,
    "Ġdocument": 5099,
    "ç®Ģåįķ": 5100,
    "ceed": 5101,
    "åĴ¨": 5102,
    "éĩįå¤§": 5103,
    "Ġdry": 5104,
    "ĠChar": 5105,
    "ç§ĳçłĶ": 5106,
    "çļĦæĸ°": 5107,
    "Ġtools": 5108,
    "Ġbooks": 5109,
    "æĶ¹åıĺ": 5110,
    "Ġthous": 5111,
    "Ġinside": 5112,
    "iter": 5113,
    "æĸĩä»¶": 5114,
    "ington": 5115,
    "coh": 5116,
    "-g": 5117,
    "ç»Ĩèĥŀ": 5118,
    "å®ŀè·µ": 5119,
    "æİĮ": 5120,
    "ĠSm": 5121,
    "èģĶç³»": 5122,
    "rig": 5123,
    "Ġspeak": 5124,
    "éĽª": 5125,
    "ellow": 5126,
    "Ġallows": 5127,
    "èĪªç©º": 5128,
    "ridge": 5129,
    "Ġnucle": 5130,
    "Ġinfection": 5131,
    "Ġcapt": 5132,
    "aly": 5133,
    "æĪĲæŀľ": 5134,
    "AS": 5135,
    "Ġhabit": 5136,
    "65": 5137,
    "Ġcivil": 5138,
    "èĤ¡ä»½": 5139,
    "ç¡®ä¿Ŀ": 5140,
    "æĹ§": 5141,
    "ching": 5142,
    "Ġfamilies": 5143,
    "Ġdrink": 5144,
    "Ġalthough": 5145,
    "ç§ĭ": 5146,
    "like": 5147,
    "çī©è´¨": 5148,
    "www": 5149,
    "Ġwalk": 5150,
    "ä¸Ģæł·": 5151,
    "Ġdirectly": 5152,
    "èī¯å¥½çļĦ": 5153,
    "Ġsou": 5154,
    "çī¹çĤ¹": 5155,
    "Ġpoints": 5156,
    "Ġappropri": 5157,
    "ĠAug": 5158,
    "éĽħ": 5159,
    "Ġdiseases": 5160,
    "ĠPre": 5161,
    "å±ĭ": 5162,
    "åĴ¨è¯¢": 5163,
    "Ġsevere": 5164,
    "Ġnation": 5165,
    "Ġstri": 5166,
    "ä½ĵéªĮ": 5167,
    "Ġreflect": 5168,
    "Ġoffer": 5169,
    "ç»Łè®¡": 5170,
    "æķ´ä½ĵ": 5171,
    "åĩĿ": 5172,
    "ä¸Ńåįİ": 5173,
    "rs": 5174,
    "ï¼ĮåĮħæĭ¬": 5175,
    "%ãĢĤĊ": 5176,
    "Ġadded": 5177,
    "åľ³": 5178,
    "ror": 5179,
    "Ġestim": 5180,
    ".org": 5181,
    "éĩĳå±ŀ": 5182,
    "è¶ĭ": 5183,
    "ä¸ªæľĪ": 5184,
    "Ġachieve": 5185,
    "âĢĻll": 5186,
    "Ġactive": 5187,
    "è¿ĩåİ»": 5188,
    "æ¶Ĥ": 5189,
    "Ġdispl": 5190,
    "Ġseems": 5191,
    "æĻ¯åĮº": 5192,
    "åı¬": 5193,
    "yond": 5194,
    "rael": 5195,
    "lied": 5196,
    "inese": 5197,
    "orthern": 5198,
    "ĠYour": 5199,
    "åıªæľī": 5200,
    "Ġthinking": 5201,
    "Ġprotein": 5202,
    "Ġx": 5203,
    "Ġgard": 5204,
    "ĠMost": 5205,
    "iency": 5206,
    "Ġadditional": 5207,
    "Ġbehind": 5208,
    "èıĮ": 5209,
    "ç¨ĭåº¦": 5210,
    "çĬ¶æĢģ": 5211,
    "Ġunique": 5212,
    "ĠDav": 5213,
    "æĿ¥çľĭ": 5214,
    "Ġwent": 5215,
    "39": 5216,
    "Ġwhose": 5217,
    "éĴĪå¯¹": 5218,
    "æ·±åľ³": 5219,
    "Ġfast": 5220,
    "è·¨": 5221,
    "±ä¹Ĳ": 5222,
    "è´·": 5223,
    "pe": 5224,
    "ĠJune": 5225,
    "Ġsupply": 5226,
    "Ġsus": 5227,
    "Ġrout": 5228,
    "Ġhot": 5229,
    "çĦ¶åĲİ": 5230,
    "é¡µ": 5231,
    "èĻļ": 5232,
    "å¹¿å·ŀ": 5233,
    "ä¸įåı¯": 5234,
    "Ġbad": 5235,
    "ĠIndian": 5236,
    "ç¼ĵ": 5237,
    "leb": 5238,
    "ĠCalifornia": 5239,
    "Ġagree": 5240,
    "Ġi": 5241,
    "æĬĵ": 5242,
    "hens": 5243,
    "Ġmultiple": 5244,
    "ancial": 5245,
    "ä¼Ł": 5246,
    "OS": 5247,
    "He": 5248,
    "Ġsold": 5249,
    "æĦıè¯Ĩ": 5250,
    "Ġcentral": 5251,
    "æī¬": 5252,
    "Ġfoot": 5253,
    "éĩįè¦ģçļĦ": 5254,
    "Ġquickly": 5255,
    "åĲ§": 5256,
    "ims": 5257,
    "uries": 5258,
    "åħµ": 5259,
    "cean": 5260,
    "åĶ±": 5261,
    "Ġleading": 5262,
    "Ġcred": 5263,
    "Ġancient": 5264,
    "åĲĪåĲĮ": 5265,
    "ounds": 5266,
    "Ġdecre": 5267,
    "æŃ£å¸¸": 5268,
    "Ġtri": 5269,
    "Ġlarger": 5270,
    "æŃ¤æ¬¡": 5271,
    "å¦Ī": 5272,
    "Ġbit": 5273,
    "ĠRec": 5274,
    "ĠHer": 5275,
    "Ġprint": 5276,
    "Ġbeginning": 5277,
    "çĽ®çļĦ": 5278,
    "omet": 5279,
    "Ġlost": 5280,
    "uman": 5281,
    "oming": 5282,
    "ï¼ĮåıĪ": 5283,
    "ç©ºæ°Ķ": 5284,
    "thern": 5285,
    "bor": 5286,
    "Ġtowards": 5287,
    "Ġcritical": 5288,
    "Ġcard": 5289,
    "ĠAg": 5290,
    "çĳŀ": 5291,
    "ç§ĺ": 5292,
    "Ġsoftware": 5293,
    "Ġbroad": 5294,
    "term": 5295,
    "æ¶¨": 5296,
    "åĢį": 5297,
    "Ġaltern": 5298,
    "Ġexercise": 5299,
    "æĿĢ": 5300,
    "Ġcontains": 5301,
    "Ġaspect": 5302,
    "ĠBar": 5303,
    "Ġprogress": 5304,
    "Ġextra": 5305,
    "ĠHistory": 5306,
    "æĭĵ": 5307,
    "èĲ¨": 5308,
    "Ġmount": 5309,
    "Ġhighly": 5310,
    "èĩªèº«": 5311,
    "-S": 5312,
    "isms": 5313,
    "Ġsoon": 5314,
    "çľŁæŃ£": 5315,
    "åĲİçļĦ": 5316,
    "ĠJuly": 5317,
    "çħ¤": 5318,
    "ä¸¾è¡Į": 5319,
    "âĢĿãĢģâĢľ": 5320,
    "rew": 5321,
    "55": 5322,
    "Ġdecision": 5323,
    "joy": 5324,
    "den": 5325,
    "mon": 5326,
    "ä¿ĿéĻ©": 5327,
    "Ġtend": 5328,
    "ä¸įåĲĮçļĦ": 5329,
    "att": 5330,
    "undred": 5331,
    "Ġfram": 5332,
    "olar": 5333,
    "Ġprior": 5334,
    "ĠAnt": 5335,
    "å®īæİĴ": 5336,
    "oke": 5337,
    "Ġminutes": 5338,
    "rance": 5339,
    "Ġstay": 5340,
    "Ġsil": 5341,
    "Ġacid": 5342,
    "ç¨ĭåºı": 5343,
    "æī¶": 5344,
    "éĺµ": 5345,
    "Ġhor": 5346,
    "Ġhost": 5347,
    "åĬĽéĩı": 5348,
    "sect": 5349,
    "itect": 5350,
    "Ġleaves": 5351,
    "æ²ī": 5352,
    "ĠSch": 5353,
    "ï¼Įä¹Łæĺ¯": 5354,
    "ĠNot": 5355,
    "ĠEngland": 5356,
    "Ġreceived": 5357,
    "Ġones": 5358,
    "ï¼ĮçĶ¨": 5359,
    "see": 5360,
    "Ġanswer": 5361,
    "ĠGl": 5362,
    "ï¼Įè¯·": 5363,
    "é¢Ħè®¡": 5364,
    "æĪĳçļĦ": 5365,
    "æ®Ĭ": 5366,
    "EN": 5367,
    "formation": 5368,
    "æľīçļĦ": 5369,
    "Ġmom": 5370,
    "é©¾": 5371,
    "Ġclin": 5372,
    "ĠGree": 5373,
    "Ġworkers": 5374,
    "rote": 5375,
    "hest": 5376,
    "Ġlabor": 5377,
    "Ġeth": 5378,
    "éŁ©": 5379,
    "èµ¢": 5380,
    "omb": 5381,
    "Ġjud": 5382,
    "è·ĳ": 5383,
    "æ²Ł": 5384,
    "Ġapplication": 5385,
    "edia": 5386,
    "èĦĤ": 5387,
    "å½ĵåľ°": 5388,
    "Ġhar": 5389,
    "iques": 5390,
    "ĠSept": 5391,
    "ĠAfrican": 5392,
    "èĢĥèĻĳ": 5393,
    "æĺ¯ä¸Ģç§į": 5394,
    "æĢİä¹Ī": 5395,
    "ulate": 5396,
    "Ġinterp": 5397,
    "ĠOther": 5398,
    "åķĨåĵģ": 5399,
    "So": 5400,
    "çļ®èĤ¤": 5401,
    "æĺł": 5402,
    "Ġproced": 5403,
    "ĠCanada": 5404,
    "ç½²": 5405,
    "Ġreligious": 5406,
    "rag": 5407,
    "anks": 5408,
    "çļĦäºĭ": 5409,
    "æĦıä¹ī": 5410,
    "lin": 5411,
    "å®«": 5412,
    "Ġvacc": 5413,
    "ĠApril": 5414,
    "vant": 5415,
    "aul": 5416,
    "åĩºåı£": 5417,
    "ologies": 5418,
    "ĠCO": 5419,
    "èĤ¥": 5420,
    "å°¤åħ¶": 5421,
    "Ġdisp": 5422,
    "é¦Ļæ¸¯": 5423,
    "rates": 5424,
    "78": 5425,
    "Ġprotection": 5426,
    "ĠAlthough": 5427,
    "Ġseason": 5428,
    "ä¼¦": 5429,
    "Ġtransport": 5430,
    "orders": 5431,
    "Ġelements": 5432,
    "å¿ĥçĲĨ": 5433,
    "Ġnar": 5434,
    "Ġlimited": 5435,
    "cohol": 5436,
    "aid": 5437,
    "Ġhttp": 5438,
    "è¯Ħä»·": 5439,
    "åĩĨå¤ĩ": 5440,
    "Ġwrite": 5441,
    "ĠRet": 5442,
    "Ġvalues": 5443,
    "ĠWest": 5444,
    "éĺħ": 5445,
    "Ġdescribed": 5446,
    "ĠTw": 5447,
    "co": 5448,
    "ä¸ĸçºª": 5449,
    "Ġsustain": 5450,
    "Ġsearch": 5451,
    "lier": 5452,
    "Ġdark": 5453,
    "èļ": 5454,
    "çĥŁ": 5455,
    "----": 5456,
    "cember": 5457,
    "Ġfile": 5458,
    "Ġbase": 5459,
    "Ġcontribut": 5460,
    "ĠIsrael": 5461,
    "ï¼ĮçĽ®åīį": 5462,
    "çĲĨè®º": 5463,
    "Ġnorth": 5464,
    "Ġevalu": 5465,
    "ä¾µ": 5466,
    "Ġuseful": 5467,
    "ĠIm": 5468,
    "Ġinn": 5469,
    "Ġcommunication": 5470,
    "è¿·": 5471,
    "uous": 5472,
    "åĿı": 5473,
    "æ²¿": 5474,
    "åĪĽä¸ļ": 5475,
    "mission": 5476,
    "Ġgot": 5477,
    "Ġdecl": 5478,
    "ĠChinese": 5479,
    "å¼ķèµ·": 5480,
    "çĪĨ": 5481,
    "å¥ĭ": 5482,
    "å½»": 5483,
    "å±±ä¸ľ": 5484,
    "book": 5485,
    "Ġtiss": 5486,
    "used": 5487,
    "æ¾³": 5488,
    "Ġhy": 5489,
    "Ġexpect": 5490,
    "éģ¿åħį": 5491,
    "Ġbrought": 5492,
    "rogen": 5493,
    "Ġnews": 5494,
    "Ġcapital": 5495,
    "åĳ¼": 5496,
    "Ġsection": 5497,
    "ĠTra": 5498,
    "ĠKe": 5499,
    "æķ°éĩı": 5500,
    "Ġeyes": 5501,
    "æ½ľ": 5502,
    "-st": 5503,
    "Ġcustom": 5504,
    "èĢĹ": 5505,
    "åı«": 5506,
    "lection": 5507,
    "Ġprivate": 5508,
    "Ġadults": 5509,
    "è£ģ": 5510,
    "Ġord": 5511,
    "é²ģ": 5512,
    "gypt": 5513,
    "Ġ,": 5514,
    "æĺİç¡®": 5515,
    "Ġinfluence": 5516,
    "Ġhimself": 5517,
    "Ġanaly": 5518,
    "ï¼Įå¹¶ä¸Ķ": 5519,
    "åĪ©æ¶¦": 5520,
    "ĠChild": 5521,
    "Â°": 5522,
    "ovember": 5523,
    "Ġwaste": 5524,
    "ĠArch": 5525,
    "Ġstra": 5526,
    "Ġelse": 5527,
    "åĢº": 5528,
    "Ġweeks": 5529,
    "ira": 5530,
    "äººç±»": 5531,
    "Ġlines": 5532,
    "ãĢĤå½ĵ": 5533,
    "Ġdevices": 5534,
    "Ġbeaut": 5535,
    "æĬķåħ¥": 5536,
    "ä»İäºĭ": 5537,
    "Ġcolon": 5538,
    "åĨ¬": 5539,
    "Ġquant": 5540,
    "æļĸ": 5541,
    "æģ¶": 5542,
    "Ġobjects": 5543,
    "Ġlength": 5544,
    "æ·±åħ¥": 5545,
    "EC": 5546,
    "Ġproperty": 5547,
    "Ġking": 5548,
    "èħĲ": 5549,
    "Ġexact": 5550,
    "Ġestablish": 5551,
    "ç¯ĩ": 5552,
    "æı´": 5553,
    "come": 5554,
    "åĬŀæ³ķ": 5555,
    "è¡£": 5556,
    "180": 5557,
    "å¡ŀ": 5558,
    "Ġremains": 5559,
    "ä¼Ĭ": 5560,
    "ä¸¥æł¼": 5561,
    "44": 5562,
    "Ġlargest": 5563,
    "çļĦéĹ®é¢ĺ": 5564,
    "å¹³åĿĩ": 5565,
    "Ġreach": 5566,
    "Ġgame": 5567,
    "Ġhands": 5568,
    "èĦļ": 5569,
    "istry": 5570,
    "å¤ļä¸ª": 5571,
    "Ġborn": 5572,
    "éĢŁåº¦": 5573,
    "çĵ¦": 5574,
    "Ġaccur": 5575,
    "ĠAfrica": 5576,
    "æ¸©åº¦": 5577,
    "Ġpurpose": 5578,
    "ĠPress": 5579,
    "Ġgoal": 5580,
    "èĳ£äºĭ": 5581,
    "ä¹¦è®°": 5582,
    "pper": 5583,
    "Ġstru": 5584,
    "æĮĩåĩº": 5585,
    "æµĻ": 5586,
    "Ġnearly": 5587,
    "¹ģ": 5588,
    "ription": 5589,
    "inct": 5590,
    "ĠHere": 5591,
    "ç¤¾åĮº": 5592,
    "ĠFirst": 5593,
    "èµĦæľ¬": 5594,
    "ĠMy": 5595,
    "Ġcommand": 5596,
    "Ġbasis": 5597,
    "è¿Ľè¡ĮäºĨ": 5598,
    "99": 5599,
    "è¡ĮåĬ¨": 5600,
    "æļ´": 5601,
    "lam": 5602,
    "åĪ¶å®ļ": 5603,
    "iers": 5604,
    "Ġsituation": 5605,
    "Ġcarry": 5606,
    "Ġang": 5607,
    "ĠProg": 5608,
    "Ġvideo": 5609,
    "cks": 5610,
    "Ġmill": 5611,
    "ĠOf": 5612,
    "Ġenjoy": 5613,
    "Ġvict": 5614,
    "åįģåĪĨ": 5615,
    "ç¬ĳ": 5616,
    "åĪº": 5617,
    "æĻºæħ§": 5618,
    "éķľ": 5619,
    "äº¦": 5620,
    "ĠAssoci": 5621,
    "izations": 5622,
    "Ġcapac": 5623,
    "èĵĿ": 5624,
    "è¯¯": 5625,
    "ç¢³": 5626,
    "è¦": 5627,
    "åĵģè´¨": 5628,
    "âĦ": 5629,
    "Ġlocated": 5630,
    "ï¼Įä»İèĢĮ": 5631,
    "Ġfight": 5632,
    "éĩİ": 5633,
    "èľ": 5634,
    "ç¹ģ": 5635,
    "Ġegg": 5636,
    "Ġbecomes": 5637,
    "å¢ŀå¼º": 5638,
    "Ġrequires": 5639,
    "Ġlaws": 5640,
    "æľºåĪ¶": 5641,
    "Ġbul": 5642,
    "æĹ¶æľŁ": 5643,
    "IV": 5644,
    "Ġtesting": 5645,
    "Ġsouth": 5646,
    "Ġhundred": 5647,
    "ĠServ": 5648,
    "ï¼Įæĸ°": 5649,
    "éģį": 5650,
    "iber": 5651,
    "Ġtests": 5652,
    "éĤ£ä¹Ī": 5653,
    "åĭĩ": 5654,
    "AP": 5655,
    "è´¡çĮ®": 5656,
    "æķĪçİĩ": 5657,
    "ä¾ĽåºĶ": 5658,
    "è´¯": 5659,
    "iece": 5660,
    "-y": 5661,
    "å®¾": 5662,
    "lation": 5663,
    "Ġstrateg": 5664,
    "Ġep": 5665,
    "ĠRiver": 5666,
    "åĮ»åŃ¦": 5667,
    "iles": 5668,
    "ields": 5669,
    "ï¼İ": 5670,
    "çļĩ": 5671,
    "rition": 5672,
    "Ġsummer": 5673,
    "é¾Ħ": 5674,
    "ests": 5675,
    "Ġplaces": 5676,
    "Ġadminist": 5677,
    "186": 5678,
    "éĿ¢å¯¹": 5679,
    "ï¼Įä¸Ń": 5680,
    "Ġefforts": 5681,
    "Ġdevice": 5682,
    "èĽĭ": 5683,
    "æĲŃ": 5684,
    "åħ¨éĥ¨": 5685,
    "æ½®": 5686,
    "fort": 5687,
    "Ġdiabetes": 5688,
    "'re": 5689,
    "ĠMc": 5690,
    "ĠIS": 5691,
    "éĩĩåıĸ": 5692,
    "Ġmiles": 5693,
    "ondon": 5694,
    "II": 5695,
    "Ġcommunic": 5696,
    "Ġblock": 5697,
    "Ġimages": 5698,
    "ä¸Ģä½ĵ": 5699,
    "cles": 5700,
    "arian": 5701,
    "ĠSw": 5702,
    "Ġhous": 5703,
    "çº¯": 5704,
    "oud": 5705,
    "Ġcenter": 5706,
    "Ġpack": 5707,
    "çļĦå·¥ä½ľ": 5708,
    "å°±ä¸ļ": 5709,
    "ĠPresident": 5710,
    "]Ċ": 5711,
    "king": 5712,
    "éĥ½æľī": 5713,
    "wise": 5714,
    "entially": 5715,
    "å¹¿ä¸ľ": 5716,
    "Ġrare": 5717,
    "Ġexcept": 5718,
    "é©¶": 5719,
    "Ġfit": 5720,
    "æ´Ľ": 5721,
    "At": 5722,
    "éĺ»": 5723,
    "odies": 5724,
    "Ġagricult": 5725,
    "ï¼ĮåĨį": 5726,
    "è´¢æĶ¿": 5727,
    "è¦Ĩ": 5728,
    "Ġadop": 5729,
    "åı¦å¤ĸ": 5730,
    "atur": 5731,
    "Ġspirit": 5732,
    "Ġfather": 5733,
    "ï½": 5734,
    "å©ļ": 5735,
    "inate": 5736,
    "Ġfeatures": 5737,
    "ĠReg": 5738,
    "Ġteaching": 5739,
    "æģ¢": 5740,
    "95": 5741,
    "ä¼ĺè´¨": 5742,
    "Ġsurround": 5743,
    "Ġson": 5744,
    "ĠMon": 5745,
    "åĲĦç±»": 5746,
    "Ġcourt": 5747,
    "ĠUs": 5748,
    "ĠDay": 5749,
    "éĹŃ": 5750,
    "Ġmention": 5751,
    "ĠGovern": 5752,
    "ä¸ºä¸»": 5753,
    "alled": 5754,
    "Ġtold": 5755,
    "ç§»åĬ¨": 5756,
    "è´¸æĺĵ": 5757,
    "æ°§åĮĸ": 5758,
    "å¤§åŀĭ": 5759,
    "èĭ±åĽ½": 5760,
    "å®īè£ħ": 5761,
    "ä¸įè¿ĩ": 5762,
    "estic": 5763,
    "Ġdied": 5764,
    "æĸĩæĺİ": 5765,
    "èĬĤèĥ½": 5766,
    "æľ¬æ¬¡": 5767,
    "å«": 5768,
    "Ġtrade": 5769,
    "åĨ°": 5770,
    "å¾ª": 5771,
    "Ġexamples": 5772,
    "å¤ļçļĦ": 5773,
    "bit": 5774,
    "Ġult": 5775,
    "Ġeverything": 5776,
    "ĠAugust": 5777,
    "Ġimportance": 5778,
    "ĠJanuary": 5779,
    "éľĩ": 5780,
    "Ġtherapy": 5781,
    "æĶ¹åĸĦ": 5782,
    "è¿ĻéĩĮ": 5783,
    "equ": 5784,
    "æĬ¥éģĵ": 5785,
    "åĢĴ": 5786,
    "çĥ¯": 5787,
    "åĲĪçĲĨ": 5788,
    "resh": 5789,
    "Ġshall": 5790,
    "Ġeating": 5791,
    "ĠEgypt": 5792,
    "ios": 5793,
    "Ġwa": 5794,
    "ulated": 5795,
    "ĠSocial": 5796,
    "Ġder": 5797,
    "ĠWash": 5798,
    "Ġlegal": 5799,
    "æ³¥": 5800,
    "Ġnothing": 5801,
    "åĬ¨åĬĽ": 5802,
    "Ġimag": 5803,
    "Ġdemand": 5804,
    "Ġcontroll": 5805,
    "ĠOctober": 5806,
    "Ġsett": 5807,
    "Ġcoast": 5808,
    "ç»ķ": 5809,
    "åįĬå¹´": 5810,
    "Ġdigital": 5811,
    "è°·": 5812,
    "ï¼Įä¸»è¦ģ": 5813,
    "Ġpregn": 5814,
    "Ġmole": 5815,
    "Ġcitiz": 5816,
    "Ġmemory": 5817,
    "åįĩçº§": 5818,
    "ä½łçļĦ": 5819,
    "å±ı": 5820,
    "Ġwebsite": 5821,
    "Ġfederal": 5822,
    "Ġdead": 5823,
    "éļĲ": 5824,
    "åºĦ": 5825,
    "ä¾§": 5826,
    "ils": 5827,
    "Ġveh": 5828,
    "Ġtit": 5829,
    "Ġsn": 5830,
    "46": 5831,
    "ica": 5832,
    "ama": 5833,
    "å¹³æĸ¹ç±³": 5834,
    "Ġmid": 5835,
    "ype": 5836,
    "idents": 5837,
    "Ġfinancial": 5838,
    "æģ©": 5839,
    "ipment": 5840,
    "Ġsaw": 5841,
    "Ġautom": 5842,
    "ä¿Ħ": 5843,
    "Ġbeyond": 5844,
    "ãĢģãĢĬ": 5845,
    "vest": 5846,
    "bol": 5847,
    "Ġcool": 5848,
    "éĽĨä¸Ń": 5849,
    "Ġcou": 5850,
    "Ġbenefit": 5851,
    "æ¬§æ´²": 5852,
    "oe": 5853,
    "These": 5854,
    "-to": 5855,
    "Ġanything": 5856,
    "æĬĢèĥ½": 5857,
    "Pro": 5858,
    "åĪĳ": 5859,
    "%çļĦ": 5860,
    "Ġtechniques": 5861,
    "Ġbacteria": 5862,
    "ĠDecember": 5863,
    "åĲĮåŃ¦": 5864,
    "ãĢĤå¦Ĥæŀľ": 5865,
    "Ġrapid": 5866,
    "Ġgives": 5867,
    "Ġsites": 5868,
    "Ġmis": 5869,
    "å¼±": 5870,
    "600": 5871,
    "ĠJournal": 5872,
    "è¿ħ": 5873,
    "ä¼Ļ": 5874,
    "aters": 5875,
    "ĠWilliam": 5876,
    "æ¢ħ": 5877,
    "åħ¬åı¸çļĦ": 5878,
    "ĠEducation": 5879,
    "inated": 5880,
    "airs": 5881,
    "å¢Ļ": 5882,
    "çĶŁçļĦ": 5883,
    "Ġcompletely": 5884,
    "Ġappropriate": 5885,
    "Ġcreating": 5886,
    "Ġasked": 5887,
    "äººåı£": 5888,
    "Ġrecently": 5889,
    "åľĪ": 5890,
    "Ġapplications": 5891,
    "ç¾¤ä¼Ĺ": 5892,
    "å±ķç¤º": 5893,
    "Ġresponsible": 5894,
    "ĠFeb": 5895,
    "By": 5896,
    "Ġmonitor": 5897,
    "Ġsolution": 5898,
    "ham": 5899,
    "æµª": 5900,
    "omy": 5901,
    "ky": 5902,
    "Ġrespond": 5903,
    "itis": 5904,
    "iar": 5905,
    "Ġtypically": 5906,
    "Ġsugar": 5907,
    "Ġproviding": 5908,
    "Ġceleb": 5909,
    "ï¼īãĢĤ": 5910,
    "æģ¢å¤į": 5911,
    "æĩ": 5912,
    "çĶµè¯Ŀ": 5913,
    "çļĦæľĢ": 5914,
    "æĳ©": 5915,
    "-A": 5916,
    "Ġrates": 5917,
    "Ġolder": 5918,
    "æµĵ": 5919,
    "âĢ¦âĢ¦": 5920,
    "çļĦæĥħåĨµ": 5921,
    "Ġeffort": 5922,
    "ipl": 5923,
    "ford": 5924,
    "åŃĶ": 5925,
    "PA": 5926,
    "ĠNovember": 5927,
    "Ġkill": 5928,
    "è¡¨éĿ¢": 5929,
    "åħ¼": 5930,
    "æ¬¢è¿İ": 5931,
    ".)": 5932,
    "Ġformer": 5933,
    "åĬĽçļĦ": 5934,
    "åŃ£åº¦": 5935,
    "åĨħçļĦ": 5936,
    "ãĢĤåĲĮæĹ¶": 5937,
    "çĹħæ¯Ĵ": 5938,
    "éģĵè·¯": 5939,
    "åĵ¥": 5940,
    "åį·": 5941,
    "ç£¨": 5942,
    "aught": 5943,
    "è¿ŀç»Ń": 5944,
    "Ġmix": 5945,
    "imal": 5946,
    "Ġweb": 5947,
    "ĠVal": 5948,
    "Ġtable": 5949,
    "åľŁåľ°": 5950,
    "Ġcontinued": 5951,
    "Ex": 5952,
    "ä¸įå¾Ĺ": 5953,
    "izes": 5954,
    "-term": 5955,
    "Ġinsp": 5956,
    "Ġfinal": 5957,
    "çĽĲ": 5958,
    "ĠLear": 5959,
    "off": 5960,
    "uments": 5961,
    "edom": 5962,
    "anish": 5963,
    "Ġgradu": 5964,
    "ï¼Įèĩª": 5965,
    "é¡¿": 5966,
    "Ġreasons": 5967,
    "120": 5968,
    "çĽ¸å¯¹": 5969,
    "æľºåľº": 5970,
    "Ġadj": 5971,
    "åĶĲ": 5972,
    "head": 5973,
    "æĪĲéķ¿": 5974,
    "Ġrules": 5975,
    "Ġguid": 5976,
    "Ġconnect": 5977,
    "ĠCity": 5978,
    "ç»Łä¸Ģ": 5979,
    "èĴĻ": 5980,
    "æ¸¸å®¢": 5981,
    "Ġten": 5982,
    "èĤ¯": 5983,
    "ĠSan": 5984,
    "enge": 5985,
    "Ġund": 5986,
    "Ġfollowed": 5987,
    "æĬĺ": 5988,
    "Ġvill": 5989,
    "Ġcold": 5990,
    "ĠGreat": 5991,
    "ĠChurch": 5992,
    "ogle": 5993,
    "Ġexplain": 5994,
    "oration": 5995,
    "å¦ĩ": 5996,
    "Ġtrying": 5997,
    "ãĢĤåĽłæŃ¤": 5998,
    "Ġpractices": 5999,
    "Ġhope": 6000,
    "Ġadapt": 6001,
    "æľĪä»½": 6002,
    "Ġeconomy": 6003,
    "æĥĬ": 6004,
    "å¯¿": 6005,
    "Ġprocesses": 6006,
    "Ġexpected": 6007,
    "Ġcosts": 6008,
    "çĽ¸æ¯Ķ": 6009,
    "Ġmax": 6010,
    "ĠTechn": 6011,
    "ĠInc": 6012,
    "ï¼ĮæĢ»": 6013,
    "Ġsuccessful": 6014,
    "ĠSeptember": 6015,
    "ĠRoman": 6016,
    "åİŁåĪĻ": 6017,
    "med": 6018,
    "ãĢģæĸ°": 6019,
    "cial": 6020,
    "EM": 6021,
    "ĠFrom": 6022,
    "è¯ģåĪ¸": 6023,
    "iny": 6024,
    "éĵģè·¯": 6025,
    "éĩįåºĨ": 6026,
    "Ġmodels": 6027,
    "Ġforces": 6028,
    "ï¼Įé«ĺ": 6029,
    "å²Ĺä½į": 6030,
    "Ġbehavi": 6031,
    "çİ»": 6032,
    "Ġprojects": 6033,
    "ĠPark": 6034,
    "å¹¶ä¸į": 6035,
    "ĠCounty": 6036,
    "åĨľæĿĳ": 6037,
    "udd": 6038,
    "Ġusers": 6039,
    "Ġconstit": 6040,
    "è´¥": 6041,
    "ç»´æĬ¤": 6042,
    "ï¼ĮæĬĬ": 6043,
    "çĴĥ": 6044,
    "sec": 6045,
    "ĠDevelop": 6046,
    "Ġgenetic": 6047,
    "ãĢĤæĪĳä»¬": 6048,
    "Ġmiddle": 6049,
    "æİ¨å¹¿": 6050,
    "åħļåĳĺ": 6051,
    "PS": 6052,
    "Ġreceive": 6053,
    "Ġfear": 6054,
    "æĶ¿æ²»": 6055,
    "åħ¬å¸ĥ": 6056,
    "Ġdate": 6057,
    "è¾ĳ": 6058,
    "çī¹æ®Ĭ": 6059,
    "ĠAustralia": 6060,
    "ãĢģä¸Ń": 6061,
    "Ġhyp": 6062,
    "ĠRed": 6063,
    "ords": 6064,
    "Ġanti": 6065,
    "itable": 6066,
    "ï¼ĮåĲĦ": 6067,
    "ĠCommun": 6068,
    "Ġorganization": 6069,
    "Ġneigh": 6070,
    "Ġfuel": 6071,
    "åĩ¡": 6072,
    "Ġyourself": 6073,
    "Ġunc": 6074,
    "Ġconstruction": 6075,
    "Ġnamed": 6076,
    "å¤ļç§į": 6077,
    "Ġpoly": 6078,
    "Ġbreat": 6079,
    "85": 6080,
    "Ġpan": 6081,
    "è´¹çĶ¨": 6082,
    "å¼ĥ": 6083,
    "ara": 6084,
    "Ġcrop": 6085,
    "çĦ¶èĢĮ": 6086,
    "Ġaffected": 6087,
    "Ġstrength": 6088,
    "ĠIr": 6089,
    "Ġgoes": 6090,
    "ĠOur": 6091,
    "mosp": 6092,
    "Ġdrugs": 6093,
    "ç¼ĺ": 6094,
    ")ï¼Į": 6095,
    "Ġuser": 6096,
    "oday": 6097,
    "Ġgir": 6098,
    "AL": 6099,
    "Ġconstant": 6100,
    "Ġbeg": 6101,
    "ĠLondon": 6102,
    "çĶµæ±ł": 6103,
    "Ġplanet": 6104,
    "Ġfriends": 6105,
    "è´Ńä¹°": 6106,
    "è§īå¾Ĺ": 6107,
    "åĲ´": 6108,
    "ellig": 6109,
    "Ġsch": 6110,
    "è±ª": 6111,
    "è®¤çľŁ": 6112,
    "odes": 6113,
    "å¡«": 6114,
    "188": 6115,
    "æĿ°": 6116,
    "æ¼«": 6117,
    "åĿ¡": 6118,
    "åķĨåĬ¡": 6119,
    "ç¿»": 6120,
    "æ¢ģ": 6121,
    "åıįåºĶ": 6122,
    "Ġteeth": 6123,
    "Ġeveryone": 6124,
    "ĠSociety": 6125,
    "æµĭè¯ķ": 6126,
    "alt": 6127,
    "Ġdepend": 6128,
    "Ġpen": 6129,
    "Ġcam": 6130,
    "åħ·å¤ĩ": 6131,
    "ev": 6132,
    "åħ¶å®ŀ": 6133,
    "Ġadvant": 6134,
    "Ġpet": 6135,
    "çĽĳç®¡": 6136,
    "æ©": 6137,
    "å¹²éĥ¨": 6138,
    "Ġinteresting": 6139,
    "Ġden": 6140,
    "åĽ°éļ¾": 6141,
    "æ±Łèĭı": 6142,
    "ä¼į": 6143,
    "æķ¬": 6144,
    "rees": 6145,
    "iable": 6146,
    "-C": 6147,
    "Ġscreen": 6148,
    "Ġgain": 6149,
    "Ġeight": 6150,
    "Ġapprox": 6151,
    "ĠHigh": 6152,
    "èĤº": 6153,
    "aling": 6154,
    ");": 6155,
    "Ġsmaller": 6156,
    "ĠAmericans": 6157,
    "uro": 6158,
    "Ġconflic": 6159,
    "çĻĮ": 6160,
    "çĥ§": 6161,
    "ä½įç½®": 6162,
    "ribute": 6163,
    "back": 6164,
    "Ġcultural": 6165,
    "ĠWashington": 6166,
    "å·¥ä½ľçļĦ": 6167,
    "Ġweather": 6168,
    "è¾ħ": 6169,
    "åŃ¦ç§ĳ": 6170,
    "åĲ¸å¼ķ": 6171,
    "life": 6172,
    "Ġwrote": 6173,
    "Ġallowed": 6174,
    "åģı": 6175,
    "ibrary": 6176,
    "é£Łçī©": 6177,
    "æĪĲåĳĺ": 6178,
    "å¹¿åĳĬ": 6179,
    "ogen": 6180,
    "Ġrule": 6181,
    "Ġbillion": 6182,
    "With": 6183,
    "ĠTrans": 6184,
    "189": 6185,
    "rieved": 6186,
    "çªĹ": 6187,
    "ought": 6188,
    "é¦ĸåħĪ": 6189,
    "æľīä¸Ģ": 6190,
    "ç»ıçĲĨ": 6191,
    "å±ħæ°ĳ": 6192,
    "urg": 6193,
    "Ġsect": 6194,
    "Ġpow": 6195,
    "Ġice": 6196,
    "________": 6197,
    "Ġwinter": 6198,
    "ĠVir": 6199,
    "Ġwoman": 6200,
    "Ġsequ": 6201,
    "Ġillness": 6202,
    "ĠPol": 6203,
    "èĭĹ": 6204,
    "æ¶Īæģ¯": 6205,
    "æ°ĳæĹı": 6206,
    "water": 6207,
    "unch": 6208,
    "Ġemp": 6209,
    "ç»ĵæĿŁ": 6210,
    "åĭ¤": 6211,
    "Ġconsequ": 6212,
    "Ġteacher": 6213,
    "çļĦå½±åĵį": 6214,
    "è½¦è¾Ĩ": 6215,
    "æĪªèĩ³": 6216,
    "åĪĨä¸º": 6217,
    "iples": 6218,
    "Ġcurrently": 6219,
    "ĠDNA": 6220,
    "Ġwon": 6221,
    "ĠEven": 6222,
    "apter": 6223,
    "Ġshape": 6224,
    "è¯¦": 6225,
    "iful": 6226,
    "Ġphilos": 6227,
    "Ġcode": 6228,
    "ĠSystem": 6229,
    "Ġoccurs": 6230,
    "æ³¡": 6231,
    "å¸Ŀ": 6232,
    "Ġearlier": 6233,
    "Ġdestro": 6234,
    "è¡¡": 6235,
    "Ġchoose": 6236,
    "ĠDis": 6237,
    "ĠAccording": 6238,
    "æ¯«": 6239,
    "Ġopportunity": 6240,
    "Ġcoming": 6241,
    "ĠLaw": 6242,
    "vert": 6243,
    "Ġhistorical": 6244,
    "ï¼ĮæĪĸ": 6245,
    "å¹¿å¤§": 6246,
    "Ġplaced": 6247,
    "Ġmiss": 6248,
    "ä¼ģä¸ļçļĦ": 6249,
    "ibly": 6250,
    "Ġsteps": 6251,
    "Ġrock": 6252,
    "iology": 6253,
    "ruary": 6254,
    "While": 6255,
    "Ġtrack": 6256,
    "ï¼Įè¢«": 6257,
    "å¼¹": 6258,
    "ocol": 6259,
    "Ġpeace": 6260,
    "ï¼Įå¤ļ": 6261,
    "%ï¼Ľ": 6262,
    "Ġdegree": 6263,
    "çĦ¦": 6264,
    "æķı": 6265,
    "çĲĨè§£": 6266,
    "æľĢå¤§çļĦ": 6267,
    "Ġlocation": 6268,
    "Ġbirds": 6269,
    "mitted": 6270,
    "çļĦè¯Ŀ": 6271,
    "aled": 6272,
    "Ġdiscovered": 6273,
    "å¦ĤæŃ¤": 6274,
    "uff": 6275,
    "Ph": 6276,
    "è®¡ç®Ĺæľº": 6277,
    "ä¸įå°ĳ": 6278,
    "ensity": 6279,
    "Ġleave": 6280,
    "Ġhon": 6281,
    "çŃ¹": 6282,
    "å¢¨": 6283,
    "è¯´æĺİ": 6284,
    "ä¸»ä¹ī": 6285,
    "ãĢģå¤§": 6286,
    "Ġstage": 6287,
    "å·ŀå¸Ĥ": 6288,
    "Ġisn": 6289,
    "Ġcorn": 6290,
    "pro": 6291,
    "Ġoverall": 6292,
    "ï¼Įç»ı": 6293,
    "Ġalone": 6294,
    "Ġalcohol": 6295,
    "-year": 6296,
    "Ġrecommend": 6297,
    "æĶ¯ä»ĺ": 6298,
    "åįıè®®": 6299,
    "æĦŁè§ī": 6300,
    "800": 6301,
    "Ġcru": 6302,
    "ding": 6303,
    "æµĻæ±Ł": 6304,
    "49": 6305,
    "Ġacadem": 6306,
    "ä¸įè¦ģ": 6307,
    "Ġscale": 6308,
    "Ġroad": 6309,
    "Ġrise": 6310,
    "ĠGeneral": 6311,
    "æĹ¥å¸¸": 6312,
    "Ġwond": 6313,
    "Ġcook": 6314,
    "Ġbott": 6315,
    "éĢĲæ¸Ĳ": 6316,
    "äº§åĵģçļĦ": 6317,
    "Ġstandards": 6318,
    "ĠRead": 6319,
    "å®ĩ": 6320,
    "orge": 6321,
    "ĠCoun": 6322,
    "Ġvia": 6323,
    "Ġcollection": 6324,
    "aur": 6325,
    "Ġvirt": 6326,
    "ç§°ä¸º": 6327,
    "ä¸ĭçļĦ": 6328,
    "ï¼Įåħ·æľī": 6329,
    "itch": 6330,
    "irection": 6331,
    "Ġvisual": 6332,
    "ï¼ĮçĶļèĩ³": 6333,
    "åĶ¯": 6334,
    "Ġtou": 6335,
    "Ġoccup": 6336,
    "Ġexposure": 6337,
    "ĠÂ": 6338,
    "ico": 6339,
    "Ġassign": 6340,
    "ä¼ļæľī": 6341,
    "iences": 6342,
    "47": 6343,
    "Ġsem": 6344,
    "Ġprofessional": 6345,
    "Ġfair": 6346,
    "è¿Ļæł·çļĦ": 6347,
    "è®¤è¯Ĩ": 6348,
    "Ġattract": 6349,
    "\",": 6350,
    "ï¼Įèĥ½": 6351,
    "çİ»çĴĥ": 6352,
    "Ġmajority": 6353,
    "è½¨": 6354,
    "âĦĥ": 6355,
    "Ġcalcul": 6356,
    "ocks": 6357,
    "mar": 6358,
    "Ġrich": 6359,
    "Ġfruit": 6360,
    "Ġfully": 6361,
    "Ġequipment": 6362,
    "Ġdat": 6363,
    "Ġcommonly": 6364,
    "Ġkid": 6365,
    "Ġdidn": 6366,
    "è´Łè´£äºº": 6367,
    "Ġvision": 6368,
    "Ġperfect": 6369,
    "ĠEast": 6370,
    "èĢ³": 6371,
    "ãĢĤä»İ": 6372,
    "more": 6373,
    "åĺī": 6374,
    "Ġrain": 6375,
    "ï¼Įè¿ĻäºĽ": 6376,
    "èŀįåĲĪ": 6377,
    "è¯ģæĺİ": 6378,
    "æĸ¹ä¾¿": 6379,
    "Ġenter": 6380,
    "ä¾ĭå¦Ĥ": 6381,
    "ospital": 6382,
    "Ġpiece": 6383,
    "å¹´è½»": 6384,
    "Ġmember": 6385,
    "ĠDuring": 6386,
    "ĠAlso": 6387,
    "éĩįè§Ĩ": 6388,
    "éĥĳ": 6389,
    "èĥ¡": 6390,
    "è¶ĭåĬ¿": 6391,
    "ula": 6392,
    "Ġproperties": 6393,
    "éĢĴ": 6394,
    "åħĪçĶŁ": 6395,
    "Ġmob": 6396,
    "ĠCong": 6397,
    "èĲ¥åħ»": 6398,
    "ãĢĭçļĦ": 6399,
    "phas": 6400,
    "Ġformed": 6401,
    "å°Ĩåľ¨": 6402,
    "Ġstories": 6403,
    "Ġpredict": 6404,
    "æº¶": 6405,
    "Ġchoice": 6406,
    "Ġarchitect": 6407,
    "Ġanx": 6408,
    "Ġcra": 6409,
    "tery": 6410,
    "known": 6411,
    "ees": 6412,
    "CC": 6413,
    "DA": 6414,
    "æİ¨åĩº": 6415,
    "æĦŁæŁĵ": 6416,
    "Ġgiving": 6417,
    "Ġmeasures": 6418,
    "Ġapplied": 6419,
    "Ġriver": 6420,
    "ingu": 6421,
    "ĠEm": 6422,
    "äº¡": 6423,
    "ï¼Įå®ŀçİ°": 6424,
    "é«ĺéĢŁ": 6425,
    "äºĭä»¶": 6426,
    "ä¸ľè¥¿": 6427,
    "ĠGermany": 6428,
    "ï¼ĮéĤ£ä¹Ī": 6429,
    "ç¤ºèĮĥ": 6430,
    "Ġinstru": 6431,
    "éĵľ": 6432,
    "ä¾Ŀæ³ķ": 6433,
    "ä¹Łæľī": 6434,
    ".e": 6435,
    "Ġsexual": 6436,
    "ĠHouse": 6437,
    "uls": 6438,
    "ĠWater": 6439,
    "ä¸Ģä¸ĭ": 6440,
    "Ġteach": 6441,
    "ĠAng": 6442,
    "åĽĽå·Ŀ": 6443,
    "igen": 6444,
    "Ġswe": 6445,
    "è·Ŀç¦»": 6446,
    "lamm": 6447,
    "Ġcommerc": 6448,
    "ĠThen": 6449,
    "ä¹Ļ": 6450,
    "Ġroom": 6451,
    "Ġbaby": 6452,
    "åĿĽ": 6453,
    "gery": 6454,
    "Ġpowerful": 6455,
    "Ġbank": 6456,
    "force": 6457,
    "Ġillust": 6458,
    "ĠInst": 6459,
    "ç«Ł": 6460,
    "Ġworked": 6461,
    "Ġreduced": 6462,
    "Ġgave": 6463,
    "tained": 6464,
    "è¯¸": 6465,
    "çªģçł´": 6466,
    "æ¥ļ": 6467,
    "éĢĤåĲĪ": 6468,
    "æĮĳæĪĺ": 6469,
    "iate": 6470,
    "que": 6471,
    "çĽ¸ä¿¡": 6472,
    "Ġpurch": 6473,
    "enty": 6474,
    "Ġnote": 6475,
    "æĲº": 6476,
    "å®¶éķ¿": 6477,
    "ä¸įåĪ°": 6478,
    "ç¬¬åĽĽ": 6479,
    "AM": 6480,
    "ĠSim": 6481,
    "æĥ¯": 6482,
    "è°ĵ": 6483,
    "Ġinsect": 6484,
    "çĹĩçĬ¶": 6485,
    "Ġidentified": 6486,
    "ï¼ĮæĪĲä¸º": 6487,
    "æĮ¯": 6488,
    "185": 6489,
    "Ġconvers": 6490,
    "Ġperhaps": 6491,
    "ç¼´": 6492,
    "Ġfactor": 6493,
    "ĠMod": 6494,
    "è´Ŀ": 6495,
    "rehens": 6496,
    "ĠNow": 6497,
    "ï¼ĮçĦ¶åĲİ": 6498,
    "Ġtox": 6499,
    "åħ¬åĳĬ": 6500,
    "æľºåĻ¨": 6501,
    "å°Ĭ": 6502,
    "çŃīæĸ¹éĿ¢": 6503,
    "ken": 6504,
    "Is": 6505,
    "Ġbreast": 6506,
    "Ad": 6507,
    "Ġstrugg": 6508,
    "Ġopportunities": 6509,
    "ç´¯è®¡": 6510,
    "resp": 6511,
    "Un": 6512,
    "ET": 6513,
    "Ġfert": 6514,
    "éĤĢ": 6515,
    "ald": 6516,
    "Ġelectr": 6517,
    "Ġversion": 6518,
    "è§Ĥä¼Ĺ": 6519,
    "å¤Ħäºİ": 6520,
    "rest": 6521,
    "iant": 6522,
    "ĠDavid": 6523,
    "ĠBecause": 6524,
    "åįļå£«": 6525,
    "che": 6526,
    "Ġcateg": 6527,
    "æ¯Ķä¾ĭ": 6528,
    "Ġcontext": 6529,
    "ï½ŀ": 6530,
    "Ġstatus": 6531,
    "Ġrob": 6532,
    "Ġremember": 6533,
    "çĽ¸å½ĵ": 6534,
    "ï¼Įå¯¹äºİ": 6535,
    "oted": 6536,
    "èĳĹåĲį": 6537,
    "æļĤ": 6538,
    "Ġmoment": 6539,
    "Ġassist": 6540,
    "çĻ£": 6541,
    "åıĮæĸ¹": 6542,
    "aste": 6543,
    "Ġrunning": 6544,
    "æĪĲäºĨ": 6545,
    "äº¿ç¾İåħĥ": 6546,
    "cious": 6547,
    "ĠPat": 6548,
    "ĠAre": 6549,
    "related": 6550,
    "Ġfemale": 6551,
    "Ġcapacity": 6552,
    "è®¤è¯ģ": 6553,
    "Ġchurch": 6554,
    "è¯ķéªĮ": 6555,
    "ocr": 6556,
    "ĠUse": 6557,
    "å¿ĺ": 6558,
    "ãĢĭãĢģãĢĬ": 6559,
    "aign": 6560,
    "Ġdifferences": 6561,
    "æį·": 6562,
    "Ġactions": 6563,
    "æ±¡æ°´": 6564,
    "ste": 6565,
    "encies": 6566,
    "Ġwid": 6567,
    "ĠSince": 6568,
    "åı¦ä¸Ģ": 6569,
    "åĩŃ": 6570,
    "åħ¬åĽŃ": 6571,
    "Ġinstance": 6572,
    "Ġfigure": 6573,
    "Ġblue": 6574,
    "éĿĴå¹´": 6575,
    "æ¦ľ": 6576,
    "ament": 6577,
    "ĠMedic": 6578,
    "fess": 6579,
    "CO": 6580,
    "ĠRetrieved": 6581,
    "åĲĦåľ°": 6582,
    "ä¸¹": 6583,
    "æĭĽçĶŁ": 6584,
    "æģĴ": 6585,
    "åĬłåħ¥": 6586,
    "Some": 6587,
    "Ġshowed": 6588,
    "äººå£«": 6589,
    "Ġcompar": 6590,
    "ï¼Įä¼ļ": 6591,
    "çŀ": 6592,
    "-e": 6593,
    "Ġlimit": 6594,
    "Ġbelief": 6595,
    "åķĨæłĩ": 6596,
    "Ġincreases": 6597,
    "çĤ¼": 6598,
    "Ġexec": 6599,
    "Ġcontract": 6600,
    "éĺ´": 6601,
    "omas": 6602,
    "rupt": 6603,
    "èħ¾": 6604,
    "åľ°åĿĢ": 6605,
    "Ġworth": 6606,
    "ĠSee": 6607,
    "æ³ī": 6608,
    "ç»ĻäºĪ": 6609,
    "Ġmoving": 6610,
    "Ġacqu": 6611,
    "ĠFl": 6612,
    "load": 6613,
    "è¯Ńè¨Ģ": 6614,
    "åıĬåħ¶": 6615,
    "åĪĬ": 6616,
    "ãĢĳ": 6617,
    "Ġrelatively": 6618,
    "Ġappears": 6619,
    "å¹¼": 6620,
    "hemat": 6621,
    "åŃĻ": 6622,
    "key": 6623,
    "cular": 6624,
    "Ġhuge": 6625,
    "lim": 6626,
    "Ġelement": 6627,
    "Ġatmosp": 6628,
    "ãĢĲ": 6629,
    "ĠJapanese": 6630,
    "Ġexpand": 6631,
    "reet": 6632,
    "çīĽçļ®": 6633,
    "æľĹ": 6634,
    "ĠâĢ¦": 6635,
    "pective": 6636,
    "Ġ:": 6637,
    "çıł": 6638,
    "æłı": 6639,
    "ï¼Įä¸Ķ": 6640,
    "ç»ıåİĨ": 6641,
    "rab": 6642,
    "ĠAssociation": 6643,
    "èĲ¥éĶĢ": 6644,
    "è¿ĳå¹´æĿ¥": 6645,
    "can": 6646,
    "ĠPeople": 6647,
    "Ġstar": 6648,
    "Ġfamous": 6649,
    "é¢ľ": 6650,
    "æİ¥è§¦": 6651,
    "çļĦå°ı": 6652,
    "66": 6653,
    "åħ¬è·¯": 6654,
    "uild": 6655,
    "88": 6656,
    "ĠCour": 6657,
    "Ġgarden": 6658,
    "Ġefficient": 6659,
    "ĠGreen": 6660,
    "åĩºçīĪ": 6661,
    "men": 6662,
    "ĠFebruary": 6663,
    "ç±į": 6664,
    "èĩªçĶ±": 6665,
    "Ġmachine": 6666,
    "çĶ¨çļĦ": 6667,
    "åıªæĺ¯": 6668,
    "craft": 6669,
    "Ġchance": 6670,
    "éģµ": 6671,
    "Ġenh": 6672,
    "Ġcities": 6673,
    "æľĢé«ĺ": 6674,
    "orage": 6675,
    "æĬ½": 6676,
    "ä¸Ńå°ı": 6677,
    "Ġchanged": 6678,
    "æĿ¥æºĲ": 6679,
    "æĽ¿": 6680,
    "ĠPhil": 6681,
    "ĠFin": 6682,
    "èĲ¥ä¸ļ": 6683,
    "å¤§ä¼ļ": 6684,
    "42": 6685,
    "Ġdefined": 6686,
    "Ġasse": 6687,
    "åĪĽä½ľ": 6688,
    "ternal": 6689,
    "UR": 6690,
    "çĲĥéĺŁ": 6691,
    "Ġvitamin": 6692,
    "Äģ": 6693,
    "Ġtopic": 6694,
    "Ġdistance": 6695,
    "AD": 6696,
    "Ġrat": 6697,
    "Ġforward": 6698,
    "çŁ¥åĲį": 6699,
    "æ·»": 6700,
    "çļĦä¸»è¦ģ": 6701,
    "æ¶īåıĬ": 6702,
    "å¤§éĩı": 6703,
    "æī¿æĭħ": 6704,
    "lege": 6705,
    "Ġoffers": 6706,
    "èµŀ": 6707,
    "è¦ĨçĽĸ": 6708,
    "åĮĸå·¥": 6709,
    "åĢ¼å¾Ĺ": 6710,
    "rief": 6711,
    "reland": 6712,
    "å°±ä¼ļ": 6713,
    "Ġbra": 6714,
    "çīĽçļ®çĻ£": 6715,
    "æİ¢ç´¢": 6716,
    "oma": 6717,
    "ologist": 6718,
    "They": 6719,
    "Ġtechnologies": 6720,
    "Ġpresence": 6721,
    "Ġing": 6722,
    "æ®ĭ": 6723,
    "åľ°äº§": 6724,
    "Ġseparate": 6725,
    "ï¼ĮæıĲé«ĺ": 6726,
    "æİī": 6727,
    "Ġmig": 6728,
    "Ġexisting": 6729,
    "Ġdetails": 6730,
    "è®°å½ķ": 6731,
    "çĶĺ": 6732,
    "Ġcry": 6733,
    "ĠJust": 6734,
    "ï¼Įåħ±": 6735,
    "è½´": 6736,
    "ç®Ģç§°": 6737,
    "Be": 6738,
    "Ġeventually": 6739,
    "Ġdepression": 6740,
    "ĠVol": 6741,
    "ĠChe": 6742,
    "ä¹±": 6743,
    "ä¸Ģå¹´": 6744,
    "ä¸´åºĬ": 6745,
    "æİĴåĲį": 6746,
    "abilities": 6747,
    "Ġjournal": 6748,
    "ĠTur": 6749,
    "çļĦäº§åĵģ": 6750,
    "ĠCur": 6751,
    "ï¼Įå°±æĺ¯": 6752,
    "éº¦": 6753,
    "icip": 6754,
    "ī´": 6755,
    "Ġpicture": 6756,
    "ĠProt": 6757,
    "éī´": 6758,
    "çĶµåĬ¨": 6759,
    "å·¥åħ·": 6760,
    "Ġball": 6761,
    "ï¼ĮåºĶ": 6762,
    "éĨĴ": 6763,
    "è¿¹": 6764,
    "ãĢĤçĽ®åīį": 6765,
    "rec": 6766,
    "éĢļå¸¸": 6767,
    "ĠCom": 6768,
    "ĠRo": 6769,
    "ä¼ļè®¡": 6770,
    "ãĢĤå®ĥ": 6771,
    "Ġsigns": 6772,
    "ï¼ĮçĶ±äºİ": 6773,
    "Ġcitizens": 6774,
    "Ġdisplay": 6775,
    "Ġmouth": 6776,
    "Ġinstruct": 6777,
    "ĠUnion": 6778,
    "å®£å¸ĥ": 6779,
    "Ġmal": 6780,
    "Ġevolution": 6781,
    "ãĢĤï¼Ī": 6782,
    "iring": 6783,
    "åģ¿": 6784,
    "Ġnuclear": 6785,
    "Ġeducational": 6786,
    "åŃ¦æľ¯": 6787,
    "ä¸ĩäºº": 6788,
    "41": 6789,
    "Ġtele": 6790,
    "Ġnutri": 6791,
    "Ġgod": 6792,
    "Ġfresh": 6793,
    "åįĹçľģ": 6794,
    "Ġstaff": 6795,
    "èİ±": 6796,
    "Ġmag": 6797,
    "Ġsurvey": 6798,
    "Ġbound": 6799,
    "é¼ĵåĬ±": 6800,
    "åĳĬè¯ī": 6801,
    "Ġpatterns": 6802,
    "Ġincor": 6803,
    "Ġdirection": 6804,
    "ç¯®": 6805,
    "Ġmut": 6806,
    "Ġconstruct": 6807,
    "ï¼Įè¿Ļæĺ¯": 6808,
    "187": 6809,
    "é¥Ń": 6810,
    "èįĲ": 6811,
    "ä¸īä¸ª": 6812,
    "Ġrepe": 6813,
    "ĠBlack": 6814,
    "çĽ¸åºĶ": 6815,
    "Ġbelieved": 6816,
    "è°ģ": 6817,
    "ĠJames": 6818,
    "ç²Ĵ": 6819,
    "âĢĿ,": 6820,
    "char": 6821,
    "asion": 6822,
    "ä»ĸä»¬çļĦ": 6823,
    "Ġqual": 6824,
    "ĠCouncil": 6825,
    "ĠProgram": 6826,
    "è¿ģ": 6827,
    "èµı": 6828,
    "æĮĤ": 6829,
    "Ġfindings": 6830,
    "åĪ·": 6831,
    "ĠTheir": 6832,
    "å¾·åĽ½": 6833,
    "ĠEnvironment": 6834,
    "iance": 6835,
    "Ġplans": 6836,
    "Ġunit": 6837,
    "Ġtruth": 6838,
    "æĶ¹éĢł": 6839,
    "hetic": 6840,
    "mark": 6841,
    "eech": 6842,
    "ï¼Įåįł": 6843,
    "Ġoffice": 6844,
    "ãĢĤè¯¥": 6845,
    "ĠPal": 6846,
    "aint": 6847,
    "Ġtransfer": 6848,
    "çİ°è±¡": 6849,
    "æ³ķéĻ¢": 6850,
    "pris": 6851,
    "hors": 6852,
    "eces": 6853,
    "èĢħçļĦ": 6854,
    "å¤įæĿĤ": 6855,
    "05": 6856,
    "Ġparty": 6857,
    "enth": 6858,
    "clus": 6859,
    "Ġstructures": 6860,
    "éĩįæĸ°": 6861,
    "ux": 6862,
    "IP": 6863,
    "Ġextremely": 6864,
    "ĠInter": 6865,
    "éĹ²": 6866,
    "æĹ¨": 6867,
    "æĪ´": 6868,
    "Ġmo": 6869,
    "Ġregions": 6870,
    "era": 6871,
    "Ġlearned": 6872,
    "æ¯ıå¹´": 6873,
    "çĽ´æĴŃ": 6874,
    "Ġequal": 6875,
    "urance": 6876,
    "eding": 6877,
    "ï¼īãĢĤĊ": 6878,
    "Ġspect": 6879,
    "æĪĲéĥ½": 6880,
    "å¤§åĪ©": 6881,
    "US": 6882,
    "Ar": 6883,
    "All": 6884,
    "Ġvo": 6885,
    "Ġexcess": 6886,
    "è´¢åĬ¡": 6887,
    "æľīæľº": 6888,
    "å¤ļæķ°": 6889,
    "Ġweak": 6890,
    "Ġsuggests": 6891,
    "Ġpopulations": 6892,
    "Ġhappen": 6893,
    "rick": 6894,
    "ero": 6895,
    "Ġwrong": 6896,
    "ros": 6897,
    "Ġemissions": 6898,
    "ĠUN": 6899,
    "ĠLord": 6900,
    "æĲľ": 6901,
    "ifically": 6902,
    "ĠMor": 6903,
    "isation": 6904,
    "cast": 6905,
    "43": 6906,
    "house": 6907,
    "Ġaim": 6908,
    "å¼Ł": 6909,
    "Ġpassed": 6910,
    "Ġnames": 6911,
    "Ġseven": 6912,
    "Ġelectricity": 6913,
    "ç¥ĸ": 6914,
    "æ¤įçī©": 6915,
    "ä¸ĭæĿ¥": 6916,
    "After": 6917,
    "æ´ª": 6918,
    "æ²»çĲĨ": 6919,
    "å®ĭ": 6920,
    "roup": 6921,
    "Ġimmediately": 6922,
    "Ġessay": 6923,
    "ç´łè´¨": 6924,
    "wards": 6925,
    "Ġthousands": 6926,
    "Ġdistribution": 6927,
    "ĠOb": 6928,
    "åľ¨çº¿": 6929,
    "åĨħéĥ¨": 6930,
    "uit": 6931,
    "Ġpp": 6932,
    "ĠWestern": 6933,
    "ĠFrance": 6934,
    "æīİ": 6935,
    "æĢķ": 6936,
    "èĩªä¸»": 6937,
    "åĪĨäº«": 6938,
    "ãĢĭï¼Ī": 6939,
    "Ġâ": 6940,
    "é¢Ħéĺ²": 6941,
    "ygen": 6942,
    "Ġgold": 6943,
    "éº»": 6944,
    "-M": 6945,
    "Ġurban": 6946,
    "ĠSur": 6947,
    "ĠInternet": 6948,
    "Ġmel": 6949,
    "ĠAut": 6950,
    "èº«ä»½": 6951,
    "åĽ½åĬ¡": 6952,
    "Ġincome": 6953,
    "åħļå§Ķ": 6954,
    "ä¼¯": 6955,
    "Ġexhib": 6956,
    "ĠMex": 6957,
    "ĠAir": 6958,
    "æĹ¥èµ·": 6959,
    "ãĢģä¸ŃåĽ½": 6960,
    "ĠRel": 6961,
    "Ġmission": 6962,
    "çļĦæĹ¶éĹ´": 6963,
    "èį¯çī©": 6964,
    "èĬĤçĽ®": 6965,
    "æī©å¤§": 6966,
    "Ġdisorders": 6967,
    "ĠUK": 6968,
    "ĠPlan": 6969,
    "CE": 6970,
    "Ġfavor": 6971,
    "Ġapply": 6972,
    "Ġwatch": 6973,
    "Ġoptions": 6974,
    "Ġforeign": 6975,
    "ç±»åŀĭ": 6976,
    "Ġmilk": 6977,
    "éĢļä¿¡": 6978,
    "ãĢĤåħ¶ä¸Ń": 6979,
    "lant": 6980,
    "Ġhighest": 6981,
    "Ġfunctions": 6982,
    "è¯ģä¹¦": 6983,
    "é¢ĨåħĪ": 6984,
    "Ġcomponents": 6985,
    "æĺĮ": 6986,
    "ij": 6987,
    "Ġload": 6988,
    "Ġboard": 6989,
    "ï¼Įäºİ": 6990,
    "éĻĲåĪ¶": 6991,
    "çļĦæĬĢæľ¯": 6992,
    "Ġsymbol": 6993,
    "ander": 6994,
    "é¦ĸæ¬¡": 6995,
    "ä¹ĭéĹ´çļĦ": 6996,
    "Ġ+": 6997,
    "è®¾ç«ĭ": 6998,
    "Ġguide": 6999,
    "Ġdecades": 7000,
    "Ġreference": 7001,
    "çº¤": 7002,
    "ĠJewish": 7003,
    "å¹´ä»£": 7004,
    "æİĮæı¡": 7005,
    "ĠPublic": 7006,
    "ĠIreland": 7007,
    "æī¹åĩĨ": 7008,
    "Ġconnected": 7009,
    "ophy": 7010,
    "Ġheavy": 7011,
    "HE": 7012,
    "Ġinnov": 7013,
    "Ġhair": 7014,
    "æĽ¼": 7015,
    "Ġimmune": 7016,
    "Ġabsor": 7017,
    "rome": 7018,
    "Ġdyn": 7019,
    "è±Ĩ": 7020,
    "å¯Ĵ": 7021,
    "**": 7022,
    "Ġtask": 7023,
    "Ġopin": 7024,
    "Ġmedicine": 7025,
    "Ġdetect": 7026,
    "Ġchallenges": 7027,
    "æĸ°åŀĭ": 7028,
    "ä¸ĭåįĪ": 7029,
    "Ġchronic": 7030,
    "ĠAv": 7031,
    "çĮª": 7032,
    "rations": 7033,
    "nes": 7034,
    "Ġreports": 7035,
    "Ġnative": 7036,
    "Ġantib": 7037,
    "uing": 7038,
    "é«ĺåº¦": 7039,
    "åŃķ": 7040,
    "pped": 7041,
    "åĬ¨çī©": 7042,
    "åĩºæĿ¥": 7043,
    "å½¢è±¡": 7044,
    "Ġmuscle": 7045,
    "Ġdisorder": 7046,
    "Ġlegis": 7047,
    "Ġexplore": 7048,
    "éļĨ": 7049,
    "nam": 7050,
    "Ġstrategies": 7051,
    "Ġorganizations": 7052,
    "Ġfreedom": 7053,
    "Ġchallenge": 7054,
    "Ġtreated": 7055,
    "iment": 7056,
    "Ġsac": 7057,
    "Ġpick": 7058,
    "Ġactual": 7059,
    "çļĦæĸ¹å¼ı": 7060,
    "æĶ¯åĩº": 7061,
    "Ġisland": 7062,
    "Ġemphas": 7063,
    "ĠSam": 7064,
    "éĥ½ä¼ļ": 7065,
    "iox": 7066,
    "Ġprice": 7067,
    "Ġhearing": 7068,
    "rog": 7069,
    "Ġapproximately": 7070,
    "Ġspring": 7071,
    "Ġdim": 7072,
    "ĠEach": 7073,
    "01": 7074,
    "Ġmap": 7075,
    "Ġiniti": 7076,
    "Ġdivid": 7077,
    "Ġbodies": 7078,
    "æľĢç»Ī": 7079,
    "äººå·¥": 7080,
    "Ġconv": 7081,
    "Ġcollabor": 7082,
    "ĠMuseum": 7083,
    "cont": 7084,
    "åı¬å¼Ģ": 7085,
    "ãĢĤåħ¬åı¸": 7086,
    "èĪĴ": 7087,
    "åįıè°ĥ": 7088,
    "Ġbecoming": 7089,
    "æĸĩç«ł": 7090,
    "å¾Ĳ": 7091,
    "å¤ªéĺ³": 7092,
    "é¢Ĺ": 7093,
    "çĻ¾åĪĨ": 7094,
    "çĶµåĬĽ": 7095,
    "ä¹łæĥ¯": 7096,
    "tee": 7097,
    "porary": 7098,
    "Ġtissue": 7099,
    "Ġship": 7100,
    "Ġgeneration": 7101,
    "è´·æ¬¾": 7102,
    "è´¦": 7103,
    "ean": 7104,
    "Ġcommercial": 7105,
    "ager": 7106,
    "èİ«": 7107,
    "éģŃ": 7108,
    "åĸ·": 7109,
    "Ġpresident": 7110,
    "Ġclinical": 7111,
    "ĠMich": 7112,
    "Ġclassroom": 7113,
    "é©¾é©¶": 7114,
    "æİ¨èįĲ": 7115,
    "rant": 7116,
    "ographic": 7117,
    "ĠCollege": 7118,
    "ï¼Įå°ı": 7119,
    "Ġrecords": 7120,
    "Ġclearly": 7121,
    "ç¥Ŀ": 7122,
    "Ġphen": 7123,
    "Ġobserved": 7124,
    "Ġindustrial": 7125,
    "Ġdestroy": 7126,
    "æ¶µ": 7127,
    "Ġpartners": 7128,
    "éĶĭ": 7129,
    "ä¹Į": 7130,
    "Ġfaith": 7131,
    "Ġdoub": 7132,
    "Ġassum": 7133,
    "Ġves": 7134,
    "ĠNet": 7135,
    "è¿ħéĢŁ": 7136,
    "è¯Ħä¼°": 7137,
    "åĽ½åĬ¡éĻ¢": 7138,
    "å§ĵ": 7139,
    "ãģ": 7140,
    "za": 7141,
    "plications": 7142,
    "-B": 7143,
    "Ġcarried": 7144,
    "å²¸": 7145,
    "Ġserve": 7146,
    "ĠThus": 7147,
    "change": 7148,
    "ares": 7149,
    "Ġintroduced": 7150,
    "Ġfeature": 7151,
    "Ġeffic": 7152,
    "ĠBra": 7153,
    "ï¼Įä¸Ĭ": 7154,
    "Ġtour": 7155,
    "èģĮå·¥": 7156,
    "è®Ńç»ĥ": 7157,
    "oyal": 7158,
    "76": 7159,
    "Ġutil": 7160,
    "Ġnovel": 7161,
    "ria": 7162,
    "Ġtrust": 7163,
    "Ġnotes": 7164,
    "Ġbran": 7165,
    "æĦĪ": 7166,
    "åĵªäºĽ": 7167,
    "Ġcontrast": 7168,
    "Ġbalance": 7169,
    "ĠDes": 7170,
    "éĺŁä¼į": 7171,
    "æŃ£ç¡®": 7172,
    "Ġpresented": 7173,
    "ĠRev": 7174,
    "çĭ¬ç«ĭ": 7175,
    "åĮħè£ħ": 7176,
    "Ġstyle": 7177,
    "Ġstream": 7178,
    "å¿Ĩ": 7179,
    "ä¼łæĴŃ": 7180,
    "ãĢĤæį®": 7181,
    "oo": 7182,
    "Ġturned": 7183,
    "ï¼Įåį´": 7184,
    "é«ĺæł¡": 7185,
    "è¾Ľ": 7186,
    "æĮĩæłĩ": 7187,
    "ressive": 7188,
    "å¾½": 7189,
    "ä»įçĦ¶": 7190,
    "ï¼Įæ²¡æľī": 7191,
    "èĦī": 7192,
    "åĲĦé¡¹": 7193,
    "Ġstore": 7194,
    "ĠUnder": 7195,
    "ï¼īçļĦ": 7196,
    "Ġhomes": 7197,
    "æĭĽæłĩ": 7198,
    "åĩłä¹İ": 7199,
    "ĠConf": 7200,
    "unction": 7201,
    "ĠSpec": 7202,
    "aus": 7203,
    "-le": 7204,
    "èĬ¯": 7205,
    "Ġeasier": 7206,
    "Ġcombination": 7207,
    "bed": 7208,
    "apers": 7209,
    "Ġhom": 7210,
    "Ġdogs": 7211,
    "Ġbone": 7212,
    "ĠDevelopment": 7213,
    "ressed": 7214,
    "Ġletter": 7215,
    "Ġbuildings": 7216,
    "ç´«": 7217,
    "å®ı": 7218,
    "ped": 7219,
    "Ġvary": 7220,
    "Ġmer": 7221,
    "Ġrelease": 7222,
    "Ġconsumption": 7223,
    "çļĦåŁºç¡Ģ": 7224,
    "ingly": 7225,
    "Ġstim": 7226,
    "Ġlived": 7227,
    "ĠSy": 7228,
    "é£İæł¼": 7229,
    "Ġreleased": 7230,
    "ĠDon": 7231,
    "ï¼ħ": 7232,
    "å²©": 7233,
    "ä¸»åĬ¨": 7234,
    "éĺ²æİ§": 7235,
    "çĬ¶åĨµ": 7236,
    "elines": 7237,
    "Ġagg": 7238,
    "å°ĳå¹´": 7239,
    "ä¸įè¶³": 7240,
    "184": 7241,
    "Ġslight": 7242,
    "Ġbox": 7243,
    "è¿Ķ": 7244,
    "åıĳçĶµ": 7245,
    "och": 7246,
    "ession": 7247,
    "Ġtemperatures": 7248,
    "Ġreality": 7249,
    "Ġexperiences": 7250,
    "Ġelim": 7251,
    "æ·¡": 7252,
    "å§Ĩ": 7253,
    "ä¼ĺåĮĸ": 7254,
    "éħįåĲĪ": 7255,
    "urt": 7256,
    "Ġmeat": 7257,
    "ä»ģ": 7258,
    "Ġconnection": 7259,
    "ias": 7260,
    "łéģĵ": 7261,
    "ĠOff": 7262,
    "åĩ¯": 7263,
    "Ġmoved": 7264,
    "Ġcopy": 7265,
    "é»ĺ": 7266,
    "ä¸»ç®¡": 7267,
    "Ġnoted": 7268,
    "åĲ¯åĬ¨": 7269,
    "å§ĭç»Ī": 7270,
    "Ġreb": 7271,
    "ĠHuman": 7272,
    "æĬķæłĩ": 7273,
    "æĤ²": 7274,
    "RO": 7275,
    "ĠSun": 7276,
    "è¿ĽæŃ¥": 7277,
    "æ´ŀ": 7278,
    "ï¼Įä¸įä»ħ": 7279,
    "èĢĥçĶŁ": 7280,
    "ï¼ĮãĢĬ": 7281,
    "ç½Ĺæĸ¯": 7282,
    "ï¼ĮåĪ°": 7283,
    "åŀĥ": 7284,
    "åħĪåĲİ": 7285,
    "bre": 7286,
    ".C": 7287,
    "Ġfriend": 7288,
    "Ġplanning": 7289,
    "Ġhear": 7290,
    "Ġaspects": 7291,
    "åŀĥåľ": 7292,
    "åŀĥåľ¾": 7293,
    "works": 7294,
    "Ġestimated": 7295,
    "ä¹ı": 7296,
    "Ġmale": 7297,
    "Ġgrant": 7298,
    "Ġgets": 7299,
    "Ġdesp": 7300,
    "Ġalternative": 7301,
    "ĠNA": 7302,
    "Ġdangerous": 7303,
    "Ġresistance": 7304,
    "Ġnumerous": 7305,
    "Ġcore": 7306,
    "ï¼Įè¿ĺæľī": 7307,
    "æĸĳ": 7308,
    "æĬ¢": 7309,
    "å¨±ä¹Ĳ": 7310,
    "ago": 7311,
    "Ġrequirements": 7312,
    "éĩĮçļĦ": 7313,
    "æıĲä¾ĽäºĨ": 7314,
    "Ġstorage": 7315,
    "Ġcausing": 7316,
    "æĻ¶": 7317,
    "åıĳè¡¨": 7318,
    "ä¸Ģå®¶": 7319,
    "Ġsignificantly": 7320,
    "çĲĥåĳĺ": 7321,
    "åģļåĪ°": 7322,
    "Ġsetting": 7323,
    "éĿ¢çļĦ": 7324,
    "éĢĤåºĶ": 7325,
    "tered": 7326,
    "aped": 7327,
    "Ġwidely": 7328,
    "olid": 7329,
    "Ġanyone": 7330,
    "æł¡åĽŃ": 7331,
    "æ¯ıä¸ª": 7332,
    "åĬŀçĲĨ": 7333,
    "ä¹³": 7334,
    "ube": 7335,
    "Ġintellig": 7336,
    "æ»¤": 7337,
    "åĬłå¿«": 7338,
    "ä¹Łä¸į": 7339,
    "Ġliterature": 7340,
    "è¯ĳ": 7341,
    "ï¼ĮåĲĮæ¯Ķå¢ŀéķ¿": 7342,
    "åĨłåĨĽ": 7343,
    "atin": 7344,
    "Ġpi": 7345,
    "ï¼Įçİ°": 7346,
    "æĭĽèģĺ": 7347,
    "åĲĮæľŁ": 7348,
    "ç»ĺ": 7349,
    "otes": 7350,
    "Ġroot": 7351,
    "çľŁå®ŀ": 7352,
    "/or": 7353,
    "Ġtrib": 7354,
    "igure": 7355,
    "ii": 7356,
    "Ġdecisions": 7357,
    "èĢĮè¨Ģ": 7358,
    "Ġbeautiful": 7359,
    "Ġign": 7360,
    "èŀįèµĦ": 7361,
    "æľīæīĢ": 7362,
    "åĪĨåŃĲ": 7363,
    "rans": 7364,
    "DP": 7365,
    "Ġdrive": 7366,
    "ç¡ķ": 7367,
    "å½ĵæĹ¶": 7368,
    "Ġsave": 7369,
    "å¥¶": 7370,
    "å°ĺ": 7371,
    "tical": 7372,
    "Ġkilled": 7373,
    "Ġcampaign": 7374,
    "ãĥ": 7375,
    "wide": 7376,
    "icial": 7377,
    "Ġgoals": 7378,
    "äººæ°ĳå¸ģ": 7379,
    "Ġitems": 7380,
    "ĠIslam": 7381,
    "ãĢĤæľī": 7382,
    "oper": 7383,
    "æıı": 7384,
    "Ã¡": 7385,
    "Ġannual": 7386,
    "ï¼Įå°¤åħ¶": 7387,
    "çī¹åĪ«æĺ¯": 7388,
    "ç»ıå¸¸": 7389,
    "ç¬¬åįģ": 7390,
    "æľĢå¤§": 7391,
    "Ġtum": 7392,
    "è¿Ļæĺ¯": 7393,
    "æ°¨": 7394,
    "ä¸Ĭåįĩ": 7395,
    "âĢĿ.": 7396,
    "èļĢ": 7397,
    "è¿ĳæĹ¥": 7398,
    "rative": 7399,
    "Ġfrequently": 7400,
    "æ¯ıå¤©": 7401,
    "onds": 7402,
    "iding": 7403,
    "berg": 7404,
    "Ġcycle": 7405,
    "çĻ»è®°": 7406,
    "å¥³æĢ§": 7407,
    "ilit": 7408,
    "Sp": 7409,
    "Ġthr": 7410,
    "Ġparticipants": 7411,
    "ä»¤äºº": 7412,
    "èī¯å¥½": 7413,
    "è¿ŀæİ¥": 7414,
    "æ°ı": 7415,
    "å£®": 7416,
    "Ġchanging": 7417,
    "ĠPaul": 7418,
    "éĿ¢ä¸´": 7419,
    "æĿŃ": 7420,
    "åĮ»èį¯": 7421,
    "ollow": 7422,
    "Ġflood": 7423,
    "Ġconducted": 7424,
    "ĠGovernment": 7425,
    "Ġesc": 7426,
    "Ġcomprehens": 7427,
    "Ġoperations": 7428,
    "ĠIsland": 7429,
    "ä¿Ĺ": 7430,
    "ä»¬çļĦ": 7431,
    "opy": 7432,
    "Ġviolence": 7433,
    "Ġdatab": 7434,
    "ĠLet": 7435,
    "Ġserved": 7436,
    "Ġstarting": 7437,
    "Ġbattle": 7438,
    "çģŃ": 7439,
    "ta": 7440,
    "Ġhelped": 7441,
    "Ġcand": 7442,
    "åĬŀåħ¬å®¤": 7443,
    "äººä½ĵ": 7444,
    "ocal": 7445,
    "Ġsurgery": 7446,
    "ĠMat": 7447,
    "Ġgrass": 7448,
    "Ġanxiety": 7449,
    "Ġresource": 7450,
    "Ġdrop": 7451,
    "ĠPort": 7452,
    "è¿Ľåı£": 7453,
    "ida": 7454,
    "ST": 7455,
    "Ġoxygen": 7456,
    "Ġauthors": 7457,
    "è¾ī": 7458,
    "å®ŀéªĮå®¤": 7459,
    "å¡ĳæĸĻ": 7460,
    "ception": 7461,
    "Ġfeeling": 7462,
    "ĠAsia": 7463,
    "èµµ": 7464,
    "æľ±": 7465,
    "åıĳè¡Į": 7466,
    "ologists": 7467,
    "Ġyouth": 7468,
    "Ġfix": 7469,
    "ĠGreek": 7470,
    "çıį": 7471,
    "Ġlic": 7472,
    "è®¾ç½®": 7473,
    "æĬµ": 7474,
    "âĢĿâĢľ": 7475,
    "onic": 7476,
    "56": 7477,
    "Ġvessel": 7478,
    "Ġidentity": 7479,
    "ï¼Įæł¹æį®": 7480,
    "ĠOver": 7481,
    "éĤ£äºĽ": 7482,
    "ä½ĵçİ°": 7483,
    "Ġocean": 7484,
    "Ġgraph": 7485,
    "ĠFound": 7486,
    ".)Ċ": 7487,
    "Ġfine": 7488,
    "Ġfields": 7489,
    "åĿ¦": 7490,
    "åĮ»çĶŁ": 7491,
    "ulf": 7492,
    "Ġbed": 7493,
    "èĩ³ä»Ĭ": 7494,
    "æĽ´å¤ļçļĦ": 7495,
    "care": 7496,
    "çĶµèĦĳ": 7497,
    "Ġmeeting": 7498,
    "Ġgames": 7499,
    "å¼ºåº¦": 7500,
    "olved": 7501,
    "æĹ¦": 7502,
    "æĢ§åĴĮ": 7503,
    "zz": 7504,
    "èĦ¸": 7505,
    "Ġupper": 7506,
    "Ġremove": 7507,
    "ï¼ĮæĪĳåĽ½": 7508,
    "ãĢĤæŃ¤å¤ĸ": 7509,
    "ously": 7510,
    "Ġrecommended": 7511,
    "Ġliqu": 7512,
    "Ġcompl": 7513,
    "èĥĥ": 7514,
    "eared": 7515,
    "anging": 7516,
    "Ġwaters": 7517,
    "Ġunf": 7518,
    "Ġcovered": 7519,
    "ãĢģæ°´": 7520,
    "edic": 7521,
    "58": 7522,
    "æ³ķè§Ħ": 7523,
    "åĭĴ": 7524,
    "08": 7525,
    "Ġwhom": 7526,
    "èĤ¡ä¸ľ": 7527,
    "ä¸»æĮģ": 7528,
    "ulum": 7529,
    "77": 7530,
    "æľīçĿĢ": 7531,
    "æ®ĸ": 7532,
    "ä¹Łä¼ļ": 7533,
    "ãĢģå¸Ĥ": 7534,
    "Ġready": 7535,
    "ĠGeorge": 7536,
    "ĠDec": 7537,
    "éĺħè¯»": 7538,
    "ĠMars": 7539,
    "çķħ": 7540,
    "orial": 7541,
    "asks": 7542,
    "Ġorganic": 7543,
    "Ġlayer": 7544,
    "åħħæ»¡": 7545,
    "Ġsumm": 7546,
    "çªģåĩº": 7547,
    "æ³ķåĽ½": 7548,
    "Ġradio": 7549,
    "erences": 7550,
    "ĠMark": 7551,
    "æ²ŁéĢļ": 7552,
    "åľ°ä½į": 7553,
    "å¼ºçļĦ": 7554,
    "Ġphysic": 7555,
    "åħ¬çĽĬ": 7556,
    "atform": 7557,
    "ç»ª": 7558,
    "ping": 7559,
    "Ġwin": 7560,
    "Ġregarding": 7561,
    "Ġiron": 7562,
    "ented": 7563,
    "Ġrelationships": 7564,
    "çŃīçŃī": 7565,
    "çº½": 7566,
    "Sh": 7567,
    "Ġupd": 7568,
    "Ġbelong": 7569,
    "å°½ç®¡": 7570,
    "ructure": 7571,
    "ï¼Įå·²": 7572,
    "äºĭå®ŀ": 7573,
    "Ġterrit": 7574,
    "äº«åıĹ": 7575,
    "Ġlib": 7576,
    "ears": 7577,
    "è¿½æ±Ĥ": 7578,
    "äº©": 7579,
    "According": 7580,
    "Ġtechnique": 7581,
    "Ġhousehold": 7582,
    "ĠIts": 7583,
    "é©»": 7584,
    "ä½ľèĢħ": 7585,
    "rum": 7586,
    "Ġflowers": 7587,
    "ĠMet": 7588,
    "ĠDirect": 7589,
    "å¸ĤåľºçļĦ": 7590,
    "Ġsolid": 7591,
    "Ġnor": 7592,
    "Ġheard": 7593,
    "ĠWeb": 7594,
    "çĭ¬çī¹": 7595,
    "ä¸Ģå®ļçļĦ": 7596,
    "road": 7597,
    "lick": 7598,
    "Ġunivers": 7599,
    "èį·": 7600,
    "å±¥": 7601,
    "oting": 7602,
    "Ġstatement": 7603,
    "Ġinternal": 7604,
    "ĠOrgan": 7605,
    "ĠHen": 7606,
    "è¶³çĲĥ": 7607,
    "ãĢĤä½Ĩæĺ¯": 7608,
    "Ġplease": 7609,
    "Ġbottom": 7610,
    "ï¼Įä¸įæĸŃ": 7611,
    "åŃ¦ä¼ļ": 7612,
    "Ġexactly": 7613,
    "Ġdiscussion": 7614,
    "èĥİ": 7615,
    "æ¨ª": 7616,
    "å¼ķå¯¼": 7617,
    "Here": 7618,
    "éħįå¥Ĺ": 7619,
    "èĪį": 7620,
    "æĿĨ": 7621,
    "åĴĮåĽ½": 7622,
    "å£ģ": 7623,
    "98": 7624,
    "Ġmessage": 7625,
    "åĲĪæł¼": 7626,
    "Ġinfections": 7627,
    "Ġindependent": 7628,
    "Ġdegrees": 7629,
    "ä»¥åĲİ": 7630,
    "ognitive": 7631,
    "-up": 7632,
    "è½¬åŀĭ": 7633,
    "osystem": 7634,
    "Ġrot": 7635,
    "Ġnit": 7636,
    "ĠCongress": 7637,
    "å®ŀåĬĽ": 7638,
    "TS": 7639,
    "Ġcredit": 7640,
    "å¿ħè¦ģ": 7641,
    "å¤©æ´¥": 7642,
    "äººåľ¨": 7643,
    "atically": 7644,
    "Ġresulting": 7645,
    "Ġgene": 7646,
    "Ġacademic": 7647,
    "raction": 7648,
    "BC": 7649,
    "Ġtrou": 7650,
    "Ġrisks": 7651,
    "ĠEv": 7652,
    "å¾ªçİ¯": 7653,
    "stitution": 7654,
    "Ġexpert": 7655,
    "æĻĵ": 7656,
    "å·§": 7657,
    "Ġfilm": 7658,
    "æľĢä½³": 7659,
    "Ġproposed": 7660,
    "Ġminor": 7661,
    "å»ºæĪĲ": 7662,
    "Ġtrig": 7663,
    "Ġnorthern": 7664,
    "Ġfinding": 7665,
    "ĠMary": 7666,
    "çİ°å®ŀ": 7667,
    "ä¸ĩåĲ¨": 7668,
    "However": 7669,
    "Ġexperienced": 7670,
    "ĠçļĦ": 7671,
    "ï¼Įè¿Ļæł·": 7672,
    "ï¼ĮåĽł": 7673,
    "åħ±äº«": 7674,
    "è¿ĲçĶ¨": 7675,
    "æĭħä»»": 7676,
    "æĭĶ": 7677,
    "ams": 7678,
    "ä¿Ħç½Ĺæĸ¯": 7679,
    "Ġgender": 7680,
    "Ġcalc": 7681,
    "é©±": 7682,
    "omic": 7683,
    "160": 7684,
    ".D": 7685,
    "Ġgrand": 7686,
    "Ġaid": 7687,
    "ĠWork": 7688,
    "raw": 7689,
    "do": 7690,
    "Ġtim": 7691,
    "Ġmetal": 7692,
    "éĽķ": 7693,
    "é¸¡": 7694,
    "Ġnutrition": 7695,
    "othes": 7696,
    "è¡¨è¾¾": 7697,
    "Cl": 7698,
    "Ġround": 7699,
    "Ġplastic": 7700,
    "ä¹ĭå¤ĸ": 7701,
    "gal": 7702,
    "Ġpolicies": 7703,
    "Ġdetermined": 7704,
    "æµ®": 7705,
    "Ġisol": 7706,
    "Ġarm": 7707,
    "ĠFood": 7708,
    "erved": 7709,
    "cers": 7710,
    "64": 7711,
    "Ġscen": 7712,
    "Ġhappens": 7713,
    "æī£": 7714,
    "Ġspeech": 7715,
    "Ġexcell": 7716,
    "ĠRepublic": 7717,
    "Ġpreviously": 7718,
    "ï¼ĮåĲİ": 7719,
    "ï¼Įä¸¤": 7720,
    "Ġoutput": 7721,
    "çĬ¯ç½ª": 7722,
    "æĴĳ": 7723,
    "Ġmeant": 7724,
    "ortion": 7725,
    "Ġperformed": 7726,
    "Ġdram": 7727,
    "ĠMal": 7728,
    "RE": 7729,
    "Ġwanted": 7730,
    "åįĹäº¬": 7731,
    "ä¸ģ": 7732,
    "iverse": 7733,
    "Ġdistinct": 7734,
    "ï¼ĮåĪĻ": 7735,
    "èĭ±è¯Ń": 7736,
    "å¸ĥå±Ģ": 7737,
    "åİ¦": 7738,
    "äºĨä¸Ģä¸ª": 7739,
    "iveness": 7740,
    "Ġemail": 7741,
    "éĶĪ": 7742,
    "ãĢĤæīĢä»¥": 7743,
    "Ġreprodu": 7744,
    "Ġleads": 7745,
    "ĠChildren": 7746,
    "è°±": 7747,
    "çĪ¶æ¯į": 7748,
    "å¾Ģå¾Ģ": 7749,
    "LE": 7750,
    "Ġcreation": 7751,
    "è£ħé¥°": 7752,
    "itz": 7753,
    "Ġmist": 7754,
    "ä¼ļä¸Ĭ": 7755,
    "Ġsolutions": 7756,
    "Ġlinked": 7757,
    "Ġhit": 7758,
    "ĠSer": 7759,
    "ĠMount": 7760,
    "Ġreligion": 7761,
    "Ġeggs": 7762,
    "upp": 7763,
    "Ġstrate": 7764,
    "Ġspent": 7765,
    "äºĭæķħ": 7766,
    "Ġstrategy": 7767,
    "Ġexpression": 7768,
    "Ġbrother": 7769,
    "éĻ¶": 7770,
    "ä¼¸": 7771,
    "ishing": 7772,
    "OT": 7773,
    "Ġremained": 7774,
    "Ġreferred": 7775,
    "Ġinjury": 7776,
    "Ġfinally": 7777,
    "Ġfailure": 7778,
    "Ġcharacteristics": 7779,
    "ĠIrish": 7780,
    "åħĥç´ł": 7781,
    "ä¸ĵåĪ©": 7782,
    "ek": 7783,
    "Ġtransl": 7784,
    "Ġtransform": 7785,
    "ĠFore": 7786,
    "riage": 7787,
    "çļĦä¸Ģä¸ª": 7788,
    "åĲĮæł·": 7789,
    "å¤©çĦ¶": 7790,
    "Ġmentioned": 7791,
    "ĠTherefore": 7792,
    "åŁºäºİ": 7793,
    "Ġsample": 7794,
    "ault": 7795,
    "Ġimpl": 7796,
    "Ġhour": 7797,
    "ç¾Ĭ": 7798,
    "æĽ¾ç»ı": 7799,
    "Ġcris": 7800,
    "éĻ¢æł¡": 7801,
    "ags": 7802,
    "Ġstem": 7803,
    "Ġmostly": 7804,
    "ĠWhy": 7805,
    "ç½ĳä¸Ĭ": 7806,
    "åħįè´¹": 7807,
    "å¾Ĵ": 7808,
    "å¤ļå¹´": 7809,
    "Ġtooth": 7810,
    "Ġreducing": 7811,
    "Ġencourage": 7812,
    "Ġdepending": 7813,
    "....": 7814,
    "Ġsynt": 7815,
    "Ġproperly": 7816,
    "Ġburn": 7817,
    "-re": 7818,
    "Ġpip": 7819,
    "Ġowners": 7820,
    "ieties": 7821,
    "Ġprefer": 7822,
    "Ġeffectively": 7823,
    "æĺĨ": 7824,
    "rus": 7825,
    "Ġprinciples": 7826,
    "éĩĩè´Ń": 7827,
    "ç¥ŀç»ı": 7828,
    "ä¸ļç»©": 7829,
    "Ġclasses": 7830,
    "ĠCath": 7831,
    "Ġcounter": 7832,
    "well": 7833,
    "Ġsong": 7834,
    "Ġdri": 7835,
    "Ġdie": 7836,
    "ï¼ĮèĻ½çĦ¶": 7837,
    "èĸĦ": 7838,
    "å¼ºè°ĥ": 7839,
    "illing": 7840,
    "Ġchemicals": 7841,
    "ĠLa": 7842,
    "æīĢåľ¨": 7843,
    "åĪĢ": 7844,
    "Ġoption": 7845,
    "Ġamounts": 7846,
    "rian": 7847,
    "250": 7848,
    "ĠWhite": 7849,
    "BN": 7850,
    "Ġbuy": 7851,
    "ç¢į": 7852,
    "æĹĭ": 7853,
    "Ġcircum": 7854,
    "ï¼ĮèĢĮæĺ¯": 7855,
    "ï¼Įå½¢æĪĲ": 7856,
    "rating": 7857,
    "Ġexperiment": 7858,
    "Ġconfirm": 7859,
    "çļĦåĲĮæĹ¶": 7860,
    "ras": 7861,
    "Ġvul": 7862,
    "Ġpages": 7863,
    "åħįçĸ«": 7864,
    "âĢľä¸Ģ": 7865,
    "çĽĪ": 7866,
    "ä¸°å¯ĮçļĦ": 7867,
    "åĸĿ": 7868,
    "ä»ĵ": 7869,
    "atric": 7870,
    "acific": 7871,
    "Ġinterested": 7872,
    "Ġsettle": 7873,
    "Ġradiation": 7874,
    "Ġpal": 7875,
    "Ġlandsc": 7876,
    "èĤ¡ç¥¨": 7877,
    "å¤º": 7878,
    "Ġreaction": 7879,
    "Ġpret": 7880,
    "183": 7881,
    "Ġrelevant": 7882,
    "Ġjour": 7883,
    "That": 7884,
    "Ġdescribe": 7885,
    "ä¿Ŀæ¸©": 7886,
    "ãĢĤä¸Ģ": 7887,
    "aughter": 7888,
    "-D": 7889,
    "Ġdecided": 7890,
    "Ġcharge": 7891,
    "ĠWell": 7892,
    "ĠLou": 7893,
    "board": 7894,
    "Ġpieces": 7895,
    "ĠVirgin": 7896,
    "ĠThomas": 7897,
    "èĤ¯å®ļ": 7898,
    "è·Į": 7899,
    "ç²ĺ": 7900,
    "ael": 7901,
    "Ġprocessing": 7902,
    "Ġinvolve": 7903,
    "æįŁå¤±": 7904,
    "ä¸»ä½ĵ": 7905,
    "Ġtrial": 7906,
    "åĽ´ç»ķ": 7907,
    "è£Ĥ": 7908,
    "æµ·å¤ĸ": 7909,
    "eline": 7910,
    "New": 7911,
    "Ġgar": 7912,
    "äººæ°ĳæĶ¿åºľ": 7913,
    "Ġprofession": 7914,
    "Ġdiss": 7915,
    "ï¼ĮéļıçĿĢ": 7916,
    "åĪ©çĽĬ": 7917,
    "ä½İäºİ": 7918,
    "ortunately": 7919,
    "çģ°": 7920,
    "Ġprepared": 7921,
    "é¥®é£Ł": 7922,
    "68": 7923,
    "ĠArmy": 7924,
    "ä¸ĬåįĪ": 7925,
    "Ġofficial": 7926,
    "ï¼Įç§¯æŀģ": 7927,
    "Ġremoved": 7928,
    "Ġinvolves": 7929,
    "Ġhop": 7930,
    "Ġconflict": 7931,
    "æĬĢæľ¯çļĦ": 7932,
    "lease": 7933,
    "èĩ´åĬĽ": 7934,
    "è¿Ŀæ³ķ": 7935,
    "åį±éĻ©": 7936,
    "å°¾": 7937,
    "Ġinterpret": 7938,
    "èĤ¡ä»½æľīéĻĲåħ¬åı¸": 7939,
    "å®Įæķ´": 7940,
    "Why": 7941,
    "ĠOnce": 7942,
    "å°ıç»Ħ": 7943,
    "amental": 7944,
    "Now": 7945,
    "Ġkept": 7946,
    "-th": 7947,
    "Ġdiscrim": 7948,
    "ï¼Įå¸ĮæľĽ": 7949,
    "åıĺå¾Ĺ": 7950,
    "ĠMass": 7951,
    "ĠAcadem": 7952,
    "éĢĲæŃ¥": 7953,
    "çŁ³æ²¹": 7954,
    "rows": 7955,
    "Res": 7956,
    "-like": 7957,
    "Ġinitial": 7958,
    "ĠRober": 7959,
    "umn": 7960,
    "Ġpresc": 7961,
    "Ġobvious": 7962,
    "ĠRich": 7963,
    "ç¦»åŃĲ": 7964,
    "Ġbackground": 7965,
    "è¡Įä¸ļçļĦ": 7966,
    "Ġgirls": 7967,
    "ĠTest": 7968,
    "çĿ¡": 7969,
    "æĻ¨": 7970,
    "åıįæĺł": 7971,
    "place": 7972,
    "erate": 7973,
    "Ġvolunt": 7974,
    "Ġmanufacture": 7975,
    "åİĤå®¶": 7976,
    "å¹´é¾Ħ": 7977,
    "å®ŀè¡Į": 7978,
    "isher": 7979,
    "Ġsaying": 7980,
    "Ġemotional": 7981,
    "Ġcorresp": 7982,
    "ĠSen": 7983,
    "ä¾Ŀæį®": 7984,
    "rm": 7985,
    "acing": 7986,
    "Ġreplace": 7987,
    "çľģçº§": 7988,
    "kin": 7989,
    "igenous": 7990,
    "Ġprepar": 7991,
    "ĠMiss": 7992,
    "è·³": 7993,
    "From": 7994,
    "Ġexposed": 7995,
    "Ġcollege": 7996,
    "æ³½": 7997,
    "Ġban": 7998,
    "çĶ³æĬ¥": 7999,
    "æĹ¥èĩ³": 8000,
    "Ġyellow": 8001,
    "Ġarticles": 8002,
    "ĠST": 8003,
    "ĠPhys": 8004,
    "é«ĺçº§": 8005,
    "çļĦåľ°æĸ¹": 8006,
    "-n": 8007,
    "Ġwealth": 8008,
    "Ġrace": 8009,
    "Ġinstitutions": 8010,
    "ĠDem": 8011,
    "åįļçī©": 8012,
    "å±ķè§Ī": 8013,
    "è¹": 8014,
    "åı¯èĥ½ä¼ļ": 8015,
    "ãĢĤå¦Ĥ": 8016,
    "vis": 8017,
    "otic": 8018,
    "Ġtrend": 8019,
    "Ġsquare": 8020,
    "Ġcoord": 8021,
    "å®ħ": 8022,
    "Our": 8023,
    "Ġexperts": 8024,
    "åĳĪçİ°": 8025,
    "roid": 8026,
    "ework": 8027,
    "åŁĥ": 8028,
    "å¹¸ç¦ı": 8029,
    "Ġnav": 8030,
    "Ġdefic": 8031,
    "èĩªæĪĳ": 8032,
    "ä¸Ĭè¿°": 8033,
    "Ġreached": 8034,
    "ĠProject": 8035,
    "èµĽåŃ£": 8036,
    "æĥ³è¦ģ": 8037,
    "è·ĥ": 8038,
    "çĤī": 8039,
    "Ġdrinking": 8040,
    "Ġconservation": 8041,
    "ĠGra": 8042,
    "èµģ": 8043,
    "uted": 8044,
    "clusion": 8045,
    "Many": 8046,
    "Ġsouthern": 8047,
    "Ġinh": 8048,
    "ĠOld": 8049,
    "Ġ#": 8050,
    "Ġmathemat": 8051,
    "ç§Łèµģ": 8052,
    "Ġmanner": 8053,
    "Ġincorpor": 8054,
    "Ġgenes": 8055,
    "ĠLife": 8056,
    "ãĢģä¸į": 8057,
    "standing": 8058,
    "rence": 8059,
    "Ġsort": 8060,
    "Ġinflamm": 8061,
    "Ġsand": 8062,
    "ç²®": 8063,
    "åħ¬ä¼Ĺ": 8064,
    "uration": 8065,
    "åĩĨç¡®": 8066,
    "å¼ºåĮĸ": 8067,
    "Ġtoxic": 8068,
    "Ġlung": 8069,
    "Ġadvantage": 8070,
    "æ£ĭ": 8071,
    "å®¤åĨħ": 8072,
    "ä¼ı": 8073,
    "Ġspot": 8074,
    "Ġpric": 8075,
    "Ġclos": 8076,
    "ĠBas": 8077,
    "ä¸Ļ": 8078,
    "riculum": 8079,
    "Ġadvanced": 8080,
    "ĠBritain": 8081,
    "è§Ĥå¯Ł": 8082,
    "bal": 8083,
    "Ġwest": 8084,
    "Ġtrad": 8085,
    "çľŁçļĦ": 8086,
    "æľ¬èº«": 8087,
    "Ġassessment": 8088,
    "ĠCommission": 8089,
    "ĠBudd": 8090,
    "æī¾åĪ°": 8091,
    "Ġpromote": 8092,
    "Ġpun": 8093,
    "Ġmorning": 8094,
    "ĠÃ": 8095,
    "éĶģ": 8096,
    "æĸĩåŃ¦": 8097,
    "åĨįæ¬¡": 8098,
    "bl": 8099,
    "ĠBer": 8100,
    "çĲĨæĥ³": 8101,
    "æľºçļĦ": 8102,
    "ãĢĤä¸º": 8103,
    "Ġpul": 8104,
    "Ġmotor": 8105,
    "âĢĿä¸º": 8106,
    "akers": 8107,
    "ĠWind": 8108,
    "æĦŁåıĹ": 8109,
    "æ¶Īéĺ²": 8110,
    "åŃ¦çĶŁçļĦ": 8111,
    "å¿ĥçļĦ": 8112,
    "ĠCourt": 8113,
    "ï¼Įç¡®ä¿Ŀ": 8114,
    "é¢Ħç®Ĺ": 8115,
    "æĦıåĳ³": 8116,
    "å·¥èµĦ": 8117,
    "iling": 8118,
    "Ġhelping": 8119,
    "çļĦä¸Ģç§į": 8120,
    "ãĢĤå¯¹": 8121,
    "ributed": 8122,
    "ĠInf": 8123,
    "ixt": 8124,
    "Ġmanage": 8125,
    "Ġfarmers": 8126,
    "æļĹ": 8127,
    "leg": 8128,
    "espite": 8129,
    "å¯º": 8130,
    "Ġplatform": 8131,
    "Ġpersons": 8132,
    "Ġconsult": 8133,
    "éĵº": 8134,
    "æľ¬ç§ĳ": 8135,
    "äºķ": 8136,
    "Go": 8137,
    "Ġfib": 8138,
    "ĠMart": 8139,
    "wood": 8140,
    "Ġsusp": 8141,
    "å¾®ä¿¡": 8142,
    "Ġtro": 8143,
    "Ġmainly": 8144,
    "Ġkn": 8145,
    "ĠTex": 8146,
    "å½ķåıĸ": 8147,
    "Ġintended": 8148,
    "Ġhighlight": 8149,
    "Ġdiscover": 8150,
    "æĸ¹éĿ¢çļĦ": 8151,
    "éĻķ": 8152,
    "é¡ºåĪ©": 8153,
    "çŃīå¥ĸ": 8154,
    "çİ¯èĬĤ": 8155,
    "çī¹å¾ģ": 8156,
    "å°ĸ": 8157,
    "roke": 8158,
    "Ġmaximum": 8159,
    "è®¤å®ļ": 8160,
    "ç¨¿": 8161,
    "Ġthick": 8162,
    "Ġmit": 8163,
    "æķ¢": 8164,
    "å¸¸è§ģ": 8165,
    "ĠSpanish": 8166,
    "-related": 8167,
    "Ġhttps": 8168,
    "MS": 8169,
    "Ġuns": 8170,
    "Ġsupported": 8171,
    "Ġleader": 8172,
    "ĠMedicine": 8173,
    "ï¼Įè¿Ļä¸ª": 8174,
    "èĤĮ": 8175,
    "Ġinstall": 8176,
    "Ġforced": 8177,
    "Ġeast": 8178,
    "Ġbright": 8179,
    "ĠQue": 8180,
    "éŀ": 8181,
    "è®¨è®º": 8182,
    "æ±¤": 8183,
    "Ġsche": 8184,
    "Ġallowing": 8185,
    "ĠEnergy": 8186,
    "enses": 8187,
    "ĠJews": 8188,
    "æĹ¥åīį": 8189,
    "ifying": 8190,
    "Ġvolume": 8191
}