#version: 0.1
Ġ t
Ġ a
h e
i n
r e
Ġt he
ä ¸
o n
ï ¼
e r
Ġ o
a t
Ġ s
ï¼ Į
e n
Ġ c
ã Ģ
Ġ w
e s
i s
n d
i t
o r
Ġ p
a l
ç ļ
çļ Ħ
e d
a n
Ġ b
Ġo f
Ġ f
in g
Ġ in
ä º
a r
o u
Ġ m
Ġa nd
Ġt o
i c
Ġ d
i on
æ ľ
â Ģ
å ı
ãĢ Ĥ
l e
å ħ
r o
a s
ä »
Ġ h
Ġt h
en t
å ¤
c t
ãĢ ģ
å ®
Ġ e
i l
å Ī
Ġ re
o m
v e
Ġ l
è ¿
å ľ
s t
Ġ n
ä ½
ç Ķ
å Ĳ
. Ċ
å Ĭ
l y
Ġb e
Ġ is
æ ĺ
ç »
Ġ T
s e
å Ľ
o l
Ġ g
æ Ī
at ion
å ¹
i m
æ ĸ
i d
e t
u t
c e
o t
u r
c h
r a
o w
Ġ A
ä ¼
æ Ĺ
ä ¹
Ġf or
è ®
i g
ä¸ Ģ
Ġ S
Ġth at
Ġ on
Ġ u
å į
å Ń
Ġs t
v er
è ¯
å °
Ġ C
Ġ I
i r
Ġ y
æĺ ¯
ãĢĤ Ċ
åľ ¨
å ·
u l
å ¸
a y
æ Ŀ
a m
æľ ī
e l
é ĩ
Ġa s
it h
a d
å Į
å º
he r
Ġp ro
Ġa re
äº º
Ġc on
ä¸ Ń
Ġa n
âĢ ľ
å ¼
Ġw ith
âĢ Ŀ
æ ī
i f
Ġw h
è ¡
é Ģ
Ġ it
Ġo r
Ġy ou
Ġa l
t er
Ġ M
å Ĵ
å Ĩ
Ġ (
o d
è Ģ
ç Ľ
ä¸ º
å ĩ
ä¸ į
ĠT he
æ Ĭ
æ ķ
åĴ Į
å ±
2 0
äº Ĩ
Ġ P
å ¯
m ent
å ¾
g e
æ ł
t h
ä¸ ļ
è ´
å¤ §
åĽ ½
å¹ ´
is t
ĥ ½
ç §
o p
at e
er s
Ġd e
è µ
è §
Ġ he
i es
Ġ B
il l
es s
u s
a b
âĢ Ļ
Ġe x
é Ļ
ç İ
Ġw e
e ct
æ °
o re
Ġs u
ç ī
Ġc om
it y
æ Ķ
æ Ģ
es t
çĶ Ł
ä» ¥
åŃ ¦
Ġh a
Ġ H
i ve
re s
a c
u m
ro m
l d
o s
k e
Ġ v
e m
åı ĳ
Ġb y
an t
ç º
i v
a in
q u
Ġ W
å İ
n t
Ġa t
p p
Ġ D
å ¥
å ½
è ĩ
å ¿
ç Ń
Ġw as
Ġ E
ig h
ä¸ Ĭ
çĶ ¨
ä ¿
æ Ń
Ġc an
ç Ĳ
ä¼ ļ
é Ĺ
u d
Ġf rom
a nd
o c
å ĳ
æ ³
Ġ R
Ġc h
Ġ r
or t
å· ¥
é Ŀ
æ İ
æ µ
Ġn e
Ġ F
¦ ģ
ä¸ ª
è ĥ½
æĹ ¶
i al
Ġs e
è¡ Į
ä½ ľ
è ¦ģ
æĪ Ĳ
u re
å ĵ
u n
Ġn ot
Ġ G
Ġ N
ar t
Ġ le
ic al
åħ ¬
æ ŀ
Ġha ve
äº İ
å Ł
é ¢
r i
æ ¯
è¿ Ļ
Ġ L
o g
è ¾
Ġs h
æĪ ĳ
è ½
æ ²
åĪ °
å¯ ¹
å® ¶
Ġ en
åľ °
æĿ ¥
æ ĭ
Ġs p
åĩ º
Ġth is
äº §
åı ¯
å ī
æ ±
igh t
ic h
p t
æ Į
r ou
Ġa b
é ĺ
re d
é «
Ġw or
çĲ Ĩ
âĢĻ s
al l
é« ĺ
ç ľ
T he
g h
ou ld
t her
ou r
ion s
1 9
o st
ç «
om e
çŃ ī
åĪ Ĩ
å¤ ļ
æĸ °
æ ¸
u st
å¸ Ĥ
Ġ im
at ed
in e
ç ®
ar d
æ ĥ
åħ ¨
ä» ¬
p er
el l
ou t
Ġu s
ç ½
åĬ ¨
a g
è¿ Ľ
æĸ ¹
ä ¾
Ġthe ir
è Ĥ
Ġp l
ç» ı
åĮ ĸ
Ġ O
f f
a ct
æ ´
id e
ä¸ İ
é ķ
Ġin t
20 1
æ Ħ
an s
æĹ ¥
as t
p l
0 0
e ar
èĩ ª
å »
Ġ J
è¿ ĩ
çİ °
åĲ Ī
æ ¬
é ĥ
d u
ä½ ĵ
åĵ ģ
Ġwh ich
a k
Ġ k
æľ º
ou s
åĬ Ľ
a ge
ç ¨
ä¸ ĭ
Ġw he
Ġyou r
Ġthe y
å® ŀ
åĲ Į
e c
Ġ U
i z
i a
æľ Ī
Ġal l
åĲ İ
é ¡
ï¼ ļ
å¼ Ģ
æ ı
ĠI n
ä¹ Ł
å± ķ
Ġcon t
o od
Ġd is
i b
Ġa d
ul t
Ġw ill
r u
Ġin c
c c
ä» ĸ
en d
è® ¾
Ġm ore
éĥ ¨
on g
é ģ
a p
ï¼ ī
å» º
i p
Ġcom p
ï¼ Ī
e w
ve l
Ġh as
éĿ ¢
å® ļ
çĶ µ
æľ ¬
æ Ľ
åı Ĭ
ation s
å ¢
å ¦
è ģ
é Ľ
Ġre s
æĢ §
ä¸ »
e re
åĬ ¡
åħ ¶
s o
æ³ ķ
or m
Ġd o
ar y
é £
ä¹ ĭ
å ģ
éķ ¿
at er
åĬ ł
å° ±
ç ¤
ç ¬
è ī
ĠT h
èµ Ħ
a re
il d
en ce
Ġb ut
éĩ į
Ġo ther
Ġ âĢľ
è ·
éĢ ļ
æ į
åº ¦
Ġc l
u al
Ġm an
è ¶
æ Ļ
Ġwe re
èĢ ħ
åħ ³
èĢ Į
ab le
å¿ ĥ
ç Ļ
k s
ç Ĥ
åı ¸
ç Ł
æ° ´
r y
åĮ º
åľ º
åī į
æı Ĳ
e p
å¾ Ĺ
in d
Ġon e
an ce
Ġp er
ç ¾
åĨ ħ
a ch
Ġal so
å° Ĩ
åĪ ¶
' s
å Ŀ
æī Ģ
Ġim p
éĩ ı
Ġm e
re at
ent s
o se
ç ł
è °
Ġt e
a ke
æĬ Ģ
as s
åħ¬ åı¸
ig n
ç® ¡
åŃ Ĳ
æ ¶
å¥ ½
a v
åº Ķ
res s
as e
çĽ ®
Ġ âĢ
Ġ j
æķ Ļ
æĸ ĩ
çī ©
a u
ç ³
ç ©
it ion
b er
Ġa r
Ġs o
æľ Ģ
Ġp art
äº ĭ
im e
ic e
Ġu n
è® ¡
ä½ į
éĹ ´
ct ion
Ġo ut
å¦ Ĥ
ver y
ç¨ ĭ
ä¿ Ŀ
o k
or d
æľ ¯
is h
Ġa pp
on e
è Ĭ
a ce
or y
Ġe v
åĳ ĺ
å° ı
Ġab out
è Ĳ
i re
en s
é ļ
æ¯ Ķ
é ĥ½
Ġwh o
1 0
Ġh is
ç Ŀ
am e
ç ĸ
ï¼ Ľ
æľ Ł
ou nt
å Ģ
åħ ¥
ac k
20 0
çĽ ¸
Ġst ud
å §
ĠS t
å¤ ĸ
Ġin f
ç ±
Ġp e
ç¬ ¬
å¹ ¶
å¤ ©
Ġcom m
éĩ ĳ
u b
Ġ K
é ħ
Ġthe m
æ Ł
ç³ »
ç§ ĳ
u e
ç§ į
Ġs y
Ġs c
it e
ç ķ
or s
re e
i ke
ou nd
åĲ į
æķ °
an g
c es
ä¿ ¡
n ow
ãĢ ĭ
ĠI t
ç Ĺ
ãĢ Ĭ
è¡ ¨
Ġ "
é ľ
Ġu p
åħ ĥ
l ow
æĥ ħ
ol og
é Ķ
åĽ ł
ĠC h
Ġbe c
i e
ç½ ĳ
å¹ ³
æĽ ´
æ ģ
Ġp re
i le
ä¼ ģ
Ġm ay
Ġth an
çĤ ¹
å® ī
i an
r ic
ä¸ ī
ç ĥ
ç Ħ
è½ ¦
Ġ qu
ä¸Ń åĽ½
å½ ĵ
ä» İ
Ġs ome
if f
åıĳ å±ķ
æĪĳ ä»¬
Ġbe en
Ġy ear
op le
a il
ay s
è¯ ´
ä¸ ĵ
ç¾ İ
Ġre c
ç ¡
é ĵ
æ¬ ¡
Ġthe re
Ġwhe n
nd er
æ´ »
å·¥ ä½ľ
æ° ĳ
åĪ ©
Ġit s
at es
ing s
m er
ou gh
è´ ¨
åŁ º
ä¼ģ ä¸ļ
éģ ĵ
Ġ V
Ġa g
ç ´
è¿ ĺ
Ġg o
æĶ ¿
ver s
å¼ ı
ä½ ¿
Ġint o
æĦ ı
çī ¹
Ġt ime
æĺ İ
Ġt ra
p h
é¡ ¹
æŃ ¤
è ĭ
r it
Ġwor k
re n
å ķ
t e
Ġh ad
Ġthe se
rou gh
æľ į
æį ®
ĠTh is
åĲ Ħ
æĪ ĸ
on s
al ly
éĻ ¢
Ġo ver
Ġin d
æł ĩ
é ¦
è Ī
è§ Ħ
ä» £
er v
Ġpe ople
on d
ç ²
ä¸Ģ ä¸ª
l ud
çĿ Ģ
1 8
o ve
Ġh ow
m s
Ġd iff
æĹ ł
ter n
l l
æ ¡
å¢ ŀ
çĦ ¶
au se
w e
ç ¥
å¸ ¸
Ġo ur
ä½ Ĩ
æ ·
Ġ ro
Ġcon s
ä¸ ĩ
t s
çł Ķ
Ġ ra
Ġc ol
Ġt r
Ġa ct
Ġbe t
if ic
èµ ·
Ġu se
Ġm ost
å¾ Ī
ir st
æ º
Ġs a
Ġk now
y s
å ŀ
åĪ Ľ
Ġ Y
o ok
al th
Ġd es
l ic
éĩ Į
å £
n ing
é£ İ
j ect
Ĥ £
Ġu nder
Ġl ike
æŀ ľ
ro w
i ous
it ies
ment s
le ct
Ġw ould
æŃ £
æĬĢ æľ¯
é Ĵ
è į
è ĥ
åķ Ĩ
Ġb l
çĶ ±
æĬ ¥
æĮ ģ
è ¢
) .
ä» ¶
å¼ º
Ġt w
Ġa cc
ç ¼
st em
å¤ Ħ
o b
Ġne w
åı¯ ä»¥
Ġne ed
Ġre l
ç» Ł
vel op
éĢ ł
Ġsu ch
i ent
è¿ Ĳ
l es
äº ¤
ation al
æł ¡
Ġ if
å· ²
Ġre p
ff ect
Ġan y
çº §
éĽ Ĩ
è· ¯
äº Ľ
Ġhe l
æ± Ĥ
he d
èĩ ³
Ġinc lud
è§ £
ç» Ħ
æĶ ¶
Ġch ild
æµ ·
åħ ·
ul ar
at ive
Ġg en
p le
éľ Ģ
ç» ĵ
Ġon ly
åį ķ
Ġhel p
Ġn o
Ġpro v
c ess
ç ģ
Ġp h
Ġp r
Ġwh at
ç« ĭ
ä» »
) ,
èĤ ²
è ¥
äº Į
c ed
æī ĭ
æİ ¥
å¯ ¼
o ol
è¾ ¾
æµ ģ
Ġf irst
y p
çº ¿
æĢ »
çľ ĭ
éĹ ¨
æľį åĬ¡
Ġman y
Ġth rough
ï¼Į åľ¨
o v
è¥ ¿
Ġus ed
at ing
n e
åŁ İ
é¢ ĺ
é ª
Ġpro du
Ġof f
è¢ «
ĠU n
ä¼ ł
u c
åŀ ĭ
ç¤ º
i et
çĲ ĥ
er m
Ġa m
æ° Ķ
os s
Ġe m
f ter
âĢ Ķ
Ġde velop
èģ Ķ
is e
in t
åĲ ĳ
1 2
åı Ĺ
Ġsp ec
çľ ģ
Ġre g
rou nd
Ġp o
é ©
æ »
å½ ±
at h
in k
ç Ī
å¹ ¿
Ġf e
æł ¼
å¸ Ī
ri b
Ġa c
ä¸ ľ
f ul
ur ing
åį Ĺ
çĹ ħ
ar k
åİ Ł
æ¸ ¸
he n
ic s
Ġex p
Ġtw o
æº Ĳ
è º
èĲ ¥
è £
ä¾ Ľ
ç®¡ çĲĨ
çİ ¯
is s
Ġsy stem
èī ²
è İ
å¤ ĩ
åĮ »
il ity
ç¤ ¾
et h
ol d
i ed
ot h
å ĸ
Ġo b
è¿Ľ è¡Į
åħ ±
åİ »
ä½ ł
è Į
çŁ ¥
Ġat t
åĽ ¢
äº§ åĵģ
Ġdiff ere
Ġde c
æĦ Ł
er t
1 5
æķ Ī
ow er
if e
ä¸ ¤
è Ħ
åį ģ
èº «
å± ±
ĠH e
ro p
ib le
Ġ -
Ġas s
åģ ļ
æĸ Ļ
æł ·
ĠâĢ ĵ
t en
ä» ·
ç± »
al s
ç ¦
Ġs ur
è¯ ģ
åĮ Ĺ
åı °
as ed
Ġsh ould
å Ļ
an ge
I n
a w
Ġsu pp
Ġad d
n g
ä¸ ĸ
æĬ ķ
ar ch
f ore
åı ĺ
èĢ ĥ
Ġw ell
se l
ra m
éĹ ®
æ² »
u res
æ £
ä¼ ĺ
we en
Ġyear s
æİ ¨
ï¼Į è¿Ļ
ra ct
é¢ Ĩ
åħ Ī
Ġre m
b le
ow n
g an
åĩ Ĩ
ad e
èµ Ľ
Ġin v
? Ċ
Ġc o
å ²
Ġw ater
åĽ½ å®¶
æ² ¡
Ġf l
ä¹ ¦
èĬ Ĥ
åĻ ¨
c y
: Ċ
å½ ¢
è® ¤
Ġc ould
æģ ¯
Ġhe alth
è® ©
Ġsu b
åı £
æĪ ·
æĸ ½
Ġbet ween
è° ĥ
åĬ ŀ
æĶ ¹
ï¼Į ä½Ĩ
il y
he s
l and
ut ion
Ġs m
w n
å¸ ĥ
å® Į
ä¹ Ī
ï¼Į å¹¶
æ¯ ı
å· ±
çĻ ½
è´ ¹
it s
Ġh igh
éĢ ī
Ġwhe re
æĥ ³
å° ĳ
æ ®
å Ķ
å¸Ĥ åľº
Ġp ers
Ġp res
ic k
éĻ ħ
u ch
Ġ her
çĽ ´
å¸ ¦
Ġe ar
éĺ Ł
åĪ «
Ġm ake
ç© ¶
åı ĸ
s s
Ġg et
Ġin ter
e ver
f orm
Ġb u
é »
id ent
è¾ ĥ
1 1
3 0
æ ¼
ant s
å® ¢
èĩª å·±
olog y
t ing
çķ Į
it ed
i vers
Ġtr ans
Ġre se
åı Ĥ
Ġm ed
æĶ ¯
Ġimp ort
ä» Ĭ
x t
ch ool
Ġp ol
Ġdis c
æĶ ¾
Ġfor m
ch n
ist s
ç© º
çĥ Ń
ç² ¾
åı ª
è® °
æĿ ¡
in es
éĻ Ĳ
æŀ Ħ
r on
ur al
âĢĻ t
åį İ
æĮ ĩ
è¯ ¥
i ence
Ġm od
ï¼Į ä¸į
Ġin st
æ³ ¨
Ġex am
æķ ´
Ġf ound
è¿ ĳ
åĽ Ľ
f t
mer ic
è§ Ĩ
Ġn um
in s
g y
Ġl ong
æ ¨
è§ Ĥ
éĺ ²
o y
Ġh um
ic t
is m
Ġle ar
é Ĥ£
Ġev en
ual ly
å± Ģ
é¡¹ çĽ®
Ġthe n
at a
Ġbec ause
æ¶ Ī
åħ ī
éĿ ŀ
âĢĿ Ċ
å»º è®¾
æ· ±
æŃ ¥
Ġa fter
èĢ ģ
Ġinf orm
åĮ ħ
Ġ very
e f
çłĶ ç©¶
Ġwor ld
Ġc ent
n ess
ç ħ
h at
äº ¿
Ġl ar
Ġw ay
Ġj ust
å¢ ĥ
Ġdiffere nt
1 6
Ġe ffect
ur n
at ure
ot her
è Ļ
Ġc ount
) Ċ
éª Į
Ġex per
æ Ĥ
ce pt
Ġ ed
è¯ ķ
ç« Ļ
ç¡ ®
Ġs im
åĽ ŀ
Ġinc re
ä¹ Ĳ
ç» Ļ
ak ing
è£ ħ
å¤ į
ç Ĭ
Ġd et
ç» Ń
v ent
å· ŀ
Ġs oc
ä½¿ çĶ¨
Ġse e
æķĻ èĤ²
æī į
å® ¹
1 7
æµ İ
çİ ĩ
åĬ Ł
Ġf ol
æĪ ĺ
ical ly
Ġt yp
ä½ İ
éĢ Ł
æĸ ¯
Ġc ar
éĢļ è¿ĩ
Ġre f
Ġc all
or k
Ġth ose
Ġp ub
iv es
çĶŁ äº§
æĹ¶ éĹ´
g et
æ ¢
å§ Ķ
Ġ ke
ĠA meric
c k
æ ¹
å® ĥ
Ġgen er
Ġex t
åı ·
om m
Ġres p
é Ł
p s
åĨ ³
Ġe very
è½ ¬
æ²¡ æľī
Ġsa id
t le
é£ Ł
Ġs ign
ï¼ Ł
u es
æī ĵ
åĬ ©
ar m
Ġse c
ï¼Į ä»¥
c er
Ġf act
i ew
c on
åĳ Ĭ
Ġbe ing
èģ Į
æıĲ ä¾Ľ
æĿ Ĳ
æĬ ¤
as es
5 0
ru ct
Ġpro g
æľ ª
Ġl oc
Ġar t
æĿ ĥ
é ¥
l ed
Ġv ar
æĺ ĵ
19 9
ï¼Į èĢĮ
åį ĩ
Ġm y
èİ ·
è ±
Ġl ife
å¿ «
Ġpart ic
Ġp at
Ġs et
Ġchild ren
Ġf am
ç§ ¯
Ġc a
Ġde f
. .
Ġres ult
Ġcomm un
ver n
Ġg ra
d s
Ġe ach
æ¨ ¡
Ġd ist
ir on
çľ Ł
T h
è¶ ħ
Ġpro cess
ĠA l
é¦ ĸ
å¼ ķ
æŁ ¥
çº ¦
çĸ Ĺ
ç§ °
ï¼Į ä¹Ł
Ġs he
ç¥ ŀ
Ġimport ant
at her
Ġm uch
ĠP ro
ä¸ĵ ä¸ļ
Ġo wn
od y
Ġinform ation
å·¥ ç¨ĭ
åĪ Ĵ
Ġd uring
Ġte chn
è´ £
ag es
w ard
Ġde p
æ¸ ħ
æİ §
ç´ ł
v ed
i o
Ġre qu
Ġc re
Ġ ent
ç»ı æµİ
é¢ Ħ
Ġm on
ä»ĸ ä»¬
æł ¹
ĠW e
å¤ ´
Ġle ad
åŃ¦ çĶŁ
Ġr ight
c ent
Ġfol low
è® ®
im es
iz ed
Ġa ut
ç± ³
20 2
åĨ ľ
1 4
éĹ® é¢ĺ
Ġre ad
éĩ ĩ
ĠThe y
åĢ ¼
ĠA s
ect ion
ic es
Ġs ame
è®¾ è®¡
è¡Į ä¸ļ
Ġle vel
_ _
æ¡ Ī
æĢ ģ
ĠA r
åĵ į
ä¸» è¦ģ
h ip
g g
Ġm ade
Ġg row
ç¤¾ ä¼ļ
an y
ĠR e
Ġpers on
ï¼Į æĺ¯
ä¿¡ æģ¯
Ġdo es
èĤ ¡
è¯ Ĩ
è¶ Ĭ
åŁ Ł
è¯ ·
Ġs k
æĺ ¾
äº Ķ
ç³» ç»Ł
Ġstud ents
Ġg ood
å¾ ·
å®ī åħ¨
Ġm in
è§ ģ
Ġen d
Ġin s
Ġb ack
è® º
ĠA n
åĳ ¨
Ġf ind
t ed
ç ı
ĠI f
åİ Ĩ
èī º
Ġstud y
å§ ĭ
iz e
æŀ ģ
Ġd ata
al e
Ġp op
èĮ ĥ
Ġc ur
Ġf ood
æĹ ħ
æ± Ł
ĠF or
Ġst r
å£ «
ar s
Ġa v
u nd
Ġpro ble
Ġs chool
éĶ Ģ
åĨ µ
Ġh ist
å ¡
Ġb oth
ä¹ ł
Ġbe fore
Ġc he
åħ »
èĬ ±
è¯ Ħ
ivers ity
åĨ į
in ce
æĪ ¿
v iron
in al
a x
âĢĿ ï¼Į
Ġsh ow
äº ¬
çī ĩ
é© ¬
éľĢ è¦ģ
Ġcomp le
æ Ĵ
ä¼ Ĺ
è ŀ
. ,
Ġag ain
åĽ Ń
æĸĩ åĮĸ
Ġg rou
çĪ ±
æĻ ¯
Ġex pl
Ġus ing
im ate
Ġsm all
t y
æ¸ ©
åĪ Ļ
æ´» åĬ¨
ĠN ew
ĠC on
or n
ire ct
o h
èĩ ´
Ġd i
åį ı
äº§ ä¸ļ
r al
d er
æİ Ĵ
t he
è¶ ³
æµ ĭ
Ġc ell
çĶŁ æ´»
å°± æĺ¯
ial ly
æĸ Ń
Ġm ain
re ad
1 3
Ġb o
in ed
Ġt reat
om en
n ce
ç» ´
i el
åĲĮ æĹ¶
Ġof ten
is hed
äºº åĳĺ
åģ ¥
Ġpro t
åĪ Ĺ
ĠH ow
éĻ į
éħ į
Ġg l
ä¾ ĭ
ä½ ķ
st and
r an
ä¸ĸ çķĮ
åŃ ĺ
Ġt est
ä¸ Ķ
al ity
æ£ Ģ
ut e
Ġst ate
iv id
Ġp ower
Ġwh ile
Ġh im
Ġs ol
i x
åĽ½ éĻħ
i en
Ġt ake
åİ ĭ
ro l
æĪĲ ä¸º
Ġp oss
Ġdis e
1 00
Ġn ow
Ġl ess
æĬ Ĭ
ur y
Ġd ay
æĸ¹ éĿ¢
éĻ ¤
æ ĳ
er gy
çĽ¸ åħ³
å° Ķ
éļ ¾
ç ĭ
Ġv is
Ġl it
åº Ĺ
ä¸Ń å¿ĥ
å¥ ³
åº ľ
Ġr is
ï¼ ģ
å¤§ åŃ¦
åħ ļ
ul ation
ĠI nd
Ġor gan
ç ª
çħ §
ak es
Ġprov id
Ġsupp ort
è ĳ
Ġhum an
å¿ ħ
Ġm em
Ġs erv
Ġch ar
åı į
c l
ï¼Į åħ¶
viron ment
Ġv al
äº ļ
e x
åİ ¿
) .Ċ
çĽ ĳ
å½± åĵį
i er
iv ing
a ir
éĩį è¦ģ
æ¼ Ķ
çī Į
Ġo cc
e red
Ġf un
Ġrese arch
éļ ı
æĻ º
éħ Ĵ
è ħ
Ġnum ber
åŃ Ĺ
d ition
ï¼Į ä¸Ģ
Ġd own
ç» ĩ
ĠS p
iet y
åı Ī
åĬ ¿
oc k
Ġa round
Ġb ody
us s
Ġth ree
Ġact iv
Ġbe l
v es
ter s
èį ¯
Ġs er
ï¼Į ä¸º
çİ¯ å¢ĥ
Ġcl ass
Ġl and
c om
u p
| |
ä» ½
æ® µ
Ġdes ign
Ġl ook
çŁ ³
Ġm ust
Ġha nd
æĬķ èµĦ
sel f
00 0
è¦ģ æ±Ĥ
èŀ į
it al
Ġd id
åĿ ĩ
Ġgo vern
ĠS c
Ġg reat
ĠB ut
å¹ ²
ï¼Į æľī
v en
i qu
ï¼Į æĪĳ
ç¦ »
æ» ¡
a h
é ¾
Ġpl an
çĬ ¶
åº ·
Ġ est
Ġcont in
Ġre du
her s
i um
æ ħ
å¼ ł
e g
éĢ Ĥ
âĢĿ çļĦ
åĩ ł
Ġst art
ç® Ĺ
è¯ Ŀ
Ġcomm on
å± ŀ
a ve
a j
ain s
åħ· æľī
æĿ ĳ
Ġe lect
v ing
e e
åį ³
è ı
Ġexam ple
re nt
å Ħ
å¢ŀ éķ¿
æ ļ
Ġc our
æ Ĥ£
ä» ħ
2 5
Ġlar ge
å¥ ĸ
æĺ Ł
Ġcon f
å·² ç»ı
d ay
å ĭ
åŃ¦ æł¡
çĻ ¾
act er
, âĢĿ
a red
g en
ç¬¬ ä¸Ģ
éŁ ³
Th is
ou se
g er
åĶ ®
åı¯ èĥ½
âĢ ĵ
w ay
it ions
ä¾ Ŀ
æĢ Ŀ
Ġc le
å® ¤
ro ss
Ġc are
æĶ¿ åºľ
ĠY ou
åĳ ½
è´ Ł
æ² ¹
Ġth ough
æĥħ åĨµ
åħ ĭ
r ing
- b
åĽ ¾
- s
ĠI s
ç½ ®
æķ° æį®
èĥ½ åĬĽ
çļĦ ä¸Ģ
ä¹ ī
ion al
åĨ Ľ
ä¾ ¿
åŁİ å¸Ĥ
Ġrep ort
Ġinclud ing
ç§ĳ æĬĢ
å¥ ¹
Ġc or
æī ¿
çĽ Ĭ
Ġbu ild
è¿ ŀ
çĽ® åīį
éĺ ³
å¦Ĥ æŀľ
Ġre t
Ġo p
åĽł ä¸º
éĽĨ åĽ¢
Ġs om
è® ¸
re en
ç ¢
æł ¸
èĭ ±
Ġcall ed
Ġall ow
é Ĥ
Ġcon st
ul l
ä½ľ ä¸º
çļĦ äºº
ãĢĤ åľ¨
æ¬ ¾
è®¾ å¤ĩ
Ġpub lic
Ġknow n
åįķ ä½į
Ġed uc
èĲ ½
ra in
as h
æĮ ī
ç» Ĩ
çİ ĭ
ĠA nd
åĦ ¿
ä¸ ¥
æĿ ¿
å¤ ª
æ± ½
Ġw rit
Ġst ill
in ation
åŁ ¹
Ġm et
åĽ ´
åĪĽ æĸ°
ï¼Į å¯¹
ç Į
ĠâĢ ĺ
ä» Ģ
ä¸ ¾
å ¨
es p
æľ Ľ
el s
ĠThe re
éĿ Ĵ
Ġth ink
Ġad v
çŃ ĳ
æľī éĻĲ
æŀ Ĺ
Ġbe h
i ver
è± ¡
æĭ ī
åŃ £
å± Ĥ
id s
ç»Ħ ç»ĩ
iv en
Ġd r
os ed
in c
ä½ ı
åĩ ı
ere st
ou th
ä¿ ®
om s
Ġsoc ial
Ġg u
Ġe qu
Ġunder stand
l ish
éĵ ģ
Ġf ew
Ġ ide
i red
oc i
ater ial
ect ed
æ Ĳ
t t
. "
it ive
è¯ Ń
åħ ħ
çŃ ĸ
æ² ³
Ġm ight
Ġqu est
éĻ ©
iv ed
Ġapp ro
i or
Ġm at
i od
Ġp ract
äº Ĵ
èµ °
ent ial
åĲĪ ä½ľ
b ers
å¤§ çļĦ
ivid ual
Ġe as
å¤Ħ çĲĨ
ĠW h
ĠE ng
4 0
iz ation
Ġ &
en se
Ġpl ace
å¥½ çļĦ
con om
d e
m e
Ġwith out
ä»Ģ ä¹Ī
our ces
er al
è´¨ éĩı
r ies
Ġd irect
Ġch ang
æł¹ æį®
Ġis s
åľ Ł
å ĥ
ĠThe se
Ġph ys
å¾ Ģ
åĸ Ħ
Ġt em
åĢ Ļ
å®ŀ çİ°
è¡¨ ç¤º
Ġen vironment
Ġch ange
ra ph
Ġst and
å»º çŃĳ
n er
ĠUn iversity
Ġca us
åı ²
åħ¨ åĽ½
åĪ ĩ
i ans
m an
ĠD e
Ġde m
æłĩ åĩĨ
Ġw ant
èĪ ª
l ess
å¿ µ
Ġwith in
r ist
ä¸Ń çļĦ
as on
er ing
ert ain
ä¸į åĲĮ
ç» Ī
çº ¢
ï¼Į æĪĳä»¬
äº¿ åħĥ
Ġl aw
å¤ ±
è´ ¢
æī ¹
ord ing
è¿Ļ ä¸ª
å¤ Ł
ou n
Ġ ident
l ine
æĻ ®
Ġprodu ct
æĭ ¬
Ġb re
Ġpres ent
or th
Ġdise ase
en g
çĸ «
r ation
Ġm us
âĢ ¦
å½ ķ
Ġd on
al k
åħ į
Ġen ergy
çļ ®
ä»¥ åıĬ
ff ic
eth od
ä»¥ ä¸Ĭ
Ġsy m
äºº æ°ĳ
ab ility
Ġind ividual
Ġan other
ent al
åºĶ çĶ¨
Ġlear n
2 4
çı Ń
å£ °
è´ Ń
éĥ¨ åĪĨ
èī ¯
å¯ Į
äº ī
Ġdevelop ment
Ġp ur
Ġc ap
ill ion
åı Į
- -
Ġm aterial
Ġre st
èµĦ æºĲ
in ess
Ġpl ay
è ¨
å¼Ģ å§ĭ
Ġb en
ĠAmeric an
t on
Ġimp ro
Ġs l
Ġs it
Ġdes c
et s
pt ion
è¨ Ģ
Ġp ot
Ġpro f
r is
å¾ ®
åĮħ æĭ¬
Ġbel ie
åĲ «
cc ess
åħ¶ ä»ĸ
åŃ¦ ä¹ł
Ġp os
I t
åĪ Ŀ
Ġh ome
ag n
i k
Ġ ve
Ġint erest
åį «
Ġw omen
a z
éĴ ¢
t o
are nt
Ġpro ject
Ġinclud e
æĸ¹ å¼ı
æĺ¯ ä¸Ģ
aj or
at s
Ġp ass
Ġe t
Ġp ain
çĶ »
åĥ ı
Ġris k
u g
æĭ Ľ
if ied
b s
åĿ ļ
åı ĭ
æıĲ é«ĺ
ĠA d
Ġb as
ro du
19 8
Ġb est
Ġl ight
Ġare a
å± ħ
olog ical
if y
iel d
åı ¤
å¯ Ĩ
ç¾İ åĽ½
Ġim m
å® ¡
Ġc ult
Ġan t
è¿ ľ
er c
ĠS h
ain ed
æľīéĻĲ åħ¬åı¸
Ġen g
çģ «
äºº çļĦ
l ished
è¯ ¾
é» Ħ
Ġa ir
å¾Ī å¤ļ
åİ Ĥ
ang u
Ġagain st
ĠP h
è¡ Ģ
Ġw ar
å¾ ĭ
ï¼Į ä»ĸ
Ġp ar
6 0
éĥ¨ éĹ¨
Ġear ly
e ad
çī Ī
g in
æ²» çĸĹ
ar c
åį ł
Ġfam ily
Ġo ld
Ġgovern ment
ãĢĤ è¿Ļ
æĹħ æ¸¸
w ays
æ ¥
åħ ´
Ġpro per
er n
åį Ĭ
is ion
at ural
Ġle g
ç§ĳ åŃ¦
ç» ľ
ra p
an k
æĿĲ æĸĻ
ent ly
Ġo pp
æķ ħ
Ġcont rol
' t
å¿ Ĺ
Ġl ow
ç¾ ¤
Ġm il
åį ļ
c ing
Ġbec ome
ç¦ ı
at ic
Ġe conom
Ġbet ter
ĠHow ever
ç® Ģ
iss ion
æ±½ è½¦
h or
Ġsa f
in ing
or ies
æīĢ ä»¥
Ġm ove
Ġse ver
ĠC an
åľ° åĮº
Ġpo int
id ence
Ġto o
Ġor der
. âĢĿĊ
Ġsec ond
Ġprog ram
é¾ Ļ
åŃ ©
Ġm ark
e ed
éĵ ¶
Ġe le
Ġhist ory
ï¼Į è¿ĺ
è¾ ĵ
Ġ Z
å·¥ ä¸ļ
Ġm ethod
ãĢĤ âĢĿ
Ġto p
Ġme ans
Ġke ep
Ġan al
éĿŀ å¸¸
2 2
Ġl ast
Ġan im
o id
å· ´
- f
çº ª
å¹³ åı°
ĠE x
Ġu nt
å¼Ģ åıĳ
Ġprov ide
Ġde v
Ġbl ood
Â ·
w are
Ġt re
Ġme as
u se
id er
æĭ ©
Ġhe re
é¢ Ŀ
å ł
Ġf ore
our ce
am p
in a
he re
Ġre al
ä¸ļ åĬ¡
ä½ Ļ
ill s
çĶ ³
ĠC ol
åŁº ç¡
om p
åŁºç¡ Ģ
Ġm ajor
ï¼Į ä»İ
ĠC l
åģ¥ åº·
è§Ħ å®ļ
æĹ ©
Ġor ig
åĮĹ äº¬
Ġm ar
Ġpartic ular
ent ion
Ġgrou p
æī §
äº ĳ
pl es
è§ Ĵ
Ġposs ible
è¿ĩ ç¨ĭ
åĪ° äºĨ
ĠâĢ Ķ
Ġt er
l u
è¾ ¹
Ġav ail
Ġo per
Ġc ause
ard s
Ġs ay
åĩº çİ°
åį °
ĠW hen
ot e
çļĦ æĺ¯
ĠUn ited
re t
p ect
Ġne ar
å® ³
Ġsc ient
Ġocc ur
Ġf in
ic le
2 1
og raph
Ġlear ning
Ġha pp
æĪ ı
Ġadd ition
Ġper cent
Ġcur rent
è§ ī
. S
ĠC omm
è½ »
Ġob ject
Ġab le
ĠR es
ç½ Ĺ
åº ķ
Ġper form
ç½ĳ ç»ľ
æ¹ ĸ
i ents
Ġsever al
Ġs ince
Ġfe el
é¢Ĩ åŁŁ
é¡ »
v iew
ĠS e
2 3
Ġpro m
% ï¼Į
- p
æĴ Ń
Ġh ig
èģ ļ
am es
Ġspec ies
Ġper iod
ĠCh rist
at or
æĤ£ èĢħ
Ġop en
åī ¯
Ġth ings
Ġben ef
Ġinv ol
ï¼ļ âĢľ
åº §
å®Į æĪĲ
ĠG od
Ġf re
æŁ ĵ
th ough
å¹´ çļĦ
Ġpl ant
. âĢĿ
è® ²
Ġ [
èİ· å¾Ĺ
u rop
æŃ ¢
éĢī æĭ©
å¤§ å®¶
éķ ĩ
ä» ĭ
è® Ń
æĭ ħ
Ġb us
W hat
ç» ¼
åĽ½ åĨħ
åĲ ¸
Ġe l
c le
Ġother s
ĠP l
è¡ ¥
æ ¿
Ġtreat ment
Ġm en
è¯ »
ä¸ĩ åħĥ
Ġs ays
s c
Ġa ffect
åĽł æŃ¤
åī Ĥ
og n
Ġl im
Ġme an
| Ċ
Ġn ame
Ġcell s
Ġcount ry
åĵģ çīĮ
ç» §
Ġare as
ç ĵ
Ġpro p
åŃ¦ éĻ¢
r id
ĠT o
Ġacc ess
Ġb ased
Ġn on
å® £
Ġst ruct
èĥ½ å¤Ł
ĠA t
Ġc al
end ed
Ġwe e
pl oy
ä½ľ çĶ¨
- d
Ġam ong
åī §
æ± ¡
Ġf our
åĨħ å®¹
åıĳ çĶŁ
èĩªå·± çļĦ
- c
2 8
os p
å¸ Į
Ġ Q
Ġcon d
Ġc ertain
Ġr un
åħ¨ çĲĥ
ç« ŀ
ç¨ ³
Ġfollow ing
æĭ ¥
el f
éĢ ģ
Ġt imes
Ġl angu
h y
s y
çĭ ¬
æ¬ ¢
Ġcon n
l ing
ï¼Ľ Ċ
Ġc ase
Ġsu ccess
Ġl ater
Ġavail able
o f
ab ly
å® Ŀ
åıĳ çİ°
Ġl o
åį ´
w ork
Ġf ac
oc us
ä¸Ģ äºĽ
Ġloc al
p ar
çľ ¼
o le
is ed
è®¡ åĪĴ
ĠE n
ä¸ ´
æĹ¶ åĢĻ
æ ĵ
Ġf ar
, "
W e
Ġsign ific
æ ½
çķ ¥
é ²
un e
å° ½
çł ´
ur ther
ot s
Ġre ce
çº ³
Ġh ard
Ġb ro
il ar
Ġpre vent
Ġp ost
ĠSt ates
åĨ Ļ
äºĨ è§£
eth ing
æĿ İ
st it
Ġb ir
çª ģ
Ġa ge
æ¿ Ģ
urop e
çİ° åľ¨
2 6
ç¼ ĸ
ç»ı èĲ¥
Ġcom e
ç» ¿
w w
Ġlit tle
èĪ ¬
å¯¹ äºİ
æ¶Ī è´¹
Ġv iew
Ġpol it
Ġmon th
æīĢ æľī
ç« ¯
Ġl ist
ĠO r
é¦ Ļ
ľ é£İ
çĶ± äºİ
end s
Ġhe ad
çĻ½ çĻ
! Ċ
2 7
Ġin tern
Ġ ess
on es
çĻ½çĻ ľé£İ
åĳ ³
Ġp ress
çķ Ļ
æľº æŀĦ
Ġl ab
ï¼Į âĢľ
å¼Ģ å±ķ
äº «
ç¨ İ
Ġd el
Ġc ost
Ġunt il
åı ¦
éľĢ æ±Ĥ
è®¤ ä¸º
ic ation
åħ Ń
19 7
Ġle t
Ġc reat
Ġf ree
Ġp ut
I f
æ¸ ¯
Ġproble m
çĶ¨ æĪ·
åĸ ľ
ĠC ent
ä¹ ¡
å¢ŀ åĬł
Ġtyp e
Ġlevel s
ress ion
æĺ ¥
èĭ ı
Ġproble ms
- m
æ¬ §
éħĴ åºĹ
Ġm ult
Ġf low
ï¼ļ Ċ
åŃ© åŃĲ
it her
Ġb i
æıĲ åįĩ
ĠN ational
res ent
g ed
Ġass oci
å Ĥ
Ġsh ort
ç¬¬ äºĮ
Ġam ount
ï¼Į å°±
ç»¼ åĲĪ
å® ĺ
ate ly
op e
gg est
Ġs w
åĬŁ èĥ½
o ver
ç» ©
oh n
Ġn atural
p or
éĿ ©
ä¸ª äºº
éĺ ¿
éļ ľ
äº ²
åį ĥ
ic ult
an ces
a per
Ġcomp ut
ä¸Ģ æŃ¥
ol ution
Ġt urn
æľī åħ³
Ġsom ething
æĽ ¾
æĸ¹ æ³ķ
ç¥ ¨
ort un
æ ¤
Ġg iven
ä¸į æĺ¯
n ot
å¸ ®
è´ §
æ ¦
8 0
è¾¾ åĪ°
Ġd ue
é¦ Ĩ
ort s
ç Ĩ
led ge
ĠE urope
Ġm aking
Ġind ust
ĠM ed
Ġch o
ĠA f
ak en
Ġimp act
Ġhe art
ä¸Ĭ æµ·
Ġse em
Ġdet erm
y m
Ġyou ng
ä¿ ĥ
o ks
æŀ Ĳ
è½ ½
ï¼Į è®©
é¢ ĳ
æŁ Ĳ
Ġsu ggest
Ġfun ction
Ġinv est
Ġf ocus
åį ¡
ä¸ °
æİ§ åĪ¶
å®¢ æĪ·
Ġe y
ut ure
çĶµ åŃĲ
Ġra d
Ġcour se
ĠT e
ĠB e
ä¸Ģ å®ļ
æĶ¯ æĮģ
Ġd ra
Ġd ays
Ġbeh av
æľª æĿ¥
as ter
å² ģ
ic ro
Ġf il
Ġb ook
Ġal ong
èīº æľ¯
ç²¾ ç¥ŀ
Ġeduc ation
Ġcom b
éĥ½ æĺ¯
ure d
S A
æĻº èĥ½
æĪĸ èĢħ
Ġcent ury
è´Ł è´£
at ory
ä»Ĭ å¹´
é£ ŀ
æį ¢
on t
æĤ ¨
a pp
n ed
ï¼ī ï¼Į
æ´ ²
Ġlike ly
id es
åıĳ å¸ĥ
Ġcle ar
å¾ ħ
Ġal ways
Ġs ing
åĬ ³
ĠO n
æ³ ¢
Ġv ol
çĹ ĩ
åĩ Ģ
v ious
æĭ¥ æľī
S t
or ld
A s
ç»ĵ æŀĦ
æľ ¨
Ġapp ear
ç§¯ æŀģ
ri ed
çŁ Ń
l er
Ġc ir
æ°´ å¹³
Ġde ath
ore d
et ic
æķĻ åŃ¦
ap s
Ġchar acter
2 9
æİ Ī
åĨ ł
åħ °
Ġpop ulation
ob al
Ġsignific ant
è¿Ļ äºĽ
Ġus ually
ï¼Į å°Ĩ
pt oms
Ġincre ase
æĶ¿ çŃĸ
Ġd am
ç§ »
Ġv ir
ä½ Ľ
Ġ $
em ber
he m
__ __
æĬ Ĺ
Ġcan cer
éĶĢ åĶ®
Ġcommun ity
ç ¿
ec ially
åº ı
Ġsystem s
âĢĿ ãĢĤ
Ġex ist
Ġre le
Ġ .
Ġ ill
end ing
åĮ» éĻ¢
b e
a im
an c
ĠA ll
Ġp ast
ĠB rit
ive ly
is c
è¶ħ è¿ĩ
åĲ ĥ
ra y
r ate
ä¸į æĸŃ
Ġab ove
p r
n al
m it
age ment
Ġsp ace
åĪ¶ éĢł
N A
ä¹ĭ ä¸Ģ
Ġneed s
Ġdiff icult
Ġdesc rib
Ġg ive
ap e
Ġl ine
Ġtem per
f ace
Ġspec ific
Ġaut hor
Ġcond itions
Ġwh y
ä¿Ŀ æĬ¤
ä»£ è¡¨
Ġm illion
Ġcre ate
é» ĳ
åĩ »
åĪ© çĶ¨
Ġest ab
äº¤ éĢļ
our s
as ing
y d
å®ŀ æĸ½
Ġob s
id d
Ġto day
Ġg re
è Ĵ
éħ ¸
The re
Ġen c
Ġwor ds
Ġresult s
Ġne xt
Ġas k
Ġapp lic
Ġspec ial
èĻ ½
åİĨ åı²
Ġtechn ology
Ġchang es
H ow
å· ®
ru g
å¾ ģ
Ġne ver
esp ecially
an e
Ġc rit
éĩĩ çĶ¨
Ġdisc uss
t ain
av es
å¼ Ĥ
å° ¼
Ġp arent
m ost
sel ves
il ities
Ġbe gin
ar ing
a f
èĩª çĦ¶
Ġrec ord
Ġne cess
ç´ ¢
Ġlangu age
Ġ er
åĲ ¬
Ġstr ong
ĠS o
ĠW hat
Ġexper ience
ä¼ ¤
le t
è´£ ä»»
at ors
æ¯Ķ è¾ĥ
æ¯ Ĵ
å± Ĭ
Ġt ry
o int
Ġcomple te
âĢĻ re
ĠG erm
åıĤ åĬł
Ġac ross
åŁº æľ¬
get her
Ġto gether
ĠE ar
Ġf uture
r im
- l
æĺ¾ ç¤º
æį Ł
Ġm ov
Ġ ur
Ġle ft
ç§ Ģ
Ġa way
7 0
æĶ¶ åħ¥
Ġte ac
Ġprof ess
Ġhig her
Ġvar ious
ç £
åĲĦ ç§į
i ation
åĪĨ æŀĲ
Ġcons um
æł· çļĦ
Ġle ast
rib ut
Ġwor ks
Ġn et
ä» ¤
at ch
ä»· æł¼
ä¹ °
iqu e
å½¢ æĪĲ
Ġk ind
Ġrese arc
Ġresp ons
äºĨ ä¸Ģ
Ġsim ilar
Ġcount ries
ru ction
ç ĩ
om es
å¿ħ é¡»
19 6
æĽ´ å¤ļ
Ġt ru
èĳ Ĺ
m in
Ġt erm
ĠAf ric
Ġha ving
ä» į
Ġen ough
é ¼
al f
Ġm ot
ĠW ar
æł ĳ
th ing
om an
od e
ç´ §
æĦ ¿
Ġs ide
ç½ĳ ç«Ļ
m ber
å½ ©
è§£ åĨ³
å¯ Ł
al es
å ª
æĿ¡ ä»¶
Ġhow ever
Ġbus iness
è¿Ľ åħ¥
æ¸¸ æĪı
ist ic
u ment
ac es
ĠJ ohn
äº§ çĶŁ
Ġc y
Ġc ases
Ġb rain
il t
Ġg r
ç« ł
å¸Į æľĽ
ï¼Į å¦Ĥ
ĠG o
f or
åĨ ·
Ġ '
Ġbec ame
å¥ ĩ
ä¼ł ç»Ł
éļı çĿĢ
æĮģ ç»Ń
Ġpr im
æī ¾
Ġche m
è½ ®
Ġimpro ve
o x
ä» ĺ
Ġ especially
ï¼Ł Ċ
u ed
è½ ¯
o ot
Ġwork ing
Ġrequ ire
Ġrel ations
çŁ¥ è¯Ĩ
åĲ ¦
Ġto ol
Ġn orm
un g
é¥ ®
du ct
Ġpl ants
one y
ï¼Į åı¯
Ġev idence
le y
A n
æ¥ ¼
èģĶ ç½ĳ
è¿Ľ ä¸ĢæŃ¥
Ġeffect s
i res
ä¹Ł æĺ¯
p ort
æŃ Į
åº Ń
- t
ãĢĤ âĢĿĊ
Ġcol le
ĠEng lish
åĽ º
é£Ł åĵģ
Ġw ays
æĹ ı
ä¸Ĭ çļĦ
Ġc ity
Ġf ull
è¿ °
Ġgener al
am m
Ġf und
å¥ Ĺ
9 0
Ġstud ies
åħ ¸
Ġphys ical
Ġst ep
ç» į
è´ µ
æ¯Ķ èµĽ
ere nce
åħ¶ ä¸Ń
i pp
Ġcons ider
æĪĳ åĽ½
Ġke y
ĠB l
åħ «
é ¸
Ġsym ptoms
Ġknow ledge
le ment
Ġgo ing
ĠL e
æķĻ å¸Ī
m m
s w
è Ń
Ġl ower
ä¸į èĥ½
èĮ ¶
çī¹ åĪ«
éĩį çĤ¹
æĬ¥ åĳĬ
u nt
Ġprot ect
Ġ z
çĸ« æĥħ
ys is
æ¯ į
c ul
åıĤ ä¸İ
æĸ° çļĦ
ç ¯
Ġm ind
read y
ĠIn tern
it ing
ĠU S
åħ³ ç³»
g es
çĶ ·
æ± ī
5 00
Ġem ploy
ch ie
äºº æīį
è®° èĢħ
Ġst ory
Ġne g
en cy
ĠS oc
å ³
Ġsub ject
è Ĩ
ach ing
äº Ī
Ġtyp es
it or
h ing
an n
Ġf urther
æ¶ ²
ĠM ar
a ut
Ġm akes
æŃ ¦
ac y
çĶ³ è¯·
ed i
Ġs ens
ĠS ome
Ġinf lu
è§Ħ åĪĴ
çĿ £
Ġg round
Ġgrow th
Ġe ff
er y
Ġl oss
åŃĺ åľ¨
Ġs elf
F or
ĠA ust
a e
éĩĳ èŀį
sy ch
åĲĮ æ¯Ķ
åģ ľ
ï¼ģ Ċ
çĶ¨ äºİ
Ġwhe ther
Ġst at
èĥ ľ
/ /
Ġb ig
è§Ħ æ¨¡
re l
åº Ĩ
ĠW ith
Ġro le
Ġrep resent
ĠO ne
ir d
Ġre ason
èŃ ¦
åģ ĩ
çĸ ¾
æĿ¥ çļĦ
æĪĲ åĬŁ
åĪ »
ä¹ĭ åĲİ
èĥ½ æºĲ
Ġen s
åª Ĵ
Ġd iet
åĽ °
è Ĺ
ä¸ĵ å®¶
y n
Ġpat ients
çĻ »
æī ĺ
Ġsu re
Ġr ather
å»º ç«ĭ
. com
Ġcl ose
a pt
çī Ľ
E R
Ġpro b
r ated
Ġsu n
Ġpartic ip
ĠW orld
è¯ ī
æ¯ ķ
Ġquest ion
Ġbe low
âĢĶ âĢĶ
è® ¯
Ġl ive
Ġte am
ific ation
éĢ Ĳ
Ġo pt
ĠB y
Ġcont ain
ĠC ar
Ġcl imate
æĻ ļ
çĽ® æłĩ
åĬł å¼º
s ide
Ġal ready
æ¶ ¦
ĠG en
ib ility
iv al
ç³» åĪĹ
Ġd ig
å¹ ħ
am in
ur ity
äºº ä»¬
r ight
éģ ĩ
Ġpol ic
es c
Ġh ouse
au gh
åħ³ äºİ
æİ ¢
ĠC al
Ġch all
Ġw r
Ġgrou ps
re am
çŁ¥ éģĵ
å ©
b y
Ġacc ount
ate g
Ġto ward
Ġactiv ities
: //
ĠG e
å® ģ
C h
Ġcon cer
Ġse en
Ġoff ic
éĹ »
åľ° æĸ¹
Ġe ither
Ġd one
å®ŀ éĻħ
Ġbuild ing
éĴ Ł
ä¹ĭ éĹ´
in ts
, Ċ
3 5
it es
at ures
è¿ İ
ï¼Į éĤ£
ĠTh at
and s
Ġres ources
Ġp red
ï¼Į å¤§
ou ra
ä»· åĢ¼
èĦ ĳ
ç¼ º
æĽ ²
ï¼Į æľĢ
åħ¨ éĿ¢
èģĮ ä¸ļ
Ġre ally
Ġpolit ical
Ġmem bers
Ġtra dition
l o
è° ¢
et imes
Ġon ce
Ġl ot
èĻ½ çĦ¶
çŃ ¾
ç»§ ç»Ń
åį ±
ĠN orth
ä»ĭ ç»į
Ġsing le
Ġsc ience
ï¼Į æīĢä»¥
å¥ ¥
Ġdevelop ed
ove red
Ġph ot
ä¼ļ è®®
ur ch
ĠHe alth
c hes
ĠD r
æĪĲ ç«ĭ
ä½ĵ ç³»
Ġde g
æĸ¹ æ¡Ī
æĮī çħ§
ro ll
çĽ ĸ
i ol
Ġart icle
ac c
Ġproduct s
¤ Ĳ
e b
Ġactiv ity
ç» Ŀ
ab les
ï¼Į åı¯ä»¥
Ġwor d
Ġm ass
Ġpot ential
åĿ Ĺ
Ġind ic
éĺ ¶
Ġr ange
Ġf all
èį £
le ep
æľī æķĪ
ot t
i am
ç»ĵ åĲĪ
Ġiss ues
Ġmod el
æ¡ ¥
ä¸ ĥ
ï¼Įåħ¶ ä¸Ń
ï¼Į ä½¿
Ġn ut
ä¹ Ŀ
Ġd om
å® Ī
ra ms
Ġmed ical
3 1
æĮ ¥
Ġdo ct
Ġt aken
éĻ Ħ
Ġev ent
v al
å¸® åĬ©
åĪĨ åĪ«
çĮ ®
ne y
Ġacc ording
ip s
ĠS he
Ġcol lect
çĽ´ æİ¥
åĨ Į
ear ch
é Ĩ
Ġprodu ction
Ġf ield
ĠA m
Ġredu ce
Ġa chie
ver age
Ġret urn
Ġf ive
Ġd rug
ãĢĤ ä½Ĩ
è¿ ½
19 1
Ġan n
Ġrel ig
Ġfre qu
." Ċ
çĶŁ æĢģ
our nal
Ġn ational
Ġwho le
Ġqu ality
éĢł æĪĲ
Ġme et
è¡Į ä¸º
is on
æŃ »
W hen
ĠA b
Ġs ent
é¢Ĩ å¯¼
ä» ª
å» ¶
et y
Ġval ue
Ġrec ogn
Ġ X
çłĶ åıĳ
Ġab s
u le
å° Ħ
ç¬¬ ä¸ī
Ġb at
å¯¼ èĩ´
A l
ide red
ä»¥ ä¸ĭ
Ġthem selves
Ġresearc hers
å§Ķ åĳĺ
Ġwe ight
Ġs ite
Ġre d
æ° §
Ġr ate
ĠM ay
é º
Ġp aper
Ġf ail
æĿ¥ è¯´
3 00
è®¡ ç®Ĺ
Ġc ame
ĠM an
ĠD ep
ip le
ĠY ork
ap an
Ġd est
ï¼Į åıª
s p
Ġsit u
Ġhist or
Ġdet ail
ĠT r
æ¤ į
è¿ĺ æĺ¯
è¿Ĳ åĬ¨
Ġs ource
å¤ «
os is
çĶ ļ
f act
Ġcon cept
it ud
æıĲ åĩº
I D
ç» ĥ
Ġwh ite
åĵ ª
Ġl iving
ä¼ ¼
or g
ï¼Į å®ĥ
è¡Į æĶ¿
å· ¦
Ġn ature
Ġin it
Ġte xt
Ġcir c
æ³¨ æĦı
Ġsk in
Ġsur face
Ġint rodu
ä½ľ åĵģ
b on
ï¼Įä½Ĩ æĺ¯
ä¸º äºĨ
æ¢ °
ĠA ss
ä¹ ħ
Ġadd ress
Ġup on
èĮĥ åĽ´
o ber
Ġh old
Ġp ay
éĢ ı
ï¼Į å½ĵ
åĲ ¯
çŁ ¿
19 4
çļĦ åıĳå±ķ
Ġw ide
Ġthough t
Ġcre ated
m p
Ġcan not
on st
ric t
et er
éĴ Ī
ï¼Į æ¯ı
pl ic
æľŁ éĹ´
re me
çİ° ä»£
Ġquest ions
Ġo il
è¿Ļ ä¸Ģ
ffic ient
re ct
Ġcons idered
éĻ Ī
åº Ł
åį Ī
p ut
g o
Ġbl ack
ç ĳ
åıĸ å¾Ĺ
ron t
ä¿Ŀ æĮģ
Ġcl aim
ub lic
åı ³
en n
ĠA ct
é ¤Ĳ
å¹´ æĿ¥
Ġit self
éĽ ¨
ä¸Ģ èĪ¬
Ġwee k
iv ity
æİ¨ åĬ¨
åħ± åĲĮ
æİ¨ è¿Ľ
re g
ĠS outh
Ġst ates
æ¨¡ å¼ı
h ib
Ġd og
ĠC omp
ä¿ĥ è¿Ľ
è® ¢
Ġfl u
Ġt ell
art ment
4 5
Ġpub lished
Ġmed ia
Ġs ound
æĹ¶ ä»£
ä»¥ æĿ¥
Ġgl obal
æĢ ¥
it ary
æĳ Ħ
é ½
Ġobs erv
ï¼Į æĽ´
Ġ =
Ġd oc
éĢ Ģ
è ĵ
Ġf at
å¨ ģ
Ġl ay
Ġ ver
iv il
æī ©
åĳ ¢
åĮ» çĸĹ
è¯ ¢
åİ ħ
f er
Ġrec omm
g ing
é¥ °
um p
ä½ ³
19 3
ill ed
Ġact ually
ç« ¥
ä¸ĭ éĻį
æİ ª
åº ĵ
èį ī
è®¸ å¤ļ
æ° ¸
Ġrelations hip
Ġincre ased
ï¼Į ä¸ŃåĽ½
èĭ ¥
as k
Ġsk ills
èĢ Ĳ
ĠR ep
ä»» ä½ķ
Ġw ind
Ġassoci ated
Ġneed ed
Ġmod ern
Ġanim als
Ġopp ortun
éĿ ł
åĬ ª
åºĶ è¯¥
ĠAmeric a
éĿ¢ ç§¯
æķĪ æŀľ
ag ed
çģ µ
Ġal most
en ed
Ġfam il
å· Ŀ
éĵ¶ è¡Į
æ´ Ĺ
Ġf ish
ĠSt ud
è¡ Ĺ
ly ing
ac ed
ï¼ī Ċ
Ġto t
Ġm icro
æĿ Ĥ
èµĦ éĩĳ
Ġad ult
è¾ Ĩ
Ġeconom ic
Ġcomple x
Ġp ort
ä¿Ŀ éļľ
Ġright s
æĵ į
Ġrequ ired
Ġc ut
Ġpress ure
çļĦ å¤§
æī§ è¡Į
å¸ Ń
ut ions
è· Ł
ĠG u
éĵ ¾
å· ¨
ä¸Ģ çĽ´
ä¸ ½
çļĦ æĹ¶åĢĻ
Ġpro te
æĭ į
åĤ ¨
åĽ¢ éĺŁ
he t
ï¼Į åĲĮæĹ¶
l ight
Ġent ire
Ġide a
Ġto ok
Ġsu per
è° Ī
Ġg reen
Ġ vers
è´ ¸
ĠH ist
åŁº éĩĳ
ä¼ĺ åĬ¿
å¦Ĥ ä½ķ
ĠEar th
ur s
ol l
y stem
Ġsp e
Ġhealth y
W h
Ġqu ick
çł ģ
se qu
ep end
ĠCan ad
èĦ ±
ĠJ apan
åĬ ±
å¡ ĳ
åŁ¹ åħ»
è® ¿
Ã ©
Ġs al
a i
Ġprovid es
Ġse x
åĨľ ä¸ļ
Ġh alf
Ġar ch
Ġav oid
m y
Ġs ize
Ġe ver
row n
ĠH is
c ient
Ġthe rap
Ġpart s
ï¼Į ä¸İ
é¡ º
éĶ Ļ
åĩı å°ĳ
ve re
) :
çĶµ å½±
Ġmark et
è¿ Ŀ
Ġpract ice
ä¸Ģ èµ·
Ġab ility
æĭ ¿
m b
Ġsim ple
èĥ Į
Ġmus ic
çİ ©
åĬª åĬĽ
ç©º éĹ´
çĶŁ çī©
Ġm or
æĶ¹ éĿ©
Ġh tt
os es
ï¼Į ä½ł
Ġcom es
us ion
T o
o on
Ġso ft
ç¨³ å®ļ
æ² Ļ
us h
Ġar g
å¾Ĺ åĪ°
g est
Ġst ress
ra d
å¤ ı
Ġstud ent
åı ¶
Ġso il
Ġrel ated
Ġex erc
Ġbe gan
Ġexper ien
Ġreg ion
Ġf ri
19 5
Ġcon dition
æĪĺ çķ¥
ut es
ed s
Ġmaterial s
æĪĲ æľ¬
ï¼Į åĽłä¸º
ĠBrit ish
è¡¨ çİ°
Ġunderstand ing
çĤ İ
o es
ç¬ ¦
Ġmonth s
Ġeffect ive
uc k
è®¾ æĸ½
Y ou
åĪ ļ
Ġmed ic
éĽ ¶
Ġc r
; Ċ
en ing
æ ¾
äºĭ ä¸ļ
ä¸į ä¼ļ
p ly
ĠAust ral
ï¼Į ä»ĸä»¬
I S
.. .
Ġm oney
Ġpr iv
ĠC o
ab it
Ġserv ices
Ġl ink
Ġre act
ç´ ¯
åº Ĭ
Ġthrough out
Ġs ense
éĶ ®
èģ ĺ
çĶļ èĩ³
åĬł å·¥
ac ks
Ġse par
Ġnecess ary
ç»ı è¿ĩ
u el
Ġeng ine
æľ ĭ
åİŁ åĽł
ç»ĵ æŀľ
ç² ī
åĨ ²
Ġpur p
æķ ĳ
æĶ »
E S
ï¼Į è¦ģ
å ĺ
ãĢĤ èĢĮ
ow s
ĠN e
ĠP r
ç§ Ł
æ³ Ľ
åĨ³ å®ļ
ag ing
Ġr ul
Ġparent s
èģĶ åĲĪ
Ġar r
æīĭ æľº
Ġsu ff
ä¸° å¯Į
èı ľ
% ãĢĤ
Ġchem ical
ç¬ Ķ
Ġreg ard
åĢ Ł
åĿļ æĮģ
çİ° åľº
Ġcomput er
æĿ ¾
åĳĺ å·¥
é Ń
æ³ķ å¾ĭ
Ġp ath
Ġstruct ure
Ġperson al
ç¾İ åħĥ
æĢ§ èĥ½
ĠSt ate
åŁ¹ è®Ń
z e
ol ic
ãĢĭ ï¼Į
em pt
Ġt aking
Ġe mer
æĪ ª
er ve
åį« çĶŁ
Ġan sw
ç»ı éªĮ
iz ing
en ces
æĢ İ
in ter
Ġy et
Ġs ix
Ġprodu ce
ç«ŀ äºī
Ġc at
çĸ¾ çĹħ
Ġhe at
er ous
Ġcol l
op h
ir m
åĪ ¤
3 6
æĢ§ çļĦ
Ġlong er
Ġpop ular
Ġinter act
éģ ¿
éľ ²
æķ £
åĪ¶ åº¦
å®ŀ éªĮ
Ġpr inc
è¿ĩç¨ĭ ä¸Ń
ore s
Ġfact ors
é¡ ¾
Ġst op
äº¤ æĺĵ
Ġappro ach
ä¹ İ
ad em
Ġsub st
Ġ ut
é¡ ¶
éŁ³ ä¹Ĳ
äº¤ æµģ
Ġg e
s on
ab et
Ġrec ent
Ġf ire
âĢĿ ãĢĤĊ
çĶ °
ä½į äºİ
ĠP e
Ġlit er
Ġj ob
åıĳå±ķ çļĦ
ch an
èĹ ı
è¯ Ĭ
ä¸Ģ ç§į
çĨ Ł
ĠA fter
äºĴ èģĶç½ĳ
çĽ ĺ
ens ive
è¿Ļ ç§į
è¯ ļ
åıĹ åĪ°
es tern
Ġf ig
es e
ord er
idd le
èĢĥ è¯ķ
å° ļ
ri pt
- w
Ġc op
å² Ĺ
ç¡ ¬
ect ions
cc ording
åĪ ¸
is ing
ä¸¤ ä¸ª
Ġpre vious
is ter
éģ Ĺ
ä¿Ŀ è¯ģ
Ġshow s
æ± ł
Ġh ours
en e
c hed
Ġt alk
ï¼Į å¦Ĥæŀľ
å¤ ®
å² Ľ
è ĸ
Ġre pl
Ġg as
Ġbu ilt
h old
Ġincre asing
Ġcon duct
Ġhe av
æĪĳä»¬ çļĦ
ï¼Į çĶ±
Ġf arm
Ġpat tern
Ġman agement
y l
Ġsaf e
Ġa ction
ron ic
Ġtra ining
Ġanal ysis
è Ľ
æĸ½ å·¥
ĠI I
ãĢĤ âĢľ
Ġl a
è´ «
ab or
ä¸Ģ æ¬¡
æĪĲ ç»©
ĠCon t
ï¼ĮèĢĮ ä¸Ķ
éĴ ±
ä¼ ĳ
Ġmat ter
um e
ĠIn stit
Ġsur v
Ġter ms
ä¸¥ éĩį
æ¶ ī
è· Ŀ
Ġorig inal
æľº æ¢°
Ġindividual s
éĺ¶ æ®µ
åıĬ æĹ¶
ren g
æ¸ Ĳ
ict ion
è¿Ĳ èĲ¥
Ġschool s
Ġs leep
æľĭ åıĭ
ib r
Ġbehav ior
Ġon line
æĹ¥ æľ¬
è ª
Ġtra vel
Ġb ar
Ġenvironment al
çĽ Ľ
l or
Ġc e
Ġass ess
Ġprovid ed
åįı ä¼ļ
ve y
ed eral
Ġcol or
åħ³ æ³¨
am b
on y
st er
Ġb ur
ul ations
èĢģ å¸Ī
æ» ĳ
æĿ¥ èĩª
åªĴ ä½ĵ
h ood
Ġac cept
land s
åıĺ åĮĸ
uc le
Ġtru e
èĪ ŀ
Ġserv ice
Ġet c
çļĦ é«ĺ
çĽ Ł
n ces
èĭ ¦
å¸ ģ
æŀ ¶
æĽ´ åĬł
å®¹ æĺĵ
m a
le x
" .
Ġcaus ed
ail y
ful ly
Ġear th
å®¶ åºŃ
åħ· ä½ĵ
rough t
p id
Ġcon c
éĽ ·
ä½ĵ èĤ²
3 3
in ary
l t
Ġtemper ature
ĠJ ew
æŃ£ åľ¨
Ġre v
Ġread ing
çĬ ¯
ä»ĸ çļĦ
äº ®
èĩª åĬ¨
Ġin j
åħĪ è¿Ľ
Ġcult ure
A R
-b ased
Ġwrit ing
è· µ
Ġindust ry
ä¼ĺ ç§Ģ
Ġth ing
ĠRes earch
Ġl ove
æ³¨ åĨĮ
æł¸ å¿ĥ
Ġmeas ure
ren ch
åł Ĥ
æ´ ¾
Ġe at
Ġb ring
Ġcont act
éĻ Ĩ
Ġth reat
Ġmean ing
Ġs am
Ġl if
Ġcomp any
çĶ ²
min ist
Ġbre ak
æŃ£ å¼ı
åĪ ĺ
Ġpos itive
Ġv iol
åħ¬ åħ±
åľ £
end er
çģ ¾
åĮº åŁŁ
y le
Ġt ar
èĤ ī
Ġpos ition
Ġsh own
ic les
å° ¤
er ation
. g
Ġde ep
å® ľ
Ġdesign ed
Ġde b
Ġcont ent
ĠN o
A T
Ġrem ain
as c
Ġs low
é£İ éĻ©
åħ¬ å¼Ģ
a ff
Ġdi agn
Ġl ed
ĠWh ile
ç½ ª
ĠS u
ç® ±
å½¢ å¼ı
ĠK ing
an ced
Ġsim ply
Ġprog rams
Ġtot al
Ġrel ative
ï¼Į æĹł
çĥ Ī
å½ Ĵ
åİ ļ
Ġl ives
Ġscient ists
g ar
çĸ ĳ
è§ ¦
çī¹ èī²
av ing
çľĭ åĪ°
Ġche ck
e al
çİ¯ ä¿Ŀ
ãĢģ âĢľ
Ġinclud es
at ives
çĪ ¶
Ġbelie ve
éĻ¤ äºĨ
å°ı æĹ¶
d om
æ¯ķ ä¸ļ
Ġint eg
Ġsom etimes
am ed
ĠP res
æİ¥ åıĹ
imate ly
Ġcaus es
åĲ ī
Ġsoc iety
æ£Ģ æŁ¥
Ġeas y
Ġsp read
ist ance
Ġreport ed
ĠS chool
åĽł ç´ł
æĸ Ĺ
Ġs at
åħħ åĪĨ
è§ Ī
an a
Ġexper im
çĩ ĥ
Ġbenef its
æĺ¯ åľ¨
æĮĩ å¯¼
n s
19 2
ĠM in
Ġnet work
Ġp sych
Ġnorm al
ï¼Į åħ¨
Ġmethod s
æĺ¯ ä¸Ģä¸ª
ä¸» é¢ĺ
um b
I N
du c
ï¼Įä»¥ åıĬ
åĬŀ åħ¬
Ġpol l
å® Ĺ
it ation
on se
Ġcomp an
æľ Ŀ
æ±¡ æŁĵ
Ġf ru
å¤ ľ
ric ult
i us
éĩ Ĭ
ac hes
Ġp age
æ´ ĭ
Ġiss ue
åķĨ ä¸ļ
ri or
Ġst reng
æ¢ ¦
rop ri
æİª æĸ½
Ġstand ard
u ge
n ew
Ġgre ater
å¸¦ æĿ¥
Ġp le
Ġvar iety
Ġim age
ä¸į ä»ħ
Ġ /
é² ľ
èµ· æĿ¥
Ġt ax
éĿ Ļ
ad es
Ġw ild
ĠP er
é ¹
ra nd
éķ¿ æľŁ
æĹ ¢
åĿ Ģ
åĬ³ åĬ¨
w h
èĻ ĳ
è¯ Ĺ
ĠS ec
Ġs ources
Ġf em
Ġreg ular
os ition
Ġm ach
éĻį ä½İ
çŃ Ķ
æ³ °
åħ¬ éĩĮ
ä»Ĭ å¤©
Ġhelp s
Ġorig in
åģļ å¥½
Ġsaf ety
Ġem b
æ£Ģ æµĭ
ar ily
Ġa verage
Ġp ict
èĲ½ å®ŀ
ist ics
Ġresp ect
ä¼ ´
åĲ ¨
ar ies
Ġsh are
è® ¨
æĺİ æĺ¾
Ġfe ed
è¿Ĳ è¾ĵ
Ġmove ment
è¿ĺ æľī
o or
ï¼Į åĽłæŃ¤
Ġs qu
Ġcle an
3 7
è¿ ª
åĪĨ éĴŁ
Ġv ide
å·¥ èīº
ï¼Į åį³
è¿Ĳ è¡Į
k now
Ġfor ms
å° ģ
l ies
Ġparticular ly
Ġev ents
n ers
im um
Ġus es
ĠP ar
è°ĥ æķ´
I C
O N
Ġext reme
çİ ī
ast ic
Ġsu m
å¹´ åº¦
c il
å®£ ä¼ł
çģ ¯
æħ ¢
ãĢ Ģ
r ast
B ut
Ġpre c
æŃ¤ å¤ĸ
Ġj o
ver se
E D
å¹¿ æ³Ľ
èĥ ŀ
Ġex c
Ġinvol ved
ï¼Į éĢļè¿ĩ
Ġdam age
rib ution
eng th
Ġvis it
Ġn ight
Ġl ate
Ġintern ational
ell ing
åħ³ éĶ®
Ġwrit ten
Ġl ack
ä¹ ĺ
Ġident ify
Ġdra w
æķħ äºĭ
æīį èĥ½
å³ °
Ġatt empt
er g
ï¼Į æ¯Ķ
op s
ie f
u fact
- in
èĤ ¤
19 0
itud e
ï¼Į è¯¥
Ġre view
Ġh arm
èµĦ æł¼
ĠJ u
æĸ° éĹ»
éĩı çļĦ
åĪĽ éĢł
å§Ķåĳĺ ä¼ļ
Ġl og
ers on
çĹ Ľ
ri e
Ġdo ing
èĪ ¹
Ġenc oura
Ġem ot
Ġk ids
Ġf ace
b o
Ġ ir
åºĶ å½ĵ
Ġbas ic
Ġa ff
è¯ į
ç¼ ©
ĠJ es
å¼Ģ æĶ¾
ãĢģ é«ĺ
Ġmain tain
o ly
Ġser ies
ĠSc ience
b an
Ġser ious
èµĦ äº§
Ġb r
èª ī
ut h
é½ Ĳ
æ¹ ¾
ĠW ill
ial s
Ġc amp
ĠP art
è§Ħ èĮĥ
3 4
èĨ ľ
å¹³ æĸ¹
èĥ ¶
å®Į åĸĦ
Ġv it
Ġout side
Ġelect ric
ĠH ar
ĠC ount
âĢ ¢
Ġfor ce
ĠE d
Ġse a
Ġm ental
Ġgrow ing
Ġvar i
Ġimp lement
Ġl at
è¶Ĭ æĿ¥
Ġde al
Ġatt ention
åĩº äºĨ
Ġfood s
èº« ä½ĵ
Ġd ou
ĠM e
æ»¡ è¶³
Ġb acter
Ġref er
erv ation
å¹ ķ
Ġc ust
ĠJ an
é«ĺ çļĦ
åİĭ åĬĽ
åıĳ æĮ¥
è¶ĬæĿ¥ è¶Ĭ
ĠCh ina
Ġens ure
æķ° åŃĹ
ĠA pp
Ġcomm it
æīĵ éĢł
Ġme chan
æħ §
æ· ·
ï¼Į åħ¬åı¸
Ġcontin ue
åŁº åľ°
ĠB o
n a
l s
m ing
ĠA c
å® ½
Ġfore st
Ġprob ably
3 8
ç¤ ¼
æľº åħ³
r ial
Ġh yd
Ġgener ally
u ary
å¿« éĢŁ
t ies
Ġtar get
Ġdevelop ing
å»º è®®
or ing
Ġcons ist
Ġfe et
Ġst e
Ġsp ir
æĢ Ģ
A N
Ġf a
ac hed
âĢ ĺ
id ed
vent ion
I T
æ¹ ¿
Ġwe bs
Ġpo or
æľº ä¼ļ
O n
Ġa p
Ġexp ress
ĠR uss
Ġess ential
ä¸» ä»»
abet es
Ġprodu ced
Ġget ting
ç¬¦ åĲĪ
is es
Ġm other
æ´ ģ
ĠF rench
Ġm ess
Ġdef in
Ġthe ory
Ġo x
ĠDep artment
çĶŁ åĳ½
ç»¿ èī²
ĠM ore
Ġsu st
éļ Ķ
Ġpre p
o very
æĵį ä½ľ
å® ¿
il le
Ġdem onst
è¶ £
ĠChrist ian
æĤ ī
é¼ ĵ
Ġsol ar
Ġide as
åĮĸ åŃ¦
è´ ¡
Ġc oun
ĠQ u
Ġe c
Ġcon cent
if t
çº ¸
Ġcar bon
æ¡ £
Ġrem ov
Ġd ang
è Ķ
Ġc ross
Ġbir th
è§Ĩ é¢ĳ
Ġlook ing
Ġt akes
Ġf ul
æĹł æ³ķ
g round
çļĦ éĩįè¦ģ
éĢļ çŁ¥
Ġt ree
åĵ Ī
7 5
Ġinst ead
Ġd aily
ĠCent er
os ing
æĥ ł
è°ĥ æŁ¥
c ies
is ions
Ġhum ans
Ġlead ers
Ġd iv
Ġcomp on
éĵ Ŀ
è ¸
ä¼ °
in ks
é ±
ç½ ļ
ĠInstit ute
Ġcomp et
ï¼ī ãĢģ
è´ ´
iss ions
åį ĸ
Ġscient ific
ĠD o
Ġse lect
ĠC or
æĿ Ł
æ± ĩ
ï¼Į æľ¬
çī© æµģ
éĢ Ķ
Ġto wn
3 2
Ġag o
ol es
ä¸¾ åĬŀ
ä¸ Ŀ
æ¦ Ĥ
èĳ £
çĽĳ çĿ£
åĲ Ĺ
he l
ĠF ran
as ons
çĲĨ å¿µ
é± ¼
Ġw ood
åľ Ĩ
use um
Ġb ab
éĤ ®
çĶµ è§Ĩ
å±ŀ äºİ
if orn
el t
ec ause
Ġmil itary
è¯¾ ç¨ĭ
æĦı è§ģ
åĸľ æ¬¢
ad s
Ġestab lished
ç Ĵ
Ġpat ient
se t
Ġsome one
ï¼Į éĥ½
æĭ Ł
Ġnum bers
ĠEurope an
Ġneg ative
çī Ļ
Ġind epend
Ġdoes n
Ġchall eng
ct ions
åĪ¶ ä½ľ
ä»» åĬ¡
Ġsp eed
os ure
æľĢ åĲİ
Ġvir us
ĠM any
è¯ º
ĠGerm an
h a
ä¸Ĭ å¸Ĥ
h aps
Ġw arm
ï¼Į å¥¹
å·¦ åı³
ç»Ħ æĪĲ
Ġprim ary
æĸ¹ åĲĳ
f ect
Ġinclud ed
Ġey e
Ġb al
Ġa ware
æľ «
gen cy
åĿ Ĳ
åĮĸ çļĦ
ight s
Ġth us
Ġcomp ared
A nd
Ġa ud
Ġc it
å¹ ¸
ï¼Į åĬł
åı ¥
ãĢĤ ä»ĸ
em s
u k
ĠI nt
éĽ Ħ
éª ¨
å¡ Ķ
Ġanim al
ograph y
4 00
4 8
ĠM arch
ĠJes us
Ġthere fore
Ġresp onse
Ġ- -
Ġw all
å ´
ç³ ĸ
æ£ ®
âĢĻ ve
ra ft
Ġpolic y
Ġsec urity
Ġman ufact
ç ĺ
Ġf ront
æĢĿ æĥ³
her n
å¾ Ħ
Ġqu ite
ĠM us
æķĻ æİĪ
Ġperform ance
Ġteac hers
Ġth ird
æķ´ ä¸ª
w here
pr il
Ġstart ed
ç¡® å®ļ
ĠIntern ational
ç§ ģ
æĮ ĳ
æ¶Īè´¹ èĢħ
åİ» å¹´
çº ·
ens ion
Ġdiffere nce
Ġatt ack
æĿ ¯
åĩº çļĦ
iforn ia
Ġhe ld
A C
in o
ĠC ons
ce ll
Ġinvest ig
or ks
Ġm agn
æĺ¯ åĲ¦
æı ¡
Ġco ver
e xt
Ġcor rect
æĬ¥ åĲį
åĳ Ī
ĠAr t
Ġtre es
i ot
Ġa st
Ġinst it
ä¹ĭ åīį
Ġeas ily
æ´ ¥
al u
èµĦ æĸĻ
æ¯ Ľ
il os
Ġdeterm ine
å¯ »
ï¼Į åĲĮæ¯Ķ
ĠE duc
Ġ |
ç© ¿
Ġre ve
an cy
å®Į åħ¨
Ġve get
- h
æĹ Ĺ
O R
è¿Ļ æł·
Ġimm edi
è½¯ ä»¶
O ne
ĠInd ia
ãĢĤ æĪĳ
Ġdoct or
s h
Ġtradition al
æĿ ¨
Ġt ur
ç ¦ģ
ĠE l
ro om
y ing
ĠO ct
ä¸Ń å¤®
g n
Ġf av
åĦ¿ ç«¥
15 0
Ġcompan ies
Ġcommun ities
æĻ® éĢļ
Ġdoc ument
ç®Ģ åįķ
ce ed
åĴ ¨
éĩį å¤§
Ġd ry
ĠCh ar
ç§ĳ çłĶ
çļĦ æĸ°
Ġtool s
Ġbo oks
æĶ¹ åıĺ
Ġth ous
Ġins ide
it er
æĸĩ ä»¶
ing ton
c oh
- g
ç»Ĩ èĥŀ
å®ŀ è·µ
æİ Į
ĠS m
èģĶ ç³»
r ig
Ġspe ak
éĽ ª
ell ow
Ġallow s
èĪª ç©º
rid ge
Ġn ucle
Ġinf ection
Ġca pt
al y
æĪĲ æŀľ
A S
Ġh abit
6 5
Ġc ivil
èĤ¡ ä»½
ç¡® ä¿Ŀ
æĹ §
ch ing
Ġfamil ies
Ġdr ink
Ġal though
ç§ ĭ
l ike
çī© è´¨
ww w
Ġw alk
ä¸Ģ æł·
Ġdirect ly
èī¯ å¥½çļĦ
Ġs ou
çī¹ çĤ¹
Ġpo ints
Ġapp ropri
ĠA ug
éĽ ħ
Ġdise ases
ĠP re
å± ĭ
åĴ¨ è¯¢
Ġse vere
Ġn ation
Ġst ri
ä½ĵ éªĮ
Ġref lect
Ġoff er
ç»Ł è®¡
æķ´ ä½ĵ
åĩ Ŀ
ä¸Ń åįİ
r s
ï¼Į åĮħæĭ¬
% ãĢĤĊ
Ġadd ed
åľ ³
r or
Ġest im
. org
éĩĳ å±ŀ
è¶ ĭ
ä¸ª æľĪ
Ġachie ve
âĢĻ ll
Ġact ive
è¿ĩ åİ»
æ¶ Ĥ
Ġdis pl
Ġseem s
æĻ¯ åĮº
åı ¬
y ond
ra el
l ied
ines e
ort hern
ĠY our
åıª æľī
Ġthink ing
Ġprote in
Ġ x
Ġg ard
ĠM ost
ien cy
Ġaddition al
Ġbeh ind
èı Į
ç¨ĭ åº¦
çĬ¶ æĢģ
Ġun ique
ĠD av
æĿ¥ çľĭ
Ġw ent
3 9
Ġwh ose
éĴĪ å¯¹
æ·± åľ³
Ġf ast
è· ¨
± ä¹Ĳ
è´ ·
p e
ĠJ une
Ġsupp ly
Ġs us
Ġr out
Ġh ot
çĦ¶ åĲİ
é¡ µ
èĻ ļ
å¹¿ å·ŀ
ä¸į åı¯
Ġb ad
ĠInd ian
ç¼ ĵ
le b
ĠCal ifornia
Ġag ree
Ġ i
æĬ ĵ
hen s
Ġmult iple
anc ial
ä¼ Ł
O S
H e
Ġs old
æĦı è¯Ĩ
Ġcent ral
æī ¬
Ġf oot
éĩįè¦ģ çļĦ
Ġquick ly
åĲ §
im s
ur ies
åħ µ
ce an
åĶ ±
Ġlead ing
Ġc red
Ġan cient
åĲĪ åĲĮ
ound s
Ġdec re
æŃ£ å¸¸
Ġt ri
Ġlar ger
æŃ¤ æ¬¡
å¦ Ī
Ġb it
ĠR ec
ĠH er
Ġpr int
Ġbegin ning
çĽ® çļĦ
om et
Ġl ost
um an
om ing
ï¼Į åıĪ
ç©º æ°Ķ
ther n
b or
Ġtoward s
Ġcrit ical
Ġc ard
ĠA g
çĳ ŀ
ç§ ĺ
Ġsoft ware
Ġbro ad
ter m
æ¶ ¨
åĢ į
Ġal tern
Ġexerc ise
æĿ Ģ
Ġcont ains
Ġas pect
ĠB ar
Ġprog ress
Ġext ra
ĠHist ory
æĭ ĵ
èĲ ¨
Ġm ount
Ġhigh ly
èĩª èº«
- S
is ms
Ġso on
çľŁ æŃ£
åĲİ çļĦ
ĠJu ly
çħ ¤
ä¸¾ è¡Į
âĢĿ ãĢģâĢľ
re w
5 5
Ġdec ision
j oy
d en
m on
ä¿Ŀ éĻ©
Ġt end
ä¸įåĲĮ çļĦ
at t
und red
Ġf ram
ol ar
Ġp rior
ĠA nt
å®ī æİĴ
o ke
Ġmin utes
r ance
Ġst ay
Ġs il
Ġac id
ç¨ĭ åºı
æī ¶
éĺ µ
Ġh or
Ġh ost
åĬĽ éĩı
se ct
it ect
Ġle aves
æ² ī
ĠS ch
ï¼Įä¹Ł æĺ¯
ĠN ot
ĠEng land
Ġrece ived
Ġon es
ï¼Į çĶ¨
se e
Ġansw er
ĠG l
ï¼Į è¯·
é¢Ħ è®¡
æĪĳ çļĦ
æ® Ĭ
E N
form ation
æľī çļĦ
Ġm om
é© ¾
Ġcl in
ĠG ree
Ġwork ers
ro te
he st
Ġlab or
Ġe th
éŁ ©
èµ ¢
om b
Ġj ud
è· ĳ
æ² Ł
Ġapplic ation
ed ia
èĦ Ĥ
å½ĵ åľ°
Ġh ar
iqu es
ĠSe pt
ĠAfric an
èĢĥ èĻĳ
æĺ¯ä¸Ģ ç§į
æĢİ ä¹Ī
ul ate
Ġinter p
ĠO ther
åķĨ åĵģ
S o
çļ® èĤ¤
æĺ ł
Ġpro ced
ĠCanad a
ç½ ²
Ġrelig ious
ra g
an ks
çļĦ äºĭ
æĦı ä¹ī
l in
å® «
Ġv acc
ĠA pril
v ant
a ul
åĩº åı£
olog ies
ĠC O
èĤ ¥
å°¤ åħ¶
Ġdis p
é¦Ļ æ¸¯
r ates
7 8
Ġprot ection
ĠAl though
Ġse ason
ä¼ ¦
Ġtrans port
ord ers
Ġele ments
å¿ĥ çĲĨ
Ġn ar
Ġlim ited
coh ol
a id
Ġhtt p
è¯Ħ ä»·
åĩĨ å¤ĩ
Ġwr ite
ĠR et
Ġval ues
ĠW est
éĺ ħ
Ġdescrib ed
ĠT w
c o
ä¸ĸ çºª
Ġsust ain
Ġse arch
l ier
Ġd ark
è ļ
çĥ Ł
-- --
ce mber
Ġf ile
Ġb ase
Ġcont ribut
ĠIs rael
ï¼Į çĽ®åīį
çĲĨ è®º
Ġn orth
Ġev alu
ä¾ µ
Ġuse ful
ĠI m
Ġin n
Ġcommun ication
è¿ ·
u ous
åĿ ı
æ² ¿
åĪĽ ä¸ļ
m ission
Ġg ot
Ġdec l
ĠCh inese
å¼ķ èµ·
çĪ Ĩ
å¥ ĭ
å½ »
å±± ä¸ľ
b ook
Ġt iss
us ed
æ¾ ³
Ġh y
Ġexp ect
éģ¿ åħį
Ġb rought
ro gen
Ġnew s
Ġcap ital
åĳ ¼
Ġs ection
ĠT ra
ĠK e
æķ° éĩı
Ġey es
æ½ ľ
- st
Ġcust om
èĢ Ĺ
åı «
le ction
Ġpriv ate
Ġadult s
è£ ģ
Ġor d
é² ģ
gy pt
Ġ ,
æĺİ ç¡®
Ġinflu ence
Ġhim self
Ġanal y
ï¼Įå¹¶ ä¸Ķ
åĪ© æ¶¦
ĠCh ild
Â °
ove mber
Ġwas te
ĠAr ch
Ġst ra
Ġel se
åĢ º
Ġwee ks
i ra
äºº ç±»
Ġl ines
ãĢĤ å½ĵ
Ġdev ices
Ġbe aut
æĬķ åħ¥
ä»İ äºĭ
Ġcol on
åĨ ¬
Ġqu ant
æļ ĸ
æģ ¶
Ġobject s
Ġl ength
æ·± åħ¥
E C
Ġproper ty
Ġk ing
èħ Ĳ
Ġex act
Ġestab lish
ç¯ ĩ
æı ´
c ome
åĬŀ æ³ķ
è¡ £
18 0
å¡ ŀ
Ġrem ains
ä¼ Ĭ
ä¸¥ æł¼
4 4
Ġlar gest
çļĦ éĹ®é¢ĺ
å¹³ åĿĩ
Ġre ach
Ġg ame
Ġhand s
èĦ ļ
ist ry
å¤ļ ä¸ª
Ġb orn
éĢŁ åº¦
çĵ ¦
Ġacc ur
ĠAfric a
æ¸© åº¦
Ġpurp ose
ĠP ress
Ġgo al
èĳ£ äºĭ
ä¹¦ è®°
pp er
Ġst ru
æĮĩ åĩº
æµ Ļ
Ġnear ly
¹ ģ
ri ption
in ct
ĠH ere
ç¤¾ åĮº
ĠF irst
èµĦ æľ¬
ĠM y
Ġcomm and
Ġbas is
è¿Ľè¡Į äºĨ
9 9
è¡Į åĬ¨
æļ ´
l am
åĪ¶ å®ļ
i ers
Ġsitu ation
Ġcar ry
Ġan g
ĠPro g
Ġvide o
c ks
Ġm ill
ĠO f
Ġen joy
Ġv ict
åįģ åĪĨ
ç¬ ĳ
åĪ º
æĻº æħ§
éķ ľ
äº ¦
ĠAss oci
iz ations
Ġcap ac
èĵ Ŀ
è¯ ¯
ç¢ ³
è ¦
åĵģ è´¨
â Ħ
Ġloc ated
ï¼Įä»İ èĢĮ
Ġf ight
éĩ İ
è ľ
ç ¹ģ
Ġe gg
Ġbec omes
å¢ŀ å¼º
Ġrequ ires
Ġlaw s
æľº åĪ¶
Ġb ul
æĹ¶ æľŁ
I V
Ġtest ing
Ġs outh
Ġh undred
ĠS erv
ï¼Į æĸ°
éģ į
ib er
Ġtest s
éĤ£ ä¹Ī
åĭ ĩ
A P
è´¡ çĮ®
æķĪ çİĩ
ä¾Ľ åºĶ
è´ ¯
ie ce
- y
å® ¾
l ation
Ġstr ateg
Ġe p
ĠR iver
åĮ» åŃ¦
il es
iel ds
ï¼ İ
çļ ĩ
r ition
Ġsum mer
é¾ Ħ
est s
Ġpl aces
Ġad minist
18 6
éĿ¢ å¯¹
ï¼Į ä¸Ń
Ġeff orts
Ġdev ice
èĽ ĭ
æĲ Ń
åħ¨ éĥ¨
æ½ ®
f ort
Ġdi abetes
' re
ĠM c
ĠI S
éĩĩ åıĸ
Ġmil es
ond on
I I
Ġcommun ic
Ġbl ock
Ġim ages
ä¸Ģ ä½ĵ
c les
ar ian
ĠS w
Ġh ous
çº ¯
ou d
Ġcent er
Ġp ack
çļĦ å·¥ä½ľ
å°± ä¸ļ
ĠPres ident
] Ċ
k ing
éĥ½ æľī
w ise
ent ially
å¹¿ ä¸ľ
Ġra re
Ġex cept
é© ¶
Ġf it
æ´ Ľ
A t
éĺ »
od ies
Ġag ricult
ï¼Į åĨį
è´¢ æĶ¿
è¦ Ĩ
Ġad op
åı¦ å¤ĸ
at ur
Ġspir it
Ġf ather
ï ½
å© ļ
in ate
Ġfe atures
ĠRe g
Ġte aching
æģ ¢
9 5
ä¼ĺ è´¨
Ġsur round
Ġs on
ĠM on
åĲĦ ç±»
Ġcour t
ĠU s
ĠD ay
éĹ Ń
Ġm ention
ĠGo vern
ä¸º ä¸»
all ed
Ġto ld
ç§» åĬ¨
è´¸ æĺĵ
æ°§ åĮĸ
å¤§ åŀĭ
èĭ± åĽ½
å®ī è£ħ
ä¸į è¿ĩ
est ic
Ġd ied
æĸĩ æĺİ
èĬĤ èĥ½
æľ¬ æ¬¡
å «
Ġtra de
åĨ °
å¾ ª
Ġexam ples
å¤ļ çļĦ
b it
Ġu lt
Ġevery thing
ĠAug ust
Ġimport ance
ĠJan uary
éľ ĩ
Ġtherap y
æĶ¹ åĸĦ
è¿Ļ éĩĮ
e qu
æĬ¥ éģĵ
åĢ Ĵ
çĥ ¯
åĲĪ çĲĨ
res h
Ġsh all
Ġe ating
ĠE gypt
i os
Ġw a
ul ated
ĠSoc ial
Ġd er
ĠW ash
Ġleg al
æ³ ¥
Ġnot hing
åĬ¨ åĬĽ
Ġim ag
Ġdem and
Ġcont roll
ĠOct ober
Ġset t
Ġco ast
ç» ķ
åįĬ å¹´
Ġdig ital
è° ·
ï¼Į ä¸»è¦ģ
Ġpre gn
Ġm ole
Ġcit iz
Ġmem ory
åįĩ çº§
ä½ł çļĦ
å± ı
Ġwebs ite
Ġf ederal
Ġde ad
éļ Ĳ
åº Ħ
ä¾ §
il s
Ġve h
Ġt it
Ġs n
4 6
ic a
am a
å¹³æĸ¹ ç±³
Ġm id
yp e
id ents
Ġfin ancial
æģ ©
ip ment
Ġsa w
Ġaut om
ä¿ Ħ
Ġbe yond
ãĢģ ãĢĬ
v est
b ol
Ġc ool
éĽĨ ä¸Ń
Ġc ou
Ġbenef it
æ¬§ æ´²
o e
The se
- to
Ġany thing
æĬĢ èĥ½
P ro
åĪ ĳ
% çļĦ
Ġtechn iques
Ġbacter ia
ĠDe cember
åĲĮ åŃ¦
ãĢĤ å¦Ĥæŀľ
Ġra pid
Ġg ives
Ġsit es
Ġm is
å¼ ±
6 00
ĠJ ournal
è¿ ħ
ä¼ Ļ
at ers
ĠWill iam
æ¢ ħ
åħ¬åı¸ çļĦ
ĠEduc ation
in ated
air s
å¢ Ļ
çĶŁ çļĦ
Ġcomplete ly
Ġappropri ate
Ġcreat ing
Ġask ed
äºº åı£
Ġrec ently
åľ Ī
Ġapplic ations
ç¾¤ ä¼Ĺ
å±ķ ç¤º
Ġrespons ible
ĠF eb
B y
Ġmon itor
Ġsol ution
h am
æµ ª
om y
k y
Ġresp ond
it is
i ar
Ġtyp ically
Ġsu gar
Ġprovid ing
Ġce leb
ï¼ī ãĢĤ
æģ¢ å¤į
æ ĩ
çĶµ è¯Ŀ
çļĦ æľĢ
æĳ ©
- A
Ġr ates
Ġold er
æµ ĵ
âĢ¦ âĢ¦
çļĦ æĥħåĨµ
Ġeff ort
i pl
f ord
åŃ Ķ
P A
ĠN ovember
Ġk ill
è¡¨ éĿ¢
åħ ¼
æ¬¢ è¿İ
. )
Ġfor mer
åĬĽ çļĦ
åŃ£ åº¦
åĨħ çļĦ
ãĢĤ åĲĮæĹ¶
çĹħ æ¯Ĵ
éģĵ è·¯
åĵ ¥
åį ·
ç£ ¨
augh t
è¿ŀ ç»Ń
Ġm ix
im al
Ġwe b
ĠV al
Ġt able
åľŁ åľ°
Ġcontin ued
E x
ä¸į å¾Ĺ
iz es
- term
Ġins p
Ġf inal
çĽ Ĳ
ĠL ear
o ff
u ments
ed om
an ish
Ġgra du
ï¼Į èĩª
é¡ ¿
Ġre asons
1 20
çĽ¸ å¯¹
æľº åľº
Ġad j
åĶ Ĳ
he ad
æĪĲ éķ¿
Ġrul es
Ġgu id
Ġconn ect
ĠC ity
ç»Ł ä¸Ģ
èĴ Ļ
æ¸¸ å®¢
Ġt en
èĤ ¯
ĠS an
en ge
Ġu nd
Ġfollow ed
æĬ ĺ
Ġv ill
Ġcol d
ĠG reat
ĠCh urch
og le
Ġexpl ain
or ation
å¦ ĩ
Ġtry ing
ãĢĤ åĽłæŃ¤
Ġpract ices
Ġh ope
Ġad apt
æľĪ ä»½
Ġeconom y
æĥ Ĭ
å¯ ¿
Ġprocess es
Ġexp ected
Ġcost s
çĽ¸ æ¯Ķ
Ġm ax
ĠTe chn
ĠIn c
ï¼Į æĢ»
Ġsuccess ful
ĠSept ember
ĠR oman
åİŁ åĪĻ
m ed
ãĢģ æĸ°
c ial
E M
ĠF rom
è¯ģ åĪ¸
in y
éĵģ è·¯
éĩį åºĨ
Ġmod els
Ġfor ces
ï¼Į é«ĺ
å²Ĺ ä½į
Ġbehav i
çİ »
Ġproject s
ĠP ark
å¹¶ ä¸į
ĠCount y
åĨľ æĿĳ
ud d
Ġus ers
Ġconst it
è´ ¥
ç»´ æĬ¤
ï¼Į æĬĬ
çĴ ĥ
se c
ĠDe velop
Ġgen etic
ãĢĤ æĪĳä»¬
Ġm iddle
æİ¨ å¹¿
åħļ åĳĺ
P S
Ġrece ive
Ġf ear
æĶ¿ æ²»
åħ¬ å¸ĥ
Ġd ate
è¾ ĳ
çī¹ æ®Ĭ
ĠAustral ia
ãĢģ ä¸Ń
Ġh yp
ĠR ed
ord s
Ġant i
it able
ï¼Į åĲĦ
ĠComm un
Ġorgan ization
Ġne igh
Ġf uel
åĩ ¡
Ġyour self
Ġun c
Ġconst ruction
Ġn amed
å¤ļ ç§į
Ġpo ly
Ġb reat
8 5
Ġp an
è´¹ çĶ¨
å¼ ĥ
ar a
Ġc rop
çĦ¶ èĢĮ
Ġaffect ed
Ġstreng th
ĠI r
Ġgo es
ĠO ur
m osp
Ġdrug s
ç¼ ĺ
) ï¼Į
Ġus er
od ay
Ġg ir
A L
Ġconst ant
Ġbe g
ĠL ondon
çĶµ æ±ł
Ġplan et
Ġfri ends
è´Ń ä¹°
è§ī å¾Ĺ
åĲ ´
ell ig
Ġs ch
è± ª
è®¤ çľŁ
od es
å¡ «
18 8
æĿ °
æ¼ «
åĿ ¡
åķĨ åĬ¡
ç¿ »
æ¢ ģ
åıį åºĶ
Ġte eth
Ġevery one
ĠSoc iety
æµĭ è¯ķ
al t
Ġdep end
Ġp en
Ġc am
åħ· å¤ĩ
e v
åħ¶ å®ŀ
Ġadv ant
Ġp et
çĽĳ ç®¡
æ ©
å¹² éĥ¨
Ġinterest ing
Ġd en
åĽ° éļ¾
æ±Ł èĭı
ä¼ į
æķ ¬
re es
i able
- C
Ġsc reen
Ġg ain
Ġe ight
Ġappro x
ĠH igh
èĤ º
al ing
) ;
Ġsmall er
ĠAmeric ans
u ro
Ġconf lic
çĻ Į
çĥ §
ä½į ç½®
rib ute
b ack
Ġcult ural
ĠWash ington
å·¥ä½ľ çļĦ
Ġwe ather
è¾ ħ
åŃ¦ ç§ĳ
åĲ¸ å¼ķ
l ife
Ġw rote
Ġallow ed
åģ ı
ibr ary
é£Ł çī©
æĪĲ åĳĺ
å¹¿ åĳĬ
og en
Ġr ule
Ġb illion
W ith
ĠTr ans
18 9
rie ved
çª Ĺ
ough t
é¦ĸ åħĪ
æľī ä¸Ģ
ç»ı çĲĨ
å±ħ æ°ĳ
ur g
Ġs ect
Ġp ow
Ġ ice
____ ____
Ġw inter
ĠV ir
Ġw oman
Ġse qu
Ġill ness
ĠP ol
èĭ Ĺ
æ¶Ī æģ¯
æ°ĳ æĹı
w ater
un ch
Ġem p
ç»ĵ æĿŁ
åĭ ¤
Ġcon sequ
Ġteac her
çļĦ å½±åĵį
è½¦ è¾Ĩ
æĪª èĩ³
åĪĨ ä¸º
i ples
Ġcurrent ly
ĠD NA
Ġw on
ĠE ven
ap ter
Ġsh ape
è¯ ¦
if ul
Ġph ilos
Ġc ode
ĠS ystem
Ġoccur s
æ³ ¡
å¸ Ŀ
Ġear lier
Ġdest ro
è¡ ¡
Ġcho ose
ĠD is
ĠA ccording
æ¯ «
Ġopportun ity
Ġcom ing
ĠL aw
ver t
Ġhistor ical
ï¼Į æĪĸ
å¹¿ å¤§
Ġpl aced
Ġm iss
ä¼ģä¸ļ çļĦ
ib ly
Ġstep s
Ġro ck
i ology
ru ary
Wh ile
Ġtra ck
ï¼Į è¢«
å¼ ¹
oc ol
Ġpe ace
ï¼Į å¤ļ
% ï¼Ľ
Ġdeg ree
çĦ ¦
æķ ı
çĲĨ è§£
æľĢ å¤§çļĦ
Ġloc ation
Ġbir ds
mit ted
çļĦ è¯Ŀ
al ed
Ġdisc overed
å¦Ĥ æŃ¤
u ff
P h
è®¡ç®Ĺ æľº
ä¸į å°ĳ
ens ity
Ġle ave
Ġh on
çŃ ¹
å¢ ¨
è¯´ æĺİ
ä¸» ä¹ī
ãĢģ å¤§
Ġst age
å·ŀ å¸Ĥ
Ġis n
Ġc orn
p ro
Ġover all
ï¼Į ç»ı
Ġal one
Ġal cohol
-y ear
Ġrecomm end
æĶ¯ ä»ĺ
åįı è®®
æĦŁ è§ī
8 00
Ġc ru
d ing
æµĻ æ±Ł
4 9
Ġac adem
ä¸į è¦ģ
Ġsc ale
Ġro ad
Ġr ise
ĠGen eral
æĹ¥ å¸¸
Ġw ond
Ġc ook
Ġb ott
éĢĲ æ¸Ĳ
äº§åĵģ çļĦ
Ġstand ards
ĠRe ad
å® ĩ
or ge
ĠC oun
Ġv ia
Ġcolle ction
a ur
Ġvir t
ç§° ä¸º
ä¸ĭ çļĦ
ï¼Į åħ·æľī
it ch
ire ction
Ġvis ual
ï¼Į çĶļèĩ³
åĶ ¯
Ġt ou
Ġocc up
Ġexp osure
Ġ Â
ic o
Ġass ign
ä¼ļ æľī
ien ces
4 7
Ġs em
Ġprofess ional
Ġf air
è¿Ļ æł·çļĦ
è®¤ è¯Ĩ
Ġatt ract
" ,
ï¼Į èĥ½
çİ» çĴĥ
Ġmajor ity
è½ ¨
âĦ ĥ
Ġcal cul
oc ks
m ar
Ġr ich
Ġfru it
Ġful ly
Ġequ ipment
Ġd at
Ġcommon ly
Ġk id
Ġdid n
è´Łè´£ äºº
Ġvis ion
Ġper fect
ĠE ast
èĢ ³
ãĢĤ ä»İ
m ore
åĺ ī
Ġra in
ï¼Įè¿Ļ äºĽ
èŀį åĲĪ
è¯ģ æĺİ
æĸ¹ ä¾¿
Ġent er
ä¾ĭ å¦Ĥ
osp ital
Ġp iece
å¹´ è½»
Ġmem ber
ĠD uring
ĠAl so
éĩį è§Ĩ
éĥ ĳ
èĥ ¡
è¶ĭ åĬ¿
ul a
Ġproper ties
éĢ Ĵ
åħĪ çĶŁ
Ġm ob
ĠC ong
èĲ¥ åħ»
ãĢĭ çļĦ
ph as
Ġform ed
å°Ĩ åľ¨
Ġst ories
Ġpred ict
æº ¶
Ġcho ice
Ġarch itect
Ġan x
Ġc ra
ter y
know n
e es
C C
D A
æİ¨ åĩº
æĦŁ æŁĵ
Ġg iving
Ġmeas ures
Ġapp lied
Ġr iver
ing u
ĠE m
äº ¡
ï¼Į å®ŀçİ°
é«ĺ éĢŁ
äºĭ ä»¶
ä¸ľ è¥¿
ĠGerm any
ï¼ĮéĤ£ ä¹Ī
ç¤º èĮĥ
Ġinst ru
éĵ ľ
ä¾Ŀ æ³ķ
ä¹Ł æľī
. e
Ġsex ual
ĠH ouse
ul s
ĠW ater
ä¸Ģ ä¸ĭ
Ġte ach
ĠA ng
åĽĽ å·Ŀ
ig en
Ġs we
è·Ŀ ç¦»
l amm
Ġcomm erc
ĠThe n
ä¹ Ļ
Ġro om
Ġbab y
åĿ Ľ
ger y
Ġpower ful
Ġb ank
for ce
Ġill ust
ĠIn st
ç« Ł
Ġwork ed
Ġredu ced
Ġg ave
t ained
è¯ ¸
çªģ çł´
æ¥ ļ
éĢĤ åĲĪ
æĮĳ æĪĺ
i ate
qu e
çĽ¸ ä¿¡
Ġpur ch
ent y
Ġnot e
æĲ º
å®¶ éķ¿
ä¸į åĪ°
ç¬¬ åĽĽ
A M
ĠS im
æĥ ¯
è° ĵ
Ġin sect
çĹĩ çĬ¶
Ġident ified
ï¼Į æĪĲä¸º
æĮ ¯
18 5
Ġcon vers
Ġper haps
ç¼ ´
Ġfact or
ĠM od
è´ Ŀ
re hens
ĠN ow
ï¼Į çĦ¶åĲİ
Ġto x
åħ¬ åĳĬ
æľº åĻ¨
å° Ĭ
çŃī æĸ¹éĿ¢
k en
I s
Ġbre ast
A d
Ġstru gg
Ġopportun ities
ç´¯ è®¡
res p
U n
E T
Ġf ert
éĤ Ģ
al d
Ġelect r
Ġvers ion
è§Ĥ ä¼Ĺ
å¤Ħ äºİ
re st
i ant
ĠDav id
ĠB ecause
åįļ å£«
c he
Ġc ateg
æ¯Ķ ä¾ĭ
Ġcont ext
ï½ ŀ
Ġstat us
Ġro b
Ġrem ember
çĽ¸ å½ĵ
ï¼Įå¯¹ äºİ
ot ed
èĳĹ åĲį
æļ Ĥ
Ġmom ent
Ġass ist
çĻ £
åıĮ æĸ¹
ast e
Ġrun ning
æĪĲ äºĨ
äº¿ ç¾İåħĥ
c ious
ĠP at
ĠA re
rel ated
Ġfem ale
Ġcapac ity
è®¤ è¯ģ
Ġch urch
è¯ķ éªĮ
oc r
ĠU se
å¿ ĺ
ãĢĭ ãĢģãĢĬ
a ign
Ġdiffere nces
æį ·
Ġact ions
æ±¡ æ°´
st e
en cies
Ġw id
ĠS ince
åı¦ ä¸Ģ
åĩ Ń
åħ¬ åĽŃ
Ġinst ance
Ġfig ure
Ġbl ue
éĿĴ å¹´
æ¦ ľ
am ent
ĠMed ic
f ess
C O
ĠRet rieved
åĲĦ åľ°
ä¸ ¹
æĭĽ çĶŁ
æģ Ĵ
åĬł åħ¥
S ome
Ġshow ed
äºº å£«
Ġcomp ar
ï¼Į ä¼ļ
ç ŀ
- e
Ġlim it
Ġbelie f
åķĨ æłĩ
Ġincre ases
çĤ ¼
Ġex ec
Ġcont ract
éĺ ´
om as
ru pt
èħ ¾
åľ° åĿĢ
Ġwor th
ĠS ee
æ³ ī
ç»Ļ äºĪ
Ġmov ing
Ġac qu
ĠF l
lo ad
è¯Ń è¨Ģ
åıĬ åħ¶
åĪ Ĭ
ãĢ ĳ
Ġrelative ly
Ġappear s
å¹ ¼
hem at
åŃ Ļ
ke y
c ular
Ġh uge
l im
Ġele ment
Ġat mosp
ãĢ Ĳ
ĠJapan ese
Ġexp and
re et
çīĽ çļ®
æľ Ĺ
ĠâĢ ¦
pect ive
Ġ :
çı ł
æł ı
ï¼Į ä¸Ķ
ç»ı åİĨ
ra b
ĠAssoci ation
èĲ¥ éĶĢ
è¿ĳ å¹´æĿ¥
c an
ĠPe ople
Ġst ar
Ġfam ous
é¢ ľ
æİ¥ è§¦
çļĦ å°ı
6 6
åħ¬ è·¯
u ild
8 8
ĠC our
Ġgard en
Ġe fficient
ĠG reen
åĩº çīĪ
m en
ĠFeb ruary
ç± į
èĩª çĶ±
Ġmach ine
çĶ¨ çļĦ
åıª æĺ¯
c raft
Ġch ance
éģ µ
Ġen h
Ġc ities
æľĢ é«ĺ
or age
æĬ ½
ä¸Ń å°ı
Ġchang ed
æĿ¥ æºĲ
æĽ ¿
ĠPh il
ĠF in
èĲ¥ ä¸ļ
å¤§ ä¼ļ
4 2
Ġdef ined
Ġas se
åĪĽ ä½ľ
tern al
U R
çĲĥ éĺŁ
Ġvit amin
Ä ģ
Ġtop ic
Ġdist ance
A D
Ġr at
Ġfor ward
çŁ¥ åĲį
æ· »
çļĦ ä¸»è¦ģ
æ¶ī åıĬ
å¤§ éĩı
æī¿ æĭħ
le ge
Ġoff ers
èµ ŀ
è¦Ĩ çĽĸ
åĮĸ å·¥
åĢ¼ å¾Ĺ
ri ef
re land
å°± ä¼ļ
Ġb ra
çīĽçļ® çĻ£
æİ¢ ç´¢
om a
olog ist
The y
Ġtechn ologies
Ġpres ence
Ġ ing
æ® ĭ
åľ° äº§
Ġsepar ate
ï¼Į æıĲé«ĺ
æİ ī
Ġm ig
Ġexist ing
Ġdetail s
è®° å½ķ
çĶ ĺ
Ġc ry
ĠJ ust
ï¼Į åħ±
è½ ´
ç®Ģ ç§°
B e
Ġevent ually
Ġdep ression
ĠV ol
ĠC he
ä¹ ±
ä¸Ģ å¹´
ä¸´ åºĬ
æİĴ åĲį
ab ilities
Ġj ournal
ĠT ur
çļĦ äº§åĵģ
ĠC ur
ï¼Į å°±æĺ¯
éº ¦
ic ip
ī ´
Ġpict ure
ĠPro t
é ī´
çĶµ åĬ¨
å·¥ åħ·
Ġb all
ï¼Į åºĶ
éĨ Ĵ
è¿ ¹
ãĢĤ çĽ®åīį
re c
éĢļ å¸¸
ĠC om
ĠR o
ä¼ļ è®¡
ãĢĤ å®ĥ
Ġsign s
ï¼Į çĶ±äºİ
Ġcitiz ens
Ġdispl ay
Ġm outh
Ġinst ruct
ĠUn ion
å®£ å¸ĥ
Ġm al
Ġev olution
ãĢĤ ï¼Ī
ir ing
åģ ¿
Ġnucle ar
Ġeduc ational
åŃ¦ æľ¯
ä¸ĩ äºº
4 1
Ġte le
Ġnut ri
Ġg od
Ġf resh
åįĹ çľģ
Ġst aff
èİ ±
Ġm ag
Ġsur vey
Ġb ound
é¼ĵ åĬ±
åĳĬ è¯ī
Ġpattern s
Ġinc or
Ġd irection
ç¯ ®
Ġm ut
Ġconst ruct
ï¼Įè¿Ļ æĺ¯
18 7
é¥ Ń
èį Ĳ
ä¸ī ä¸ª
Ġrep e
ĠBl ack
çĽ¸ åºĶ
Ġbelie ved
è° ģ
ĠJ ames
ç² Ĵ
âĢĿ ,
ch ar
as ion
ä»ĸä»¬ çļĦ
Ġqu al
ĠCoun cil
ĠProg ram
è¿ ģ
èµ ı
æĮ Ĥ
Ġfind ings
åĪ ·
ĠThe ir
å¾· åĽ½
ĠEn vironment
i ance
Ġpl ans
Ġun it
Ġtr uth
æĶ¹ éĢł
het ic
m ark
ee ch
ï¼Į åįł
Ġoff ice
ãĢĤ è¯¥
ĠP al
ain t
Ġtrans fer
çİ° è±¡
æ³ķ éĻ¢
p ris
h ors
ec es
èĢħ çļĦ
å¤į æĿĤ
0 5
Ġpart y
ent h
cl us
Ġstruct ures
éĩį æĸ°
u x
I P
Ġextreme ly
ĠIn ter
éĹ ²
æĹ ¨
æĪ ´
Ġm o
Ġreg ions
er a
Ġlearn ed
æ¯ı å¹´
çĽ´ æĴŃ
Ġequ al
ur ance
ed ing
ï¼ī ãĢĤĊ
Ġsp ect
æĪĲ éĥ½
å¤§ åĪ©
U S
A r
A ll
Ġv o
Ġex cess
è´¢ åĬ¡
æľī æľº
å¤ļ æķ°
Ġwe ak
Ġsuggest s
Ġpop ulations
Ġhapp en
ric k
er o
Ġwr ong
ro s
Ġem issions
ĠU N
ĠL ord
æĲ ľ
if ically
ĠM or
is ation
c ast
4 3
h ouse
Ġa im
å¼ Ł
Ġpass ed
Ġn ames
Ġse ven
Ġelectric ity
ç¥ ĸ
æ¤į çī©
ä¸ĭ æĿ¥
A fter
æ´ ª
æ²» çĲĨ
å® ĭ
rou p
Ġimmedi ately
Ġess ay
ç´ł è´¨
ward s
Ġthous ands
Ġdist ribution
ĠO b
åľ¨ çº¿
åĨħ éĥ¨
u it
Ġp p
ĠW estern
ĠF rance
æī İ
æĢ ķ
èĩª ä¸»
åĪĨ äº«
ãĢĭ ï¼Ī
Ġ â
é¢Ħ éĺ²
y gen
Ġg old
éº »
- M
Ġur ban
ĠS ur
ĠIntern et
Ġm el
ĠA ut
èº« ä»½
åĽ½ åĬ¡
Ġinc ome
åħļ å§Ķ
ä¼ ¯
Ġex hib
ĠM ex
ĠA ir
æĹ¥ èµ·
ãĢģ ä¸ŃåĽ½
ĠR el
Ġm ission
çļĦ æĹ¶éĹ´
èį¯ çī©
èĬĤ çĽ®
æī© å¤§
Ġdis orders
ĠU K
ĠPl an
C E
Ġfav or
Ġapp ly
Ġw atch
Ġopt ions
Ġfore ign
ç±» åŀĭ
Ġmil k
éĢļ ä¿¡
ãĢĤ åħ¶ä¸Ń
l ant
Ġhig hest
Ġfun ctions
è¯ģ ä¹¦
é¢Ĩ åħĪ
Ġcompon ents
æĺ Į
i j
Ġlo ad
Ġbo ard
ï¼Į äºİ
éĻĲ åĪ¶
çļĦ æĬĢæľ¯
Ġsym bol
and er
é¦ĸ æ¬¡
ä¹ĭéĹ´ çļĦ
Ġ +
è®¾ ç«ĭ
Ġgu ide
Ġdec ades
Ġref erence
çº ¤
ĠJew ish
å¹´ ä»£
æİĮ æı¡
ĠP ublic
ĠI reland
æī¹ åĩĨ
Ġconn ected
op hy
Ġheav y
H E
Ġinn ov
Ġha ir
æĽ ¼
Ġimm une
Ġabs or
rom e
Ġd yn
è± Ĩ
å¯ Ĵ
* *
Ġt ask
Ġop in
Ġmedic ine
Ġdet ect
Ġchalleng es
æĸ° åŀĭ
ä¸ĭ åįĪ
Ġch ronic
ĠA v
çĮ ª
r ations
n es
Ġreport s
Ġn ative
Ġant ib
u ing
é«ĺ åº¦
åŃ ķ
pp ed
åĬ¨ çī©
åĩº æĿ¥
å½¢ è±¡
Ġmus cle
Ġdis order
Ġleg is
Ġexpl ore
éļ Ĩ
n am
Ġstrateg ies
Ġorgan izations
Ġfre edom
Ġchall enge
Ġtre ated
im ent
Ġs ac
Ġp ick
Ġact ual
çļĦ æĸ¹å¼ı
æĶ¯ åĩº
Ġis land
Ġem phas
ĠS am
éĥ½ ä¼ļ
io x
Ġpr ice
Ġhe aring
ro g
Ġapprox imately
Ġsp ring
Ġd im
ĠE ach
0 1
Ġm ap
Ġinit i
Ġd ivid
Ġb odies
æľĢ ç»Ī
äºº å·¥
Ġcon v
Ġcoll abor
ĠM useum
con t
åı¬ å¼Ģ
ãĢĤ åħ¬åı¸
èĪ Ĵ
åįı è°ĥ
Ġbec oming
æĸĩ ç«ł
å¾ Ĳ
å¤ª éĺ³
é¢ Ĺ
çĻ¾ åĪĨ
çĶµ åĬĽ
ä¹ł æĥ¯
te e
por ary
Ġtiss ue
Ġsh ip
Ġgener ation
è´· æ¬¾
è´ ¦
e an
Ġcommerc ial
ag er
èİ «
éģ Ń
åĸ ·
Ġpres ident
Ġclin ical
ĠM ich
Ġclass room
é©¾ é©¶
æİ¨ èįĲ
r ant
ograph ic
ĠCol lege
ï¼Į å°ı
Ġrecord s
Ġclear ly
ç¥ Ŀ
Ġp hen
Ġobserv ed
Ġindust rial
Ġdestro y
æ¶ µ
Ġpart ners
éĶ ĭ
ä¹ Į
Ġfa ith
Ġdou b
Ġass um
Ġv es
ĠN et
è¿ħ éĢŁ
è¯Ħ ä¼°
åĽ½åĬ¡ éĻ¢
å§ ĵ
ã ģ
z a
plic ations
- B
Ġcar ried
å² ¸
Ġser ve
ĠTh us
ch ange
a res
Ġintrodu ced
Ġfe ature
Ġe ffic
ĠB ra
ï¼Į ä¸Ĭ
Ġt our
èģĮ å·¥
è®Ń ç»ĥ
oy al
7 6
Ġut il
Ġno vel
ri a
Ġtr ust
Ġnot es
Ġb ran
æĦ Ī
åĵª äºĽ
Ġcont rast
Ġbal ance
ĠD es
éĺŁ ä¼į
æŃ£ ç¡®
Ġpresent ed
ĠRe v
çĭ¬ ç«ĭ
åĮħ è£ħ
Ġst yle
Ġst ream
å¿ Ĩ
ä¼ł æĴŃ
ãĢĤ æį®
o o
Ġturn ed
ï¼Į åį´
é«ĺ æł¡
è¾ Ľ
æĮĩ æłĩ
ress ive
å¾ ½
ä»į çĦ¶
ï¼Į æ²¡æľī
èĦ ī
åĲĦ é¡¹
Ġst ore
ĠU nder
ï¼ī çļĦ
Ġh omes
æĭĽ æłĩ
åĩł ä¹İ
ĠCon f
un ction
ĠSp ec
a us
- le
èĬ ¯
Ġeas ier
Ġcomb ination
b ed
ap ers
Ġh om
Ġdog s
Ġb one
ĠDevelop ment
ress ed
Ġlet ter
Ġbuild ings
ç´ «
å® ı
p ed
Ġv ary
Ġm er
Ġrele ase
Ġconsum ption
çļĦ åŁºç¡Ģ
ing ly
Ġst im
Ġl ived
ĠS y
é£İ æł¼
Ġrele ased
ĠD on
ï¼ ħ
å² ©
ä¸» åĬ¨
éĺ² æİ§
çĬ¶ åĨµ
el ines
Ġag g
å°ĳ å¹´
ä¸į è¶³
18 4
Ġsl ight
Ġbo x
è¿ Ķ
åıĳ çĶµ
o ch
ess ion
Ġtemper atures
Ġre ality
Ġexperien ces
Ġel im
æ· ¡
å§ Ĩ
ä¼ĺ åĮĸ
éħį åĲĪ
ur t
Ġme at
ä» ģ
Ġconn ection
i as
ł éģĵ
ĠO ff
åĩ ¯
Ġmov ed
Ġcop y
é» ĺ
ä¸» ç®¡
Ġnot ed
åĲ¯ åĬ¨
å§ĭ ç»Ī
Ġre b
ĠH uman
æĬķ æłĩ
æĤ ²
R O
ĠS un
è¿Ľ æŃ¥
æ´ ŀ
ï¼Įä¸į ä»ħ
èĢĥ çĶŁ
ï¼Į ãĢĬ
ç½Ĺ æĸ¯
ï¼Į åĪ°
åŀ ĥ
åħĪ åĲİ
b re
. C
Ġfri end
Ġplan ning
Ġhe ar
Ġaspect s
åŀĥ åľ
åŀĥåľ ¾
w orks
Ġestim ated
ä¹ ı
Ġm ale
Ġgr ant
Ġget s
Ġdes p
Ġaltern ative
ĠN A
Ġdang erous
Ġres istance
Ġnum erous
Ġc ore
ï¼Įè¿ĺ æľī
æĸ ĳ
æĬ ¢
å¨ ±ä¹Ĳ
ag o
Ġrequire ments
éĩĮ çļĦ
æıĲä¾Ľ äºĨ
Ġst orage
Ġcaus ing
æĻ ¶
åıĳ è¡¨
ä¸Ģ å®¶
Ġsignificant ly
çĲĥ åĳĺ
åģļ åĪ°
Ġset ting
éĿ¢ çļĦ
éĢĤ åºĶ
te red
ap ed
Ġwide ly
ol id
Ġany one
æł¡ åĽŃ
æ¯ı ä¸ª
åĬŀ çĲĨ
ä¹ ³
ub e
Ġint ellig
æ» ¤
åĬł å¿«
ä¹Ł ä¸į
Ġliter ature
è¯ ĳ
ï¼ĮåĲĮæ¯Ķ å¢ŀéķ¿
åĨł åĨĽ
at in
Ġp i
ï¼Į çİ°
æĭĽ èģĺ
åĲĮ æľŁ
ç» ĺ
ot es
Ġro ot
çľŁ å®ŀ
/ or
Ġt rib
ig ure
i i
Ġdec isions
èĢĮ è¨Ģ
Ġbeaut iful
Ġ ign
èŀį èµĦ
æľī æīĢ
åĪĨ åŃĲ
r ans
D P
Ġdr ive
ç¡ ķ
å½ĵ æĹ¶
Ġsa ve
å¥ ¶
å° ĺ
t ical
Ġk illed
Ġcamp aign
ã ĥ
w ide
ic ial
Ġgo als
äººæ°ĳ å¸ģ
Ġit ems
ĠIs lam
ãĢĤ æľī
op er
æı ı
Ã ¡
Ġann ual
ï¼Į å°¤åħ¶
çī¹åĪ« æĺ¯
ç»ı å¸¸
ç¬¬ åįģ
æľĢ å¤§
Ġt um
è¿Ļ æĺ¯
æ° ¨
ä¸Ĭ åįĩ
âĢĿ .
èļ Ģ
è¿ĳ æĹ¥
r ative
Ġfrequ ently
æ¯ı å¤©
ond s
id ing
ber g
Ġcy cle
çĻ» è®°
å¥³ æĢ§
il it
S p
Ġth r
Ġparticip ants
ä»¤ äºº
èī¯ å¥½
è¿ŀ æİ¥
æ° ı
å£ ®
Ġchang ing
ĠP aul
éĿ¢ ä¸´
æĿ Ń
åĮ» èį¯
ol low
Ġfl ood
Ġconduct ed
ĠGovern ment
Ġ esc
Ġcomp rehens
Ġoper ations
ĠIs land
ä¿ Ĺ
ä»¬ çļĦ
op y
Ġviol ence
Ġdat ab
ĠL et
Ġserv ed
Ġstart ing
Ġbat tle
çģ Ń
t a
Ġhelp ed
Ġc and
åĬŀåħ¬ å®¤
äºº ä½ĵ
oc al
Ġsur gery
ĠM at
Ġgr ass
Ġanx iety
Ġres ource
Ġd rop
ĠP ort
è¿Ľ åı£
id a
S T
Ġox ygen
Ġaut hors
è¾ ī
å®ŀéªĮ å®¤
å¡ĳ æĸĻ
cept ion
Ġfeel ing
ĠAs ia
èµ µ
æľ ±
åıĳ è¡Į
olog ists
Ġyou th
Ġf ix
ĠGree k
çı į
Ġl ic
è®¾ ç½®
æĬ µ
âĢĿ âĢľ
on ic
5 6
Ġves sel
Ġident ity
ï¼Į æł¹æį®
ĠO ver
éĤ£ äºĽ
ä½ĵ çİ°
Ġo cean
Ġgra ph
ĠF ound
. )Ċ
Ġf ine
Ġf ields
åĿ ¦
åĮ» çĶŁ
ul f
Ġb ed
èĩ³ ä»Ĭ
æĽ´å¤ļ çļĦ
c are
çĶµ èĦĳ
Ġmeet ing
Ġg ames
å¼º åº¦
ol ved
æĹ ¦
æĢ§ åĴĮ
z z
èĦ ¸
Ġu pper
Ġrem ove
ï¼ĮæĪĳ åĽ½
ãĢĤ æŃ¤å¤ĸ
ous ly
Ġrecomm ended
Ġl iqu
Ġcom pl
èĥ ĥ
e ared
ang ing
Ġw aters
Ġun f
Ġc overed
ãĢģ æ°´
ed ic
5 8
æ³ķ è§Ħ
åĭ Ĵ
0 8
Ġwh om
èĤ¡ ä¸ľ
ä¸» æĮģ
ul um
7 7
æľī çĿĢ
æ® ĸ
ä¹Ł ä¼ļ
ãĢģ å¸Ĥ
Ġread y
ĠGe orge
ĠD ec
éĺħ è¯»
ĠM ars
çķ ħ
or ial
as ks
Ġorgan ic
Ġlay er
åħħ æ»¡
Ġsu mm
çªģ åĩº
æ³ķ åĽ½
Ġrad io
ere nces
ĠM ark
æ²Ł éĢļ
åľ° ä½į
å¼º çļĦ
Ġphys ic
åħ¬ çĽĬ
at form
ç» ª
p ing
Ġw in
Ġregard ing
Ġ iron
ent ed
Ġrelationship s
çŃī çŃī
çº ½
S h
Ġup d
Ġbel ong
å°½ ç®¡
ruct ure
ï¼Į å·²
äºĭ å®ŀ
Ġter rit
äº« åıĹ
Ġl ib
ear s
è¿½ æ±Ĥ
äº ©
A ccording
Ġtechn ique
Ġhouse hold
ĠIt s
é© »
ä½ľ èĢħ
r um
Ġflow ers
ĠM et
ĠD irect
å¸Ĥåľº çļĦ
Ġsol id
Ġn or
Ġhe ard
ĠWe b
çĭ¬ çī¹
ä¸Ģå®ļ çļĦ
ro ad
lic k
Ġun ivers
èį ·
å± ¥
ot ing
Ġstate ment
Ġintern al
ĠOr gan
ĠH en
è¶³ çĲĥ
ãĢĤä½Ĩ æĺ¯
Ġple ase
Ġbott om
ï¼Įä¸į æĸŃ
åŃ¦ ä¼ļ
Ġexact ly
Ġdiscuss ion
èĥ İ
æ¨ ª
å¼ķ å¯¼
H ere
éħį å¥Ĺ
èĪ į
æĿ Ĩ
åĴĮ åĽ½
å£ ģ
9 8
Ġmess age
åĲĪ æł¼
Ġinf ections
Ġindepend ent
Ġdeg rees
ä»¥ åĲİ
ogn itive
- up
è½¬ åŀĭ
os ystem
Ġro t
Ġn it
ĠCong ress
å®ŀ åĬĽ
T S
Ġcred it
å¿ħ è¦ģ
å¤© æ´¥
äºº åľ¨
at ically
Ġresult ing
Ġgen e
Ġacadem ic
ra ction
B C
Ġt rou
Ġris ks
ĠE v
å¾ª çİ¯
stit ution
Ġexper t
æĻ ĵ
å· §
Ġfil m
æľĢ ä½³
Ġprop osed
Ġmin or
å»º æĪĲ
Ġtr ig
Ġn orthern
Ġfind ing
ĠM ary
çİ° å®ŀ
ä¸ĩ åĲ¨
How ever
Ġexperien ced
Ġ çļĦ
ï¼Įè¿Ļ æł·
ï¼Į åĽł
åħ± äº«
è¿Ĳ çĶ¨
æĭħ ä»»
æĭ Ķ
am s
ä¿Ħ ç½Ĺæĸ¯
Ġg ender
Ġcal c
é© ±
om ic
16 0
. D
Ġgra nd
Ġa id
ĠW ork
ra w
d o
Ġt im
Ġmet al
éĽ ķ
é¸ ¡
Ġnut rition
ot hes
è¡¨ è¾¾
C l
Ġr ound
Ġpl astic
ä¹ĭ å¤ĸ
g al
Ġpolic ies
Ġdeterm ined
æµ ®
Ġis ol
Ġar m
ĠF ood
erv ed
c ers
6 4
Ġsc en
Ġhapp ens
æī £
Ġsp eech
Ġex cell
ĠRep ublic
Ġprevious ly
ï¼Į åĲİ
ï¼Į ä¸¤
Ġout put
çĬ¯ ç½ª
æĴ ĳ
Ġme ant
ort ion
Ġperform ed
Ġd ram
ĠM al
R E
Ġwant ed
åįĹ äº¬
ä¸ ģ
iver se
Ġdist inct
ï¼Į åĪĻ
èĭ± è¯Ń
å¸ĥ å±Ģ
åİ ¦
äºĨ ä¸Ģä¸ª
iven ess
Ġem ail
éĶ Ī
ãĢĤ æīĢä»¥
Ġrep rodu
Ġlead s
ĠChild ren
è° ±
çĪ¶ æ¯į
å¾Ģ å¾Ģ
L E
Ġcre ation
è£ħ é¥°
it z
Ġm ist
ä¼ļ ä¸Ĭ
Ġsol utions
Ġlink ed
Ġh it
ĠS er
ĠM ount
Ġrelig ion
Ġegg s
u pp
Ġstr ate
Ġsp ent
äºĭ æķħ
Ġstrate gy
Ġexp ression
Ġbro ther
éĻ ¶
ä¼ ¸
ish ing
O T
Ġrem ained
Ġrefer red
Ġinj ury
Ġfin ally
Ġfail ure
Ġcharacter istics
ĠIr ish
åħĥ ç´ł
ä¸ĵ åĪ©
e k
Ġtrans l
Ġtrans form
ĠF ore
ri age
çļĦ ä¸Ģä¸ª
åĲĮ æł·
å¤© çĦ¶
Ġmention ed
ĠThere fore
åŁº äºİ
Ġsam ple
a ult
Ġim pl
Ġh our
ç¾ Ĭ
æĽ¾ ç»ı
Ġc ris
éĻ¢ æł¡
ag s
Ġst em
Ġmost ly
ĠWh y
ç½ĳ ä¸Ĭ
åħį è´¹
å¾ Ĵ
å¤ļ å¹´
Ġto oth
Ġredu cing
Ġencoura ge
Ġdep ending
.. ..
Ġsy nt
Ġproper ly
Ġb urn
- re
Ġp ip
Ġown ers
iet ies
Ġpre fer
Ġeffect ively
æĺ Ĩ
r us
Ġprinc iples
éĩĩ è´Ń
ç¥ŀ ç»ı
ä¸ļ ç»©
Ġclass es
ĠC ath
Ġcoun ter
w ell
Ġs ong
Ġd ri
Ġd ie
ï¼Į èĻ½çĦ¶
èĸ Ħ
å¼º è°ĥ
ill ing
Ġchemical s
ĠL a
æīĢ åľ¨
åĪ Ģ
Ġo ption
Ġamount s
ri an
2 50
ĠWh ite
B N
Ġbu y
ç¢ į
æĹ ĭ
Ġcirc um
ï¼ĮèĢĮ æĺ¯
ï¼Į å½¢æĪĲ
r ating
Ġexperim ent
Ġconf irm
çļĦ åĲĮæĹ¶
r as
Ġv ul
Ġp ages
åħį çĸ«
âĢľ ä¸Ģ
çĽ Ī
ä¸°å¯Į çļĦ
åĸ Ŀ
ä» ĵ
at ric
ac ific
Ġinterest ed
Ġset tle
Ġrad iation
Ġp al
Ġland sc
èĤ¡ ç¥¨
å¤ º
Ġreact ion
Ġpre t
18 3
Ġrele vant
Ġj our
T hat
Ġdescrib e
ä¿Ŀ æ¸©
ãĢĤ ä¸Ģ
augh ter
- D
Ġdec ided
Ġchar ge
ĠW ell
ĠL ou
bo ard
Ġpi eces
ĠVir gin
ĠTh omas
èĤ¯ å®ļ
è· Į
ç² ĺ
a el
Ġprocess ing
Ġinvol ve
æįŁ å¤±
ä¸» ä½ĵ
Ġtr ial
åĽ´ ç»ķ
è£ Ĥ
æµ· å¤ĸ
el ine
N ew
Ġg ar
äººæ°ĳ æĶ¿åºľ
Ġprofess ion
Ġdis s
ï¼Į éļıçĿĢ
åĪ© çĽĬ
ä½İ äºİ
ortun ately
çģ °
Ġprep ared
é¥® é£Ł
6 8
ĠAr my
ä¸Ĭ åįĪ
Ġoffic ial
ï¼Į ç§¯æŀģ
Ġremov ed
Ġinvol ves
Ġh op
Ġconflic t
æĬĢæľ¯ çļĦ
le ase
èĩ´ åĬĽ
è¿Ŀ æ³ķ
åį± éĻ©
å° ¾
Ġinterp ret
èĤ¡ä»½ æľīéĻĲåħ¬åı¸
å®Į æķ´
W hy
ĠO nce
å°ı ç»Ħ
am ental
N ow
Ġke pt
- th
Ġdisc rim
ï¼Į å¸ĮæľĽ
åıĺ å¾Ĺ
ĠM ass
ĠAc adem
éĢĲ æŃ¥
çŁ³ æ²¹
row s
R es
-l ike
Ġinit ial
ĠR ober
um n
Ġpres c
Ġob vious
ĠR ich
ç¦» åŃĲ
Ġback ground
è¡Įä¸ļ çļĦ
Ġgir ls
ĠT est
çĿ ¡
æĻ ¨
åıį æĺł
pl ace
er ate
Ġvol unt
Ġmanufact ure
åİĤ å®¶
å¹´ é¾Ħ
å®ŀ è¡Į
is her
Ġsay ing
Ġemot ional
Ġcor resp
ĠS en
ä¾Ŀ æį®
r m
ac ing
Ġrepl ace
çľģ çº§
k in
igen ous
Ġpre par
ĠM iss
è· ³
F rom
Ġexp osed
Ġcolle ge
æ³ ½
Ġb an
çĶ³ æĬ¥
æĹ¥ èĩ³
Ġy ellow
Ġart icles
ĠS T
ĠPh ys
é«ĺ çº§
çļĦ åľ°æĸ¹
- n
Ġwe alth
Ġra ce
Ġinstit utions
ĠD em
åįļ çī©
å±ķ è§Ī
è ¹
åı¯èĥ½ ä¼ļ
ãĢĤ å¦Ĥ
v is
ot ic
Ġtre nd
Ġsqu are
Ġco ord
å® ħ
O ur
Ġexper ts
åĳĪ çİ°
ro id
ew ork
åŁ ĥ
å¹¸ ç¦ı
Ġn av
Ġdef ic
èĩª æĪĳ
ä¸Ĭ è¿°
Ġre ached
ĠPro ject
èµĽ åŃ£
æĥ³ è¦ģ
è· ĥ
çĤ ī
Ġdrink ing
Ġcons ervation
ĠG ra
èµ ģ
ut ed
cl usion
M any
Ġsou thern
Ġin h
ĠO ld
Ġ #
Ġmat hemat
ç§Ł èµģ
Ġman ner
Ġincor por
Ġgen es
ĠL ife
ãĢģ ä¸į
stand ing
ren ce
Ġs ort
Ġinf lamm
Ġs and
ç² ®
åħ¬ ä¼Ĺ
ur ation
åĩĨ ç¡®
å¼º åĮĸ
Ġtox ic
Ġl ung
Ġadvant age
æ£ ĭ
å®¤ åĨħ
ä¼ ı
Ġsp ot
Ġp ric
Ġcl os
ĠB as
ä¸ Ļ
ric ulum
Ġadv anced
ĠBrit ain
è§Ĥ å¯Ł
b al
Ġw est
Ġtra d
çľŁ çļĦ
æľ¬ èº«
Ġassess ment
ĠComm ission
ĠB udd
æī¾ åĪ°
Ġprom ote
Ġp un
Ġmor ning
Ġ Ã
éĶ ģ
æĸĩ åŃ¦
åĨį æ¬¡
b l
ĠB er
çĲĨ æĥ³
æľº çļĦ
ãĢĤ ä¸º
Ġp ul
Ġmot or
âĢĿ ä¸º
ak ers
ĠW ind
æĦŁ åıĹ
æ¶Ī éĺ²
åŃ¦çĶŁ çļĦ
å¿ĥ çļĦ
ĠCour t
ï¼Į ç¡®ä¿Ŀ
é¢Ħ ç®Ĺ
æĦı åĳ³
å·¥ èµĦ
il ing
Ġhelp ing
çļĦä¸Ģ ç§į
ãĢĤ å¯¹
ribut ed
ĠIn f
i xt
Ġman age
Ġfarm ers
æļ Ĺ
le g
esp ite
å¯ º
Ġpl atform
Ġpers ons
Ġcons ult
éĵ º
æľ¬ ç§ĳ
äº ķ
G o
Ġf ib
ĠM art
w ood
Ġsus p
å¾® ä¿¡
Ġt ro
Ġmain ly
Ġk n
ĠT ex
å½ķ åıĸ
Ġint ended
Ġhigh light
Ġdisc over
æĸ¹éĿ¢ çļĦ
éĻ ķ
é¡º åĪ©
çŃī å¥ĸ
çİ¯ èĬĤ
çī¹ å¾ģ
å° ĸ
ro ke
Ġmax imum
è®¤ å®ļ
ç¨ ¿
Ġth ick
Ġm it
æķ ¢
å¸¸ è§ģ
ĠSp anish
- related
Ġhtt ps
M S
Ġun s
Ġsupport ed
Ġlead er
ĠMedic ine
ï¼Įè¿Ļ ä¸ª
èĤ Į
Ġinst all
Ġfor ced
Ġe ast
Ġb right
ĠQ ue
é ŀ
è®¨ è®º
æ± ¤
Ġsc he
Ġallow ing
ĠEn ergy
ens es
ĠJew s
æĹ¥ åīį
ify ing
Ġvol ume
